{
  "version": "1.0",
  "truncation": {
    "direction": "Right",
    "max_length": 12,
    "strategy": "LongestFirst",
    "stride": 0
  },
  "padding": {
    "strategy": {
      "Fixed": 12
    },
    "direction": "Right",
    "pad_to_multiple_of": null,
    "pad_id": 0,
    "pad_type_id": 0,
    "pad_token": "[PAD]"
  },
  "added_tokens": [
    {
      "id": 0,
      "content": "[PAD]",
      "single_word": false,
      "lstrip": false,
      "rstrip": false,
      "normalized": false,
      "special": true
    },
    {
      "id": 1,
      "content": "[UNK]",
      "single_word": false,
      "lstrip": false,
      "rstrip": false,
      "normalized": false,
      "special": true
    },
    {
      "id": 2,
      "content": "<|endoftext|>",
      "single_word": false,
      "lstrip": false,
      "rstrip": false,
      "normalized": false,
      "special": true
    }
  ],
  "normalizer": null,
  "pre_tokenizer": {
    "type": "Whitespace"
  },
  "post_processor": null,
  "decoder": null,
  "model": {
    "type": "BPE",
    "dropout": null,
    "unk_token": "[UNK]",
    "continuing_subword_prefix": null,
    "end_of_word_suffix": null,
    "fuse_unk": false,
    "byte_fallback": false,
    "vocab": {
      "[PAD]": 0,
      "[UNK]": 1,
      "<|endoftext|>": 2,
      "!": 3,
      "\"": 4,
      "'": 5,
      ",": 6,
      "-": 7,
      ".": 8,
      "/": 9,
      "0": 10,
      "1": 11,
      "2": 12,
      "3": 13,
      "4": 14,
      "5": 15,
      "6": 16,
      "7": 17,
      "8": 18,
      "9": 19,
      ":": 20,
      ";": 21,
      "<": 22,
      ">": 23,
      "?": 24,
      "A": 25,
      "B": 26,
      "C": 27,
      "D": 28,
      "E": 29,
      "F": 30,
      "G": 31,
      "H": 32,
      "I": 33,
      "J": 34,
      "K": 35,
      "L": 36,
      "M": 37,
      "N": 38,
      "O": 39,
      "P": 40,
      "Q": 41,
      "R": 42,
      "S": 43,
      "T": 44,
      "U": 45,
      "V": 46,
      "W": 47,
      "X": 48,
      "Y": 49,
      "Z": 50,
      "a": 51,
      "b": 52,
      "c": 53,
      "d": 54,
      "e": 55,
      "f": 56,
      "g": 57,
      "h": 58,
      "i": 59,
      "j": 60,
      "k": 61,
      "l": 62,
      "m": 63,
      "n": 64,
      "o": 65,
      "p": 66,
      "q": 67,
      "r": 68,
      "s": 69,
      "t": 70,
      "u": 71,
      "v": 72,
      "w": 73,
      "x": 74,
      "y": 75,
      "z": 76,
      "|": 77,
      "é": 78,
      "ñ": 79,
      "–": 80,
      "—": 81,
      "‘": 82,
      "’": 83,
      "“": 84,
      "”": 85,
      "…": 86,
      "🎓": 87,
      "he": 88,
      "an": 89,
      "the": 90,
      "ed": 91,
      "to": 92,
      "in": 93,
      "and": 94,
      "wa": 95,
      "re": 96,
      "it": 97,
      "ou": 98,
      "ha": 99,
      "en": 100,
      "er": 101,
      "was": 102,
      "on": 103,
      "ar": 104,
      "om": 105,
      "ing": 106,
      "is": 107,
      "le": 108,
      "id": 109,
      "The": 110,
      "sa": 111,
      "ll": 112,
      "im": 113,
      "ay": 114,
      "st": 115,
      "or": 116,
      "of": 117,
      "il": 118,
      "her": 119,
      "lo": 120,
      "ir": 121,
      "end": 122,
      "th": 123,
      "ne": 124,
      "ver": 125,
      "He": 126,
      "be": 127,
      "hat": 128,
      "She": 129,
      "ld": 130,
      "ut": 131,
      "ce": 132,
      "at": 133,
      "se": 134,
      "ck": 135,
      "she": 136,
      "am": 137,
      "ex": 138,
      "ig": 139,
      "ow": 140,
      "ke": 141,
      "so": 142,
      "pp": 143,
      "his": 144,
      "said": 145,
      "day": 146,
      "pl": 147,
      "ri": 148,
      "ily": 149,
      "ve": 150,
      "all": 151,
      "ith": 152,
      "un": 153,
      "very": 154,
      "up": 155,
      "with": 156,
      "ked": 157,
      "my": 158,
      "ad": 159,
      "ot": 160,
      "that": 161,
      "al": 162,
      "They": 163,
      "ome": 164,
      "ted": 165,
      "Lily": 166,
      "we": 167,
      "as": 168,
      "had": 169,
      "ch": 170,
      "oft": 171,
      "fe": 172,
      "itt": 173,
      "nd": 174,
      "li": 175,
      "ould": 176,
      "for": 177,
      "ext": 178,
      "you": 179,
      "mom": 180,
      "<|": 181,
      "|>": 182,
      "endoft": 183,
      "endoftext": 184,
      "play": 185,
      "ime": 186,
      "time": 187,
      "they": 188,
      "ent": 189,
      "ittle": 190,
      "little": 191,
      "ge": 192,
      "there": 193,
      "happ": 194,
      "ound": 195,
      "ly": 196,
      "bo": 197,
      "go": 198,
      "wan": 199,
      "out": 200,
      "ht": 201,
      "ther": 202,
      "es": 203,
      "On": 204,
      "ra": 205,
      "happy": 206,
      "Once": 207,
      "ok": 208,
      "but": 209,
      "One": 210,
      "big": 211,
      "ved": 212,
      "sh": 213,
      "Tim": 214,
      "ack": 215,
      "ter": 216,
      "sm": 217,
      "saw": 218,
      "riend": 219,
      "It": 220,
      "friend": 221,
      "ide": 222,
      "way": 223,
      "one": 224,
      "do": 225,
      "ro": 226,
      "thing": 227,
      "upon": 228,
      "ake": 229,
      "ry": 230,
      "irl": 231,
      "some": 232,
      "girl": 233,
      "fu": 234,
      "him": 235,
      "were": 236,
      "ug": 237,
      "ill": 238,
      "not": 239,
      "are": 240,
      "pe": 241,
      "wanted": 242,
      "could": 243,
      "ho": 244,
      "hen": 245,
      ".\"": 246,
      "de": 247,
      "went": 248,
      "car": 249,
      "!\"": 250,
      "od": 251,
      "ind": 252,
      "ag": 253,
      "nam": 254,
      "Timmy": 255,
      "rom": 256,
      "lp": 257,
      "co": 258,
      "mo": 259,
      "et": 260,
      "ur": 261,
      "new": 262,
      "help": 263,
      "ight": 264,
      "named": 265,
      "ful": 266,
      "um": 267,
      "did": 268,
      "loved": 269,
      "side": 270,
      "hed": 271,
      "friends": 272,
      "back": 273,
      "ab": 274,
      "them": 275,
      "me": 276,
      "But": 277,
      "lt": 278,
      "ark": 279,
      "star": 280,
      "ic": 281,
      "fo": 282,
      "ain": 283,
      "ran": 284,
      "around": 285,
      "iled": 286,
      "own": 287,
      "oug": 288,
      "ame": 289,
      "boy": 290,
      "felt": 291,
      "man": 292,
      "asked": 293,
      "smiled": 294,
      "would": 295,
      "have": 296,
      "fun": 297,
      "their": 298,
      "loo": 299,
      "ure": 300,
      "ard": 301,
      "Tom": 302,
      "sto": 303,
      "pr": 304,
      "looked": 305,
      "ick": 306,
      "can": 307,
      "too": 308,
      "?\"": 309,
      "ird": 310,
      "ca": 311,
      "started": 312,
      "ong": 313,
      "wor": 314,
      "no": 315,
      "bird": 316,
      "la": 317,
      "gether": 318,
      "came": 319,
      "fa": 320,
      "like": 321,
      "park": 322,
      "ree": 323,
      "op": 324,
      "ited": 325,
      "together": 326,
      "exc": 327,
      "got": 328,
      "el": 329,
      "away": 330,
      "ss": 331,
      "ade": 332,
      "gr": 333,
      "toy": 334,
      "see": 335,
      "what": 336,
      "mu": 337,
      "found": 338,
      "make": 339,
      "get": 340,
      "something": 341,
      "put": 342,
      "home": 343,
      "ci": 344,
      "ally": 345,
      "made": 346,
      "then": 347,
      "other": 348,
      "oud": 349,
      "dec": 350,
      "sad": 351,
      "ud": 352,
      "ie": 353,
      "when": 354,
      "pped": 355,
      "who": 356,
      "Ben": 357,
      "wal": 358,
      "ice": 359,
      "again": 360,
      "sp": 361,
      "from": 362,
      "Mom": 363,
      "now": 364,
      "excited": 365,
      "king": 366,
      "ts": 367,
      "qu": 368,
      "You": 369,
      "scar": 370,
      "playing": 371,
      "look": 372,
      "ided": 373,
      "if": 374,
      "ought": 375,
      "decided": 376,
      "by": 377,
      "every": 378,
      "udd": 379,
      "ep": 380,
      "ways": 381,
      "ile": 382,
      "ried": 383,
      "ny": 384,
      "br": 385,
      "use": 386,
      "ax": 387,
      "ous": 388,
      "always": 389,
      "ach": 390,
      "down": 391,
      "mommy": 392,
      "spe": 393,
      "ave": 394,
      "good": 395,
      "ouse": 396,
      "didn": 397,
      "wo": 398,
      ",\"": 399,
      "old": 400,
      "ust": 401,
      "ac": 402,
      "jo": 403,
      "more": 404,
      "Max": 405,
      "outside": 406,
      "uck": 407,
      "So": 408,
      "things": 409,
      "low": 410,
      "want": 411,
      "than": 412,
      "scared": 413,
      "har": 414,
      "Jo": 415,
      "When": 416,
      "feel": 417,
      "udden": 418,
      "ate": 419,
      "bb": 420,
      "te": 421,
      "fore": 422,
      "find": 423,
      "der": 424,
      "ant": 425,
      "uddenly": 426,
      "Every": 427,
      "wh": 428,
      "hug": 429,
      "speci": 430,
      "knew": 431,
      "special": 432,
      "care": 433,
      "about": 434,
      "take": 435,
      "bu": 436,
      "ite": 437,
      "took": 438,
      "clo": 439,
      "fter": 440,
      "liked": 441,
      "tree": 442,
      "ue": 443,
      "dad": 444,
      "much": 445,
      "our": 446,
      "thought": 447,
      "here": 448,
      "never": 449,
      "ened": 450,
      "say": 451,
      "couldn": 452,
      "Jack": 453,
      "cause": 454,
      "arn": 455,
      "pre": 456,
      "na": 457,
      "ty": 458,
      "how": 459,
      "ara": 460,
      "because": 461,
      "cat": 462,
      "Her": 463,
      "Suddenly": 464,
      "lf": 465,
      "From": 466,
      "sk": 467,
      "Sam": 468,
      "sed": 469,
      "ise": 470,
      "over": 471,
      "ang": 472,
      "unt": 473,
      "ma": 474,
      "reat": 475,
      "laug": 476,
      "po": 477,
      "ye": 478,
      "your": 479,
      "learn": 480,
      "sun": 481,
      "ven": 482,
      "dog": 483,
      "house": 484,
      "ball": 485,
      "eat": 486,
      "long": 487,
      "ish": 488,
      "uc": 489,
      "ers": 490,
      "ist": 491,
      "sw": 492,
      "tried": 493,
      "into": 494,
      "any": 495,
      "cle": 496,
      "ive": 497,
      "told": 498,
      "tr": 499,
      "until": 500,
      "show": 501,
      "know": 502,
      "inside": 503,
      "gave": 504,
      "just": 505,
      "dre": 506,
      "pa": 507,
      "room": 508,
      "dy": 509,
      "ged": 510,
      "ion": 511,
      "toys": 512,
      "able": 513,
      "Then": 514,
      "proud": 515,
      "come": 516,
      "Sara": 517,
      "lly": 518,
      "pu": 519,
      "We": 520,
      "ink": 521,
      "off": 522,
      "His": 523,
      "pt": 524,
      "hand": 525,
      "tter": 526,
      "com": 527,
      "war": 528,
      "this": 529,
      "che": 530,
      "heard": 531,
      "cl": 532,
      "played": 533,
      "kind": 534,
      "self": 535,
      "run": 536,
      "bl": 537,
      "pick": 538,
      "ump": 539,
      "vent": 540,
      "ta": 541,
      "fly": 542,
      "Let": 543,
      "read": 544,
      "bear": 545,
      "water": 546,
      "bea": 547,
      "Joh": 548,
      "try": 549,
      "John": 550,
      "will": 551,
      "col": 552,
      "ough": 553,
      "small": 554,
      "And": 555,
      "ning": 556,
      "ber": 557,
      "ct": 558,
      "rabb": 559,
      "iz": 560,
      "better": 561,
      "ine": 562,
      "wat": 563,
      "lots": 564,
      "safe": 565,
      "call": 566,
      "beaut": 567,
      "fam": 568,
      "anim": 569,
      "animal": 570,
      "sky": 571,
      "bra": 572,
      "pret": 573,
      "even": 574,
      "ia": 575,
      "joy": 576,
      "need": 577,
      "hugged": 578,
      "flow": 579,
      "ace": 580,
      "ving": 581,
      "thanked": 582,
      "per": 583,
      "red": 584,
      "That": 585,
      "stay": 586,
      "ama": 587,
      "bed": 588,
      "sha": 589,
      "kept": 590,
      "ched": 591,
      "each": 592,
      "where": 593,
      "An": 594,
      "ort": 595,
      "Mommy": 596,
      "sur": 597,
      "beauti": 598,
      "rain": 599,
      "beautiful": 600,
      "ane": 601,
      "Bo": 602,
      "nt": 603,
      "learned": 604,
      "Luc": 605,
      "its": 606,
      "Lucy": 607,
      "As": 608,
      "lad": 609,
      "igh": 610,
      "laughed": 611,
      "family": 612,
      "After": 613,
      "gard": 614,
      "garden": 615,
      "says": 616,
      "fin": 617,
      "box": 618,
      "What": 619,
      "rong": 620,
      "ol": 621,
      "fle": 622,
      "lived": 623,
      "fast": 624,
      "yes": 625,
      "Mia": 626,
      "tur": 627,
      "nice": 628,
      "best": 629,
      "under": 630,
      "jump": 631,
      "ble": 632,
      "two": 633,
      "feeling": 634,
      "sor": 635,
      "both": 636,
      "exp": 637,
      "pot": 638,
      "llow": 639,
      "hur": 640,
      "illy": 641,
      "animals": 642,
      "cre": 643,
      "brave": 644,
      "con": 645,
      "ste": 646,
      "app": 647,
      "list": 648,
      "ied": 649,
      "called": 650,
      "advent": 651,
      "Anna": 652,
      "Bob": 653,
      "iny": 654,
      "cu": 655,
      "let": 656,
      "love": 657,
      "many": 658,
      "don": 659,
      "loud": 660,
      "walked": 661,
      "still": 662,
      "won": 663,
      "ground": 664,
      "explo": 665,
      "soon": 666,
      "before": 667,
      "going": 668,
      "hard": 669,
      "Jane": 670,
      "keep": 671,
      "explore": 672,
      "fi": 673,
      "repl": 674,
      "mor": 675,
      "ser": 676,
      "ank": 677,
      "ised": 678,
      "surpr": 679,
      "ished": 680,
      "smile": 681,
      "ass": 682,
      "led": 683,
      "port": 684,
      "real": 685,
      "tre": 686,
      "Yes": 687,
      "fr": 688,
      "walking": 689,
      "careful": 690,
      "while": 691,
      "flew": 692,
      "ople": 693,
      "us": 694,
      "Th": 695,
      "ple": 696,
      "adventure": 697,
      "turn": 698,
      "quick": 699,
      "great": 700,
      "Sarah": 701,
      "sorry": 702,
      "ever": 703,
      "far": 704,
      "ting": 705,
      "idea": 706,
      "ummy": 707,
      "give": 708,
      "ars": 709,
      "looking": 710,
      "people": 711,
      "picked": 712,
      "thr": 713,
      "iced": 714,
      "cry": 715,
      "pic": 716,
      "opened": 717,
      "clean": 718,
      "gan": 719,
      "ild": 720,
      "set": 721,
      "pretty": 722,
      "mber": 723,
      "quickly": 724,
      "bro": 725,
      "replied": 726,
      "rock": 727,
      "work": 728,
      "forest": 729,
      "hurt": 730,
      "place": 731,
      "bad": 732,
      "nex": 733,
      "should": 734,
      "par": 735,
      "being": 736,
      "door": 737,
      "stopped": 738,
      "sing": 739,
      "isy": 740,
      "ught": 741,
      "share": 742,
      "wind": 743,
      "dif": 744,
      "enjoy": 745,
      "noticed": 746,
      "Can": 747,
      "ded": 748,
      "weet": 749,
      "Thank": 750,
      "next": 751,
      "fish": 752,
      "ak": 753,
      "member": 754,
      "night": 755,
      "dis": 756,
      "near": 757,
      "walk": 758,
      "noise": 759,
      "No": 760,
      "Spot": 761,
      "sl": 762,
      "sure": 763,
      "sho": 764,
      "lock": 765,
      "uch": 766,
      "import": 767,
      "ase": 768,
      "color": 769,
      "after": 770,
      "lot": 771,
      "raw": 772,
      "ized": 773,
      "ner": 774,
      "nod": 775,
      "right": 776,
      "remember": 777,
      "ies": 778,
      "became": 779,
      "vo": 780,
      "eyes": 781,
      "important": 782,
      "tal": 783,
      "food": 784,
      "bright": 785,
      "squ": 786,
      "face": 787,
      "les": 788,
      "been": 789,
      "everyone": 790,
      "ear": 791,
      "bye": 792,
      "showed": 793,
      "cha": 794,
      "less": 795,
      "clim": 796,
      "three": 797,
      "lled": 798,
      "amaz": 799,
      "aisy": 800,
      "fere": 801,
      "differe": 802,
      "shiny": 803,
      "head": 804,
      "Dad": 805,
      "Sue": 806,
      "wait": 807,
      "goodbye": 808,
      "ip": 809,
      "ture": 810,
      "ready": 811,
      "gre": 812,
      "Everyone": 813,
      "cont": 814,
      "strong": 815,
      "wonder": 816,
      "shar": 817,
      "ired": 818,
      "lie": 819,
      "swing": 820,
      "listen": 821,
      "irst": 822,
      "closer": 823,
      "deli": 824,
      "watched": 825,
      "sound": 826,
      "butter": 827,
      "ff": 828,
      "picture": 829,
      "voice": 830,
      "expl": 831,
      "different": 832,
      "Lo": 833,
      "grabb": 834,
      "boat": 835,
      "ess": 836,
      "grabbed": 837,
      "bre": 838,
      "cou": 839,
      "nodded": 840,
      "Daisy": 841,
      "leep": 842,
      "Joe": 843,
      "ster": 844,
      "unny": 845,
      "tor": 846,
      "warm": 847,
      "air": 848,
      "began": 849,
      "book": 850,
      "mouse": 851,
      "hands": 852,
      "This": 853,
      "mag": 854,
      "angry": 855,
      "gu": 856,
      "ung": 857,
      "light": 858,
      "leave": 859,
      "In": 860,
      "ask": 861,
      "hopped": 862,
      "ward": 863,
      "ru": 864,
      "also": 865,
      "high": 866,
      "dress": 867,
      "ered": 868,
      "fav": 869,
      "Fin": 870,
      "rest": 871,
      "stand": 872,
      "really": 873,
      "ached": 874,
      "sn": 875,
      "mon": 876,
      "ppy": 877,
      "ries": 878,
      "ft": 879,
      "pon": 880,
      "cake": 881,
      "store": 882,
      "through": 883,
      "din": 884,
      "top": 885,
      "helped": 886,
      "world": 887,
      "mar": 888,
      "ike": 889,
      "ance": 890,
      "fell": 891,
      "flower": 892,
      "brother": 893,
      "rot": 894,
      "having": 895,
      "doll": 896,
      "blue": 897,
      "jumped": 898,
      "slide": 899,
      "cream": 900,
      "curi": 901,
      "med": 902,
      "Billy": 903,
      "cook": 904,
      "rabbit": 905,
      "flowers": 906,
      "tired": 907,
      "watch": 908,
      "age": 909,
      "dark": 910,
      "yummy": 911,
      "bit": 912,
      "mer": 913,
      "kit": 914,
      "reached": 915,
      "curious": 916,
      "bor": 917,
      "fill": 918,
      "wood": 919,
      "realized": 920,
      "think": 921,
      "done": 922,
      "fully": 923,
      "himself": 924,
      "years": 925,
      "rel": 926,
      "cool": 927,
      "oon": 928,
      "hear": 929,
      "why": 930,
      "bunny": 931,
      "first": 932,
      "grass": 933,
      "Mo": 934,
      "Benny": 935,
      "birds": 936,
      "favor": 937,
      "bow": 938,
      "cut": 939,
      "tell": 940,
      "chen": 941,
      "pare": 942,
      "tw": 943,
      "kitchen": 944,
      "favorite": 945,
      "cious": 946,
      "used": 947,
      "zy": 948,
      "coming": 949,
      "running": 950,
      "fl": 951,
      "cho": 952,
      "truck": 953,
      "sat": 954,
      "mis": 955,
      "making": 956,
      "\".": 957,
      "waved": 958,
      "move": 959,
      "anymore": 960,
      "duck": 961,
      "game": 962,
      "llo": 963,
      "stick": 964,
      "seen": 965,
      "happened": 966,
      "okay": 967,
      "table": 968,
      "herself": 969,
      "delicious": 970,
      "magic": 971,
      "Wh": 972,
      "contin": 973,
      "tow": 974,
      "outed": 975,
      "pie": 976,
      "butterfly": 977,
      "flo": 978,
      "kid": 979,
      "ath": 980,
      "anc": 981,
      "Do": 982,
      "block": 983,
      "lady": 984,
      "Finally": 985,
      "stre": 986,
      "shouted": 987,
      "sy": 988,
      "ash": 989,
      "aby": 990,
      "yard": 991,
      "worked": 992,
      "yellow": 993,
      "mum": 994,
      "ued": 995,
      "pond": 996,
      "dro": 997,
      "story": 998,
      "Don": 999,
      "lion": 1000,
      "close": 1001,
      "!”": 1002,
      "plan": 1003,
      "happily": 1004,
      "ross": 1005,
      "follow": 1006,
      "prin": 1007,
      "ger": 1008,
      "uff": 1009,
      "pat": 1010,
      "sand": 1011,
      "river": 1012,
      "thank": 1013,
      "laugh": 1014,
      "To": 1015,
      "stop": 1016,
      "only": 1017,
      "carefully": 1018,
      "trees": 1019,
      "soft": 1020,
      "full": 1021,
      "Sally": 1022,
      "arri": 1023,
      "ater": 1024,
      "mother": 1025,
      "fix": 1026,
      "tall": 1027,
      "ield": 1028,
      "At": 1029,
      "Tommy": 1030,
      "remembered": 1031,
      "puppy": 1032,
      "Molly": 1033,
      "sweet": 1034,
      "ket": 1035,
      "cold": 1036,
      "finished": 1037,
      "nts": 1038,
      "tri": 1039,
      "spot": 1040,
      "daddy": 1041,
      "catch": 1042,
      "swim": 1043,
      "draw": 1044,
      "sleep": 1045,
      "Now": 1046,
      "glad": 1047,
      "min": 1048,
      "shed": 1049,
      "surprised": 1050,
      "Look": 1051,
      "continued": 1052,
      "Em": 1053,
      "tight": 1054,
      "worry": 1055,
      "parents": 1056,
      "pain": 1057,
      "There": 1058,
      "wear": 1059,
      "asure": 1060,
      "enjoyed": 1061,
      "friendly": 1062,
      "finally": 1063,
      "pet": 1064,
      "getting": 1065,
      "ph": 1066,
      "ation": 1067,
      "arrived": 1068,
      "gone": 1069,
      "fro": 1070,
      "held": 1071,
      "times": 1072,
      "filled": 1073,
      ".”": 1074,
      "wel": 1075,
      "name": 1076,
      "doing": 1077,
      "mean": 1078,
      "stayed": 1079,
      "av": 1080,
      "dr": 1081,
      "orn": 1082,
      "oney": 1083,
      "cr": 1084,
      "irrel": 1085,
      "Jim": 1086,
      "creat": 1087,
      "reed": 1088,
      "hair": 1089,
      "rag": 1090,
      "surprise": 1091,
      "wonderful": 1092,
      "dinner": 1093,
      "open": 1094,
      "turned": 1095,
      "kids": 1096,
      "prom": 1097,
      "stran": 1098,
      "dren": 1099,
      "sme": 1100,
      "grand": 1101,
      "buy": 1102,
      "needed": 1103,
      "hind": 1104,
      "lar": 1105,
      "wrong": 1106,
      "ary": 1107,
      "ildren": 1108,
      "morning": 1109,
      "green": 1110,
      "Be": 1111,
      "hill": 1112,
      "lost": 1113,
      "children": 1114,
      "few": 1115,
      "most": 1116,
      "woods": 1117,
      "others": 1118,
      "behind": 1119,
      "Mama": 1120,
      "land": 1121,
      "funny": 1122,
      "piece": 1123,
      "touch": 1124,
      "erous": 1125,
      "ather": 1126,
      "lla": 1127,
      "moment": 1128,
      "mus": 1129,
      "May": 1130,
      "af": 1131,
      "cand": 1132,
      "beach": 1133,
      "key": 1134,
      "forgot": 1135,
      "agreed": 1136,
      "trying": 1137,
      "bag": 1138,
      "mess": 1139,
      "slow": 1140,
      "brought": 1141,
      "dir": 1142,
      "has": 1143,
      "itten": 1144,
      "cover": 1145,
      "fair": 1146,
      "squirrel": 1147,
      "climb": 1148,
      "Amy": 1149,
      "fect": 1150,
      "hung": 1151,
      "left": 1152,
      "sear": 1153,
      "fur": 1154,
      "frog": 1155,
      "Jen": 1156,
      "gent": 1157,
      "pro": 1158,
      "understand": 1159,
      "bar": 1160,
      "baby": 1161,
      "cla": 1162,
      "tra": 1163,
      "another": 1164,
      "lesson": 1165,
      "cess": 1166,
      "owner": 1167,
      "ient": 1168,
      "ange": 1169,
      "perfect": 1170,
      "je": 1171,
      "hole": 1172,
      "blocks": 1173,
      "mat": 1174,
      "race": 1175,
      "might": 1176,
      "hold": 1177,
      "deep": 1178,
      "cast": 1179,
      "everything": 1180,
      "tast": 1181,
      "pping": 1182,
      "music": 1183,
      "hot": 1184,
      "word": 1185,
      "dream": 1186,
      "appear": 1187,
      "bug": 1188,
      "em": 1189,
      "whe": 1190,
      "icy": 1191,
      "anything": 1192,
      "fight": 1193,
      "met": 1194,
      "enough": 1195,
      "thy": 1196,
      "explor": 1197,
      "Wow": 1198,
      "pink": 1199,
      "wasn": 1200,
      "else": 1201,
      "pretend": 1202,
      "amazing": 1203,
      "ped": 1204,
      "belie": 1205,
      "nap": 1206,
      "All": 1207,
      "ually": 1208,
      "cookies": 1209,
      "ious": 1210,
      "Daddy": 1211,
      "bike": 1212,
      "oo": 1213,
      "ze": 1214,
      "ign": 1215,
      "wards": 1216,
      "paper": 1217,
      "Why": 1218,
      "vis": 1219,
      "ins": 1220,
      "grate": 1221,
      "floor": 1222,
      "arm": 1223,
      "oken": 1224,
      "mou": 1225,
      "sit": 1226,
      "heav": 1227,
      "ves": 1228,
      "tle": 1229,
      "does": 1230,
      "ling": 1231,
      "ated": 1232,
      "strange": 1233,
      "grateful": 1234,
      "field": 1235,
      "que": 1236,
      "join": 1237,
      "wet": 1238,
      "ucky": 1239,
      "broken": 1240,
      "flying": 1241,
      "pur": 1242,
      "treat": 1243,
      "balloon": 1244,
      "magical": 1245,
      "dry": 1246,
      "hid": 1247,
      "song": 1248,
      "wished": 1249,
      "Soon": 1250,
      "window": 1251,
      "Maybe": 1252,
      "pen": 1253,
      "spark": 1254,
      "ride": 1255,
      "looks": 1256,
      "build": 1257,
      "listened": 1258,
      "Lil": 1259,
      "bot": 1260,
      "helping": 1261,
      "leaves": 1262,
      "Lila": 1263,
      "Tweet": 1264,
      "pers": 1265,
      "art": 1266,
      "ained": 1267,
      "stepped": 1268,
      "such": 1269,
      "must": 1270,
      "amazed": 1271,
      "dang": 1272,
      "hig": 1273,
      "ings": 1274,
      "someone": 1275,
      "across": 1276,
      "climbed": 1277,
      "hungry": 1278,
      "heavy": 1279,
      "colorful": 1280,
      "followed": 1281,
      "row": 1282,
      "Sammy": 1283,
      "please": 1284,
      "castle": 1285,
      "gi": 1286,
      "moral": 1287,
      "colors": 1288,
      "Mum": 1289,
      "ton": 1290,
      "neigh": 1291,
      "fire": 1292,
      "treasure": 1293,
      "shared": 1294,
      "cor": 1295,
      "wall": 1296,
      "cloud": 1297,
      "cried": 1298,
      "da": 1299,
      "fall": 1300,
      "job": 1301,
      "white": 1302,
      "pulled": 1303,
      "break": 1304,
      "bigger": 1305,
      "uffy": 1306,
      "danc": 1307,
      "pack": 1308,
      "su": 1309,
      "eating": 1310,
      "believe": 1311,
      "Pe": 1312,
      "ire": 1313,
      "sis": 1314,
      "silly": 1315,
      "Hello": 1316,
      "sometimes": 1317,
      "money": 1318,
      "pill": 1319,
      "sc": 1320,
      "shine": 1321,
      "grow": 1322,
      "lake": 1323,
      "snow": 1324,
      "teddy": 1325,
      "higher": 1326,
      "ose": 1327,
      "cked": 1328,
      "ventually": 1329,
      "promised": 1330,
      "slowly": 1331,
      "appeared": 1332,
      "ames": 1333,
      "monster": 1334,
      "ele": 1335,
      "backyard": 1336,
      "iet": 1337,
      "kne": 1338,
      "ident": 1339,
      "str": 1340,
      "igg": 1341,
      "althy": 1342,
      "exploring": 1343,
      "Jake": 1344,
      "spl": 1345,
      "hes": 1346,
      "youn": 1347,
      "carrot": 1348,
      "pol": 1349,
      "nearby": 1350,
      "scary": 1351,
      "clothe": 1352,
      "year": 1353,
      "stead": 1354,
      "Emma": 1355,
      "iting": 1356,
      "sister": 1357,
      "clothes": 1358,
      "mind": 1359,
      "board": 1360,
      "wouldn": 1361,
      "quiet": 1362,
      "farmer": 1363,
      "Oh": 1364,
      "ju": 1365,
      "tiny": 1366,
      "stuck": 1367,
      "bran": 1368,
      "free": 1369,
      "suddenly": 1370,
      "answ": 1371,
      "oup": 1372,
      "assed": 1373,
      "stood": 1374,
      "singing": 1375,
      "pictures": 1376,
      "bath": 1377,
      "lice": 1378,
      "candy": 1379,
      "daught": 1380,
      "iling": 1381,
      "chair": 1382,
      "Just": 1383,
      "gl": 1384,
      "ich": 1385,
      "longer": 1386,
      "everywhere": 1387,
      "faster": 1388,
      "grandma": 1389,
      "daughter": 1390,
      "closed": 1391,
      "lone": 1392,
      "ming": 1393,
      "child": 1394,
      "seemed": 1395,
      "snack": 1396,
      "dance": 1397,
      "drag": 1398,
      "hide": 1399,
      "kay": 1400,
      "ider": 1401,
      "talk": 1402,
      "Gr": 1403,
      "swa": 1404,
      "tail": 1405,
      "crying": 1406,
      "town": 1407,
      "cident": 1408,
      "sea": 1409,
      "alone": 1410,
      "dangerous": 1411,
      "lonely": 1412,
      "Jill": 1413,
      "ence": 1414,
      "accident": 1415,
      "cra": 1416,
      "fit": 1417,
      "train": 1418,
      "towards": 1419,
      "worried": 1420,
      "buck": 1421,
      "wag": 1422,
      "ugg": 1423,
      "visit": 1424,
      "?”": 1425,
      "dri": 1426,
      "along": 1427,
      "cars": 1428,
      "moved": 1429,
      "poin": 1430,
      "Come": 1431,
      "ible": 1432,
      "jour": 1433,
      "win": 1434,
      "ours": 1435,
      "Mr": 1436,
      "explained": 1437,
      "waited": 1438,
      "same": 1439,
      "Jenny": 1440,
      "Go": 1441,
      "Later": 1442,
      "onto": 1443,
      "kno": 1444,
      "caught": 1445,
      "chee": 1446,
      "Inside": 1447,
      "drink": 1448,
      "dirty": 1449,
      "Grand": 1450,
      "Fl": 1451,
      "sug": 1452,
      "lease": 1453,
      "upset": 1454,
      "ourse": 1455,
      "blan": 1456,
      "neighbor": 1457,
      "dist": 1458,
      "itch": 1459,
      "body": 1460,
      "cheered": 1461,
      "books": 1462,
      "hu": 1463,
      "bubb": 1464,
      "trou": 1465,
      "party": 1466,
      "dragon": 1467,
      "Hi": 1468,
      "lay": 1469,
      "spider": 1470,
      "throw": 1471,
      "Jimmy": 1472,
      "young": 1473,
      "pow": 1474,
      "ney": 1475,
      "woke": 1476,
      "comfor": 1477,
      "princess": 1478,
      "huge": 1479,
      "pes": 1480,
      "wom": 1481,
      "whis": 1482,
      "shin": 1483,
      "shop": 1484,
      "patient": 1485,
      "woman": 1486,
      "sees": 1487,
      "happen": 1488,
      "sunshine": 1489,
      "taking": 1490,
      "fru": 1491,
      "bowl": 1492,
      "gentle": 1493,
      "swam": 1494,
      "Sure": 1495,
      "bought": 1496,
      "gra": 1497,
      "val": 1498,
      "eleph": 1499,
      "With": 1500,
      "cup": 1501,
      "erful": 1502,
      "ions": 1503,
      "swings": 1504,
      "covered": 1505,
      "bou": 1506,
      "ctor": 1507,
      "gg": 1508,
      "games": 1509,
      "ches": 1510,
      "rocks": 1511,
      "Please": 1512,
      "without": 1513,
      "stories": 1514,
      "past": 1515,
      "purple": 1516,
      "hello": 1517,
      "rew": 1518,
      "threw": 1519,
      "shoes": 1520,
      "bucket": 1521,
      "Fluffy": 1522,
      "ben": 1523,
      "late": 1524,
      "scream": 1525,
      "wand": 1526,
      "today": 1527,
      "idge": 1528,
      "pray": 1529,
      "cow": 1530,
      "oce": 1531,
      "ness": 1532,
      "att": 1533,
      "forget": 1534,
      "stone": 1535,
      "spoon": 1536,
      "pull": 1537,
      "creature": 1538,
      "searched": 1539,
      "elephant": 1540,
      "ocean": 1541,
      "kite": 1542,
      "ment": 1543,
      "ons": 1544,
      "unch": 1545,
      "stor": 1546,
      "bring": 1547,
      "ittens": 1548,
      "words": 1549,
      "boun": 1550,
      "bite": 1551,
      "course": 1552,
      "gen": 1553,
      "vie": 1554,
      "wise": 1555,
      "days": 1556,
      "well": 1557,
      "colle": 1558,
      "gif": 1559,
      "jar": 1560,
      "wr": 1561,
      "cket": 1562,
      "unk": 1563,
      "teac": 1564,
      "count": 1565,
      "pieces": 1566,
      "sang": 1567,
      "instead": 1568,
      "reach": 1569,
      "though": 1570,
      "seat": 1571,
      "doctor": 1572,
      "press": 1573,
      "part": 1574,
      "fairy": 1575,
      "mouth": 1576,
      "accidentally": 1577,
      "craw": 1578,
      "sent": 1579,
      "fused": 1580,
      "storm": 1581,
      "ier": 1582,
      "zz": 1583,
      "likes": 1584,
      "makes": 1585,
      "spin": 1586,
      "black": 1587,
      "dropped": 1588,
      "matter": 1589,
      "ee": 1590,
      "jam": 1591,
      "tu": 1592,
      "relie": 1593,
      "ises": 1594,
      "irt": 1595,
      "itting": 1596,
      "ship": 1597,
      "carry": 1598,
      "fox": 1599,
      "cave": 1600,
      "adventures": 1601,
      "broke": 1602,
      "Mittens": 1603,
      "Okay": 1604,
      "vill": 1605,
      "belong": 1606,
      "forever": 1607,
      "tower": 1608,
      "blanket": 1609,
      "cir": 1610,
      "mi": 1611,
      "gest": 1612,
      "drove": 1613,
      "minut": 1614,
      "cheese": 1615,
      "pudd": 1616,
      "round": 1617,
      "smiling": 1618,
      "brown": 1619,
      "sunny": 1620,
      "street": 1621,
      "paint": 1622,
      "Some": 1623,
      "pan": 1624,
      "sign": 1625,
      "healthy": 1626,
      "hop": 1627,
      "dolls": 1628,
      "ced": 1629,
      "eas": 1630,
      "ina": 1631,
      "inv": 1632,
      "leg": 1633,
      "organ": 1634,
      "shell": 1635,
      "plane": 1636,
      "act": 1637,
      "swimming": 1638,
      "How": 1639,
      "My": 1640,
      "bas": 1641,
      "eventually": 1642,
      "mil": 1643,
      "pper": 1644,
      "nothing": 1645,
      "pocket": 1646,
      "shook": 1647,
      "knee": 1648,
      "ast": 1649,
      "ator": 1650,
      "pig": 1651,
      "soup": 1652,
      "bee": 1653,
      "amp": 1654,
      "live": 1655,
      "which": 1656,
      "ntain": 1657,
      "Lola": 1658,
      "clapped": 1659,
      "Peter": 1660,
      "nic": 1661,
      "sli": 1662,
      "orange": 1663,
      "nest": 1664,
      "smart": 1665,
      "peace": 1666,
      "berries": 1667,
      "heart": 1668,
      "milk": 1669,
      "OK": 1670,
      "eag": 1671,
      "sitting": 1672,
      "sail": 1673,
      "secre": 1674,
      "laughing": 1675,
      "juice": 1676,
      "shining": 1677,
      "village": 1678,
      "basket": 1679,
      "oom": 1680,
      "wish": 1681,
      "ses": 1682,
      "asleep": 1683,
      "spotted": 1684,
      "journey": 1685,
      "ba": 1686,
      "gather": 1687,
      "hor": 1688,
      "uni": 1689,
      "feet": 1690,
      "exciting": 1691,
      "talked": 1692,
      "tasted": 1693,
      "ian": 1694,
      "wings": 1695,
      "zoom": 1696,
      "spo": 1697,
      "bush": 1698,
      "fruit": 1699,
      "mix": 1700,
      "ife": 1701,
      "pra": 1702,
      "button": 1703,
      "foot": 1704,
      "rainbow": 1705,
      "wearing": 1706,
      "relieved": 1707,
      "Mary": 1708,
      "sco": 1709,
      "wra": 1710,
      "touc": 1711,
      "imag": 1712,
      "loom": 1713,
      "gold": 1714,
      "shirt": 1715,
      "bled": 1716,
      "apple": 1717,
      "quest": 1718,
      "giant": 1719,
      "danced": 1720,
      "trouble": 1721,
      "Ch": 1722,
      "fing": 1723,
      "pass": 1724,
      "tid": 1725,
      "anan": 1726,
      "fold": 1727,
      "Everywhere": 1728,
      "cute": 1729,
      "welcome": 1730,
      "teacher": 1731,
      "swe": 1732,
      "thin": 1733,
      "iger": 1734,
      "feather": 1735,
      "cozy": 1736,
      "busy": 1737,
      "touched": 1738,
      "ned": 1739,
      "scho": 1740,
      "wide": 1741,
      "roar": 1742,
      "start": 1743,
      "teach": 1744,
      "anyone": 1745,
      "apples": 1746,
      "Together": 1747,
      "person": 1748,
      "school": 1749,
      "ap": 1750,
      "banan": 1751,
      "farm": 1752,
      "picnic": 1753,
      "sounds": 1754,
      "coun": 1755,
      "Emily": 1756,
      "arms": 1757,
      "lunch": 1758,
      "suc": 1759,
      "uce": 1760,
      "wave": 1761,
      "path": 1762,
      "pushed": 1763,
      "fron": 1764,
      "thankful": 1765,
      "search": 1766,
      "furry": 1767,
      "collect": 1768,
      "tidy": 1769,
      "owl": 1770,
      "ased": 1771,
      "whole": 1772,
      "present": 1773,
      "front": 1774,
      "band": 1775,
      "cross": 1776,
      "gigg": 1777,
      "hum": 1778,
      "mir": 1779,
      "nut": 1780,
      "ull": 1781,
      "irth": 1782,
      "net": 1783,
      "meet": 1784,
      "ize": 1785,
      "smiles": 1786,
      "holding": 1787,
      "jung": 1788,
      "tun": 1789,
      "letter": 1790,
      "last": 1791,
      "talking": 1792,
      "phone": 1793,
      "tasty": 1794,
      "bench": 1795,
      "jungle": 1796,
      "kis": 1797,
      "sick": 1798,
      "ined": 1799,
      "itty": 1800,
      "spent": 1801,
      "sharp": 1802,
      "asks": 1803,
      "march": 1804,
      "tightly": 1805,
      "branch": 1806,
      "irthday": 1807,
      "Mummy": 1808,
      "cal": 1809,
      "dle": 1810,
      "hit": 1811,
      "life": 1812,
      "decor": 1813,
      "watching": 1814,
      "cray": 1815,
      "large": 1816,
      "lucky": 1817,
      "mine": 1818,
      "wash": 1819,
      "myster": 1820,
      "ugly": 1821,
      "poor": 1822,
      "rubb": 1823,
      "ducks": 1824,
      "While": 1825,
      "trip": 1826,
      "answer": 1827,
      "comfortable": 1828,
      "eager": 1829,
      "des": 1830,
      "ipped": 1831,
      "cele": 1832,
      "living": 1833,
      "roll": 1834,
      "nose": 1835,
      "jog": 1836,
      "clever": 1837,
      "colour": 1838,
      "blem": 1839,
      "turns": 1840,
      "places": 1841,
      "miss": 1842,
      "drum": 1843,
      "problem": 1844,
      "kn": 1845,
      "wild": 1846,
      "lown": 1847,
      "clear": 1848,
      "monkey": 1849,
      "smell": 1850,
      "gently": 1851,
      "splash": 1852,
      "gift": 1853,
      "circle": 1854,
      "secret": 1855,
      "celebr": 1856,
      "bal": 1857,
      "birthday": 1858,
      "line": 1859,
      "neck": 1860,
      "sol": 1861,
      "knowing": 1862,
      "whenever": 1863,
      "raid": 1864,
      "tool": 1865,
      "resting": 1866,
      "afraid": 1867,
      "embar": 1868,
      "horse": 1869,
      "Mark": 1870,
      "cy": 1871,
      "driver": 1872,
      "ek": 1873,
      "fig": 1874,
      "hours": 1875,
      "shelf": 1876,
      "ote": 1877,
      "often": 1878,
      "dest": 1879,
      "wolf": 1880,
      "sharing": 1881,
      "snake": 1882,
      "embarr": 1883,
      "End": 1884,
      "Of": 1885,
      "clown": 1886,
      "pile": 1887,
      "ten": 1888,
      "remind": 1889,
      "vel": 1890,
      "hoped": 1891,
      "prote": 1892,
      "tea": 1893,
      "wondered": 1894,
      "messy": 1895,
      "dirt": 1896,
      "treats": 1897,
      "corner": 1898,
      "pract": 1899,
      "If": 1900,
      "fli": 1901,
      "inde": 1902,
      "espe": 1903,
      "helpful": 1904,
      "noises": 1905,
      "spread": 1906,
      "push": 1907,
      "fixed": 1908,
      "pillow": 1909,
      "Ted": 1910,
      "eld": 1911,
      "iddle": 1912,
      "impress": 1913,
      "sheep": 1914,
      "wants": 1915,
      "dolp": 1916,
      "umber": 1917,
      "cially": 1918,
      "bul": 1919,
      "chew": 1920,
      "blew": 1921,
      "rude": 1922,
      "twins": 1923,
      "especially": 1924,
      "dolph": 1925,
      "Ro": 1926,
      "bs": 1927,
      "glow": 1928,
      "swan": 1929,
      "ult": 1930,
      "inte": 1931,
      "cks": 1932,
      "rich": 1933,
      "fear": 1934,
      "umbre": 1935,
      "confused": 1936,
      "prince": 1937,
      "sparkly": 1938,
      "embarrassed": 1939,
      "Fred": 1940,
      "pin": 1941,
      "sne": 1942,
      "step": 1943,
      "orm": 1944,
      "chick": 1945,
      "goat": 1946,
      "shy": 1947,
      "cop": 1948,
      "mud": 1949,
      "taught": 1950,
      "jumping": 1951,
      "lovely": 1952,
      "clouds": 1953,
      "polite": 1954,
      "Good": 1955,
      "generous": 1956,
      "Alice": 1957,
      "middle": 1958,
      "pend": 1959,
      "pour": 1960,
      "passed": 1961,
      "stir": 1962,
      "change": 1963,
      "chased": 1964,
      "breath": 1965,
      "stret": 1966,
      "sandw": 1967,
      "fighting": 1968,
      "minutes": 1969,
      "fake": 1970,
      "zoo": 1971,
      "tory": 1972,
      "waves": 1973,
      "log": 1974,
      "adow": 1975,
      "rope": 1976,
      "coat": 1977,
      "meadow": 1978,
      "wore": 1979,
      "Johnny": 1980,
      "supp": 1981,
      "wagon": 1982,
      "peaceful": 1983,
      "umbrella": 1984,
      "Pet": 1985,
      "bread": 1986,
      "mad": 1987,
      "mach": 1988,
      "pop": 1989,
      "vous": 1990,
      "shout": 1991,
      "spicy": 1992,
      "naught": 1993,
      "skipped": 1994,
      "trust": 1995,
      "mountain": 1996,
      "puddle": 1997,
      "easy": 1998,
      "Pete": 1999,
      "Br": 2000,
      "Where": 2001,
      "honey": 2002,
      "oy": 2003,
      "tomor": 2004,
      "ighed": 2005,
      "hope": 2006,
      "rank": 2007,
      "cape": 2008,
      "father": 2009,
      "spend": 2010,
      "bus": 2011,
      "mail": 2012,
      "grew": 2013,
      "Grandma": 2014,
      "interesting": 2015,
      "chicken": 2016,
      "naughty": 2017,
      "tomorrow": 2018,
      "cur": 2019,
      "egg": 2020,
      "hang": 2021,
      "ps": 2022,
      "pty": 2023,
      "tick": 2024,
      "stum": 2025,
      "stud": 2026,
      "rolled": 2027,
      "deter": 2028,
      "?\".": 2029,
      "fright": 2030,
      "slid": 2031,
      "smelled": 2032,
      "Bella": 2033,
      "landed": 2034,
      "empty": 2035,
      "pretended": 2036,
      "bottle": 2037,
      "sugar": 2038,
      "elder": 2039,
      "fence": 2040,
      "za": 2041,
      "ham": 2042,
      "meant": 2043,
      "spit": 2044,
      "pair": 2045,
      "plants": 2046,
      "determin": 2047,
      "bat": 2048,
      "bark": 2049,
      "blow": 2050,
      "oven": 2051,
      "son": 2052,
      "ert": 2053,
      "sack": 2054,
      "owed": 2055,
      "runs": 2056,
      "understood": 2057,
      "pleased": 2058,
      "smelly": 2059,
      "knocked": 2060,
      "figure": 2061,
      "Kitty": 2062,
      "ail": 2063,
      "gy": 2064,
      "shes": 2065,
      "form": 2066,
      "forward": 2067,
      "road": 2068,
      "stars": 2069,
      "hugs": 2070,
      "bedroom": 2071,
      "nervous": 2072,
      "missed": 2073,
      "building": 2074,
      "carrots": 2075,
      "pointed": 2076,
      "screamed": 2077,
      "Cl": 2078,
      "Ella": 2079,
      "Sus": 2080,
      "lit": 2081,
      "ror": 2082,
      "tiger": 2083,
      "ual": 2084,
      "hamed": 2085,
      "save": 2086,
      "ashamed": 2087,
      "hopping": 2088,
      "del": 2089,
      "carried": 2090,
      "coin": 2091,
      "motor": 2092,
      "seek": 2093,
      "bridge": 2094,
      "takes": 2095,
      "paw": 2096,
      "parrot": 2097,
      "discovered": 2098,
      "ancy": 2099,
      "dancing": 2100,
      "snowman": 2101,
      "mirror": 2102,
      "protect": 2103,
      "Even": 2104,
      "bloom": 2105,
      "lves": 2106,
      "ob": 2107,
      "ubb": 2108,
      "returned": 2109,
      "ones": 2110,
      "hospit": 2111,
      "ustr": 2112,
      "cheerful": 2113,
      "usual": 2114,
      "shore": 2115,
      "faces": 2116,
      "success": 2117,
      "Clara": 2118,
      "hospital": 2119,
      "den": 2120,
      "inc": 2121,
      "once": 2122,
      "sailed": 2123,
      "Hey": 2124,
      "almost": 2125,
      "smoo": 2126,
      "spect": 2127,
      "Ann": 2128,
      "barked": 2129,
      "gathered": 2130,
      "smooth": 2131,
      "fla": 2132,
      "later": 2133,
      "mark": 2134,
      "sour": 2135,
      "wha": 2136,
      "inted": 2137,
      "iness": 2138,
      "sage": 2139,
      "llie": 2140,
      "adm": 2141,
      "raft": 2142,
      "case": 2143,
      "nail": 2144,
      "tak": 2145,
      "shapes": 2146,
      "Brown": 2147,
      "oyster": 2148,
      "Baby": 2149,
      "hone": 2150,
      "oke": 2151,
      "ery": 2152,
      "Their": 2153,
      "beet": 2154,
      "rill": 2155,
      "already": 2156,
      "test": 2157,
      "selfish": 2158,
      "umpy": 2159,
      "frustr": 2160,
      "waiting": 2161,
      "twig": 2162,
      "stream": 2163,
      "promise": 2164,
      "songs": 2165,
      "stones": 2166,
      "whale": 2167,
      "taken": 2168,
      "may": 2169,
      "rad": 2170,
      "tie": 2171,
      "toug": 2172,
      "ity": 2173,
      "ero": 2174,
      "add": 2175,
      "weird": 2176,
      "trunk": 2177,
      "compl": 2178,
      "chest": 2179,
      "couch": 2180,
      "coura": 2181,
      "thinks": 2182,
      "wheel": 2183,
      "branches": 2184,
      "bubble": 2185,
      "frightened": 2186,
      "beetle": 2187,
      "Re": 2188,
      "cted": 2189,
      "kick": 2190,
      "respect": 2191,
      "ishes": 2192,
      "Here": 2193,
      "terri": 2194,
      "card": 2195,
      "lace": 2196,
      "bru": 2197,
      "calling": 2198,
      "Today": 2199,
      "bugs": 2200,
      "hiding": 2201,
      "string": 2202,
      "determined": 2203,
      "incred": 2204,
      "tough": 2205,
      "bur": 2206,
      "di": 2207,
      "gor": 2208,
      "ointed": 2209,
      "pup": 2210,
      "sight": 2211,
      "ular": 2212,
      "wrot": 2213,
      "towel": 2214,
      "era": 2215,
      "leaf": 2216,
      "hero": 2217,
      "veget": 2218,
      "weak": 2219,
      "illa": 2220,
      "measure": 2221,
      "excite": 2222,
      "class": 2223,
      "kinds": 2224,
      "steal": 2225,
      "appointed": 2226,
      "answered": 2227,
      "snacks": 2228,
      "drive": 2229,
      "distance": 2230,
      "bubbles": 2231,
      "flies": 2232,
      "frustrated": 2233,
      "wrote": 2234,
      "vegetable": 2235,
      "excitement": 2236,
      "corn": 2237,
      "fan": 2238,
      "zed": 2239,
      "extra": 2240,
      "robot": 2241,
      "worm": 2242,
      "acorn": 2243,
      "check": 2244,
      "finish": 2245,
      "chocol": 2246,
      "ignor": 2247,
      "hidden": 2248,
      "calm": 2249,
      "mysterious": 2250,
      "elderly": 2251,
      "honest": 2252,
      "incredible": 2253,
      "Who": 2254,
      "fancy": 2255,
      "spr": 2256,
      "erpill": 2257,
      "lead": 2258,
      "saved": 2259,
      "sauce": 2260,
      "stair": 2261,
      "plant": 2262,
      "unusual": 2263,
      "rode": 2264,
      "movie": 2265,
      "caterpill": 2266,
      "skin": 2267,
      "kindness": 2268,
      "taste": 2269,
      "Andy": 2270,
      "shake": 2271,
      "enjoying": 2272,
      "disappointed": 2273,
      "suggest": 2274,
      "powerful": 2275,
      "write": 2276,
      "colourful": 2277,
      "knife": 2278,
      "shad": 2279,
      "tent": 2280,
      "tank": 2281,
      "recor": 2282,
      "playground": 2283,
      "ately": 2284,
      "true": 2285,
      "guit": 2286,
      "bored": 2287,
      "creative": 2288,
      "Tweety": 2289,
      "spla": 2290,
      "feathers": 2291,
      "banana": 2292,
      "hammer": 2293,
      "batter": 2294,
      "gorilla": 2295,
      "Bill": 2296,
      "Eventually": 2297,
      "Pa": 2298,
      "Su": 2299,
      "bby": 2300,
      "fted": 2301,
      "van": 2302,
      "toes": 2303,
      "andy": 2304,
      "lemon": 2305,
      "stuff": 2306,
      "sold": 2307,
      "fork": 2308,
      "lying": 2309,
      "smoke": 2310,
      "urous": 2311,
      "owned": 2312,
      "comes": 2313,
      "safely": 2314,
      "adventurous": 2315,
      "brightly": 2316,
      "guard": 2317,
      "packed": 2318,
      "view": 2319,
      "chocolate": 2320,
      "caterpillar": 2321,
      "guitar": 2322,
      "Are": 2323,
      "Ale": 2324,
      "Will": 2325,
      "gara": 2326,
      "jack": 2327,
      "ring": 2328,
      "sword": 2329,
      "spray": 2330,
      "seed": 2331,
      "week": 2332,
      "chang": 2333,
      "forgive": 2334,
      "shr": 2335,
      "note": 2336,
      "aged": 2337,
      "mel": 2338,
      "against": 2339,
      "harm": 2340,
      "feels": 2341,
      "yourself": 2342,
      "offered": 2343,
      "handle": 2344,
      "earth": 2345,
      "twirl": 2346,
      "patch": 2347,
      "grab": 2348,
      "legs": 2349,
      "Alex": 2350,
      "garage": 2351,
      "Dave": 2352,
      "Mike": 2353,
      "Ne": 2354,
      "bake": 2355,
      "eye": 2356,
      "fic": 2357,
      "ipe": 2358,
      "ris": 2359,
      "scre": 2360,
      "ul": 2361,
      "vol": 2362,
      "vase": 2363,
      "cob": 2364,
      "noisy": 2365,
      "lazy": 2366,
      "axe": 2367,
      "izza": 2368,
      "realised": 2369,
      "disappeared": 2370,
      "walks": 2371,
      "flag": 2372,
      "drawer": 2373,
      "pengu": 2374,
      "polish": 2375,
      "uggled": 2376,
      "organized": 2377,
      "popular": 2378,
      "Ru": 2379,
      "eth": 2380,
      "gas": 2381,
      "gust": 2382,
      "iver": 2383,
      "mic": 2384,
      "osa": 2385,
      "pizza": 2386,
      "res": 2387,
      "ern": 2388,
      "thick": 2389,
      "cano": 2390,
      "grumpy": 2391,
      "ache": 2392,
      "teeth": 2393,
      "beauty": 2394,
      "content": 2395,
      "power": 2396,
      "whisper": 2397,
      "spinning": 2398,
      "slipped": 2399,
      "counted": 2400,
      "nuts": 2401,
      "crayons": 2402,
      "snee": 2403,
      "terrible": 2404,
      "volcano": 2405,
      "micro": 2406,
      "osaur": 2407,
      "TV": 2408,
      "bone": 2409,
      "fil": 2410,
      "frag": 2411,
      "pir": 2412,
      "rat": 2413,
      "edge": 2414,
      "ens": 2415,
      "bean": 2416,
      "itter": 2417,
      "spun": 2418,
      "joke": 2419,
      "police": 2420,
      "cube": 2421,
      "cush": 2422,
      "loves": 2423,
      "diffic": 2424,
      "locked": 2425,
      "dinosaur": 2426,
      "Grandpa": 2427,
      "happening": 2428,
      "vegetables": 2429,
      "jacket": 2430,
      "difficult": 2431,
      "Ducky": 2432,
      "See": 2433,
      "dom": 2434,
      "dish": 2435,
      "pal": 2436,
      "these": 2437,
      "salad": 2438,
      "ating": 2439,
      "ature": 2440,
      "libr": 2441,
      "boss": 2442,
      "iest": 2443,
      "yelled": 2444,
      "Well": 2445,
      "Bobo": 2446,
      "flash": 2447,
      "jewel": 2448,
      "wheat": 2449,
      "walls": 2450,
      "questions": 2451,
      "splashed": 2452,
      "Mar": 2453,
      "kin": 2454,
      "pri": 2455,
      "vide": 2456,
      "ond": 2457,
      "arry": 2458,
      "stubb": 2459,
      "nel": 2460,
      "exam": 2461,
      "wealthy": 2462,
      "shiver": 2463,
      "tern": 2464,
      "roc": 2465,
      "uring": 2466,
      "meal": 2467,
      "noon": 2468,
      "lax": 2469,
      "tears": 2470,
      "saying": 2471,
      "smaller": 2472,
      "famous": 2473,
      "mighty": 2474,
      "whistle": 2475,
      "tub": 2476,
      "wrap": 2477,
      "tunnel": 2478,
      "machine": 2479,
      "cushion": 2480,
      "Je": 2481,
      "ience": 2482,
      "og": 2483,
      "toast": 2484,
      "regu": 2485,
      "relax": 2486,
      "issor": 2487,
      "island": 2488,
      "imed": 2489,
      "goose": 2490,
      "moving": 2491,
      "managed": 2492,
      "learning": 2493,
      "airplane": 2494,
      "scissor": 2495,
      "giggled": 2496,
      "dolphin": 2497,
      "suggested": 2498,
      "fragile": 2499,
      "regular": 2500,
      "scissors": 2501,
      "Bet": 2502,
      "Little": 2503,
      "Whe": 2504,
      "Would": 2505,
      "aw": 2506,
      "drank": 2507,
      "four": 2508,
      "tire": 2509,
      "erce": 2510,
      "vest": 2511,
      "asking": 2512,
      "lift": 2513,
      "shone": 2514,
      "pebb": 2515,
      "delight": 2516,
      "cage": 2517,
      "group": 2518,
      "excitedly": 2519,
      "angle": 2520,
      "clum": 2521,
      "brace": 2522,
      "loudly": 2523,
      "fierce": 2524,
      "stronger": 2525,
      "rushed": 2526,
      "cookie": 2527,
      "borrow": 2528,
      "drawing": 2529,
      "balloons": 2530,
      "persist": 2531,
      "breakfast": 2532,
      "crawled": 2533,
      "invited": 2534,
      "thinking": 2535,
      "study": 2536,
      "successful": 2537,
      "Brownie": 2538,
      "stairs": 2539,
      "Le": 2540,
      "Pat": 2541,
      "cing": 2542,
      "number": 2543,
      "pump": 2544,
      "sort": 2545,
      "eng": 2546,
      "lose": 2547,
      "igator": 2548,
      "alligator": 2549,
      "escape": 2550,
      "stove": 2551,
      "working": 2552,
      "excla": 2553,
      "cient": 2554,
      "Your": 2555,
      "tem": 2556,
      "drew": 2557,
      "ighted": 2558,
      "replace": 2559,
      "fridge": 2560,
      "standing": 2561,
      "flut": 2562,
      "stubborn": 2563,
      ",”": 2564,
      "Rose": 2565,
      "cam": 2566,
      "fat": 2567,
      "ito": 2568,
      "oc": 2569,
      "sca": 2570,
      "heal": 2571,
      "reli": 2572,
      "stamp": 2573,
      "load": 2574,
      "neat": 2575,
      "bell": 2576,
      "become": 2577,
      "ates": 2578,
      "vet": 2579,
      "mosqu": 2580,
      "sadly": 2581,
      "bull": 2582,
      "keeper": 2583,
      "cleaned": 2584,
      "Joey": 2585,
      "marry": 2586,
      "cooler": 2587,
      "fluffy": 2588,
      "pattern": 2589,
      "triangle": 2590,
      "trap": 2591,
      "wagged": 2592,
      "shells": 2593,
      "lively": 2594,
      "bald": 2595,
      "bulb": 2596,
      "stretch": 2597,
      "stumbled": 2598,
      "delighted": 2599,
      "courage": 2600,
      "changed": 2601,
      "harmless": 2602,
      "bracelet": 2603,
      "persistent": 2604,
      "exclaimed": 2605,
      "reliable": 2606,
      "mosquito": 2607,
      "Char": 2608,
      "Dan": 2609,
      "Next": 2610,
      "Po": 2611,
      "camp": 2612,
      "fre": 2613,
      "nature": 2614,
      "pay": 2615,
      "sle": 2616,
      "sink": 2617,
      "sighed": 2618,
      "wip": 2619,
      "yog": 2620,
      "zor": 2621,
      "ancient": 2622,
      "wake": 2623,
      "straw": 2624,
      "igloo": 2625,
      "happiness": 2626,
      "bove": 2627,
      "sport": 2628,
      "aced": 2629,
      "harder": 2630,
      "finding": 2631,
      "tray": 2632,
      "compet": 2633,
      "louder": 2634,
      "favour": 2635,
      "juicy": 2636,
      "carrying": 2637,
      "finger": 2638,
      "humble": 2639,
      "balance": 2640,
      "solve": 2641,
      "Nemo": 2642,
      "penguin": 2643,
      "clumsy": 2644,
      "camera": 2645,
      "competit": 2646,
      "Budd": 2647,
      "Mandy": 2648,
      "Un": 2649,
      "above": 2650,
      "brill": 2651,
      "ipp": 2652,
      "iant": 2653,
      "knight": 2654,
      "kitten": 2655,
      "norm": 2656,
      "vice": 2657,
      "order": 2658,
      "exper": 2659,
      "soar": 2660,
      "lifted": 2661,
      "gem": 2662,
      "razor": 2663,
      "pear": 2664,
      "laun": 2665,
      "fac": 2666,
      "seem": 2667,
      "puts": 2668,
      "puter": 2669,
      "spill": 2670,
      "useful": 2671,
      "speed": 2672,
      "acce": 2673,
      "pool": 2674,
      "comple": 2675,
      "compass": 2676,
      "computer": 2677,
      "expens": 2678,
      "gives": 2679,
      "afternoon": 2680,
      "swinging": 2681,
      "irsty": 2682,
      "airport": 2683,
      "guil": 2684,
      "sleepy": 2685,
      "painted": 2686,
      "painting": 2687,
      "match": 2688,
      "growing": 2689,
      "celebrate": 2690,
      "tools": 2691,
      "poured": 2692,
      "bossy": 2693,
      "flashlight": 2694,
      "favourite": 2695,
      "Buddy": 2696,
      "brilliant": 2697,
      "normal": 2698,
      "expensive": 2699,
      "Bear": 2700,
      "Hen": 2701,
      "Jess": 2702,
      "Stop": 2703,
      "rid": 2704,
      "sudden": 2705,
      "scr": 2706,
      "inal": 2707,
      "lea": 2708,
      "ley": 2709,
      "orig": 2710,
      "chir": 2711,
      "boot": 2712,
      "raced": 2713,
      "rose": 2714,
      "umb": 2715,
      "fool": 2716,
      "turtle": 2717,
      "serve": 2718,
      "ations": 2719,
      "bags": 2720,
      "crazy": 2721,
      "driving": 2722,
      "valu": 2723,
      "buttons": 2724,
      "kiss": 2725,
      "Teddy": 2726,
      "sandwich": 2727,
      "ticket": 2728,
      "Susie": 2729,
      "factory": 2730,
      "guilty": 2731,
      "Henry": 2732,
      "original": 2733,
      "Lilly": 2734,
      "Ton": 2735,
      "cate": 2736,
      "horn": 2737,
      "mes": 2738,
      "tom": 2739,
      "ince": 2740,
      "stup": 2741,
      "sell": 2742,
      "licked": 2743,
      "shield": 2744,
      "jolly": 2745,
      "team": 2746,
      "bushes": 2747,
      "tru": 2748,
      "trum": 2749,
      "picking": 2750,
      "raining": 2751,
      "create": 2752,
      "Bobby": 2753,
      "using": 2754,
      "discover": 2755,
      "married": 2756,
      "brothers": 2757,
      "musician": 2758,
      "bottom": 2759,
      "Tweetie": 2760,
      "giving": 2761,
      "sub": 2762,
      "Sometimes": 2763,
      "library": 2764,
      "foolish": 2765,
      "valuable": 2766,
      "stupid": 2767,
      "Sop": 2768,
      "est": 2769,
      "hun": 2770,
      "hie": 2771,
      "mitten": 2772,
      "scare": 2773,
      "tag": 2774,
      "xious": 2775,
      "anxious": 2776,
      "resc": 2777,
      "repair": 2778,
      "washed": 2779,
      "lean": 2780,
      "ordin": 2781,
      "selves": 2782,
      "sock": 2783,
      "ado": 2784,
      "feed": 2785,
      "shut": 2786,
      "cannot": 2787,
      "udge": 2788,
      "scarf": 2789,
      "turkey": 2790,
      "nicely": 2791,
      "disgust": 2792,
      "delicate": 2793,
      "marched": 2794,
      "Toby": 2795,
      "means": 2796,
      "jelly": 2797,
      "purse": 2798,
      "belonged": 2799,
      "organize": 2800,
      "golden": 2801,
      "cycle": 2802,
      "impressed": 2803,
      "admired": 2804,
      "scale": 2805,
      "slept": 2806,
      "compassion": 2807,
      "subway": 2808,
      "Sophie": 2809,
      "rescue": 2810,
      "ordinary": 2811,
      "disgusting": 2812,
      "Kim": 2813,
      "Me": 2814,
      "barn": 2815,
      "cil": 2816,
      "cab": 2817,
      "kang": 2818,
      "wife": 2819,
      "enny": 2820,
      "aroo": 2821,
      "omas": 2822,
      "llip": 2823,
      "orry": 2824,
      "lollip": 2825,
      "thirsty": 2826,
      "rare": 2827,
      "shroom": 2828,
      "petal": 2829,
      "moon": 2830,
      "ured": 2831,
      "grown": 2832,
      "proudly": 2833,
      "cheer": 2834,
      "izzy": 2835,
      "flea": 2836,
      "hurts": 2837,
      "Thomas": 2838,
      "butterflies": 2839,
      "medic": 2840,
      "sleeping": 2841,
      "crown": 2842,
      "fields": 2843,
      "pencil": 2844,
      "falling": 2845,
      "grapes": 2846,
      "crawl": 2847,
      "unique": 2848,
      "spoiled": 2849,
      "roared": 2850,
      "brush": 2851,
      "twirled": 2852,
      "cobwe": 2853,
      "laundry": 2854,
      "trumpet": 2855,
      "kangaroo": 2856,
      "lollipop": 2857,
      "petals": 2858,
      "Ge": 2859,
      "az": 2860,
      "avo": 2861,
      "cudd": 2862,
      "dive": 2863,
      "mill": 2864,
      "mod": 2865,
      "erry": 2866,
      "ingred": 2867,
      "orge": 2868,
      "thie": 2869,
      "those": 2870,
      "cel": 2871,
      "placed": 2872,
      "veil": 2873,
      "advice": 2874,
      "aled": 2875,
      "forth": 2876,
      "goal": 2877,
      "pee": 2878,
      "hose": 2879,
      "hook": 2880,
      "depend": 2881,
      "cart": 2882,
      "carpet": 2883,
      "!\".": 2884,
      "ranch": 2885,
      "nosy": 2886,
      "mushroom": 2887,
      "decide": 2888,
      "yell": 2889,
      "showing": 2890,
      "pale": 2891,
      "handed": 2892,
      "serious": 2893,
      "snuggled": 2894,
      "Before": 2895,
      "clap": 2896,
      "crab": 2897,
      "Mrs": 2898,
      "knob": 2899,
      "counting": 2900,
      "necklace": 2901,
      "Whenever": 2902,
      "cabin": 2903,
      "George": 2904,
      "modern": 2905,
      "ingredient": 2906,
      "Bl": 2907,
      "Bunny": 2908,
      "ahead": 2909,
      "fine": 2910,
      "gun": 2911,
      "grace": 2912,
      "mand": 2913,
      "mask": 2914,
      "obed": 2915,
      "rough": 2916,
      "uli": 2917,
      "xy": 2918,
      "anut": 2919,
      "reinde": 2920,
      "sta": 2921,
      "stri": 2922,
      "ending": 2923,
      "verse": 2924,
      "Help": 2925,
      "soap": 2926,
      "peanut": 2927,
      "deer": 2928,
      "urt": 2929,
      "closet": 2930,
      "skip": 2931,
      "skull": 2932,
      "beak": 2933,
      "needs": 2934,
      "surf": 2935,
      "cleaning": 2936,
      "lights": 2937,
      "twist": 2938,
      "dreamed": 2939,
      "glass": 2940,
      "mixed": 2941,
      "wrapped": 2942,
      "imagined": 2943,
      "mission": 2944,
      "circles": 2945,
      "motorcycle": 2946,
      "ignorant": 2947,
      "filthy": 2948,
      "compassionate": 2949,
      "medicine": 2950,
      "obedient": 2951,
      "Harry": 2952,
      "Tina": 2953,
      "bitter": 2954,
      "por": 2955,
      "tro": 2956,
      "witch": 2957,
      "yach": 2958,
      "eral": 2959,
      "atch": 2960,
      "plate": 2961,
      "rice": 2962,
      "added": 2963,
      "weigh": 2964,
      "playful": 2965,
      "notice": 2966,
      "memor": 2967,
      "oped": 2968,
      "quite": 2969,
      "ucked": 2970,
      "harbor": 2971,
      "paid": 2972,
      "puzz": 2973,
      "office": 2974,
      "warned": 2975,
      "colours": 2976,
      "berry": 2977,
      "sorts": 2978,
      "badly": 2979,
      "cakes": 2980,
      "market": 2981,
      "missing": 2982,
      "candle": 2983,
      "icycle": 2984,
      "explored": 2985,
      "sity": 2986,
      "neighb": 2987,
      "package": 2988,
      "bathroom": 2989,
      "cupboard": 2990,
      "bouncing": 2991,
      "zoomed": 2992,
      "football": 2993,
      "bananas": 2994,
      "human": 2995,
      "rubbed": 2996,
      "pebble": 2997,
      "hunter": 2998,
      "dependable": 2999,
      "Co": 3000,
      "Give": 3001,
      "Sp": 3002,
      "St": 3003,
      "apo": 3004,
      "bree": 3005,
      "bump": 3006,
      "cher": 3007,
      "drain": 3008,
      "dizzy": 3009,
      "fis": 3010,
      "fant": 3011,
      "nal": 3012,
      "nur": 3013,
      "tummy": 3014,
      "xible": 3015,
      "yarn": 3016,
      "rem": 3017,
      "repe": 3018,
      "refused": 3019,
      "erc": 3020,
      "leop": 3021,
      "seal": 3022,
      "exerc": 3023,
      "alous": 3024,
      "moms": 3025,
      "biggest": 3026,
      "friendship": 3027,
      "themselves": 3028,
      "Everything": 3029,
      "flexible": 3030,
      "deliver": 3031,
      "sounded": 3032,
      "cooking": 3033,
      "sweetie": 3034,
      "mineral": 3035,
      "hairy": 3036,
      "further": 3037,
      "clapping": 3038,
      "trail": 3039,
      "jealous": 3040,
      "joined": 3041,
      "glue": 3042,
      "journal": 3043,
      "throwing": 3044,
      "bounced": 3045,
      "balanc": 3046,
      "independ": 3047,
      "impressive": 3048,
      "fearful": 3049,
      "eggs": 3050,
      "record": 3051,
      "prize": 3052,
      "wiped": 3053,
      "Tony": 3054,
      "celery": 3055,
      "ingredients": 3056,
      "yacht": 3057,
      "apolog": 3058,
      "breeze": 3059,
      "leopard": 3060,
      "Rex": 3061,
      "dig": 3062,
      "rise": 3063,
      "sil": 3064,
      "tied": 3065,
      "toile": 3066,
      "reward": 3067,
      "ison": 3068,
      "isted": 3069,
      "bet": 3070,
      "alert": 3071,
      "happier": 3072,
      "roy": 3073,
      "robe": 3074,
      "coo": 3075,
      "ummer": 3076,
      "cap": 3077,
      "birdie": 3078,
      "nowhere": 3079,
      "older": 3080,
      "switch": 3081,
      "ladder": 3082,
      "early": 3083,
      "telling": 3084,
      "trucks": 3085,
      "suit": 3086,
      "winter": 3087,
      "minute": 3088,
      "puddles": 3089,
      "basketball": 3090,
      "searching": 3091,
      "crayon": 3092,
      "Freddy": 3093,
      "whispered": 3094,
      "Leo": 3095,
      "independent": 3096,
      "Mim": 3097,
      "Sm": 3098,
      "Ste": 3099,
      "Sorry": 3100,
      "aid": 3101,
      "cries": 3102,
      "city": 3103,
      "five": 3104,
      "pas": 3105,
      "pipe": 3106,
      "ues": 3107,
      "wing": 3108,
      "reci": 3109,
      "resp": 3110,
      "ener": 3111,
      "bel": 3112,
      "cereal": 3113,
      "allowed": 3114,
      "ugged": 3115,
      "delay": 3116,
      "mole": 3117,
      "news": 3118,
      "makeup": 3119,
      "space": 3120,
      "Josh": 3121,
      "anyway": 3122,
      "tape": 3123,
      "cond": 3124,
      "trem": 3125,
      "parade": 3126,
      "squash": 3127,
      "chase": 3128,
      "brea": 3129,
      "magaz": 3130,
      "lightning": 3131,
      "sticks": 3132,
      "print": 3133,
      "Jenna": 3134,
      "perfectly": 3135,
      "dreaming": 3136,
      "doesn": 3137,
      "sparkled": 3138,
      "bathtub": 3139,
      "kayak": 3140,
      "distur": 3141,
      "scope": 3142,
      "imagine": 3143,
      "sweater": 3144,
      "destroy": 3145,
      "reminded": 3146,
      "practice": 3147,
      "shouting": 3148,
      "acorns": 3149,
      "microscope": 3150,
      "Betsy": 3151,
      "leaving": 3152,
      "staff": 3153,
      "fisher": 3154,
      "toilet": 3155,
      "Mimi": 3156,
      "Ame": 3157,
      "Bu": 3158,
      "Grace": 3159,
      "Sun": 3160,
      "dar": 3161,
      "ears": 3162,
      "ffin": 3163,
      "mild": 3164,
      "ping": 3165,
      "vend": 3166,
      "wiz": 3167,
      "intell": 3168,
      "ination": 3169,
      "anda": 3170,
      "rece": 3171,
      "return": 3172,
      "enorm": 3173,
      "image": 3174,
      "nes": 3175,
      "separ": 3176,
      "amond": 3177,
      "ador": 3178,
      "fortun": 3179,
      "hood": 3180,
      "deaf": 3181,
      "agree": 3182,
      "stared": 3183,
      "iches": 3184,
      "cane": 3185,
      "tooth": 3186,
      "wallet": 3187,
      "kingdom": 3188,
      "harsh": 3189,
      "popped": 3190,
      "dogs": 3191,
      "Thanks": 3192,
      "mistake": 3193,
      "closely": 3194,
      "trick": 3195,
      "ject": 3196,
      "penny": 3197,
      "given": 3198,
      "distant": 3199,
      "troubled": 3200,
      "shopkeeper": 3201,
      "uniform": 3202,
      "spoke": 3203,
      "rubber": 3204,
      "steps": 3205,
      "sandwiches": 3206,
      "diamond": 3207,
      "battery": 3208,
      "Suzy": 3209,
      "Charlie": 3210,
      "reindeer": 3211,
      "neighbour": 3212,
      "Ameli": 3213,
      "vendor": 3214,
      "wizard": 3215,
      "intellig": 3216,
      "enormous": 3217,
      "Bun": 3218,
      "aunt": 3219,
      "cone": 3220,
      "cco": 3221,
      "char": 3222,
      "cado": 3223,
      "ethe": 3224,
      "gue": 3225,
      "gloom": 3226,
      "lid": 3227,
      "size": 3228,
      "since": 3229,
      "tries": 3230,
      "zard": 3231,
      "reve": 3232,
      "itself": 3233,
      "ountain": 3234,
      "leton": 3235,
      "stack": 3236,
      "station": 3237,
      "ended": 3238,
      "keleton": 3239,
      "ribb": 3240,
      "chip": 3241,
      "lizard": 3242,
      "boo": 3243,
      "peach": 3244,
      "host": 3245,
      "coal": 3246,
      "worth": 3247,
      "gray": 3248,
      "gets": 3249,
      "axi": 3250,
      "wool": 3251,
      "careless": 3252,
      "cloth": 3253,
      "maze": 3254,
      "hurry": 3255,
      "hardly": 3256,
      "headed": 3257,
      "boats": 3258,
      "bookshelf": 3259,
      "Instead": 3260,
      "ruined": 3261,
      "restless": 3262,
      "boring": 3263,
      "bikes": 3264,
      "crack": 3265,
      "uggage": 3266,
      "value": 3267,
      "wander": 3268,
      "bounce": 3269,
      "sweethe": 3270,
      "decorate": 3271,
      "stirred": 3272,
      "gym": 3273,
      "melon": 3274,
      "screen": 3275,
      "pumpkin": 3276,
      "engine": 3277,
      "fresh": 3278,
      "competitive": 3279,
      "spilled": 3280,
      "avocado": 3281,
      "graceful": 3282,
      "Spike": 3283,
      "fisherman": 3284,
      "fortunately": 3285,
      "sweetheart": 3286,
      "Ollie": 3287,
      "azz": 3288,
      "cree": 3289,
      "fountain": 3290,
      "gir": 3291,
      "ghost": 3292,
      "hipp": 3293,
      "numb": 3294,
      "skeleton": 3295,
      "task": 3296,
      "taxi": 3297,
      "yal": 3298,
      "yield": 3299,
      "heli": 3300,
      "onion": 3301,
      "llen": 3302,
      "stat": 3303,
      "stra": 3304,
      "loyal": 3305,
      "uncle": 3306,
      "goes": 3307,
      "demand": 3308,
      "putting": 3309,
      "sunflower": 3310,
      "balls": 3311,
      "uct": 3312,
      "page": 3313,
      "boxes": 3314,
      "marble": 3315,
      "mint": 3316,
      "affe": 3317,
      "climbing": 3318,
      "barrel": 3319,
      "travel": 3320,
      "jeep": 3321,
      "dreams": 3322,
      "queen": 3323,
      "point": 3324,
      "wandered": 3325,
      "kissed": 3326,
      "pushing": 3327,
      "copter": 3328,
      "barking": 3329,
      "blowing": 3330,
      "classroom": 3331,
      "soldier": 3332,
      "pirate": 3333,
      "video": 3334,
      "flute": 3335,
      "yogurt": 3336,
      "cobweb": 3337,
      "nurse": 3338,
      "Smith": 3339,
      "intelligent": 3340,
      "gloomy": 3341,
      "giraffe": 3342,
      "hippo": 3343,
      "helicopter": 3344,
      "James": 3345,
      "Mill": 3346,
      "dug": 3347,
      "daisy": 3348,
      "gum": 3349,
      "scold": 3350,
      "yet": 3351,
      "yaw": 3352,
      "hears": 3353,
      "toma": 3354,
      "infant": 3355,
      "enth": 3356,
      "stic": 3357,
      "ilt": 3358,
      "loe": 3359,
      "hadn": 3360,
      "lives": 3361,
      "carto": 3362,
      "coll": 3363,
      "coins": 3364,
      "fog": 3365,
      "capt": 3366,
      "cauli": 3367,
      "muffin": 3368,
      "uckily": 3369,
      "teas": 3370,
      "thoughtful": 3371,
      "poked": 3372,
      "yours": 3373,
      "comb": 3374,
      "cheap": 3375,
      "clay": 3376,
      "steak": 3377,
      "cuss": 3378,
      "rocket": 3379,
      "discuss": 3380,
      "brighter": 3381,
      "chasing": 3382,
      "chose": 3383,
      "softly": 3384,
      "tripped": 3385,
      "danger": 3386,
      "pasta": 3387,
      "attic": 3388,
      "invite": 3389,
      "pige": 3390,
      "Chloe": 3391,
      "folded": 3392,
      "rolling": 3393,
      "celebrated": 3394,
      "slides": 3395,
      "maybe": 3396,
      "Ruby": 3397,
      "temple": 3398,
      "complete": 3399,
      "truth": 3400,
      "Blue": 3401,
      "Steve": 3402,
      "magazine": 3403,
      "adorable": 3404,
      "numbers": 3405,
      "straight": 3406,
      "Millie": 3407,
      "enthus": 3408,
      "Cat": 3409,
      "Ellie": 3410,
      "Jerry": 3411,
      "bi": 3412,
      "cran": 3413,
      "croc": 3414,
      "jug": 3415,
      "judge": 3416,
      "rh": 3417,
      "summer": 3418,
      "vious": 3419,
      "vator": 3420,
      "zie": 3421,
      "heat": 3422,
      "anch": 3423,
      "ants": 3424,
      "ines": 3425,
      "incl": 3426,
      "refr": 3427,
      "regre": 3428,
      "impro": 3429,
      "thunder": 3430,
      "belt": 3431,
      "hats": 3432,
      "second": 3433,
      "unlock": 3434,
      "raven": 3435,
      "dear": 3436,
      "dead": 3437,
      "cared": 3438,
      "odile": 3439,
      "helpless": 3440,
      "cact": 3441,
      "spir": 3442,
      "math": 3443,
      "comed": 3444,
      "bears": 3445,
      "evening": 3446,
      "perform": 3447,
      "shaking": 3448,
      "shouldn": 3449,
      "shoulder": 3450,
      "shoot": 3451,
      "shark": 3452,
      "listening": 3453,
      "wardrobe": 3454,
      "snif": 3455,
      "pony": 3456,
      "Moo": 3457,
      "flame": 3458,
      "welcomed": 3459,
      "trave": 3460,
      "angel": 3461,
      "elevator": 3462,
      "quietly": 3463,
      "attent": 3464,
      "sailor": 3465,
      "fingers": 3466,
      "igerator": 3467,
      "giggle": 3468,
      "chewed": 3469,
      "pinch": 3470,
      "stretched": 3471,
      "complain": 3472,
      "sneezed": 3473,
      "message": 3474,
      "porch": 3475,
      "cooked": 3476,
      "statue": 3477,
      "collar": 3478,
      "cauliflower": 3479,
      "crocodile": 3480,
      "anchor": 3481,
      "refrigerator": 3482,
      "regret": 3483,
      "cactus": 3484,
      "Bon": 3485,
      "Cla": 3486,
      "Ho": 3487,
      "Nina": 3488,
      "Penny": 3489,
      "aked": 3490,
      "bicycle": 3491,
      "during": 3492,
      "hut": 3493,
      "ither": 3494,
      "lter": 3495,
      "ost": 3496,
      "oak": 3497,
      "pian": 3498,
      "panda": 3499,
      "ray": 3500,
      "tled": 3501,
      "vine": 3502,
      "yum": 3503,
      "impatient": 3504,
      "stal": 3505,
      "thread": 3506,
      "beg": 3507,
      "ceed": 3508,
      "weighed": 3509,
      "helps": 3510,
      "quake": 3511,
      "tele": 3512,
      "houses": 3513,
      "offer": 3514,
      "cus": 3515,
      "Janey": 3516,
      "frowned": 3517,
      "doors": 3518,
      "shoe": 3519,
      "squee": 3520,
      "choose": 3521,
      "floated": 3522,
      "tricks": 3523,
      "drawings": 3524,
      "understanding": 3525,
      "mustache": 3526,
      "comfort": 3527,
      "bene": 3528,
      "writing": 3529,
      "decorations": 3530,
      "practiced": 3531,
      "spring": 3532,
      "shade": 3533,
      "peeked": 3534,
      "creek": 3535,
      "attention": 3536,
      "Claire": 3537,
      "ostrich": 3538,
      "piano": 3539,
      "Lou": 3540,
      "Pip": 3541,
      "Yay": 3542,
      "bent": 3543,
      "dull": 3544,
      "ffle": 3545,
      "len": 3546,
      "mm": 3547,
      "mama": 3548,
      "nce": 3549,
      "pted": 3550,
      "pho": 3551,
      "sen": 3552,
      "ti": 3553,
      "tucked": 3554,
      "zzy": 3555,
      "waffle": 3556,
      "arian": 3557,
      "lope": 3558,
      "iron": 3559,
      "shelter": 3560,
      "chance": 3561,
      "dove": 3562,
      "peek": 3563,
      "covery": 3564,
      "melt": 3565,
      "law": 3566,
      "reef": 3567,
      "prepare": 3568,
      "poss": 3569,
      "ctive": 3570,
      "pota": 3571,
      "fireplace": 3572,
      "discovery": 3573,
      "chamber": 3574,
      "explain": 3575,
      "twink": 3576,
      "continue": 3577,
      "flood": 3578,
      "planes": 3579,
      "created": 3580,
      "stranger": 3581,
      "forgotten": 3582,
      "pretending": 3583,
      "kneel": 3584,
      "pointing": 3585,
      "fruits": 3586,
      "gging": 3587,
      "crawling": 3588,
      "hoping": 3589,
      "However": 3590,
      "succeed": 3591,
      "kicked": 3592,
      "earthquake": 3593,
      "palace": 3594,
      "experience": 3595,
      "pearl": 3596,
      "chirping": 3597,
      "thief": 3598,
      "cabinet": 3599,
      "energy": 3600,
      "charming": 3601,
      "crane": 3602,
      "spirit": 3603,
      "photo": 3604,
      "Happ": 3605,
      "Luckily": 3606,
      "apr": 3607,
      "dough": 3608,
      "ging": 3609,
      "lend": 3610,
      "lab": 3611,
      "mas": 3612,
      "mummy": 3613,
      "ng": 3614,
      "oat": 3615,
      "sof": 3616,
      "sup": 3617,
      "sie": 3618,
      "vi": 3619,
      "waving": 3620,
      "remove": 3621,
      "envious": 3622,
      "erable": 3623,
      "ambul": 3624,
      "uncomfortable": 3625,
      "ween": 3626,
      "hedge": 3627,
      "nobody": 3628,
      "birdcage": 3629,
      "spell": 3630,
      "aches": 3631,
      "Everyday": 3632,
      "post": 3633,
      "sunset": 3634,
      "knows": 3635,
      "iastic": 3636,
      "steel": 3637,
      "appro": 3638,
      "appreci": 3639,
      "challen": 3640,
      "contain": 3641,
      "magnet": 3642,
      "flour": 3643,
      "choice": 3644,
      "miserable": 3645,
      "streng": 3646,
      "planet": 3647,
      "grandpa": 3648,
      "visited": 3649,
      "sparkle": 3650,
      "strugg": 3651,
      "drinks": 3652,
      "tube": 3653,
      "Chris": 3654,
      "splashing": 3655,
      "curled": 3656,
      "object": 3657,
      "wheels": 3658,
      "Paul": 3659,
      "Maria": 3660,
      "Jeff": 3661,
      "between": 3662,
      "enthusiastic": 3663,
      "beneath": 3664,
      "potatoes": 3665,
      "sofa": 3666,
      "super": 3667,
      "ambulance": 3668,
      "!'": 3669,
      "El": 3670,
      "Nut": 3671,
      "apart": 3672,
      "either": 3673,
      "gate": 3674,
      "jail": 3675,
      "men": 3676,
      "nit": 3677,
      "nown": 3678,
      "pun": 3679,
      "scat": 3680,
      "suff": 3681,
      "tain": 3682,
      "usage": 3683,
      "ubby": 3684,
      "yan": 3685,
      "inse": 3686,
      "inking": 3687,
      "invest": 3688,
      "enve": 3689,
      "iss": 3690,
      "sausage": 3691,
      "stable": 3692,
      "stage": 3693,
      "igate": 3694,
      "asses": 3695,
      "chubby": 3696,
      "tered": 3697,
      "coa": 3698,
      "boys": 3699,
      "oper": 3700,
      "jogging": 3701,
      "tease": 3702,
      "antly": 3703,
      "cats": 3704,
      "poppy": 3705,
      "papers": 3706,
      "comet": 3707,
      "ction": 3708,
      "chain": 3709,
      "tells": 3710,
      "following": 3711,
      "Because": 3712,
      "lands": 3713,
      "furnit": 3714,
      "zebra": 3715,
      "pastry": 3716,
      "unknown": 3717,
      "circus": 3718,
      "mystery": 3719,
      "design": 3720,
      "missile": 3721,
      "support": 3722,
      "curtain": 3723,
      "radishes": 3724,
      "respectful": 3725,
      "shadow": 3726,
      "weeks": 3727,
      "resist": 3728,
      "beans": 3729,
      "examine": 3730,
      "Jessie": 3731,
      "remained": 3732,
      "passport": 3733,
      "separate": 3734,
      "tomato": 3735,
      "possible": 3736,
      "Happy": 3737,
      "apron": 3738,
      "strength": 3739,
      "Nutty": 3740,
      "investigate": 3741,
      "envelope": 3742,
      "furniture": 3743,
      "Flo": 3744,
      "First": 3745,
      "Lis": 3746,
      "Ow": 3747,
      "Red": 3748,
      "Rache": 3749,
      "Ryan": 3750,
      "aa": 3751,
      "dd": 3752,
      "ding": 3753,
      "fed": 3754,
      "jet": 3755,
      "nation": 3756,
      "send": 3757,
      "slice": 3758,
      "va": 3759,
      "wine": 3760,
      "request": 3761,
      "reverse": 3762,
      "leash": 3763,
      "sting": 3764,
      "attra": 3765,
      "girls": 3766,
      "meas": 3767,
      "fauce": 3768,
      "opin": 3769,
      "mule": 3770,
      "skill": 3771,
      "pole": 3772,
      "trash": 3773,
      "shows": 3774,
      "offic": 3775,
      "shape": 3776,
      "surround": 3777,
      "frown": 3778,
      "crystal": 3779,
      "dishes": 3780,
      "square": 3781,
      "warmth": 3782,
      "duckling": 3783,
      "haircut": 3784,
      "glasses": 3785,
      "knock": 3786,
      "cheek": 3787,
      "valley": 3788,
      "baking": 3789,
      "scooped": 3790,
      "country": 3791,
      "meeting": 3792,
      "trusted": 3793,
      "Papa": 3794,
      "Suzie": 3795,
      "seeds": 3796,
      "accepted": 3797,
      "riding": 3798,
      "scratch": 3799,
      "Buzz": 3800,
      "scolded": 3801,
      "cartoon": 3802,
      "captain": 3803,
      "telephone": 3804,
      "Lisa": 3805,
      "Rachel": 3806,
      "faucet": 3807,
      "..": 3808,
      "Did": 3809,
      "Dee": 3810,
      "Each": 3811,
      "God": 3812,
      "Ke": 3813,
      "Squ": 3814,
      "aur": 3815,
      "apon": 3816,
      "ey": 3817,
      "ga": 3818,
      "gn": 3819,
      "gloves": 3820,
      "io": 3821,
      "knot": 3822,
      "lmet": 3823,
      "luggage": 3824,
      "tti": 3825,
      "ws": 3826,
      "wishes": 3827,
      "yucky": 3828,
      "helmet": 3829,
      "hetti": 3830,
      "topu": 3831,
      "reco": 3832,
      "hay": 3833,
      "argu": 3834,
      "salt": 3835,
      "bees": 3836,
      "below": 3837,
      "expe": 3838,
      "weapon": 3839,
      "fest": 3840,
      "somewhere": 3841,
      "aghetti": 3842,
      "mop": 3843,
      "backpack": 3844,
      "nore": 3845,
      "spaghetti": 3846,
      "quar": 3847,
      "accompl": 3848,
      "built": 3849,
      "eaten": 3850,
      "trade": 3851,
      "perfor": 3852,
      "tress": 3853,
      "grey": 3854,
      "guess": 3855,
      "rub": 3856,
      "restaur": 3857,
      "sym": 3858,
      "laughs": 3859,
      "taller": 3860,
      "moments": 3861,
      "Maya": 3862,
      "mattress": 3863,
      "castles": 3864,
      "hotel": 3865,
      "believed": 3866,
      "creatures": 3867,
      "easily": 3868,
      "astic": 3869,
      "scoot": 3870,
      "folder": 3871,
      "clearing": 3872,
      "dolphins": 3873,
      "glowed": 3874,
      "glowing": 3875,
      "paws": 3876,
      "admire": 3877,
      "vanished": 3878,
      "gasped": 3879,
      "relaxed": 3880,
      "octopu": 3881,
      "strawberry": 3882,
      "balanced": 3883,
      "marbles": 3884,
      "pigeon": 3885,
      "approached": 3886,
      "opinion": 3887,
      "recogn": 3888,
      "restaurant": 3889,
      "octopus": 3890,
      "Frank": 3891,
      "Jan": 3892,
      "Sad": 3893,
      "Tues": 3894,
      "Zo": 3895,
      "awe": 3896,
      "cri": 3897,
      "dic": 3898,
      "groc": 3899,
      "ki": 3900,
      "mare": 3901,
      "nies": 3902,
      "snap": 3903,
      "tion": 3904,
      "wis": 3905,
      "wigg": 3906,
      "ining": 3907,
      "washer": 3908,
      "arrow": 3909,
      "imney": 3910,
      "behave": 3911,
      "utious": 3912,
      "igger": 3913,
      "ignore": 3914,
      "kets": 3915,
      "myself": 3916,
      "otter": 3917,
      "weep": 3918,
      "weather": 3919,
      "chimney": 3920,
      "lick": 3921,
      "forgave": 3922,
      "enter": 3923,
      "bol": 3924,
      "short": 3925,
      "Its": 3926,
      "ideas": 3927,
      "fuel": 3928,
      "hoop": 3929,
      "holid": 3930,
      "model": 3931,
      "starting": 3932,
      "pru": 3933,
      "label": 3934,
      "seeing": 3935,
      "poke": 3936,
      "anywhere": 3937,
      "runch": 3938,
      "safety": 3939,
      "brain": 3940,
      "steam": 3941,
      "cub": 3942,
      "served": 3943,
      "workers": 3944,
      "nightmare": 3945,
      "disappear": 3946,
      "difference": 3947,
      "towers": 3948,
      "stops": 3949,
      "barber": 3950,
      "claws": 3951,
      "cord": 3952,
      "blankets": 3953,
      "pastel": 3954,
      "ppery": 3955,
      "slippery": 3956,
      "eagerly": 3957,
      "known": 3958,
      "Roxy": 3959,
      "radio": 3960,
      "sprink": 3961,
      "screw": 3962,
      "pirates": 3963,
      "dishwasher": 3964,
      "loaded": 3965,
      "Poppy": 3966,
      "Unfortunately": 3967,
      "leaned": 3968,
      "repeat": 3969,
      "apologized": 3970,
      "silver": 3971,
      "recei": 3972,
      "revealed": 3973,
      "includ": 3974,
      "Bongo": 3975,
      "suffer": 3976,
      "attractive": 3977,
      "Squirrel": 3978,
      "quarrel": 3979,
      "symbol": 3980,
      "Zoe": 3981,
      "diction": 3982,
      "holiday": 3983,
      "dictionary": 3984,
      "\",": 3985,
      "Abig": 3986,
      "For": 3987,
      "Gina": 3988,
      "Liz": 3989,
      "Ok": 3990,
      "Wa": 3991,
      "bun": 3992,
      "fied": 3993,
      "ival": 3994,
      "rust": 3995,
      "sla": 3996,
      "wipe": 3997,
      "zing": 3998,
      "toe": 3999,
      "tour": 4000,
      "immed": 4001,
      "beam": 4002,
      "atched": 4003,
      "seum": 4004,
      "sheet": 4005,
      "exact": 4006,
      "riage": 4007,
      "alive": 4008,
      "alright": 4009,
      "alarm": 4010,
      "weight": 4011,
      "root": 4012,
      "weren": 4013,
      "pepper": 4014,
      "modest": 4015,
      "meat": 4016,
      "meowed": 4017,
      "cautious": 4018,
      "museum": 4019,
      "spade": 4020,
      "spike": 4021,
      "map": 4022,
      "learnt": 4023,
      "clu": 4024,
      "turning": 4025,
      "bravely": 4026,
      "keeping": 4027,
      "sert": 4028,
      "sque": 4029,
      "rush": 4030,
      "Finn": 4031,
      "petted": 4032,
      "avail": 4033,
      "crow": 4034,
      "holds": 4035,
      "People": 4036,
      "neighborhood": 4037,
      "cups": 4038,
      "ggy": 4039,
      "slip": 4040,
      "question": 4041,
      "bandage": 4042,
      "reminder": 4043,
      "flav": 4044,
      "stuffed": 4045,
      "sprayed": 4046,
      "accept": 4047,
      "puzzle": 4048,
      "bumped": 4049,
      "respons": 4050,
      "challenge": 4051,
      "operation": 4052,
      "festival": 4053,
      "scooter": 4054,
      "Abigail": 4055,
      "Wait": 4056,
      "bunnies": 4057,
      "Al": 4058,
      "Fe": 4059,
      "Is": 4060,
      "Mel": 4061,
      "Matt": 4062,
      "Mmm": 4063,
      "aking": 4064,
      "bang": 4065,
      "cts": 4066,
      "crunch": 4067,
      "jazz": 4068,
      "kitty": 4069,
      "luck": 4070,
      "pil": 4071,
      "padd": 4072,
      "sses": 4073,
      "tol": 4074,
      "instr": 4075,
      "reas": 4076,
      "rend": 4077,
      "leak": 4078,
      "saving": 4079,
      "offe": 4080,
      "herbs": 4081,
      "beat": 4082,
      "hated": 4083,
      "unhappy": 4084,
      "admir": 4085,
      "player": 4086,
      "entered": 4087,
      "roof": 4088,
      "umbs": 4089,
      "icing": 4090,
      "stolen": 4091,
      "quack": 4092,
      "achie": 4093,
      "speak": 4094,
      "acy": 4095,
      "prepar": 4096,
      "poem": 4097,
      "sunglasses": 4098,
      "swung": 4099,
      "trad": 4100,
      "shower": 4101,
      "paused": 4102,
      "bling": 4103,
      "reading": 4104,
      "appla": 4105,
      "torn": 4106,
      "marriage": 4107,
      "drop": 4108,
      "planned": 4109,
      "crash": 4110,
      "touching": 4111,
      "squirrels": 4112,
      "provide": 4113,
      "deeper": 4114,
      "falls": 4115,
      "growled": 4116,
      "younger": 4117,
      "patiently": 4118,
      "cows": 4119,
      "attach": 4120,
      "sailboat": 4121,
      "collection": 4122,
      "letters": 4123,
      "dessert": 4124,
      "mailbox": 4125,
      "chickens": 4126,
      "Susan": 4127,
      "flapped": 4128,
      "Remy": 4129,
      "laces": 4130,
      "burn": 4131,
      "pupil": 4132,
      "stretching": 4133,
      "peanuts": 4134,
      "memories": 4135,
      "exercise": 4136,
      "breathe": 4137,
      "Sunday": 4138,
      "struggling": 4139,
      "surrounded": 4140,
      "received": 4141,
      "exactly": 4142,
      "club": 4143,
      "available": 4144,
      "pilot": 4145,
      "offee": 4146,
      "Dav": 4147,
      "base": 4148,
      "bison": 4149,
      "coffee": 4150,
      "digg": 4151,
      "event": 4152,
      "gie": 4153,
      "grill": 4154,
      "iately": 4155,
      "lu": 4156,
      "las": 4157,
      "lumber": 4158,
      "mome": 4159,
      "mug": 4160,
      "pis": 4161,
      "uage": 4162,
      "theater": 4163,
      "onions": 4164,
      "sailing": 4165,
      "sty": 4166,
      "soaked": 4167,
      "unic": 4168,
      "unite": 4169,
      "lier": 4170,
      "happiest": 4171,
      "thermome": 4172,
      "aggie": 4173,
      "loop": 4174,
      "spear": 4175,
      "prevent": 4176,
      "anguage": 4177,
      "polar": 4178,
      "warning": 4179,
      "checked": 4180,
      "rabbits": 4181,
      "surrend": 4182,
      "hurri": 4183,
      "ledge": 4184,
      "brocco": 4185,
      "shocked": 4186,
      "lotion": 4187,
      "nods": 4188,
      "dressed": 4189,
      "floating": 4190,
      "Doggy": 4191,
      "lions": 4192,
      "sweets": 4193,
      "phy": 4194,
      "track": 4195,
      "metal": 4196,
      "insisted": 4197,
      "treasures": 4198,
      "fallen": 4199,
      "knelt": 4200,
      "shined": 4201,
      "bringing": 4202,
      "jamas": 4203,
      "panic": 4204,
      "pants": 4205,
      "secrets": 4206,
      "crossed": 4207,
      "destination": 4208,
      "spending": 4209,
      "twigs": 4210,
      "Remember": 4211,
      "Davey": 4212,
      "jokes": 4213,
      "lollipops": 4214,
      "strike": 4215,
      "trophy": 4216,
      "cherry": 4217,
      "ribbon": 4218,
      "pages": 4219,
      "teasing": 4220,
      "insect": 4221,
      "Tuesday": 4222,
      "wisdom": 4223,
      "immediately": 4224,
      "David": 4225,
      "laser": 4226,
      "pistol": 4227,
      "thermometer": 4228,
      "broccoli": 4229,
      "Any": 4230,
      "Car": 4231,
      "Eva": 4232,
      "Ki": 4233,
      "Kat": 4234,
      "Milly": 4235,
      "Snow": 4236,
      "Tuck": 4237,
      "Wed": 4238,
      "cin": 4239,
      "dire": 4240,
      "fut": 4241,
      "file": 4242,
      "gers": 4243,
      "iv": 4244,
      "language": 4245,
      "nie": 4246,
      "pine": 4247,
      "rug": 4248,
      "sigh": 4249,
      "text": 4250,
      "tip": 4251,
      "wire": 4252,
      "xu": 4253,
      "heel": 4254,
      "anna": 4255,
      "intro": 4256,
      "inarian": 4257,
      "hall": 4258,
      "argue": 4259,
      "isn": 4260,
      "ides": 4261,
      "bey": 4262,
      "cell": 4263,
      "exit": 4264,
      "veter": 4265,
      "fet": 4266,
      "lips": 4267,
      "hter": 4268,
      "raise": 4269,
      "rod": 4270,
      "somebody": 4271,
      "!\",": 4272,
      "costum": 4273,
      "staring": 4274,
      "stomach": 4275,
      "pride": 4276,
      "gotten": 4277,
      "grin": 4278,
      "homes": 4279,
      "wobb": 4280,
      "tear": 4281,
      "bury": 4282,
      "buzz": 4283,
      "laughter": 4284,
      "knowledge": 4285,
      "comp": 4286,
      "perm": 4287,
      "permission": 4288,
      "surface": 4289,
      "fastest": 4290,
      "crept": 4291,
      "setting": 4292,
      "works": 4293,
      "shovel": 4294,
      "earlier": 4295,
      "guy": 4296,
      "flat": 4297,
      "satis": 4298,
      "stickers": 4299,
      "sandbox": 4300,
      "thanks": 4301,
      "strangers": 4302,
      "grandmother": 4303,
      "pedal": 4304,
      "napkin": 4305,
      "windows": 4306,
      "gifted": 4307,
      "tutor": 4308,
      "belongs": 4309,
      "invit": 4310,
      "oranges": 4311,
      "spoil": 4312,
      "jogged": 4313,
      "monkeys": 4314,
      "solut": 4315,
      "solved": 4316,
      "Rosie": 4317,
      "shakes": 4318,
      "shrink": 4319,
      "palm": 4320,
      "tremble": 4321,
      "disturb": 4322,
      "nesday": 4323,
      "begged": 4324,
      "viol": 4325,
      "skills": 4326,
      "recognized": 4327,
      "cautiously": 4328,
      "flavor": 4329,
      "digging": 4330,
      "luxu": 4331,
      "Kiki": 4332,
      "Tucker": 4333,
      "Wednesday": 4334,
      "future": 4335,
      "texture": 4336,
      "introd": 4337,
      "veterinarian": 4338,
      "'.": 4339,
      "Ali": 4340,
      "Bubb": 4341,
      "Che": 4342,
      "Eli": 4343,
      "Far": 4344,
      "Have": 4345,
      "Mina": 4346,
      "Nan": 4347,
      "Sunny": 4348,
      "Wel": 4349,
      "bill": 4350,
      "dust": 4351,
      "emer": 4352,
      "fy": 4353,
      "fas": 4354,
      "ien": 4355,
      "lily": 4356,
      "mall": 4357,
      "osed": 4358,
      "pit": 4359,
      "som": 4360,
      "sway": 4361,
      "vac": 4362,
      "wed": 4363,
      "inst": 4364,
      "inoc": 4365,
      "ising": 4366,
      "lest": 4367,
      "sters": 4368,
      "ora": 4369,
      "hers": 4370,
      "ths": 4371,
      "thorn": 4372,
      "beth": 4373,
      "beside": 4374,
      "cky": 4375,
      "plastic": 4376,
      "chie": 4377,
      "bother": 4378,
      "golf": 4379,
      "oking": 4380,
      "peered": 4381,
      "caring": 4382,
      "names": 4383,
      "copper": 4384,
      "helper": 4385,
      "icle": 4386,
      "buried": 4387,
      "kindly": 4388,
      "watered": 4389,
      "needle": 4390,
      "staying": 4391,
      "wherever": 4392,
      "surfing": 4393,
      "feelings": 4394,
      "surprises": 4395,
      "frame": 4396,
      "pleasure": 4397,
      "bookcase": 4398,
      "wooden": 4399,
      "parent": 4400,
      "patience": 4401,
      "fixing": 4402,
      "proper": 4403,
      "matches": 4404,
      "collected": 4405,
      "blackboard": 4406,
      "pancakes": 4407,
      "eagle": 4408,
      "bathe": 4409,
      "praised": 4410,
      "teaching": 4411,
      "counter": 4412,
      "presents": 4413,
      "supposed": 4414,
      "hanger": 4415,
      "studied": 4416,
      "zabeth": 4417,
      "eros": 4418,
      "couraged": 4419,
      "shrugged": 4420,
      "melted": 4421,
      "microphone": 4422,
      "shivered": 4423,
      "boots": 4424,
      "xygen": 4425,
      "memory": 4426,
      "disturbed": 4427,
      "destroyed": 4428,
      "yawned": 4429,
      "rhinoc": 4430,
      "waffles": 4431,
      "admiring": 4432,
      "company": 4433,
      "permit": 4434,
      "violin": 4435,
      "Elizabeth": 4436,
      "Nana": 4437,
      "Welcome": 4438,
      "fascin": 4439,
      "rhinoceros": 4440,
      "Bert": 4441,
      "Baa": 4442,
      "Hanna": 4443,
      "Jay": 4444,
      "Lucky": 4445,
      "Lul": 4446,
      "Sn": 4447,
      "Spark": 4448,
      "Tigger": 4449,
      "Ye": 4450,
      "Zara": 4451,
      "Zero": 4452,
      "ah": 4453,
      "bri": 4454,
      "dried": 4455,
      "gap": 4456,
      "hunt": 4457,
      "hicle": 4458,
      "lung": 4459,
      "oxygen": 4460,
      "pad": 4461,
      "rist": 4462,
      "tug": 4463,
      "tang": 4464,
      "tiss": 4465,
      "wre": 4466,
      "zip": 4467,
      "hesit": 4468,
      "tonight": 4469,
      "report": 4470,
      "waste": 4471,
      "These": 4472,
      "atty": 4473,
      "ambi": 4474,
      "ric": 4475,
      "vehicle": 4476,
      "unlocked": 4477,
      "ups": 4478,
      "chan": 4479,
      "entire": 4480,
      "rake": 4481,
      "shot": 4482,
      "holes": 4483,
      "opera": 4484,
      "decis": 4485,
      "sadness": 4486,
      "quit": 4487,
      "everyday": 4488,
      "overjoy": 4489,
      "sunrise": 4490,
      "tram": 4491,
      "comm": 4492,
      "comfy": 4493,
      "izing": 4494,
      "Afterwards": 4495,
      "hurting": 4496,
      "conf": 4497,
      "settle": 4498,
      "rocked": 4499,
      "display": 4500,
      "wondering": 4501,
      "rested": 4502,
      "chores": 4503,
      "sticky": 4504,
      "planted": 4505,
      "sandcastle": 4506,
      "opens": 4507,
      "Bee": 4508,
      "Beth": 4509,
      "muscle": 4510,
      "candles": 4511,
      "prov": 4512,
      "sparkles": 4513,
      "fireman": 4514,
      "breaks": 4515,
      "buckle": 4516,
      "winning": 4517,
      "ourselves": 4518,
      "grape": 4519,
      "pressed": 4520,
      "Chick": 4521,
      "Christ": 4522,
      "collecting": 4523,
      "kisses": 4524,
      "marching": 4525,
      "smells": 4526,
      "suppli": 4527,
      "hanging": 4528,
      "sliding": 4529,
      "blooming": 4530,
      "observe": 4531,
      "ignored": 4532,
      "lemonade": 4533,
      "ringing": 4534,
      "sneeze": 4535,
      "studying": 4536,
      "sorting": 4537,
      "Polly": 4538,
      "strawberries": 4539,
      "Uncle": 4540,
      "Amelia": 4541,
      "demanded": 4542,
      "Hoot": 4543,
      "appreciate": 4544,
      "superhero": 4545,
      "punish": 4546,
      "expected": 4547,
      "responsible": 4548,
      "prepared": 4549,
      "applaud": 4550,
      "unicorn": 4551,
      "fetch": 4552,
      "buzzing": 4553,
      "luxury": 4554,
      "Farmer": 4555,
      "billboard": 4556,
      "Hannah": 4557,
      "Lulu": 4558,
      "tissue": 4559,
      "overjoyed": 4560,
      "Christmas": 4561,
      "Bern": 4562,
      "Fo": 4563,
      "Fu": 4564,
      "Ja": 4565,
      "Like": 4566,
      "Mu": 4567,
      "Mon": 4568,
      "Mart": 4569,
      "Maggie": 4570,
      "Ouch": 4571,
      "Rab": 4572,
      "Time": 4573,
      "cli": 4574,
      "cure": 4575,
      "cable": 4576,
      "dare": 4577,
      "fer": 4578,
      "gle": 4579,
      "ky": 4580,
      "mist": 4581,
      "osity": 4582,
      "pitch": 4583,
      "poking": 4584,
      "swo": 4585,
      "sip": 4586,
      "wink": 4587,
      "eday": 4588,
      "rele": 4589,
      "ress": 4590,
      "haust": 4591,
      "safar": 4592,
      "safer": 4593,
      "imp": 4594,
      "immer": 4595,
      "versity": 4596,
      "ceiling": 4597,
      "seag": 4598,
      "exhaust": 4599,
      "chur": 4600,
      "lix": 4601,
      "outdoors": 4602,
      "peel": 4603,
      "starts": 4604,
      "manage": 4605,
      "everybody": 4606,
      "whip": 4607,
      "item": 4608,
      "poison": 4609,
      "inky": 4610,
      "picks": 4611,
      "famil": 4612,
      "underground": 4613,
      "letting": 4614,
      "explorer": 4615,
      "usually": 4616,
      "settled": 4617,
      "worker": 4618,
      "fishing": 4619,
      "aky": 4620,
      "disagreed": 4621,
      "importance": 4622,
      "blueberries": 4623,
      "Dog": 4624,
      "frosting": 4625,
      "frogs": 4626,
      "scur": 4627,
      "struggled": 4628,
      "split": 4629,
      "poline": 4630,
      "freeze": 4631,
      "bouncy": 4632,
      "gency": 4633,
      "gifts": 4634,
      "activ": 4635,
      "universe": 4636,
      "university": 4637,
      "zooming": 4638,
      "practicing": 4639,
      "pinched": 4640,
      "marks": 4641,
      "radish": 4642,
      "worms": 4643,
      "recorded": 4644,
      "notebook": 4645,
      "Marie": 4646,
      "Betty": 4647,
      "camping": 4648,
      "completed": 4649,
      "muffins": 4650,
      "improve": 4651,
      "Kelly": 4652,
      "Felix": 4653,
      "crunchy": 4654,
      "baseball": 4655,
      "surrender": 4656,
      "invitation": 4657,
      "emergency": 4658,
      "someday": 4659,
      "vacation": 4660,
      "trampoline": 4661,
      "confident": 4662,
      "Chickie": 4663,
      "Bernie": 4664,
      "Fuzzy": 4665,
      "Jacob": 4666,
      "Martha": 4667,
      "seagull": 4668,
      "exhausted": 4669,
      "Abi": 4670,
      "By": 4671,
      "Ex": 4672,
      "Kate": 4673,
      "Macy": 4674,
      "Shad": 4675,
      "Sque": 4676,
      "Two": 4677,
      "Yum": 4678,
      "bunch": 4679,
      "fab": 4680,
      "fishes": 4681,
      "hits": 4682,
      "iers": 4683,
      "ipper": 4684,
      "munk": 4685,
      "ni": 4686,
      "none": 4687,
      "oh": 4688,
      "olives": 4689,
      "sim": 4690,
      "tugged": 4691,
      "ude": 4692,
      "vowed": 4693,
      "zig": 4694,
      "zag": 4695,
      "zipper": 4696,
      "inked": 4697,
      "haird": 4698,
      "encourage": 4699,
      "encouraged": 4700,
      "endar": 4701,
      "secure": 4702,
      "soil": 4703,
      "soak": 4704,
      "socks": 4705,
      "history": 4706,
      "allow": 4707,
      "adult": 4708,
      "racco": 4709,
      "cocoa": 4710,
      "mechan": 4711,
      "novel": 4712,
      "faced": 4713,
      "whatever": 4714,
      "Momo": 4715,
      "brings": 4716,
      "downstairs": 4717,
      "bbie": 4718,
      "clock": 4719,
      "skirt": 4720,
      "pajamas": 4721,
      "blinked": 4722,
      "tap": 4723,
      "rained": 4724,
      "parked": 4725,
      "parts": 4726,
      "shopping": 4727,
      "curiosity": 4728,
      "medal": 4729,
      "darkness": 4730,
      "cutting": 4731,
      "twisted": 4732,
      "float": 4733,
      "Dolly": 4734,
      "drops": 4735,
      "jects": 4736,
      "ement": 4737,
      "visiting": 4738,
      "sparkling": 4739,
      "tongue": 4740,
      "Pebby": 4741,
      "uggles": 4742,
      "comforted": 4743,
      "pastries": 4744,
      "relief": 4745,
      "actually": 4746,
      "imagination": 4747,
      "folding": 4748,
      "calendar": 4749,
      "washing": 4750,
      "rubbing": 4751,
      "desk": 4752,
      "velvet": 4753,
      "bloomed": 4754,
      "nails": 4755,
      "cards": 4756,
      "brushed": 4757,
      "soldiers": 4758,
      "film": 4759,
      "jewelry": 4760,
      "Danny": 4761,
      "competition": 4762,
      "scratched": 4763,
      "horns": 4764,
      "discovering": 4765,
      "cuddle": 4766,
      "cuddled": 4767,
      "cherries": 4768,
      "chipmunk": 4769,
      "uctantly": 4770,
      "completely": 4771,
      "sniffed": 4772,
      "traveled": 4773,
      "regretted": 4774,
      "scattered": 4775,
      "landscape": 4776,
      "cheeks": 4777,
      "Sadly": 4778,
      "included": 4779,
      "beamed": 4780,
      "paddled": 4781,
      "reason": 4782,
      "Carl": 4783,
      "Snuggles": 4784,
      "Rabbit": 4785,
      "released": 4786,
      "resser": 4787,
      "safari": 4788,
      "fabric": 4789,
      "hairdresser": 4790,
      "mechanic": 4791,
      "00": 4792,
      "Cra": 4793,
      "Dull": 4794,
      "Jam": 4795,
      "King": 4796,
      "Kris": 4797,
      "Lenny": 4798,
      "Oli": 4799,
      "Olive": 4800,
      "Pi": 4801,
      "Per": 4802,
      "Tam": 4803,
      "Those": 4804,
      "Whis": 4805,
      "aero": 4806,
      "broom": 4807,
      "cer": 4808,
      "cot": 4809,
      "fought": 4810,
      "gain": 4811,
      "glove": 4812,
      "hive": 4813,
      "ipping": 4814,
      "ler": 4815,
      "py": 4816,
      "rum": 4817,
      "sna": 4818,
      "vies": 4819,
      "zer": 4820,
      "hest": 4821,
      "tore": 4822,
      "inning": 4823,
      "incre": 4824,
      "refre": 4825,
      "thri": 4826,
      "plates": 4827,
      "unpack": 4828,
      "asht": 4829,
      "asant": 4830,
      "fort": 4831,
      "ents": 4832,
      "entran": 4833,
      "rops": 4834,
      "movies": 4835,
      "urged": 4836,
      "stole": 4837,
      "laid": 4838,
      "acted": 4839,
      "skipping": 4840,
      "sunlight": 4841,
      "ucture": 4842,
      "chef": 4843,
      "Ant": 4844,
      "Both": 4845,
      "jumps": 4846,
      "rocking": 4847,
      "amazement": 4848,
      "voices": 4849,
      "rules": 4850,
      "rotten": 4851,
      "filling": 4852,
      "reluctantly": 4853,
      "bowed": 4854,
      "mistakes": 4855,
      "patted": 4856,
      "sweeties": 4857,
      "drinking": 4858,
      "candies": 4859,
      "highest": 4860,
      "growling": 4861,
      "structure": 4862,
      "chairs": 4863,
      "accidents": 4864,
      "drifted": 4865,
      "winner": 4866,
      "powers": 4867,
      "pulling": 4868,
      "teaches": 4869,
      "decorated": 4870,
      "figured": 4871,
      "clowns": 4872,
      "barks": 4873,
      "leader": 4874,
      "shrimp": 4875,
      "polishing": 4876,
      "shivering": 4877,
      "flutter": 4878,
      "yoga": 4879,
      "truly": 4880,
      "yelling": 4881,
      "humans": 4882,
      "exercises": 4883,
      "balancing": 4884,
      "agreement": 4885,
      "rhy": 4886,
      "improved": 4887,
      "squeezed": 4888,
      "kneeled": 4889,
      "Floppy": 4890,
      "measuring": 4891,
      "officer": 4892,
      "gazed": 4893,
      "arguing": 4894,
      "performed": 4895,
      "crib": 4896,
      "pastels": 4897,
      "sprinkles": 4898,
      "rustling": 4899,
      "grinned": 4900,
      "satisfied": 4901,
      "wedding": 4902,
      "Sparky": 4903,
      "wreck": 4904,
      "decision": 4905,
      "church": 4906,
      "scurried": 4907,
      "Jamie": 4908,
      "Pippy": 4909,
      "refreshed": 4910,
      "thrilled": 4911,
      "ashtray": 4912,
      "--": 4913,
      "Dr": 4914,
      "Jazz": 4915,
      "Mir": 4916,
      "Mick": 4917,
      "Oak": 4918,
      "Pipp": 4919,
      "Sant": 4920,
      "Stri": 4921,
      "bin": 4922,
      "budge": 4923,
      "chat": 4924,
      "freed": 4925,
      "hon": 4926,
      "ial": 4927,
      "kers": 4928,
      "oas": 4929,
      "obey": 4930,
      "psy": 4931,
      "si": 4932,
      "sir": 4933,
      "vin": 4934,
      "wadd": 4935,
      "eries": 4936,
      "onwards": 4937,
      "iders": 4938,
      "thm": 4939,
      "third": 4940,
      "united": 4941,
      "youth": 4942,
      "rail": 4943,
      "smar": 4944,
      "caused": 4945,
      "sped": 4946,
      "spiders": 4947,
      "scaring": 4948,
      "wanting": 4949,
      "Everybody": 4950,
      "poon": 4951,
      "dresses": 4952,
      "rooms": 4953,
      "willing": 4954,
      "shaped": 4955,
      "sorted": 4956,
      "hurried": 4957,
      "steep": 4958,
      "shoulders": 4959,
      "sings": 4960,
      "lotte": 4961,
      "squish": 4962,
      "heads": 4963,
      "ffic": 4964,
      "sterday": 4965,
      "darker": 4966,
      "kites": 4967,
      "hearts": 4968,
      "choo": 4969,
      "mister": 4970,
      "moves": 4971,
      "plans": 4972,
      "catching": 4973,
      "crumbs": 4974,
      "creating": 4975,
      "Becky": 4976,
      "Allie": 4977,
      "crashed": 4978,
      "points": 4979,
      "happens": 4980,
      "attack": 4981,
      "Someone": 4982,
      "pockets": 4983,
      "swept": 4984,
      "problems": 4985,
      "Rosy": 4986,
      "pouring": 4987,
      "supply": 4988,
      "popcorn": 4989,
      "curly": 4990,
      "observed": 4991,
      "burning": 4992,
      "stealing": 4993,
      "rescu": 4994,
      "pebbles": 4995,
      "health": 4996,
      "Charlotte": 4997,
      "chirped": 4998,
      "selling": 4999,
      "leaning": 5000,
      "cheering": 5001,
      "Copper": 5002,
      "Cocoa": 5003,
      "belle": 5004,
      "darling": 5005,
      "receive": 5006,
      "neighbourhood": 5007,
      "uctions": 5008,
      "yawn": 5009,
      "teaspoon": 5010,
      "squeeze": 5011,
      "succeeded": 5012,
      "Elle": 5013,
      "scatter": 5014,
      "sausages": 5015,
      "Flopsy": 5016,
      "measured": 5017,
      "accomplish": 5018,
      "accomplished": 5019,
      "grocery": 5020,
      "prunes": 5021,
      "suffering": 5022,
      "squealed": 5023,
      "Always": 5024,
      "instructions": 5025,
      "achieve": 5026,
      "hurricane": 5027,
      "costume": 5028,
      "solution": 5029,
      "chief": 5030,
      "fascinated": 5031,
      "Yeah": 5032,
      "brick": 5033,
      "tangled": 5034,
      "cliff": 5035,
      "glee": 5036,
      "Exc": 5037,
      "Shadow": 5038,
      "zigzag": 5039,
      "Crabby": 5040,
      "Whiskers": 5041,
      "aeroplane": 5042,
      "entrance": 5043,
      "rhythm": 5044,
      "Mickey": 5045,
      "Pippin": 5046,
      "Santa": 5047,
      "oasis": 5048,
      "?'": 5049,
      "Cath": 5050,
      "De": 5051,
      "En": 5052,
      "Fis": 5053,
      "Fli": 5054,
      "Isa": 5055,
      "Lind": 5056,
      "Mor": 5057,
      "Mat": 5058,
      "Mam": 5059,
      "Pr": 5060,
      "Put": 5061,
      "Pigg": 5062,
      "Ran": 5063,
      "Slow": 5064,
      "Tun": 5065,
      "Take": 5066,
      "Tia": 5067,
      "blo": 5068,
      "bars": 5069,
      "bak": 5070,
      "bumpy": 5071,
      "ccer": 5072,
      "died": 5073,
      "eight": 5074,
      "earn": 5075,
      "east": 5076,
      "fits": 5077,
      "fash": 5078,
      "gran": 5079,
      "hh": 5080,
      "hike": 5081,
      "kins": 5082,
      "sides": 5083,
      "tig": 5084,
      "tling": 5085,
      "vic": 5086,
      "zero": 5087,
      "toss": 5088,
      "repa": 5089,
      "release": 5090,
      "recomm": 5091,
      "ition": 5092,
      "ented": 5093,
      "lets": 5094,
      "ory": 5095,
      "herb": 5096,
      "loving": 5097,
      "irm": 5098,
      "thumb": 5099,
      "neath": 5100,
      "becoming": 5101,
      "ckey": 5102,
      "sore": 5103,
      "soccer": 5104,
      "plent": 5105,
      "ripe": 5106,
      "unfortunately": 5107,
      "boom": 5108,
      "raind": 5109,
      "peaches": 5110,
      "hockey": 5111,
      "deal": 5112,
      "carts": 5113,
      "coach": 5114,
      "cosy": 5115,
      "urge": 5116,
      "backed": 5117,
      "backwards": 5118,
      "ica": 5119,
      "loops": 5120,
      "ongrat": 5121,
      "worse": 5122,
      "worries": 5123,
      "lap": 5124,
      "Joy": 5125,
      "bbled": 5126,
      "finds": 5127,
      "Jacky": 5128,
      "precious": 5129,
      "sunflowers": 5130,
      "doggy": 5131,
      "swit": 5132,
      "ioned": 5133,
      "pushes": 5134,
      "warded": 5135,
      "chess": 5136,
      "blouse": 5137,
      "ventured": 5138,
      "tage": 5139,
      "underneath": 5140,
      "llowed": 5141,
      "ilda": 5142,
      "shock": 5143,
      "gues": 5144,
      "Finny": 5145,
      "hearing": 5146,
      "ladybug": 5147,
      "printer": 5148,
      "keys": 5149,
      "covering": 5150,
      "armchair": 5151,
      "purred": 5152,
      "tons": 5153,
      "polished": 5154,
      "glimmer": 5155,
      "dragged": 5156,
      "neighbors": 5157,
      "whistled": 5158,
      "swamp": 5159,
      "prayed": 5160,
      "writ": 5161,
      "seats": 5162,
      "Something": 5163,
      "inviting": 5164,
      "organizing": 5165,
      "nicer": 5166,
      "mixing": 5167,
      "scoop": 5168,
      "smelling": 5169,
      "protected": 5170,
      "chewing": 5171,
      "Rosa": 5172,
      "tickle": 5173,
      "bridges": 5174,
      "flap": 5175,
      "Really": 5176,
      "cardboard": 5177,
      "diary": 5178,
      "Ruthie": 5179,
      "dinosaurs": 5180,
      "ordered": 5181,
      "soaring": 5182,
      "tickets": 5183,
      "surfboard": 5184,
      "puzzles": 5185,
      "remain": 5186,
      "recording": 5187,
      "respon": 5188,
      "trembling": 5189,
      "dared": 5190,
      "tricky": 5191,
      "chips": 5192,
      "yielded": 5193,
      "sniff": 5194,
      "complaining": 5195,
      "sense": 5196,
      "massage": 5197,
      "oats": 5198,
      "menu": 5199,
      "...": 5200,
      "gaze": 5201,
      "argued": 5202,
      "Frankie": 5203,
      "groceries": 5204,
      "prune": 5205,
      "slap": 5206,
      "Katy": 5207,
      "supplies": 5208,
      "Hootie": 5209,
      "Musa": 5210,
      "Monica": 5211,
      "raccoon": 5212,
      "cottage": 5213,
      "snapped": 5214,
      "accomplishment": 5215,
      "Cathy": 5216,
      "Fisky": 5217,
      "Linda": 5218,
      "Moral": 5219,
      "Matilda": 5220,
      "Mamma": 5221,
      "Piggie": 5222,
      "Rani": 5223,
      "Tuna": 5224,
      "blood": 5225,
      "fashion": 5226,
      "tigers": 5227,
      "repaired": 5228,
      "plenty": 5229,
      "raindrops": 5230,
      "ongratul": 5231,
      "10": 5232,
      "Abbie": 5233,
      "Big": 5234,
      "Bye": 5235,
      "Bucky": 5236,
      "Bambi": 5237,
      "Eat": 5238,
      "Giz": 5239,
      "Ju": 5240,
      "Jones": 5241,
      "Kay": 5242,
      "La": 5243,
      "Larry": 5244,
      "Luggage": 5245,
      "Mic": 5246,
      "Miss": 5247,
      "Pow": 5248,
      "Ra": 5249,
      "Sand": 5250,
      "Sid": 5251,
      "Sat": 5252,
      "Shar": 5253,
      "Tr": 5254,
      "Tilly": 5255,
      "au": 5256,
      "awake": 5257,
      "bend": 5258,
      "bile": 5259,
      "bits": 5260,
      "bank": 5261,
      "dam": 5262,
      "dama": 5263,
      "firm": 5264,
      "ib": 5265,
      "ium": 5266,
      "ker": 5267,
      "lines": 5268,
      "munch": 5269,
      "olive": 5270,
      "tles": 5271,
      "edy": 5272,
      "toed": 5273,
      "tomo": 5274,
      "remy": 5275,
      "removed": 5276,
      "rewarded": 5277,
      "ities": 5278,
      "hael": 5279,
      "wasted": 5280,
      "ister": 5281,
      "isies": 5282,
      "beha": 5283,
      "beard": 5284,
      "beep": 5285,
      "hate": 5286,
      "seas": 5287,
      "seven": 5288,
      "ppies": 5289,
      "ply": 5290,
      "unicycle": 5291,
      "upstairs": 5292,
      "ades": 5293,
      "chop": 5294,
      "gear": 5295,
      "outfit": 5296,
      "esca": 5297,
      "raised": 5298,
      "racing": 5299,
      "dolly": 5300,
      "pey": 5301,
      "mood": 5302,
      "rang": 5303,
      "theirs": 5304,
      "goodnight": 5305,
      "lower": 5306,
      "anytime": 5307,
      "trot": 5308,
      "calls": 5309,
      "perched": 5310,
      "bedtime": 5311,
      "Anne": 5312,
      "farther": 5313,
      "Nothing": 5314,
      "tallest": 5315,
      "greedy": 5316,
      "delivery": 5317,
      "snuck": 5318,
      "bites": 5319,
      "cuts": 5320,
      "Toot": 5321,
      "creation": 5322,
      "creations": 5323,
      "buying": 5324,
      "hills": 5325,
      "daisies": 5326,
      "youngest": 5327,
      "freezer": 5328,
      "glitter": 5329,
      "wagging": 5330,
      "Flora": 5331,
      "dragons": 5332,
      "laying": 5333,
      "whistling": 5334,
      "screaming": 5335,
      "prayer": 5336,
      "written": 5337,
      "easier": 5338,
      "horses": 5339,
      "wrapping": 5340,
      "imagining": 5341,
      "sweat": 5342,
      "sweep": 5343,
      "startled": 5344,
      "crossing": 5345,
      "network": 5346,
      "decoration": 5347,
      "desert": 5348,
      "coloured": 5349,
      "piles": 5350,
      "spreading": 5351,
      "swans": 5352,
      "stirring": 5353,
      "shouts": 5354,
      "business": 5355,
      "determination": 5356,
      "flapping": 5357,
      "dived": 5358,
      "spraying": 5359,
      "changing": 5360,
      "Nell": 5361,
      "penguins": 5362,
      "librarian": 5363,
      "jewels": 5364,
      "meals": 5365,
      "Jean": 5366,
      "Jeremy": 5367,
      "Leave": 5368,
      "Patch": 5369,
      "Patches": 5370,
      "patterns": 5371,
      "experien": 5372,
      "soared": 5373,
      "rides": 5374,
      "mesmer": 5375,
      "cobwebs": 5376,
      "mushrooms": 5377,
      "stripes": 5378,
      "repeated": 5379,
      "breaking": 5380,
      "Sunshine": 5381,
      "daring": 5382,
      "reveal": 5383,
      "discussing": 5384,
      "travelled": 5385,
      "Louise": 5386,
      "melting": 5387,
      "twinkle": 5388,
      "oatmeal": 5389,
      "Owl": 5390,
      "requested": 5391,
      "officers": 5392,
      "wiggled": 5393,
      "Melvin": 5394,
      "quacked": 5395,
      "tornado": 5396,
      "Anya": 5397,
      "direction": 5398,
      "introduc": 5399,
      "Bubbles": 5400,
      "properly": 5401,
      "Bertha": 5402,
      "gaps": 5403,
      "provided": 5404,
      "swooped": 5405,
      "activity": 5406,
      "Percy": 5407,
      "Mira": 5408,
      "Stripey": 5409,
      "waddled": 5410,
      "attacked": 5411,
      "Slowly": 5412,
      "victory": 5413,
      "Gizmo": 5414,
      "Michael": 5415,
      "True": 5416,
      "automo": 5417,
      "damage": 5418,
      "escaped": 5419,
      "automobile": 5420,
      ".'": 5421,
      "Ash": 5422,
      "Ally": 5423,
      "Bop": 5424,
      "Binky": 5425,
      "Cow": 5426,
      "Cod": 5427,
      "Day": 5428,
      "During": 5429,
      "Friend": 5430,
      "Fire": 5431,
      "Gran": 5432,
      "Harri": 5433,
      "Hatty": 5434,
      "Jor": 5435,
      "Juli": 5436,
      "List": 5437,
      "Mop": 5438,
      "Many": 5439,
      "Not": 5440,
      "Ot": 5441,
      "Qu": 5442,
      "Que": 5443,
      "Sal": 5444,
      "Tess": 5445,
      "Terry": 5446,
      "Up": 5447,
      "Unt": 5448,
      "ago": 5449,
      "aster": 5450,
      "bare": 5451,
      "bab": 5452,
      "bers": 5453,
      "cter": 5454,
      "cash": 5455,
      "dan": 5456,
      "dot": 5457,
      "dia": 5458,
      "ef": 5459,
      "hi": 5460,
      "lamp": 5461,
      "tasks": 5462,
      "via": 5463,
      "wow": 5464,
      "anne": 5465,
      "toward": 5466,
      "inch": 5467,
      "rever": 5468,
      "resis": 5469,
      "reaches": 5470,
      "iding": 5471,
      "sal": 5472,
      "imy": 5473,
      "thumbs": 5474,
      "shelves": 5475,
      "amper": 5476,
      "amped": 5477,
      "ambled": 5478,
      "express": 5479,
      "plumber": 5480,
      "rious": 5481,
      "adium": 5482,
      "web": 5483,
      "chilly": 5484,
      "feast": 5485,
      "lip": 5486,
      "ford": 5487,
      "racter": 5488,
      "rol": 5489,
      "fume": 5490,
      "area": 5491,
      "peasant": 5492,
      "cost": 5493,
      "newfound": 5494,
      "Buttons": 5495,
      "stom": 5496,
      "icked": 5497,
      "byes": 5498,
      "brand": 5499,
      "goodbyes": 5500,
      "acting": 5501,
      "Joanne": 5502,
      "bbed": 5503,
      "hugging": 5504,
      "ourt": 5505,
      "nasty": 5506,
      "skunk": 5507,
      "mailed": 5508,
      "yesterday": 5509,
      "eats": 5510,
      "pause": 5511,
      "handsome": 5512,
      "blinking": 5513,
      "Johnson": 5514,
      "izon": 5515,
      "perfume": 5516,
      "conne": 5517,
      "keeps": 5518,
      "realize": 5519,
      "doorway": 5520,
      "slimy": 5521,
      "colored": 5522,
      "talent": 5523,
      "character": 5524,
      "control": 5525,
      "wonders": 5526,
      "ruining": 5527,
      "dressing": 5528,
      "months": 5529,
      "mary": 5530,
      "flames": 5531,
      "chosen": 5532,
      "dropping": 5533,
      "printed": 5534,
      "rivers": 5535,
      "lared": 5536,
      "afford": 5537,
      "climbs": 5538,
      "prove": 5539,
      "trapped": 5540,
      "tastes": 5541,
      "dreamt": 5542,
      "fighter": 5543,
      "fireworks": 5544,
      "packing": 5545,
      "Peep": 5546,
      "scra": 5547,
      "scamper": 5548,
      "knees": 5549,
      "struck": 5550,
      "steady": 5551,
      "glitt": 5552,
      "swallowed": 5553,
      "trains": 5554,
      "throws": 5555,
      "grabs": 5556,
      "Without": 5557,
      "cupcakes": 5558,
      "attached": 5559,
      "spoons": 5560,
      "mentioned": 5561,
      "reaching": 5562,
      "mouths": 5563,
      "signed": 5564,
      "pigs": 5565,
      "gathering": 5566,
      "horizon": 5567,
      "mixer": 5568,
      "giggling": 5569,
      "celebration": 5570,
      "sneak": 5571,
      "mountains": 5572,
      "Brandy": 5573,
      "oysters": 5574,
      "mailman": 5575,
      "tickled": 5576,
      "figures": 5577,
      "Annie": 5578,
      "Read": 5579,
      "brushes": 5580,
      "corners": 5581,
      "Mikey": 5582,
      "pumpkins": 5583,
      "tempt": 5584,
      "Rosemary": 5585,
      "neatly": 5586,
      "feeding": 5587,
      "peeking": 5588,
      "Black": 5589,
      "motorcycles": 5590,
      "minerals": 5591,
      "Buzzy": 5592,
      "ribbons": 5593,
      "gumball": 5594,
      "shooting": 5595,
      "beginning": 5596,
      "twinkling": 5597,
      "punished": 5598,
      "shadows": 5599,
      "slices": 5600,
      "Keep": 5601,
      "cricket": 5602,
      "including": 5603,
      "slapped": 5604,
      "style": 5605,
      "direct": 5606,
      "guys": 5607,
      "introduce": 5608,
      "paddle": 5609,
      "hesitated": 5610,
      "families": 5611,
      "nibb": 5612,
      "Olivia": 5613,
      "six": 5614,
      "squishy": 5615,
      "rescued": 5616,
      "Flipper": 5617,
      "writer": 5618,
      "Julie": 5619,
      "Laure": 5620,
      "Power": 5621,
      "Sharing": 5622,
      "experienced": 5623,
      "mesmerized": 5624,
      "introduced": 5625,
      "Ashley": 5626,
      "Bopus": 5627,
      "Cody": 5628,
      "Days": 5629,
      "Granny": 5630,
      "Harriet": 5631,
      "Jordan": 5632,
      "Julia": 5633,
      "Listen": 5634,
      "Otto": 5635,
      "Queen": 5636,
      "Salty": 5637,
      "Until": 5638,
      "barely": 5639,
      "resisted": 5640,
      "scampered": 5641,
      "Ade": 5642,
      "Ami": 5643,
      "Ba": 5644,
      "Cot": 5645,
      "Chad": 5646,
      "Cora": 5647,
      "Elly": 5648,
      "Edd": 5649,
      "Fif": 5650,
      "Gig": 5651,
      "Ha": 5652,
      "Hair": 5653,
      "Jing": 5654,
      "Jump": 5655,
      "Jem": 5656,
      "Kara": 5657,
      "Or": 5658,
      "Rir": 5659,
      "Rile": 5660,
      "Ratty": 5661,
      "Try": 5662,
      "Wigg": 5663,
      "Zac": 5664,
      "cas": 5665,
      "center": 5666,
      "congratul": 5667,
      "equ": 5668,
      "echo": 5669,
      "gon": 5670,
      "gained": 5671,
      "iam": 5672,
      "lk": 5673,
      "lined": 5674,
      "oil": 5675,
      "pies": 5676,
      "rout": 5677,
      "tim": 5678,
      "tide": 5679,
      "unex": 5680,
      "yer": 5681,
      "zen": 5682,
      "”.": 5683,
      "height": 5684,
      "anwhile": 5685,
      "intr": 5686,
      "refu": 5687,
      "reme": 5688,
      "restore": 5689,
      "resu": 5690,
      "ount": 5691,
      "half": 5692,
      "encou": 5693,
      "oni": 5694,
      "onward": 5695,
      "least": 5696,
      "impossible": 5697,
      "stro": 5698,
      "stitch": 5699,
      "stamped": 5700,
      "stadium": 5701,
      "vers": 5702,
      "versat": 5703,
      "Helen": 5704,
      "Shelly": 5705,
      "sew": 5706,
      "amount": 5707,
      "igued": 5708,
      "rici": 5709,
      "unpacked": 5710,
      "alien": 5711,
      "chuck": 5712,
      "lic": 5713,
      "liqu": 5714,
      "forgetting": 5715,
      "forgiven": 5716,
      "aret": 5717,
      "pected": 5718,
      "hoo": 5719,
      "umble": 5720,
      "ranger": 5721,
      "loose": 5722,
      "stored": 5723,
      "canes": 5724,
      "birdhouse": 5725,
      "fault": 5726,
      "opy": 5727,
      "sparrow": 5728,
      "Momma": 5729,
      "goodies": 5730,
      "actor": 5731,
      "forehead": 5732,
      "antha": 5733,
      "Jackie": 5734,
      "Samantha": 5735,
      "handful": 5736,
      "blu": 5737,
      "watermelon": 5738,
      "Johnnie": 5739,
      "cture": 5740,
      "bravery": 5741,
      "stays": 5742,
      "bleed": 5743,
      "conversat": 5744,
      "faraway": 5745,
      "windy": 5746,
      "disagree": 5747,
      "nearly": 5748,
      "afterwards": 5749,
      "nodding": 5750,
      "chalk": 5751,
      "heading": 5752,
      "couple": 5753,
      "ruler": 5754,
      "snatched": 5755,
      "monsters": 5756,
      "storekeeper": 5757,
      "throughout": 5758,
      "twice": 5759,
      "chopped": 5760,
      "sticker": 5761,
      "spots": 5762,
      "tighter": 5763,
      "froze": 5764,
      "frozen": 5765,
      "reeds": 5766,
      "raging": 5767,
      "Being": 5768,
      "project": 5769,
      "tracks": 5770,
      "traffic": 5771,
      "naps": 5772,
      "situ": 5773,
      "heavier": 5774,
      "firework": 5775,
      "jobs": 5776,
      "Pepper": 5777,
      "growl": 5778,
      "sisters": 5779,
      "baths": 5780,
      "seashells": 5781,
      "wags": 5782,
      "winked": 5783,
      "patients": 5784,
      "buckets": 5785,
      "prayers": 5786,
      "pulls": 5787,
      "genero": 5788,
      "collector": 5789,
      "teacup": 5790,
      "seatbelt": 5791,
      "doctors": 5792,
      "partic": 5793,
      "villag": 5794,
      "actions": 5795,
      "beef": 5796,
      "score": 5797,
      "passing": 5798,
      "roaring": 5799,
      "tuna": 5800,
      "decorating": 5801,
      "snakes": 5802,
      "flip": 5803,
      "bulbs": 5804,
      "logs": 5805,
      "stumble": 5806,
      "blows": 5807,
      "nervously": 5808,
      "objects": 5809,
      "markers": 5810,
      "kicking": 5811,
      "burger": 5812,
      "burned": 5813,
      "sights": 5814,
      "calmly": 5815,
      "recorder": 5816,
      "Paw": 5817,
      "vanish": 5818,
      "William": 5819,
      "melons": 5820,
      "rising": 5821,
      "Rudolph": 5822,
      "sneezing": 5823,
      "edges": 5824,
      "price": 5825,
      "examined": 5826,
      "tunnels": 5827,
      "Patty": 5828,
      "Patrici": 5829,
      "bulls": 5830,
      "matching": 5831,
      "leapt": 5832,
      "scarecrow": 5833,
      "Meanwhile": 5834,
      "pencils": 5835,
      "apologize": 5836,
      "recipe": 5837,
      "pigeons": 5838,
      "include": 5839,
      "maths": 5840,
      "Hopper": 5841,
      "lawn": 5842,
      "lawyer": 5843,
      "photos": 5844,
      "Elsie": 5845,
      "scratching": 5846,
      "expect": 5847,
      "Sadie": 5848,
      "wiggle": 5849,
      "Liza": 5850,
      "rushing": 5851,
      "instrum": 5852,
      "trades": 5853,
      "hurricanes": 5854,
      "sighs": 5855,
      "hallway": 5856,
      "Bubba": 5857,
      "swaying": 5858,
      "instantly": 5859,
      "Follow": 5860,
      "items": 5861,
      "Squeaky": 5862,
      "simple": 5863,
      "increase": 5864,
      "fluttering": 5865,
      "freedom": 5866,
      "smarter": 5867,
      "Excuse": 5868,
      "Deal": 5869,
      "Enjoy": 5870,
      "bakery": 5871,
      "Rae": 5872,
      "Satur": 5873,
      "trotted": 5874,
      "Firecat": 5875,
      "cashier": 5876,
      "diaper": 5877,
      "characters": 5878,
      "directions": 5879,
      "Adele": 5880,
      "Baloo": 5881,
      "Cotton": 5882,
      "Eddie": 5883,
      "Fifi": 5884,
      "Gigi": 5885,
      "Hairy": 5886,
      "Jingle": 5887,
      "Jemma": 5888,
      "Riri": 5889,
      "Riley": 5890,
      "Wiggly": 5891,
      "congratulated": 5892,
      "gonna": 5893,
      "routine": 5894,
      "unexpected": 5895,
      "intrigued": 5896,
      "result": 5897,
      "encouraging": 5898,
      "chuckled": 5899,
      "liquid": 5900,
      "generosity": 5901,
      "Patricia": 5902,
      ",'": 5903,
      "Ano": 5904,
      "Aunt": 5905,
      "Bro": 5906,
      "Bust": 5907,
      "Burt": 5908,
      "Cloud": 5909,
      "Digger": 5910,
      "Ew": 5911,
      "Ear": 5912,
      "Fat": 5913,
      "Fambi": 5914,
      "Great": 5915,
      "HE": 5916,
      "Jax": 5917,
      "Lorry": 5918,
      "Make": 5919,
      "Monce": 5920,
      "Madd": 5921,
      "Nice": 5922,
      "Out": 5923,
      "Oop": 5924,
      "Pur": 5925,
      "Puff": 5926,
      "Ral": 5927,
      "Rain": 5928,
      "Sno": 5929,
      "Stu": 5930,
      "Since": 5931,
      "Summer": 5932,
      "Uh": 5933,
      "Yummy": 5934,
      "aud": 5935,
      "awhile": 5936,
      "bones": 5937,
      "ese": 5938,
      "flight": 5939,
      "gates": 5940,
      "garet": 5941,
      "hus": 5942,
      "iar": 5943,
      "iel": 5944,
      "jars": 5945,
      "junk": 5946,
      "ks": 5947,
      "mittens": 5948,
      "mbers": 5949,
      "oed": 5950,
      "pound": 5951,
      "ridge": 5952,
      "sill": 5953,
      "shave": 5954,
      "sire": 5955,
      "snail": 5956,
      "sitter": 5957,
      "wid": 5958,
      "wound": 5959,
      "edic": 5960,
      "insp": 5961,
      "incess": 5962,
      "inches": 5963,
      "itude": 5964,
      "ense": 5965,
      "ongest": 5966,
      "aring": 5967,
      "argum": 5968,
      "leap": 5969,
      "lecture": 5970,
      "ima": 5971,
      "stare": 5972,
      "orts": 5973,
      "losing": 5974,
      "beloved": 5975,
      "ata": 5976,
      "sequ": 5977,
      "sewing": 5978,
      "ows": 5979,
      "hissed": 5980,
      "plucked": 5981,
      "ripped": 5982,
      "aded": 5983,
      "alth": 5984,
      "alas": 5985,
      "weed": 5986,
      "wealth": 5987,
      "aside": 5988,
      "fever": 5989,
      "lied": 5990,
      "licks": 5991,
      "playtime": 5992,
      "gobbled": 5993,
      "thered": 5994,
      "essa": 5995,
      "oky": 5996,
      "dock": 5997,
      "ugs": 5998,
      "illi": 5999,
      "caroni": 6000,
      "cope": 6001,
      "mane": 6002,
      "mance": 6003,
      "icky": 6004,
      "camel": 6005,
      "eling": 6006,
      "ssy": 6007,
      "seesaw": 6008,
      "declared": 6009,
      "Youth": 6010,
      "bride": 6011,
      "acles": 6012,
      "bbi": 6013,
      "teles": 6014,
      "closing": 6015,
      "preven": 6016,
      "type": 6017,
      "however": 6018,
      "overcome": 6019,
      "anger": 6020,
      "untied": 6021,
      "macaroni": 6022,
      "swirl": 6023,
      "ives": 6024,
      "puff": 6025,
      "puppies": 6026,
      "blues": 6027,
      "blades": 6028,
      "tapped": 6029,
      "watering": 6030,
      "beavers": 6031,
      "watches": 6032,
      "prettie": 6033,
      "joyful": 6034,
      "Bobbi": 6035,
      "crew": 6036,
      "bravest": 6037,
      "conqu": 6038,
      "stem": 6039,
      "reply": 6040,
      "replaced": 6041,
      "foods": 6042,
      "waiter": 6043,
      "ips": 6044,
      "greet": 6045,
      "lighter": 6046,
      "rule": 6047,
      "dresser": 6048,
      "snugg": 6049,
      "marve": 6050,
      "dollars": 6051,
      "woodworker": 6052,
      "twin": 6053,
      "misses": 6054,
      "sticking": 6055,
      "blocked": 6056,
      "planning": 6057,
      "sandpit": 6058,
      "softest": 6059,
      "arrive": 6060,
      "tripping": 6061,
      "painter": 6062,
      "paints": 6063,
      "grandparents": 6064,
      "fairies": 6065,
      "prod": 6066,
      "projects": 6067,
      "babysitter": 6068,
      "lessons": 6069,
      "heavily": 6070,
      "pens": 6071,
      "bottles": 6072,
      "artist": 6073,
      "rowed": 6074,
      "Peaches": 6075,
      "strongest": 6076,
      "answers": 6077,
      "glued": 6078,
      "swap": 6079,
      "crabs": 6080,
      "dripping": 6081,
      "itchy": 6082,
      "valued": 6083,
      "elephants": 6084,
      "matters": 6085,
      "streets": 6086,
      "heartbroken": 6087,
      "baked": 6088,
      "bushy": 6089,
      "rainbows": 6090,
      "troubles": 6091,
      "deser": 6092,
      "pillows": 6093,
      "politely": 6094,
      "coats": 6095,
      "machines": 6096,
      "source": 6097,
      "streamers": 6098,
      "complained": 6099,
      "burnt": 6100,
      "diving": 6101,
      "ignoring": 6102,
      "leading": 6103,
      "splashes": 6104,
      "Willie": 6105,
      "Margaret": 6106,
      "engines": 6107,
      "occas": 6108,
      "stamps": 6109,
      "loading": 6110,
      "Daniel": 6111,
      "wipes": 6112,
      "seems": 6113,
      "scrambled": 6114,
      "cuddly": 6115,
      "veils": 6116,
      "striped": 6117,
      "porridge": 6118,
      "puzzled": 6119,
      "Coal": 6120,
      "Stay": 6121,
      "Still": 6122,
      "Stitch": 6123,
      "Stacy": 6124,
      "fantastic": 6125,
      "silent": 6126,
      "silence": 6127,
      "trembled": 6128,
      "stacked": 6129,
      "wandering": 6130,
      "travels": 6131,
      "videos": 6132,
      "giraffes": 6133,
      "cartoons": 6134,
      "discussed": 6135,
      "Bluey": 6136,
      "thunderstorm": 6137,
      "sharks": 6138,
      "twinkled": 6139,
      "postman": 6140,
      "appreciation": 6141,
      "struggle": 6142,
      "Elsa": 6143,
      "frowning": 6144,
      "salty": 6145,
      "performance": 6146,
      "Janessa": 6147,
      "weeping": 6148,
      "rusty": 6149,
      "crowd": 6150,
      "paddling": 6151,
      "reassur": 6152,
      "achieved": 6153,
      "breathed": 6154,
      "beyond": 6155,
      "costumes": 6156,
      "Cheese": 6157,
      "Fox": 6158,
      "familiar": 6159,
      "Squeak": 6160,
      "adults": 6161,
      "000": 6162,
      "Isabelle": 6163,
      "Princess": 6164,
      "granted": 6165,
      "guessed": 6166,
      "glimmering": 6167,
      "responded": 6168,
      "Sandra": 6169,
      "munching": 6170,
      "Friends": 6171,
      "dots": 6172,
      "scraped": 6173,
      "Ready": 6174,
      "echoed": 6175,
      "remembers": 6176,
      "situation": 6177,
      "particular": 6178,
      "villagers": 6179,
      "Another": 6180,
      "Brooke": 6181,
      "Buster": 6182,
      "Fatima": 6183,
      "Moncey": 6184,
      "Maddie": 6185,
      "Oops": 6186,
      "Purple": 6187,
      "Ralph": 6188,
      "Snoopy": 6189,
      "Stuart": 6190,
      "audience": 6191,
      "husband": 6192,
      "siren": 6193,
      "widened": 6194,
      "inspired": 6195,
      "telescope": 6196,
      "prevented": 6197,
      "prettiest": 6198,
      "15": 6199,
      "Abe": 6200,
      "Abby": 6201,
      "Amand": 6202,
      "Achoo": 6203,
      "Ahh": 6204,
      "Bri": 6205,
      "Bad": 6206,
      "Birthday": 6207,
      "Cu": 6208,
      "Cory": 6209,
      "Court": 6210,
      "Gu": 6211,
      "Gra": 6212,
      "Gav": 6213,
      "Gary": 6214,
      "Hur": 6215,
      "Jon": 6216,
      "Jun": 6217,
      "Jas": 6218,
      "Lion": 6219,
      "Lilli": 6220,
      "Ms": 6221,
      "Man": 6222,
      "Much": 6223,
      "NG": 6224,
      "Never": 6225,
      "Nancy": 6226,
      "Other": 6227,
      "Our": 6228,
      "Pre": 6229,
      "Ray": 6230,
      "Rover": 6231,
      "Rory": 6232,
      "Ricky": 6233,
      "Use": 6234,
      "Using": 6235,
      "Wav": 6236,
      "Watch": 6237,
      "Yuck": 6238,
      "Yol": 6239,
      "cent": 6240,
      "dent": 6241,
      "faded": 6242,
      "gummy": 6243,
      "gaz": 6244,
      "hour": 6245,
      "hitting": 6246,
      "iñ": 6247,
      "jay": 6248,
      "lent": 6249,
      "lers": 6250,
      "mot": 6251,
      "mice": 6252,
      "mpo": 6253,
      "mater": 6254,
      "ners": 6255,
      "nine": 6256,
      "os": 6257,
      "ogre": 6258,
      "pant": 6259,
      "pouted": 6260,
      "pins": 6261,
      "pigg": 6262,
      "piñ": 6263,
      "rine": 6264,
      "sci": 6265,
      "siz": 6266,
      "sits": 6267,
      "scut": 6268,
      "scor": 6269,
      "sending": 6270,
      "tuck": 6271,
      "vy": 6272,
      "vast": 6273,
      "topp": 6274,
      "todd": 6275,
      "waist": 6276,
      "returning": 6277,
      "ouch": 6278,
      "ening": 6279,
      "arran": 6280,
      "issa": 6281,
      "sapl": 6282,
      "sauc": 6283,
      "oring": 6284,
      "orted": 6285,
      "irts": 6286,
      "irpy": 6287,
      "neare": 6288,
      "veral": 6289,
      "bead": 6290,
      "belly": 6291,
      "sess": 6292,
      "several": 6293,
      "owing": 6294,
      "pples": 6295,
      "rip": 6296,
      "upt": 6297,
      "within": 6298,
      "adually": 6299,
      "otch": 6300,
      "alley": 6301,
      "allest": 6302,
      "wept": 6303,
      "youths": 6304,
      "raked": 6305,
      "okies": 6306,
      "smallest": 6307,
      "roo": 6308,
      "akes": 6309,
      "sometime": 6310,
      "notes": 6311,
      "aren": 6312,
      "peck": 6313,
      "pets": 6314,
      "pecked": 6315,
      "hopes": 6316,
      "dee": 6317,
      "dete": 6318,
      "carton": 6319,
      "nament": 6320,
      "mold": 6321,
      "sidewalk": 6322,
      "rant": 6323,
      "stopping": 6324,
      "?\",": 6325,
      "lava": 6326,
      "fact": 6327,
      "faction": 6328,
      "opt": 6329,
      "decides": 6330,
      "spice": 6331,
      "sports": 6332,
      "quet": 6333,
      "iles": 6334,
      "spears": 6335,
      "speaking": 6336,
      "acle": 6337,
      "hardest": 6338,
      "JoJo": 6339,
      "teased": 6340,
      "preschool": 6341,
      "napping": 6342,
      "master": 6343,
      "maker": 6344,
      "yourselves": 6345,
      "pace": 6346,
      "inkle": 6347,
      "History": 6348,
      "warn": 6349,
      "runner": 6350,
      "Johny": 6351,
      "reds": 6352,
      "beds": 6353,
      "shampo": 6354,
      "rainy": 6355,
      "raincoat": 6356,
      "Boy": 6357,
      "Bossy": 6358,
      "cones": 6359,
      "confli": 6360,
      "consequ": 6361,
      "Annabelle": 6362,
      "lettu": 6363,
      "sery": 6364,
      "reality": 6365,
      "treas": 6366,
      "cleaner": 6367,
      "badge": 6368,
      "badger": 6369,
      "singer": 6370,
      "fishy": 6371,
      "slam": 6372,
      "squir": 6373,
      "contented": 6374,
      "Love": 6375,
      "coupon": 6376,
      "stern": 6377,
      "warmer": 6378,
      "airplanes": 6379,
      "ruin": 6380,
      "ruff": 6381,
      "mony": 6382,
      "marked": 6383,
      "creamy": 6384,
      "curiously": 6385,
      "cooled": 6386,
      "Mollie": 6387,
      "fluff": 6388,
      "flakes": 6389,
      "mischie": 6390,
      "printing": 6391,
      "softer": 6392,
      "softened": 6393,
      "sweetest": 6394,
      "drawn": 6395,
      "drawers": 6396,
      "worrying": 6397,
      "welcoming": 6398,
      "grandparent": 6399,
      "larger": 6400,
      "matched": 6401,
      "hotter": 6402,
      "pedaled": 6403,
      "sitive": 6404,
      "rows": 6405,
      "firefighter": 6406,
      "scen": 6407,
      "scent": 6408,
      "scree": 6409,
      "scribb": 6410,
      "scotch": 6411,
      "snowmen": 6412,
      "snowflakes": 6413,
      "minded": 6414,
      "freezing": 6415,
      "glider": 6416,
      "Grump": 6417,
      "ences": 6418,
      "ugging": 6419,
      "Grandson": 6420,
      "distra": 6421,
      "powder": 6422,
      "bouquet": 6423,
      "screams": 6424,
      "praying": 6425,
      "spoonful": 6426,
      "wrist": 6427,
      "paintbrush": 6428,
      "panicked": 6429,
      "hopscotch": 6430,
      "slithered": 6431,
      "peacefully": 6432,
      "spooky": 6433,
      "Chip": 6434,
      "Chirpy": 6435,
      "passeng": 6436,
      "giggles": 6437,
      "answering": 6438,
      "drums": 6439,
      "knives": 6440,
      "cleared": 6441,
      "toolbox": 6442,
      "indeed": 6443,
      "eldest": 6444,
      "sneaked": 6445,
      "sneaking": 6446,
      "sneaky": 6447,
      "copy": 6448,
      "muddy": 6449,
      "supported": 6450,
      "ertain": 6451,
      "Susy": 6452,
      "seeker": 6453,
      "protecting": 6454,
      "adding": 6455,
      "trunks": 6456,
      "terrified": 6457,
      "burst": 6458,
      "towels": 6459,
      "heroes": 6460,
      "driveway": 6461,
      "finishing": 6462,
      "leads": 6463,
      "tentacles": 6464,
      "weekend": 6465,
      "Alexis": 6466,
      "risks": 6467,
      "Ruth": 6468,
      "whispering": 6469,
      "Jelly": 6470,
      "Whee": 6471,
      "temper": 6472,
      "Poor": 6473,
      "campfire": 6474,
      "Unit": 6475,
      "knights": 6476,
      "expert": 6477,
      "Toni": 6478,
      "discoveries": 6479,
      "Meg": 6480,
      "Meow": 6481,
      "cheerfully": 6482,
      "guns": 6483,
      "gracefully": 6484,
      "reindeers": 6485,
      "Cookies": 6486,
      "nursery": 6487,
      "repeating": 6488,
      "delivered": 6489,
      "delivering": 6490,
      "trailer": 6491,
      "breathing": 6492,
      "separated": 6493,
      "uniforms": 6494,
      "crackers": 6495,
      "avocados": 6496,
      "ghosts": 6497,
      "tomatoes": 6498,
      "seconds": 6499,
      "Bonnie": 6500,
      "offering": 6501,
      "challenged": 6502,
      "container": 6503,
      "insects": 6504,
      "knocking": 6505,
      "helmets": 6506,
      "sprinkled": 6507,
      "screwdriver": 6508,
      "repeats": 6509,
      "Lizzie": 6510,
      "beaming": 6511,
      "roots": 6512,
      "questioned": 6513,
      "responsib": 6514,
      "Feeling": 6515,
      "Melissa": 6516,
      "quacking": 6517,
      "trading": 6518,
      "crashing": 6519,
      "pupils": 6520,
      "Anytime": 6521,
      "niece": 6522,
      "tiptoed": 6523,
      "wobble": 6524,
      "wobbly": 6525,
      "wobbled": 6526,
      "satisfaction": 6527,
      "textures": 6528,
      "Chef": 6529,
      "fascinating": 6530,
      "hunting": 6531,
      "Beebee": 6532,
      "supplied": 6533,
      "applauded": 6534,
      "winks": 6535,
      "activities": 6536,
      "seagulls": 6537,
      "simply": 6538,
      "pyjamas": 6539,
      "rumbling": 6540,
      "chatting": 6541,
      "healthier": 6542,
      "recommend": 6543,
      "switched": 6544,
      "switches": 6545,
      "behavi": 6546,
      "season": 6547,
      "sweaty": 6548,
      "babies": 6549,
      "reversed": 6550,
      "lipstick": 6551,
      "glittered": 6552,
      "timer": 6553,
      "bleeding": 6554,
      "conversation": 6555,
      "instrument": 6556,
      "Saturday": 6557,
      "Cloudy": 6558,
      "Earth": 6559,
      "argument": 6560,
      "conquered": 6561,
      "marveled": 6562,
      "occasion": 6563,
      "reassured": 6564,
      "Amanda": 6565,
      "Brian": 6566,
      "Courtney": 6567,
      "Graham": 6568,
      "Gavin": 6569,
      "Hurry": 6570,
      "Jonny": 6571,
      "Juno": 6572,
      "Jasper": 6573,
      "Pret": 6574,
      "Raya": 6575,
      "Wavy": 6576,
      "Yolanda": 6577,
      "gazing": 6578,
      "material": 6579,
      "piggy": 6580,
      "piñata": 6581,
      "science": 6582,
      "scored": 6583,
      "sapling": 6584,
      "detective": 6585,
      "shampoo": 6586,
      "conflict": 6587,
      "consequences": 6588,
      "lettuce": 6589,
      "fluffiest": 6590,
      "mischievous": 6591,
      "passengers": 6592,
      "Ah": 6593,
      "Along": 6594,
      "Adam": 6595,
      "Back": 6596,
      "Bless": 6597,
      "Barry": 6598,
      "Bizzy": 6599,
      "Cut": 6600,
      "Dar": 6601,
      "Duck": 6602,
      "Dina": 6603,
      "Fac": 6604,
      "Fancy": 6605,
      "Get": 6606,
      "Hal": 6607,
      "Hallow": 6608,
      "Kaa": 6609,
      "Mister": 6610,
      "Pl": 6611,
      "Playing": 6612,
      "Right": 6613,
      "Randy": 6614,
      "Raggie": 6615,
      "Spl": 6616,
      "Sound": 6617,
      "Te": 6618,
      "Ti": 6619,
      "Tra": 6620,
      "Tur": 6621,
      "Taking": 6622,
      "Want": 6623,
      "Water": 6624,
      "Yu": 6625,
      "aven": 6626,
      "ashed": 6627,
      "awoke": 6628,
      "bly": 6629,
      "blown": 6630,
      "bond": 6631,
      "cough": 6632,
      "click": 6633,
      "dies": 6634,
      "een": 6635,
      "ease": 6636,
      "fway": 6637,
      "fts": 6638,
      "fting": 6639,
      "gree": 6640,
      "groom": 6641,
      "ias": 6642,
      "itor": 6643,
      "lish": 6644,
      "luckily": 6645,
      "mp": 6646,
      "mate": 6647,
      "nations": 6648,
      "osh": 6649,
      "rr": 6650,
      "rings": 6651,
      "sled": 6652,
      "til": 6653,
      "tum": 6654,
      "tier": 6655,
      "vit": 6656,
      "vved": 6657,
      "vive": 6658,
      "vroom": 6659,
      "wk": 6660,
      "wins": 6661,
      "xop": 6662,
      "zes": 6663,
      "zel": 6664,
      "hey": 6665,
      "heaven": 6666,
      "ware": 6667,
      "waits": 6668,
      "waded": 6669,
      "rees": 6670,
      "refle": 6671,
      "retri": 6672,
      "reunited": 6673,
      "restored": 6674,
      "revved": 6675,
      "itched": 6676,
      "hairsty": 6677,
      "hawk": 6678,
      "onde": 6679,
      "level": 6680,
      "sav": 6681,
      "sale": 6682,
      "saxop": 6683,
      "llas": 6684,
      "iment": 6685,
      "stain": 6686,
      "stung": 6687,
      "stroll": 6688,
      "ilder": 6689,
      "ility": 6690,
      "lody": 6691,
      "irly": 6692,
      "thro": 6693,
      "thud": 6694,
      "threat": 6695,
      "thump": 6696,
      "nell": 6697,
      "bella": 6698,
      "cept": 6699,
      "atitude": 6700,
      "among": 6701,
      "kes": 6702,
      "soo": 6703,
      "sobbed": 6704,
      "riches": 6705,
      "ripples": 6706,
      "vegg": 6707,
      "west": 6708,
      "aston": 6709,
      "chin": 6710,
      "fears": 6711,
      "forts": 6712,
      "formed": 6713,
      "forwards": 6714,
      "players": 6715,
      "playroom": 6716,
      "gears": 6717,
      "bodies": 6718,
      "Only": 6719,
      "racks": 6720,
      "shimmer": 6721,
      "rosy": 6722,
      "fuzzy": 6723,
      "pears": 6724,
      "peak": 6725,
      "hover": 6726,
      "deed": 6727,
      "device": 6728,
      "carve": 6729,
      "lped": 6730,
      "moons": 6731,
      "helpers": 6732,
      "backs": 6733,
      "absolut": 6734,
      "mest": 6735,
      "melody": 6736,
      "ically": 6737,
      "iciest": 6738,
      "focu": 6739,
      "owners": 6740,
      "ickly": 6741,
      "cases": 6742,
      "causing": 6743,
      "gratitude": 6744,
      "homework": 6745,
      "cipal": 6746,
      "whose": 6747,
      "whoosh": 6748,
      "Benson": 6749,
      "quiz": 6750,
      "scarves": 6751,
      "uses": 6752,
      "ously": 6753,
      "spected": 6754,
      "acing": 6755,
      "thanking": 6756,
      "Jojo": 6757,
      "bully": 6758,
      "treehouse": 6759,
      "thoughts": 6760,
      "tying": 6761,
      "typed": 6762,
      "catches": 6763,
      "overheard": 6764,
      "untang": 6765,
      "maid": 6766,
      "poop": 6767,
      "positive": 6768,
      "sunscreen": 6769,
      "swish": 6770,
      "anybody": 6771,
      "handker": 6772,
      "compe": 6773,
      "warmest": 6774,
      "chea": 6775,
      "chees": 6776,
      "cled": 6777,
      "clut": 6778,
      "blur": 6779,
      "blink": 6780,
      "blonde": 6781,
      "venture": 6782,
      "tapping": 6783,
      "waters": 6784,
      "prettier": 6785,
      "pretzel": 6786,
      "flown": 6787,
      "flowing": 6788,
      "shall": 6789,
      "shame": 6790,
      "survive": 6791,
      "ladies": 6792,
      "gardener": 6793,
      "final": 6794,
      "bless": 6795,
      "cons": 6796,
      "surprising": 6797,
      "Though": 6798,
      "Through": 6799,
      "plets": 6800,
      "pleasant": 6801,
      "adventurer": 6802,
      "single": 6803,
      "winds": 6804,
      "displayed": 6805,
      "Nobody": 6806,
      "shooed": 6807,
      "locks": 6808,
      "coloring": 6809,
      "remembering": 6810,
      "talented": 6811,
      "brightest": 6812,
      "squinted": 6813,
      "chases": 6814,
      "champ": 6815,
      "grabbing": 6816,
      "guide": 6817,
      "lightly": 6818,
      "ruby": 6819,
      "snug": 6820,
      "snoring": 6821,
      "month": 6822,
      "stores": 6823,
      "rotting": 6824,
      "dollhouse": 6825,
      "blueberry": 6826,
      "biting": 6827,
      "mermaid": 6828,
      "hearted": 6829,
      "grassy": 6830,
      "Move": 6831,
      "movement": 6832,
      "yellows": 6833,
      "droplets": 6834,
      "!”.": 6835,
      "follows": 6836,
      "principal": 6837,
      "sandcastles": 6838,
      "sweetly": 6839,
      "tricked": 6840,
      "Looking": 6841,
      "smelt": 6842,
      "granddaughter": 6843,
      "grandchild": 6844,
      "grandson": 6845,
      "greens": 6846,
      "covers": 6847,
      "claps": 6848,
      "races": 6849,
      "tasting": 6850,
      "fights": 6851,
      "belief": 6852,
      "oohed": 6853,
      "vision": 6854,
      "visitor": 6855,
      "gratefully": 6856,
      "joining": 6857,
      "purr": 6858,
      "buildings": 6859,
      "artwork": 6860,
      "fireflies": 6861,
      "firemen": 6862,
      "suits": 6863,
      "scrubbed": 6864,
      "elect": 6865,
      "iggled": 6866,
      "minding": 6867,
      "juiciest": 6868,
      "freely": 6869,
      "dances": 6870,
      "Gradually": 6871,
      "cracked": 6872,
      "dribb": 6873,
      "drift": 6874,
      "Grandmother": 6875,
      "whispers": 6876,
      "shops": 6877,
      "parties": 6878,
      "storms": 6879,
      "pancake": 6880,
      "signs": 6881,
      "hops": 6882,
      "action": 6883,
      "beehive": 6884,
      "bathing": 6885,
      "imagin": 6886,
      "lunchbox": 6887,
      "paths": 6888,
      "tidying": 6889,
      "hummed": 6890,
      "calming": 6891,
      "trips": 6892,
      "embarrass": 6893,
      "reminding": 6894,
      "chewy": 6895,
      "Rocky": 6896,
      "Robbie": 6897,
      "princesses": 6898,
      "Goodbye": 6899,
      "breaths": 6900,
      "trusty": 6901,
      "Wherever": 6902,
      "hopeful": 6903,
      "hangers": 6904,
      "student": 6905,
      "incts": 6906,
      "marker": 6907,
      "marking": 6908,
      "tested": 6909,
      "testing": 6910,
      "streams": 6911,
      "kicks": 6912,
      "sprung": 6913,
      "suggesting": 6914,
      "suggestion": 6915,
      "batteries": 6916,
      "beanstal": 6917,
      "Seeing": 6918,
      "Marley": 6919,
      "prick": 6920,
      "Wheee": 6921,
      "scales": 6922,
      "razors": 6923,
      "launched": 6924,
      "spilling": 6925,
      "speeding": 6926,
      "chirp": 6927,
      "messes": 6928,
      "teamwork": 6929,
      "repairman": 6930,
      "brushing": 6931,
      "kangaroos": 6932,
      "avoided": 6933,
      "cuddles": 6934,
      "seriously": 6935,
      "weighs": 6936,
      "neighbours": 6937,
      "Spider": 6938,
      "exercising": 6939,
      "apologised": 6940,
      "pastor": 6941,
      "energ": 6942,
      "delayed": 6943,
      "condition": 6944,
      "magazines": 6945,
      "capture": 6946,
      "enthusias": 6947,
      "sniffing": 6948,
      "sailors": 6949,
      "television": 6950,
      "shoelaces": 6951,
      "choices": 6952,
      "!'.": 6953,
      "surroundings": 6954,
      "frowns": 6955,
      "performing": 6956,
      "Janet": 6957,
      "licking": 6958,
      "labels": 6959,
      "nightmares": 6960,
      "quarreling": 6961,
      "Alright": 6962,
      "preparing": 6963,
      "traded": 6964,
      "applause": 6965,
      "surrendered": 6966,
      "Carrot": 6967,
      "Katrine": 6968,
      "pineapple": 6969,
      "pinecones": 6970,
      "burying": 6971,
      "pedals": 6972,
      "pedaling": 6973,
      "palms": 6974,
      "flavors": 6975,
      "swayed": 6976,
      "instant": 6977,
      "instincts": 6978,
      "bricks": 6979,
      "lungs": 6980,
      "hesitant": 6981,
      "providing": 6982,
      "superheroes": 6983,
      "Monkey": 6984,
      "confidently": 6985,
      "novels": 6986,
      "Oliver": 6987,
      "increased": 6988,
      "honk": 6989,
      "obeyed": 6990,
      "rails": 6991,
      "Excited": 6992,
      "Isabella": 6993,
      "Prince": 6994,
      "grant": 6995,
      "tossed": 6996,
      "response": 6997,
      "sniffled": 6998,
      "damaged": 6999,
      "behaved": 7000,
      "glittering": 7001,
      "Quickly": 7002,
      "effort": 7003,
      "inchworm": 7004,
      "salon": 7005,
      "connected": 7006,
      "temptation": 7007,
      "nibble": 7008,
      "refuse": 7009,
      "stroked": 7010,
      "license": 7011,
      "forgiveness": 7012,
      "blushed": 7013,
      "Cottontail": 7014,
      "results": 7015,
      "pounds": 7016,
      "snuggle": 7017,
      "product": 7018,
      "particularly": 7019,
      "Curious": 7020,
      "Guard": 7021,
      "dentist": 7022,
      "pantry": 7023,
      "sizes": 7024,
      "saucers": 7025,
      "nearest": 7026,
      "beads": 7027,
      "rooster": 7028,
      "moldy": 7029,
      "treasured": 7030,
      "slammed": 7031,
      "distracted": 7032,
      "behavior": 7033,
      "Pretty": 7034,
      "Darnell": 7035,
      "Factory": 7036,
      "Halfway": 7037,
      "Halloween": 7038,
      "Kaaaw": 7039,
      "Splash": 7040,
      "Tiara": 7041,
      "Yuki": 7042,
      "greeted": 7043,
      "tilted": 7044,
      "reflection": 7045,
      "saxophone": 7046,
      "throat": 7047,
      "veggies": 7048,
      "astonished": 7049,
      "absolute": 7050,
      "focused": 7051,
      "handkerchief": 7052,
      "champion": 7053,
      "beanstalk": 7054,
      "enthusiasm": 7055,
      "!’": 7056,
      "'.\"": 7057,
      "12": 7058,
      "?!\"": 7059,
      "Ama": 7060,
      "BI": 7061,
      "Banan": 7062,
      "Bugs": 7063,
      "Ca": 7064,
      "Congratul": 7065,
      "Choo": 7066,
      "Dis": 7067,
      "Dear": 7068,
      "Ele": 7069,
      "Evan": 7070,
      "Fight": 7071,
      "Fine": 7072,
      "Fort": 7073,
      "Gold": 7074,
      "HA": 7075,
      "Hand": 7076,
      "Hop": 7077,
      "Hold": 7078,
      "Hmm": 7079,
      "IS": 7080,
      "Imag": 7081,
      "Isn": 7082,
      "Ivan": 7083,
      "Jud": 7084,
      "LO": 7085,
      "Land": 7086,
      "Len": 7087,
      "Law": 7088,
      "Mild": 7089,
      "Number": 7090,
      "Old": 7091,
      "Ooh": 7092,
      "Pick": 7093,
      "Pinky": 7094,
      "Sh": 7095,
      "Sha": 7096,
      "Spe": 7097,
      "Sour": 7098,
      "TH": 7099,
      "Tod": 7100,
      "Twink": 7101,
      "THE": 7102,
      "Und": 7103,
      "Wend": 7104,
      "Woo": 7105,
      "Zip": 7106,
      "Zog": 7107,
      "afar": 7108,
      "aboard": 7109,
      "bom": 7110,
      "bound": 7111,
      "budd": 7112,
      "blast": 7113,
      "blic": 7114,
      "cro": 7115,
      "cents": 7116,
      "court": 7117,
      "certain": 7118,
      "date": 7119,
      "damp": 7120,
      "dipped": 7121,
      "dreds": 7122,
      "eking": 7123,
      "effic": 7124,
      "fist": 7125,
      "fable": 7126,
      "fitting": 7127,
      "fond": 7128,
      "frant": 7129,
      "hips": 7130,
      "jugg": 7131,
      "ka": 7132,
      "ko": 7133,
      "knap": 7134,
      "lou": 7135,
      "lam": 7136,
      "lur": 7137,
      "lars": 7138,
      "liness": 7139,
      "lending": 7140,
      "latch": 7141,
      "mend": 7142,
      "mun": 7143,
      "mies": 7144,
      "miest": 7145,
      "miles": 7146,
      "nat": 7147,
      "nif": 7148,
      "nced": 7149,
      "oing": 7150,
      "ocu": 7151,
      "ocks": 7152,
      "pand": 7153,
      "plo": 7154,
      "pite": 7155,
      "psed": 7156,
      "pours": 7157,
      "pths": 7158,
      "ramp": 7159,
      "riddle": 7160,
      "rupt": 7161,
      "site": 7162,
      "scu": 7163,
      "swords": 7164,
      "ssess": 7165,
      "tin": 7166,
      "tam": 7167,
      "till": 7168,
      "tran": 7169,
      "tally": 7170,
      "tipped": 7171,
      "uit": 7172,
      "vines": 7173,
      "vows": 7174,
      "ww": 7175,
      "wicked": 7176,
      "zipped": 7177,
      "ziness": 7178,
      "”,": 7179,
      "anno": 7180,
      "topping": 7181,
      "toaster": 7182,
      "totally": 7183,
      "inter": 7184,
      "inched": 7185,
      "inting": 7186,
      "inspect": 7187,
      "indoors": 7188,
      "andon": 7189,
      "waking": 7190,
      "rely": 7191,
      "rebuild": 7192,
      "reappeared": 7193,
      "rence": 7194,
      "respected": 7195,
      "itches": 7196,
      "ounced": 7197,
      "erk": 7198,
      "lever": 7199,
      "lling": 7200,
      "immon": 7201,
      "stinky": 7202,
      "ornament": 7203,
      "ils": 7204,
      "ilities": 7205,
      "ilocks": 7206,
      "local": 7207,
      "nect": 7208,
      "necess": 7209,
      "neither": 7210,
      "sewed": 7211,
      "amins": 7212,
      "amedic": 7213,
      "exchange": 7214,
      "except": 7215,
      "igning": 7216,
      "owled": 7217,
      "ppet": 7218,
      "ppers": 7219,
      "hiss": 7220,
      "hissing": 7221,
      "plain": 7222,
      "plus": 7223,
      "plugged": 7224,
      "rips": 7225,
      "unsure": 7226,
      "unately": 7227,
      "unfamiliar": 7228,
      "upside": 7229,
      "adled": 7230,
      "otion": 7231,
      "als": 7232,
      "aling": 7233,
      "wets": 7234,
      "wetter": 7235,
      "chni": 7236,
      "feat": 7237,
      "itters": 7238,
      "force": 7239,
      "bold": 7240,
      "goo": 7241,
      "outer": 7242,
      "outcome": 7243,
      "outstretched": 7244,
      "outfits": 7245,
      "rage": 7246,
      "shor": 7247,
      "shrun": 7248,
      "shuff": 7249,
      "shirts": 7250,
      "dozer": 7251,
      "ropes": 7252,
      "roses": 7253,
      "noticing": 7254,
      "peep": 7255,
      "hoot": 7256,
      "defin": 7257,
      "depths": 7258,
      "agrees": 7259,
      "coop": 7260,
      "colla": 7261,
      "mooing": 7262,
      "backward": 7263,
      "abandon": 7264,
      "meowing": 7265,
      "Butter": 7266,
      "starfish": 7267,
      "icip": 7268,
      "icious": 7269,
      "focus": 7270,
      "funn": 7271,
      "stool": 7272,
      "stomer": 7273,
      "predic": 7274,
      "cav": 7275,
      "cawing": 7276,
      "worn": 7277,
      "noons": 7278,
      "faith": 7279,
      "failed": 7280,
      "oping": 7281,
      "elves": 7282,
      "grum": 7283,
      "gruff": 7284,
      "muster": 7285,
      "getic": 7286,
      "putty": 7287,
      "sadder": 7288,
      "ieter": 7289,
      "sprang": 7290,
      "spicious": 7291,
      "quilt": 7292,
      "quieter": 7293,
      "lookout": 7294,
      "ift": 7295,
      "uddle": 7296,
      "specks": 7297,
      "harmony": 7298,
      "techni": 7299,
      "anticip": 7300,
      "whined": 7301,
      "builder": 7302,
      "itely": 7303,
      "dads": 7304,
      "presen": 7305,
      "presses": 7306,
      "navy": 7307,
      "Hermi": 7308,
      "untie": 7309,
      "maje": 7310,
      "posed": 7311,
      "popping": 7312,
      "poses": 7313,
      "possess": 7314,
      "yelped": 7315,
      "isting": 7316,
      "swer": 7317,
      "trud": 7318,
      "public": 7319,
      "puppet": 7320,
      "handy": 7321,
      "combed": 7322,
      "common": 7323,
      "compan": 7324,
      "clucked": 7325,
      "clues": 7326,
      "clerk": 7327,
      "blings": 7328,
      "blaring": 7329,
      "waterfall": 7330,
      "beast": 7331,
      "shallow": 7332,
      "beautifully": 7333,
      "Boo": 7334,
      "gardens": 7335,
      "fleas": 7336,
      "turtles": 7337,
      "underwater": 7338,
      "pots": 7339,
      "potion": 7340,
      "stepping": 7341,
      "customer": 7342,
      "donkey": 7343,
      "wondr": 7344,
      "exploded": 7345,
      "fianc": 7346,
      "serving": 7347,
      "ankle": 7348,
      "realizing": 7349,
      "greater": 7350,
      "throne": 7351,
      "thrown": 7352,
      "parades": 7353,
      "paramedic": 7354,
      "enjoyable": 7355,
      "displaying": 7356,
      "disagreement": 7357,
      "disbelief": 7358,
      "slug": 7359,
      "slight": 7360,
      "surely": 7361,
      "shoved": 7362,
      "afternoons": 7363,
      "brightened": 7364,
      "squished": 7365,
      "squashed": 7366,
      "ipment": 7367,
      "liest": 7368,
      "soundly": 7369,
      "differently": 7370,
      "counts": 7371,
      "magnif": 7372,
      "guided": 7373,
      "stands": 7374,
      "snatch": 7375,
      "tops": 7376,
      "rotted": 7377,
      "chopping": 7378,
      "magically": 7379,
      "blocking": 7380,
      "closes": 7381,
      "thankfully": 7382,
      "sweetness": 7383,
      "petting": 7384,
      "phant": 7385,
      "cradled": 7386,
      "critters": 7387,
      "opening": 7388,
      "promises": 7389,
      "Behind": 7390,
      "hilltop": 7391,
      "affect": 7392,
      "slowed": 7393,
      "fairly": 7394,
      "proven": 7395,
      "barracks": 7396,
      "trace": 7397,
      "iently": 7398,
      "exploration": 7399,
      "insisting": 7400,
      "dryer": 7401,
      "hider": 7402,
      "artled": 7403,
      "rowing": 7404,
      "firewood": 7405,
      "cloudy": 7406,
      "dashed": 7407,
      "suspicious": 7408,
      "Peeking": 7409,
      "scrub": 7410,
      "scrubbing": 7411,
      "strings": 7412,
      "polka": 7413,
      "bathrobe": 7414,
      "daughters": 7415,
      "loneliness": 7416,
      "iderate": 7417,
      "seashell": 7418,
      "seaweed": 7419,
      "dripped": 7420,
      "alongside": 7421,
      "sugary": 7422,
      "bubbling": 7423,
      "bubbleg": 7424,
      "bowls": 7425,
      "grazing": 7426,
      "benches": 7427,
      "latest": 7428,
      "wriggled": 7429,
      "pressing": 7430,
      "partner": 7431,
      "mattered": 7432,
      "tune": 7433,
      "tunes": 7434,
      "ships": 7435,
      "shipwreck": 7436,
      "towering": 7437,
      "slipping": 7438,
      "wishing": 7439,
      "bait": 7440,
      "spoiling": 7441,
      "fingert": 7442,
      "passion": 7443,
      "cutest": 7444,
      "teachers": 7445,
      "widely": 7446,
      "picnics": 7447,
      "humming": 7448,
      "miracle": 7449,
      "calmed": 7450,
      "mysteries": 7451,
      "desire": 7452,
      "despite": 7453,
      "wildflowers": 7454,
      "celebrating": 7455,
      "ballet": 7456,
      "necks": 7457,
      "cycled": 7458,
      "teapot": 7459,
      "practising": 7460,
      "Roger": 7461,
      "interested": 7462,
      "umbrellas": 7463,
      "copied": 7464,
      "curl": 7465,
      "ticking": 7466,
      "hamster": 7467,
      "battle": 7468,
      "roads": 7469,
      "ustrated": 7470,
      "flashed": 7471,
      "cornfield": 7472,
      "chocolates": 7473,
      "Whoever": 7474,
      "springs": 7475,
      "shady": 7476,
      "vanilla": 7477,
      "lemons": 7478,
      "stuffing": 7479,
      "forks": 7480,
      "shrinking": 7481,
      "shrugs": 7482,
      "policeman": 7483,
      "cubes": 7484,
      "relaxing": 7485,
      "awful": 7486,
      "awoken": 7487,
      "fourth": 7488,
      "tires": 7489,
      "vests": 7490,
      "clums": 7491,
      "fiercely": 7492,
      "borrowed": 7493,
      "Learn": 7494,
      "tempted": 7495,
      "fluttered": 7496,
      "loads": 7497,
      "bulldozer": 7498,
      "Poppies": 7499,
      "campsite": 7500,
      "pays": 7501,
      "wiping": 7502,
      "ordering": 7503,
      "paintings": 7504,
      "scares": 7505,
      "repairs": 7506,
      "repairing": 7507,
      "jellyfish": 7508,
      "avoid": 7509,
      "million": 7510,
      "yells": 7511,
      "twisting": 7512,
      "hunters": 7513,
      "Startled": 7514,
      "bumps": 7515,
      "cherished": 7516,
      "apology": 7517,
      "rewarding": 7518,
      "cooed": 7519,
      "suitcase": 7520,
      "Stevie": 7521,
      "respond": 7522,
      "energetic": 7523,
      "adored": 7524,
      "diamonds": 7525,
      "neighbouring": 7526,
      "charge": 7527,
      "sincere": 7528,
      "scolds": 7529,
      "jugs": 7530,
      "belts": 7531,
      "traveling": 7532,
      "travelling": 7533,
      "pinching": 7534,
      "rays": 7535,
      "yummiest": 7536,
      "tippy": 7537,
      "twinkly": 7538,
      "flooding": 7539,
      "spells": 7540,
      "appreciated": 7541,
      "planets": 7542,
      "suffered": 7543,
      "designs": 7544,
      "squares": 7545,
      "ducklings": 7546,
      "countryside": 7547,
      "weapons": 7548,
      "recognize": 7549,
      "Tuesdays": 7550,
      "wiser": 7551,
      "wiggling": 7552,
      "shortcut": 7553,
      "pokes": 7554,
      "differences": 7555,
      "silverware": 7556,
      "holidays": 7557,
      "meatballs": 7558,
      "spikes": 7559,
      "crowded": 7560,
      "flavours": 7561,
      "banged": 7562,
      "admiration": 7563,
      "tradition": 7564,
      "lumberjack": 7565,
      "unicate": 7566,
      "Katie": 7567,
      "languages": 7568,
      "tips": 7569,
      "wires": 7570,
      "heels": 7571,
      "Yesterday": 7572,
      "decisions": 7573,
      "communicate": 7574,
      "muscles": 7575,
      "punishment": 7576,
      "Muffin": 7577,
      "swollen": 7578,
      "poisonous": 7579,
      "encouragement": 7580,
      "raccoons": 7581,
      "Tammy": 7582,
      "rumble": 7583,
      "chefs": 7584,
      "binocu": 7585,
      "chatted": 7586,
      "honked": 7587,
      "siblings": 7588,
      "smartest": 7589,
      "choosing": 7590,
      "rescuing": 7591,
      "achievement": 7592,
      "earned": 7593,
      "recommended": 7594,
      "firmly": 7595,
      "revealing": 7596,
      "Quack": 7597,
      "efforts": 7598,
      "reversing": 7599,
      "salsa": 7600,
      "expression": 7601,
      "stomped": 7602,
      "glittery": 7603,
      "nibbling": 7604,
      "equipment": 7605,
      "blush": 7606,
      "recorders": 7607,
      "expecting": 7608,
      "Cottonball": 7609,
      "weeds": 7610,
      "greeting": 7611,
      "deserved": 7612,
      "Ahhh": 7613,
      "scuttled": 7614,
      "toppled": 7615,
      "toddler": 7616,
      "deeply": 7617,
      "options": 7618,
      "spices": 7619,
      "squirmed": 7620,
      "contentedly": 7621,
      "scenery": 7622,
      "screeched": 7623,
      "scribbles": 7624,
      "temperature": 7625,
      "responsibility": 7626,
      "detectives": 7627,
      "Plus": 7628,
      "Track": 7629,
      "Turn": 7630,
      "matey": 7631,
      "vitamins": 7632,
      "retriever": 7633,
      "hairstyle": 7634,
      "shimmering": 7635,
      "untangled": 7636,
      "compete": 7637,
      "cheaper": 7638,
      "cheesy": 7639,
      "clutched": 7640,
      "blessed": 7641,
      "considerate": 7642,
      "movements": 7643,
      "dribbling": 7644,
      "prickly": 7645,
      "Wheeee": 7646,
      "Excitedly": 7647,
      "absolutely": 7648,
      "Amazing": 7649,
      "Congratulations": 7650,
      "Elephant": 7651,
      "Fighting": 7652,
      "Fortunately": 7653,
      "Goldilocks": 7654,
      "Imagine": 7655,
      "Judy": 7656,
      "Lena": 7657,
      "Lawrence": 7658,
      "Todd": 7659,
      "Twinkle": 7660,
      "Under": 7661,
      "Wendy": 7662,
      "Woolly": 7663,
      "bounded": 7664,
      "buddies": 7665,
      "frantically": 7666,
      "koalas": 7667,
      "knapsack": 7668,
      "loudest": 7669,
      "lamb": 7670,
      "munched": 7671,
      "pandas": 7672,
      "plopped": 7673,
      "tiniest": 7674,
      "tamer": 7675,
      "trans": 7676,
      "annoy": 7677,
      "toppings": 7678,
      "nectar": 7679,
      "necessary": 7680,
      "wetsuit": 7681,
      "shrunk": 7682,
      "shuffled": 7683,
      "definitely": 7684,
      "collapsed": 7685,
      "mustered": 7686,
      "anticipation": 7687,
      "presented": 7688,
      "Hermione": 7689,
      "majestic": 7690,
      "companion": 7691,
      "wondrous": 7692,
      "fiancé": 7693,
      "paramedics": 7694,
      "bubblegum": 7695,
      "fingertips": 7696,
      "binoculars": 7697,
      "!,\"": 7698,
      "20": 7699,
      ":\"": 7700,
      "?'.": 7701,
      "AC": 7702,
      "AN": 7703,
      "AY": 7704,
      "Aho": 7705,
      "Amen": 7706,
      "ANG": 7707,
      "Arr": 7708,
      "Bin": 7709,
      "Bing": 7710,
      "Bang": 7711,
      "Bright": 7712,
      "Com": 7713,
      "Could": 7714,
      "Cop": 7715,
      "Crad": 7716,
      "Clean": 7717,
      "Cuddle": 7718,
      "Din": 7719,
      "Dang": 7720,
      "Driver": 7721,
      "Danger": 7722,
      "ED": 7723,
      "ER": 7724,
      "Ever": 7725,
      "Eating": 7726,
      "Easter": 7727,
      "Fr": 7728,
      "Fly": 7729,
      "Fro": 7730,
      "Fake": 7731,
      "Five": 7732,
      "Fru": 7733,
      "Glad": 7734,
      "HO": 7735,
      "Lot": 7736,
      "Light": 7737,
      "Lunch": 7738,
      "ME": 7739,
      "Mag": 7740,
      "Mother": 7741,
      "Math": 7742,
      "Maa": 7743,
      "Making": 7744,
      "Master": 7745,
      "NO": 7746,
      "None": 7747,
      "Net": 7748,
      "Near": 7749,
      "Nons": 7750,
      "Nature": 7751,
      "Over": 7752,
      "Open": 7753,
      "Olives": 7754,
      "Phe": 7755,
      "Pray": 7756,
      "RE": 7757,
      "Rh": 7758,
      "Riding": 7759,
      "ST": 7760,
      "Se": 7761,
      "Sw": 7762,
      "Sir": 7763,
      "Sur": 7764,
      "Sel": 7765,
      "Sweet": 7766,
      "Sail": 7767,
      "Tre": 7768,
      "Tree": 7769,
      "TED": 7770,
      "Upon": 7771,
      "Vo": 7772,
      "Vroom": 7773,
      "Wr": 7774,
      "Wide": 7775,
      "Wake": 7776,
      "Wanna": 7777,
      "Winning": 7778,
      "Years": 7779,
      "aut": 7780,
      "ahold": 7781,
      "aimed": 7782,
      "ban": 7783,
      "bid": 7784,
      "bam": 7785,
      "bould": 7786,
      "bla": 7787,
      "bud": 7788,
      "bour": 7789,
      "bitten": 7790,
      "birth": 7791,
      "coug": 7792,
      "clicked": 7793,
      "du": 7794,
      "dou": 7795,
      "diz": 7796,
      "dled": 7797,
      "dip": 7798,
      "diet": 7799,
      "dates": 7800,
      "draining": 7801,
      "ev": 7802,
      "eer": 7803,
      "eve": 7804,
      "fare": 7805,
      "fain": 7806,
      "fade": 7807,
      "fried": 7808,
      "flock": 7809,
      "flights": 7810,
      "gall": 7811,
      "gad": 7812,
      "gled": 7813,
      "glared": 7814,
      "gripped": 7815,
      "grip": 7816,
      "hantly": 7817,
      "iky": 7818,
      "jigg": 7819,
      "jaw": 7820,
      "kil": 7821,
      "lan": 7822,
      "leng": 7823,
      "ms": 7824,
      "mended": 7825,
      "nu": 7826,
      "nch": 7827,
      "narrow": 7828,
      "nounced": 7829,
      "ole": 7830,
      "oars": 7831,
      "pout": 7832,
      "phed": 7833,
      "pave": 7834,
      "pboard": 7835,
      "penter": 7836,
      "pouch": 7837,
      "ras": 7838,
      "rus": 7839,
      "rash": 7840,
      "rider": 7841,
      "sou": 7842,
      "shat": 7843,
      "sened": 7844,
      "sion": 7845,
      "swat": 7846,
      "scient": 7847,
      "slope": 7848,
      "tar": 7849,
      "tant": 7850,
      "tending": 7851,
      "tinkle": 7852,
      "tugging": 7853,
      "uum": 7854,
      "vas": 7855,
      "vised": 7856,
      "vowing": 7857,
      "whim": 7858,
      "woken": 7859,
      "wider": 7860,
      "yage": 7861,
      "angr": 7862,
      "announced": 7863,
      "theat": 7864,
      "tori": 7865,
      "toise": 7866,
      "inha": 7867,
      "inju": 7868,
      "intent": 7869,
      "insepar": 7870,
      "ands": 7871,
      "anding": 7872,
      "rect": 7873,
      "rent": 7874,
      "recess": 7875,
      "rewards": 7876,
      "remark": 7877,
      "refresh": 7878,
      "refuel": 7879,
      "reacted": 7880,
      "remony": 7881,
      "reaction": 7882,
      "ounce": 7883,
      "haven": 7884,
      "haps": 7885,
      "enched": 7886,
      "enlight": 7887,
      "enment": 7888,
      "encounter": 7889,
      "enchan": 7890,
      "envy": 7891,
      "ersa": 7892,
      "erup": 7893,
      "erase": 7894,
      "erina": 7895,
      "erupt": 7896,
      "wasting": 7897,
      "arom": 7898,
      "army": 7899,
      "arch": 7900,
      "ingly": 7901,
      "ists": 7902,
      "isfied": 7903,
      "leather": 7904,
      "ids": 7905,
      "lleng": 7906,
      "stun": 7907,
      "stump": 7908,
      "stacle": 7909,
      "orth": 7910,
      "orkeeper": 7911,
      "ilar": 7912,
      "lobby": 7913,
      "endless": 7914,
      "endings": 7915,
      "thous": 7916,
      "thirst": 7917,
      "beating": 7918,
      "begging": 7919,
      "hatched": 7920,
      "Sheep": 7921,
      "utens": 7922,
      "ceremony": 7923,
      "atted": 7924,
      "atmo": 7925,
      "ative": 7926,
      "attered": 7927,
      "attempt": 7928,
      "sets": 7929,
      "section": 7930,
      "amed": 7931,
      "aming": 7932,
      "amole": 7933,
      "existed": 7934,
      "exhi": 7935,
      "exposed": 7936,
      "igade": 7937,
      "owie": 7938,
      "sooo": 7939,
      "hisses": 7940,
      "pled": 7941,
      "pler": 7942,
      "rier": 7943,
      "ricity": 7944,
      "alled": 7945,
      "uning": 7946,
      "unsafe": 7947,
      "undone": 7948,
      "unfair": 7949,
      "uncovered": 7950,
      "unselfish": 7951,
      "unwrap": 7952,
      "unwrapped": 7953,
      "unloaded": 7954,
      "unzip": 7955,
      "unpredic": 7956,
      "unnecessary": 7957,
      "address": 7958,
      "adopt": 7959,
      "aloud": 7960,
      "wears": 7961,
      "webs": 7962,
      "asy": 7963,
      "asing": 7964,
      "hadow": 7965,
      "chup": 7966,
      "chill": 7967,
      "chugg": 7968,
      "chunk": 7969,
      "feated": 7970,
      "liar": 7971,
      "lifts": 7972,
      "forgiving": 7973,
      "yous": 7974,
      "momma": 7975,
      "plays": 7976,
      "playhouse": 7977,
      "playmat": 7978,
      "playdate": 7979,
      "entertain": 7980,
      "bobbed": 7981,
      "outcomes": 7982,
      "racer": 7983,
      "shown": 7984,
      "shmall": 7985,
      "smother": 7986,
      "doze": 7987,
      "dozed": 7988,
      "robat": 7989,
      "robbed": 7990,
      "rying": 7991,
      "arer": 7992,
      "pest": 7993,
      "peas": 7994,
      "pecu": 7995,
      "pecks": 7996,
      "peppers": 7997,
      "hollow": 7998,
      "detail": 7999,
      "devast": 8000,
      "defeated": 8001,
      "cargo": 8002,
      "carpenter": 8003,
      "odles": 8004,
      "aging": 8005,
      "cove": 8006,
      "code": 8007,
      "cooper": 8008,
      "moat": 8009,
      "mopping": 8010,
      "mooed": 8011,
      "ural": 8012,
      "urts": 8013,
      "urped": 8014,
      "fulfill": 8015,
      "umn": 8016,
      "umming": 8017,
      "background": 8018,
      "meow": 8019,
      "stard": 8020,
      "ical": 8021,
      "icent": 8022,
      "foam": 8023,
      "foggy": 8024,
      "owning": 8025,
      "manners": 8026,
      "managing": 8027,
      "loosened": 8028,
      "pruning": 8029,
      "cans": 8030,
      "canister": 8031,
      "canvas": 8032,
      "nook": 8033,
      "noses": 8034,
      "noodles": 8035,
      "birdies": 8036,
      "birdseed": 8037,
      "lator": 8038,
      "parks": 8039,
      "parking": 8040,
      "gras": 8041,
      "grime": 8042,
      "grumble": 8043,
      "seeking": 8044,
      "mustard": 8045,
      "homeless": 8046,
      "whoever": 8047,
      "icecream": 8048,
      "spar": 8049,
      "sphere": 8050,
      "spits": 8051,
      "spilt": 8052,
      "spiky": 8053,
      "ques": 8054,
      "quiver": 8055,
      "bras": 8056,
      "brigade": 8057,
      "downtown": 8058,
      "wolves": 8059,
      "acon": 8060,
      "acul": 8061,
      "acamole": 8062,
      "acrobat": 8063,
      "lowered": 8064,
      "harvest": 8065,
      "harbour": 8066,
      "atest": 8067,
      "bbing": 8068,
      "teary": 8069,
      "foreshad": 8070,
      "antlers": 8071,
      "whining": 8072,
      "whirly": 8073,
      "cares": 8074,
      "carefree": 8075,
      "clover": 8076,
      "oured": 8077,
      "ouring": 8078,
      "thoughtfully": 8079,
      "previous": 8080,
      "types": 8081,
      "howl": 8082,
      "skirts": 8083,
      "overflow": 8084,
      "overcoming": 8085,
      "angles": 8086,
      "untangle": 8087,
      "pose": 8088,
      "poster": 8089,
      "pollen": 8090,
      "learns": 8091,
      "doghouse": 8092,
      "ballerina": 8093,
      "swift": 8094,
      "trimmed": 8095,
      "ptied": 8096,
      "handmade": 8097,
      "handled": 8098,
      "compar": 8099,
      "command": 8100,
      "cheers": 8101,
      "cheating": 8102,
      "clue": 8103,
      "kindling": 8104,
      "runners": 8105,
      "umphantly": 8106,
      "tale": 8107,
      "tapes": 8108,
      "reads": 8109,
      "reader": 8110,
      "bert": 8111,
      "safest": 8112,
      "braid": 8113,
      "brakes": 8114,
      "needles": 8115,
      "perch": 8116,
      "cheddar": 8117,
      "eaching": 8118,
      "eachother": 8119,
      "Answer": 8120,
      "surger": 8121,
      "gardening": 8122,
      "fins": 8123,
      "nicest": 8124,
      "potty": 8125,
      "conso": 8126,
      "constr": 8127,
      "contest": 8128,
      "convin": 8129,
      "concent": 8130,
      "stew": 8131,
      "steer": 8132,
      "steered": 8133,
      "applied": 8134,
      "culator": 8135,
      "grounds": 8136,
      "fived": 8137,
      "fibers": 8138,
      "servan": 8139,
      "smiley": 8140,
      "forests": 8141,
      "parted": 8142,
      "doorstep": 8143,
      "doorbell": 8144,
      "shares": 8145,
      "winding": 8146,
      "windmill": 8147,
      "Thankfully": 8148,
      "nights": 8149,
      "nightfall": 8150,
      "disrespectful": 8151,
      "discouraged": 8152,
      "disobeyed": 8153,
      "disrupt": 8154,
      "slumber": 8155,
      "slurped": 8156,
      "rightful": 8157,
      "voyage": 8158,
      "eyeshadow": 8159,
      "talents": 8160,
      "squaw": 8161,
      "squinting": 8162,
      "squatted": 8163,
      "challeng": 8164,
      "gress": 8165,
      "greatest": 8166,
      "contained": 8167,
      "sharpen": 8168,
      "listens": 8169,
      "ffed": 8170,
      "tortoise": 8171,
      "warmly": 8172,
      "maged": 8173,
      "gulp": 8174,
      "guacamole": 8175,
      "lighting": 8176,
      "ruled": 8177,
      "rulers": 8178,
      "marshmall": 8179,
      "dollies": 8180,
      "bluest": 8181,
      "bluebird": 8182,
      "creams": 8183,
      "cooks": 8184,
      "darken": 8185,
      "woodland": 8186,
      "relation": 8187,
      "More": 8188,
      "Most": 8189,
      "bows": 8190,
      "bowing": 8191,
      "twitched": 8192,
      "twirly": 8193,
      "sation": 8194,
      "misty": 8195,
      "tablecloth": 8196,
      "Which": 8197,
      "anced": 8198,
      "Does": 8199,
      "Doorkeeper": 8200,
      "mums": 8201,
      "closets": 8202,
      "germs": 8203,
      "sandy": 8204,
      "Too": 8205,
      "softness": 8206,
      "mothers": 8207,
      "kettle": 8208,
      "ketchup": 8209,
      "colder": 8210,
      "tricycle": 8211,
      "triumphantly": 8212,
      "swims": 8213,
      "swimsuits": 8214,
      "mints": 8215,
      "Looks": 8216,
      "phones": 8217,
      "frolicking": 8218,
      "meaning": 8219,
      "drowned": 8220,
      "cris": 8221,
      "crowned": 8222,
      "crumble": 8223,
      "creativ": 8224,
      "rags": 8225,
      "dinnertime": 8226,
      "promising": 8227,
      "drenched": 8228,
      "mornings": 8229,
      "landing": 8230,
      "keyhole": 8231,
      "slower": 8232,
      "hungrier": 8233,
      "furrowed": 8234,
      "proved": 8235,
      "process": 8236,
      "probab": 8237,
      "progress": 8238,
      "barge": 8239,
      "claim": 8240,
      "racecar": 8241,
      "tastiest": 8242,
      "dreamland": 8243,
      "emptied": 8244,
      "whew": 8245,
      "pinkle": 8246,
      "pretends": 8247,
      "naptime": 8248,
      "napkins": 8249,
      "zebras": 8250,
      "visible": 8251,
      "insult": 8252,
      "floors": 8253,
      "queens": 8254,
      "purchase": 8255,
      "treated": 8256,
      "dryness": 8257,
      "persimmon": 8258,
      "mustn": 8259,
      "dangers": 8260,
      "fireballs": 8261,
      "coral": 8262,
      "correct": 8263,
      "dancer": 8264,
      "scruff": 8265,
      "scowled": 8266,
      "snowing": 8267,
      "strut": 8268,
      "strumming": 8269,
      "steadily": 8270,
      "mindful": 8271,
      "boards": 8272,
      "brant": 8273,
      "glided": 8274,
      "glance": 8275,
      "gliding": 8276,
      "glanced": 8277,
      "dragging": 8278,
      "talks": 8279,
      "Grinning": 8280,
      "swallow": 8281,
      "tails": 8282,
      "craz": 8283,
      "crafts": 8284,
      "buckled": 8285,
      "buckling": 8286,
      "?”.": 8287,
      "dribbled": 8288,
      "drifting": 8289,
      "winking": 8290,
      "knocks": 8291,
      "Flash": 8292,
      "hull": 8293,
      "layed": 8294,
      "shiner": 8295,
      "shines": 8296,
      "Within": 8297,
      "purples": 8298,
      "oceans": 8299,
      "stormy": 8300,
      "genie": 8301,
      "wisest": 8302,
      "countries": 8303,
      "pressure": 8304,
      "rounds": 8305,
      "paintbrushes": 8306,
      "pans": 8307,
      "organised": 8308,
      "active": 8309,
      "basking": 8310,
      "milder": 8311,
      "smartness": 8312,
      "juices": 8313,
      "journeys": 8314,
      "spool": 8315,
      "mixes": 8316,
      "mixers": 8317,
      "mixture": 8318,
      "touches": 8319,
      "tidied": 8320,
      "feathered": 8321,
      "lunchtime": 8322,
      "pathway": 8323,
      "bandits": 8324,
      "bandaged": 8325,
      "humbly": 8326,
      "meetings": 8327,
      "lasted": 8328,
      "calculator": 8329,
      "rubbish": 8330,
      "eagerness": 8331,
      "desper": 8332,
      "designing": 8333,
      "rolls": 8334,
      "wildly": 8335,
      "secretly": 8336,
      "solving": 8337,
      "drivers": 8338,
      "flick": 8339,
      "flipped": 8340,
      "flips": 8341,
      "elders": 8342,
      "chews": 8343,
      "Roar": 8344,
      "ults": 8345,
      "interest": 8346,
      "fearless": 8347,
      "stirs": 8348,
      "changes": 8349,
      "meadows": 8350,
      "supplying": 8351,
      "pops": 8352,
      "hopeless": 8353,
      "busier": 8354,
      "tickly": 8355,
      "tickling": 8356,
      "ticklish": 8357,
      "studies": 8358,
      "frightening": 8359,
      "pairs": 8360,
      "formation": 8361,
      "protective": 8362,
      "blooms": 8363,
      "observing": 8364,
      "obstacle": 8365,
      "cheerfulness": 8366,
      "tests": 8367,
      "frustration": 8368,
      "streamed": 8369,
      "addition": 8370,
      "complic": 8371,
      "compliment": 8372,
      "Rest": 8373,
      "terribly": 8374,
      "incredib": 8375,
      "burrow": 8376,
      "leafy": 8377,
      "extraordinary": 8378,
      "robots": 8379,
      "calmness": 8380,
      "honesty": 8381,
      "planting": 8382,
      "caterpillars": 8383,
      "guards": 8384,
      "guarding": 8385,
      "guardian": 8386,
      "views": 8387,
      "shrugging": 8388,
      "twirling": 8389,
      "ficial": 8390,
      "risen": 8391,
      "flags": 8392,
      "gasp": 8393,
      "sneezes": 8394,
      "microphones": 8395,
      "fragrant": 8396,
      "rats": 8397,
      "cushions": 8398,
      "pals": 8399,
      "flashing": 8400,
      "priately": 8401,
      "stubbed": 8402,
      "examining": 8403,
      "terns": 8404,
      "delightful": 8405,
      "persistence": 8406,
      "pumped": 8407,
      "stubbornly": 8408,
      "healed": 8409,
      "healing": 8410,
      "stamping": 8411,
      "bells": 8412,
      "bellies": 8413,
      "paying": 8414,
      "sleigh": 8415,
      "sleeve": 8416,
      "yogurts": 8417,
      "orders": 8418,
      "experiment": 8419,
      "gems": 8420,
      "spills": 8421,
      "leaking": 8422,
      "musicians": 8423,
      "hundreds": 8424,
      "shuts": 8425,
      "moonlight": 8426,
      "medical": 8427,
      "miller": 8428,
      "thieves": 8429,
      "stale": 8430,
      "stapler": 8431,
      "stripe": 8432,
      "beaks": 8433,
      "beakers": 8434,
      "weighing": 8435,
      "opedic": 8436,
      "cupboards": 8437,
      "Cool": 8438,
      "Star": 8439,
      "Stars": 8440,
      "Standing": 8441,
      "drainpipe": 8442,
      "fists": 8443,
      "trails": 8444,
      "jealousy": 8445,
      "digs": 8446,
      "coolest": 8447,
      "suitcases": 8448,
      "Smiling": 8449,
      "aids": 8450,
      "fives": 8451,
      "passes": 8452,
      "delaying": 8453,
      "Sundays": 8454,
      "intelligence": 8455,
      "booth": 8456,
      "freshly": 8457,
      "demands": 8458,
      "demanding": 8459,
      "uction": 8460,
      "yawning": 8461,
      "rockets": 8462,
      "cranny": 8463,
      "improving": 8464,
      "unlocking": 8465,
      "spiral": 8466,
      "threads": 8467,
      "begin": 8468,
      "squeezing": 8469,
      "squeezes": 8470,
      "chooses": 8471,
      "beneficial": 8472,
      "sensation": 8473,
      "ironing": 8474,
      "melts": 8475,
      "possib": 8476,
      "explains": 8477,
      "explaining": 8478,
      "kneels": 8479,
      "kneeling": 8480,
      "vibrant": 8481,
      "posted": 8482,
      "posters": 8483,
      "appropriately": 8484,
      "supermarket": 8485,
      "missiles": 8486,
      "supporting": 8487,
      "curtains": 8488,
      "aahed": 8489,
      "official": 8490,
      "cheeky": 8491,
      "scratchy": 8492,
      "...\"": 8493,
      "knots": 8494,
      "festive": 8495,
      "scooting": 8496,
      "wiggly": 8497,
      "arrows": 8498,
      "disappearing": 8499,
      "sprinkle": 8500,
      "receiving": 8501,
      "tours": 8502,
      "tournament": 8503,
      "squeak": 8504,
      "squeaked": 8505,
      "accepting": 8506,
      "festivals": 8507,
      "Albert": 8508,
      "banging": 8509,
      "crunching": 8510,
      "luckiest": 8511,
      "achieving": 8512,
      "burns": 8513,
      "events": 8514,
      "grills": 8515,
      "stylish": 8516,
      "warnings": 8517,
      "Snowy": 8518,
      "grinning": 8519,
      "wobbles": 8520,
      "windowsill": 8521,
      "invitations": 8522,
      "solutions": 8523,
      "luxurious": 8524,
      "Cheap": 8525,
      "dusty": 8526,
      "emerged": 8527,
      "somersa": 8528,
      "vacuum": 8529,
      "thorns": 8530,
      "bothering": 8531,
      "bathed": 8532,
      "Sparkle": 8533,
      "ahhed": 8534,
      "tangles": 8535,
      "wrench": 8536,
      "hesitation": 8537,
      "commotion": 8538,
      "provides": 8539,
      "clipboard": 8540,
      "swoop": 8541,
      "peeled": 8542,
      "explorers": 8543,
      "Dogs": 8544,
      "scurrying": 8545,
      "Shade": 8546,
      "nibbled": 8547,
      "encourages": 8548,
      "securely": 8549,
      "floats": 8550,
      "Perhaps": 8551,
      "rummaged": 8552,
      "snapping": 8553,
      "unpacking": 8554,
      "structures": 8555,
      "Drink": 8556,
      "Miracul": 8557,
      "Strike": 8558,
      "honking": 8559,
      "waddling": 8560,
      "attacking": 8561,
      "darlings": 8562,
      "gleefully": 8563,
      "Deli": 8564,
      "Flip": 8565,
      "baker": 8566,
      "recommending": 8567,
      "guessing": 8568,
      "writes": 8569,
      "scoops": 8570,
      "scooping": 8571,
      "accomplishments": 8572,
      "Satisfied": 8573,
      "bends": 8574,
      "hiked": 8575,
      "costs": 8576,
      "stomp": 8577,
      "stomping": 8578,
      "connect": 8579,
      "connection": 8580,
      "scrape": 8581,
      "sneakers": 8582,
      "Reading": 8583,
      "tempting": 8584,
      "Jumping": 8585,
      "equally": 8586,
      "timid": 8587,
      "heights": 8588,
      "refusing": 8589,
      "strokes": 8590,
      "hooves": 8591,
      "handfuls": 8592,
      "conversations": 8593,
      "disagreeing": 8594,
      "growls": 8595,
      "instruments": 8596,
      "Saturn": 8597,
      "HERE": 8598,
      "Makeup": 8599,
      "pounding": 8600,
      "silliest": 8601,
      "wounds": 8602,
      "leaping": 8603,
      "swirls": 8604,
      "snuggling": 8605,
      "sirens": 8606,
      "motion": 8607,
      "motioned": 8608,
      "scuttle": 8609,
      "topple": 8610,
      "ouchies": 8611,
      "arrange": 8612,
      "arranged": 8613,
      "deepest": 8614,
      "ruffled": 8615,
      "scene": 8616,
      "screech": 8617,
      "responsibly": 8618,
      "Tell": 8619,
      "tumbled": 8620,
      "savor": 8621,
      "savouring": 8622,
      "amongst": 8623,
      "soothe": 8624,
      "soothing": 8625,
      "hovered": 8626,
      "hovering": 8627,
      "adventurers": 8628,
      "visitors": 8629,
      "electric": 8630,
      "electricity": 8631,
      "imaginary": 8632,
      "imaginations": 8633,
      "energised": 8634,
      "energized": 8635,
      "Guardian": 8636,
      "championship": 8637,
      "BING": 8638,
      "Bananas": 8639,
      "Disappointed": 8640,
      "HATED": 8641,
      "Holding": 8642,
      "Should": 8643,
      "Speed": 8644,
      "THIS": 8645,
      "bombs": 8646,
      "efficiently": 8647,
      "fondly": 8648,
      "juggle": 8649,
      "lurking": 8650,
      "natural": 8651,
      "scuffed": 8652,
      "shorter": 8653,
      "peeped": 8654,
      "hooted": 8655,
      "abandoned": 8656,
      "Butterfly": 8657,
      "funniest": 8658,
      "cavity": 8659,
      "faithful": 8660,
      "grumbling": 8661,
      "techniques": 8662,
      "builders": 8663,
      "possession": 8664,
      "trudged": 8665,
      "slightly": 8666,
      "magnificent": 8667,
      "clumsier": 8668,
      "Learning": 8669,
      "Amazingly": 8670,
      "transformed": 8671,
      "annoyed": 8672,
      "Ahoy": 8673,
      "Arrr": 8674,
      "Binny": 8675,
      "Cradle": 8676,
      "Dangerous": 8677,
      "Frustrated": 8678,
      "Frog": 8679,
      "Fruits": 8680,
      "HOO": 8681,
      "Lots": 8682,
      "Lightning": 8683,
      "Maths": 8684,
      "Nearby": 8685,
      "Nonsense": 8686,
      "Phew": 8687,
      "Swim": 8688,
      "Selfish": 8689,
      "Sailboat": 8690,
      "Treasure": 8691,
      "Voice": 8692,
      "Writing": 8693,
      "autumn": 8694,
      "boulder": 8695,
      "birthdays": 8696,
      "coughed": 8697,
      "dizziness": 8698,
      "eerie": 8699,
      "farewell": 8700,
      "faint": 8701,
      "galloped": 8702,
      "gadgets": 8703,
      "jiggle": 8704,
      "kilos": 8705,
      "lanterns": 8706,
      "length": 8707,
      "nuzz": 8708,
      "pavement": 8709,
      "shattered": 8710,
      "tantrum": 8711,
      "angrily": 8712,
      "theatre": 8713,
      "intently": 8714,
      "inseparable": 8715,
      "remarkable": 8716,
      "refreshing": 8717,
      "enlightenment": 8718,
      "enchanted": 8719,
      "aroma": 8720,
      "orthopedic": 8721,
      "utensils": 8722,
      "atmosphere": 8723,
      "exhibit": 8724,
      "unpredictable": 8725,
      "chugga": 8726,
      "playmates": 8727,
      "peculiar": 8728,
      "cooperate": 8729,
      "acrobats": 8730,
      "foreshadowed": 8731,
      "swiftly": 8732,
      "surgery": 8733,
      "construction": 8734,
      "convinced": 8735,
      "servants": 8736,
      "disruptive": 8737,
      "challenging": 8738,
      "marshmallows": 8739,
      "creativity": 8740,
      "probably": 8741,
      "scruffy": 8742,
      "incredibly": 8743,
      "possibilities": 8744,
      "somersaults": 8745,
      "Miraculously": 8746,
      "!!": 8747,
      "!?\"": 8748,
      "\"!": 8749,
      "',": 8750,
      "'!\"": 8751,
      "'?\"": 8752,
      ".🎓": 8753,
      "16": 8754,
      "1000": 8755,
      "30": 8756,
      "50": 8757,
      "?,\"": 8758,
      "?!”": 8759,
      "?!\".": 8760,
      "AB": 8761,
      "AI": 8762,
      "AR": 8763,
      "AX": 8764,
      "Ac": 8765,
      "Ae": 8766,
      "Am": 8767,
      "Aw": 8768,
      "App": 8769,
      "Ask": 8770,
      "Act": 8771,
      "Abra": 8772,
      "Amer": 8773,
      "Around": 8774,
      "Above": 8775,
      "Again": 8776,
      "Allowed": 8777,
      "Apples": 8778,
      "ALO": 8779,
      "Aww": 8780,
      "AST": 8781,
      "BB": 8782,
      "Bal": 8783,
      "Bur": 8784,
      "Barn": 8785,
      "BANG": 8786,
      "CL": 8787,
      "Cand": 8788,
      "Con": 8789,
      "Clo": 8790,
      "Cake": 8791,
      "Cho": 8792,
      "Cel": 8793,
      "Cars": 8794,
      "Cross": 8795,
      "Coo": 8796,
      "Cob": 8797,
      "Catch": 8798,
      "Crunch": 8799,
      "Coffee": 8800,
      "CHE": 8801,
      "CAN": 8802,
      "CHOO": 8803,
      "CAST": 8804,
      "DV": 8805,
      "Dro": 8806,
      "Dist": 8807,
      "Danc": 8808,
      "Dest": 8809,
      "Drops": 8810,
      "DAY": 8811,
      "DANG": 8812,
      "Eve": 8813,
      "Eag": 8814,
      "Eight": 8815,
      "Especi": 8816,
      "Egg": 8817,
      "FO": 8818,
      "Fit": 8819,
      "Find": 8820,
      "Fur": 8821,
      "Four": 8822,
      "Fear": 8823,
      "Frag": 8824,
      "Fier": 8825,
      "Fast": 8826,
      "Farms": 8827,
      "Faster": 8828,
      "Gi": 8829,
      "Gather": 8830,
      "Goo": 8831,
      "Gerry": 8832,
      "HN": 8833,
      "Him": 8834,
      "Hor": 8835,
      "Hun": 8836,
      "Hot": 8837,
      "Hard": 8838,
      "High": 8839,
      "Honey": 8840,
      "Hours": 8841,
      "IE": 8842,
      "Ig": 8843,
      "Ice": 8844,
      "Isl": 8845,
      "IBB": 8846,
      "JO": 8847,
      "Jail": 8848,
      "Kn": 8849,
      "Kne": 8850,
      "Kind": 8851,
      "Kittens": 8852,
      "Kids": 8853,
      "LE": 8854,
      "Lad": 8855,
      "Loud": 8856,
      "Language": 8857,
      "LAC": 8858,
      "Min": 8859,
      "Mind": 8860,
      "Might": 8861,
      "Mouse": 8862,
      "Mine": 8863,
      "Marri": 8864,
      "Merry": 8865,
      "Match": 8866,
      "Mountain": 8867,
      "MAX": 8868,
      "NE": 8869,
      "ON": 8870,
      "OU": 8871,
      "Oy": 8872,
      "Ogre": 8873,
      "Off": 8874,
      "Oft": 8875,
      "Opin": 8876,
      "Ostri": 8877,
      "Oxygen": 8878,
      "OAR": 8879,
      "PP": 8880,
      "Pu": 8881,
      "Ple": 8882,
      "Pig": 8883,
      "Pot": 8884,
      "Pill": 8885,
      "Prom": 8886,
      "Pain": 8887,
      "Pop": 8888,
      "Pers": 8889,
      "Pass": 8890,
      "Poke": 8891,
      "Place": 8892,
      "Pizza": 8893,
      "Pens": 8894,
      "Pinkle": 8895,
      "PLAC": 8896,
      "Ri": 8897,
      "Rot": 8898,
      "Rel": 8899,
      "Rac": 8900,
      "Rise": 8901,
      "Rough": 8902,
      "Ruff": 8903,
      "Room": 8904,
      "Respe": 8905,
      "RTH": 8906,
      "Reaching": 8907,
      "RIBB": 8908,
      "ROAR": 8909,
      "Sa": 8910,
      "Sl": 8911,
      "Sit": 8912,
      "Say": 8913,
      "Scar": 8914,
      "Smo": 8915,
      "Sme": 8916,
      "Sss": 8917,
      "Scare": 8918,
      "Show": 8919,
      "Silly": 8920,
      "Scre": 8921,
      "Spic": 8922,
      "Spar": 8923,
      "Sleep": 8924,
      "Sung": 8925,
      "Sign": 8926,
      "Shop": 8927,
      "Swish": 8928,
      "Spin": 8929,
      "Said": 8930,
      "Skeleton": 8931,
      "Shall": 8932,
      "Shh": 8933,
      "Sister": 8934,
      "Shoo": 8935,
      "TO": 8936,
      "Tough": 8937,
      "Teas": 8938,
      "Tears": 8939,
      "Taxi": 8940,
      "Trust": 8941,
      "Trip": 8942,
      "Tinkle": 8943,
      "Trees": 8944,
      "Teaching": 8945,
      "TIE": 8946,
      "Um": 8947,
      "VE": 8948,
      "Van": 8949,
      "Val": 8950,
      "Valley": 8951,
      "Wo": 8952,
      "Won": 8953,
      "War": 8954,
      "Wom": 8955,
      "Wor": 8956,
      "Was": 8957,
      "Wind": 8958,
      "Wish": 8959,
      "Wol": 8960,
      "Wild": 8961,
      "Yep": 8962,
      "Yog": 8963,
      "YOU": 8964,
      "Zoom": 8965,
      "Zap": 8966,
      "a3": 8967,
      "aim": 8968,
      "atop": 8969,
      "apers": 8970,
      "awaiting": 8971,
      "azed": 8972,
      "aquar": 8973,
      "awarded": 8974,
      "aware": 8975,
      "bt": 8976,
      "bon": 8977,
      "bing": 8978,
      "bis": 8979,
      "bzz": 8980,
      "bending": 8981,
      "bumble": 8982,
      "bacon": 8983,
      "cit": 8984,
      "cis": 8985,
      "cig": 8986,
      "cun": 8987,
      "cad": 8988,
      "cum": 8989,
      "clow": 8990,
      "cuc": 8991,
      "ctr": 8992,
      "cred": 8993,
      "chard": 8994,
      "cru": 8995,
      "citing": 8996,
      "crank": 8997,
      "cert": 8998,
      "crushed": 8999,
      "cstat": 9000,
      "clips": 9001,
      "crops": 9002,
      "croo": 9003,
      "ds": 9004,
      "dand": 9005,
      "die": 9006,
      "dump": 9007,
      "dred": 9008,
      "dles": 9009,
      "dash": 9010,
      "dling": 9011,
      "data": 9012,
      "ew": 9013,
      "eked": 9014,
      "ech": 9015,
      "eved": 9016,
      "eigh": 9017,
      "eav": 9018,
      "ecla": 9019,
      "etern": 9020,
      "elions": 9021,
      "ecstat": 9022,
      "fll": 9023,
      "fif": 9024,
      "fled": 9025,
      "fert": 9026,
      "frill": 9027,
      "fero": 9028,
      "glo": 9029,
      "gro": 9030,
      "gur": 9031,
      "gic": 9032,
      "gna": 9033,
      "gang": 9034,
      "gged": 9035,
      "gross": 9036,
      "garm": 9037,
      "glistened": 9038,
      "gister": 9039,
      "hy": 9040,
      "huddle": 9041,
      "hilar": 9042,
      "ivery": 9043,
      "iod": 9044,
      "iwork": 9045,
      "iens": 9046,
      "jig": 9047,
      "juggled": 9048,
      "jured": 9049,
      "joking": 9050,
      "jumble": 9051,
      "jiggled": 9052,
      "kat": 9053,
      "kked": 9054,
      "kward": 9055,
      "ls": 9056,
      "lil": 9057,
      "lun": 9058,
      "lted": 9059,
      "litt": 9060,
      "lud": 9061,
      "link": 9062,
      "lump": 9063,
      "lane": 9064,
      "lmed": 9065,
      "lley": 9066,
      "lasses": 9067,
      "mut": 9068,
      "mal": 9069,
      "mitt": 9070,
      "mound": 9071,
      "mered": 9072,
      "mmean": 9073,
      "mpled": 9074,
      "nin": 9075,
      "nick": 9076,
      "nied": 9077,
      "nudge": 9078,
      "oar": 9079,
      "opp": 9080,
      "ove": 9081,
      "olly": 9082,
      "oze": 9083,
      "ogra": 9084,
      "ogas": 9085,
      "piled": 9086,
      "pure": 9087,
      "pts": 9088,
      "puck": 9089,
      "pars": 9090,
      "piling": 9091,
      "pier": 9092,
      "prank": 9093,
      "pberry": 9094,
      "pacing": 9095,
      "pounced": 9096,
      "pounce": 9097,
      "rup": 9098,
      "ruck": 9099,
      "rated": 9100,
      "ratt": 9101,
      "rises": 9102,
      "righted": 9103,
      "rinse": 9104,
      "slo": 9105,
      "sly": 9106,
      "scan": 9107,
      "sno": 9108,
      "suck": 9109,
      "sive": 9110,
      "sank": 9111,
      "sized": 9112,
      "sence": 9113,
      "sons": 9114,
      "sipped": 9115,
      "swore": 9116,
      "sens": 9117,
      "sucked": 9118,
      "sinking": 9119,
      "sprinting": 9120,
      "signing": 9121,
      "tit": 9122,
      "tir": 9123,
      "tut": 9124,
      "tily": 9125,
      "tad": 9126,
      "twe": 9127,
      "tes": 9128,
      "tack": 9129,
      "tiled": 9130,
      "tel": 9131,
      "tia": 9132,
      "tweet": 9133,
      "tended": 9134,
      "tilt": 9135,
      "tler": 9136,
      "tumble": 9137,
      "titude": 9138,
      "tiles": 9139,
      "tically": 9140,
      "tattered": 9141,
      "uing": 9142,
      "une": 9143,
      "ush": 9144,
      "ucat": 9145,
      "ushed": 9146,
      "uated": 9147,
      "var": 9148,
      "vig": 9149,
      "vain": 9150,
      "vided": 9151,
      "vable": 9152,
      "voured": 9153,
      "wl": 9154,
      "wn": 9155,
      "wily": 9156,
      "wrest": 9157,
      "wield": 9158,
      "wilt": 9159,
      "wilder": 9160,
      "ys": 9161,
      "ying": 9162,
      "yme": 9163,
      "yuck": 9164,
      "yipp": 9165,
      "yowled": 9166,
      "yogas": 9167,
      "zled": 9168,
      "zipp": 9169,
      "zement": 9170,
      "’.": 9171,
      "heed": 9172,
      "heap": 9173,
      "ans": 9174,
      "aning": 9175,
      "annd": 9176,
      "anation": 9177,
      "thetree": 9178,
      "thetically": 9179,
      "edition": 9180,
      "educat": 9181,
      "tock": 9182,
      "toot": 9183,
      "tony": 9184,
      "topic": 9185,
      "total": 9186,
      "torious": 9187,
      "inic": 9188,
      "inno": 9189,
      "inci": 9190,
      "inct": 9191,
      "inos": 9192,
      "inspected": 9193,
      "invisible": 9194,
      "information": 9195,
      "intimid": 9196,
      "injured": 9197,
      "innied": 9198,
      "anded": 9199,
      "wary": 9200,
      "refun": 9201,
      "recl": 9202,
      "resur": 9203,
      "rease": 9204,
      "recovered": 9205,
      "react": 9206,
      "represent": 9207,
      "repay": 9208,
      "resolve": 9209,
      "recreate": 9210,
      "revi": 9211,
      "rebuilt": 9212,
      "reunite": 9213,
      "retrace": 9214,
      "reciting": 9215,
      "register": 9216,
      "reogra": 9217,
      "ites": 9218,
      "ouched": 9219,
      "hare": 9220,
      "hailed": 9221,
      "hache": 9222,
      "habit": 9223,
      "haul": 9224,
      "enthr": 9225,
      "engu": 9226,
      "enem": 9227,
      "encoun": 9228,
      "enew": 9229,
      "eras": 9230,
      "erly": 9231,
      "erate": 9232,
      "erine": 9233,
      "erting": 9234,
      "erations": 9235,
      "ergic": 9236,
      "washes": 9237,
      "ony": 9238,
      "onge": 9239,
      "onic": 9240,
      "onboard": 9241,
      "online": 9242,
      "arrested": 9243,
      "isty": 9244,
      "levit": 9245,
      "idy": 9246,
      "idered": 9247,
      "idance": 9248,
      "idence": 9249,
      "idual": 9250,
      "Thespin": 9251,
      "saun": 9252,
      "sali": 9253,
      "saic": 9254,
      "sable": 9255,
      "savers": 9256,
      "sacred": 9257,
      "sampled": 9258,
      "imb": 9259,
      "impl": 9260,
      "imate": 9261,
      "impo": 9262,
      "imately": 9263,
      "immen": 9264,
      "iments": 9265,
      "imented": 9266,
      "immered": 9267,
      "sts": 9268,
      "sted": 9269,
      "stur": 9270,
      "stab": 9271,
      "stice": 9272,
      "state": 9273,
      "strun": 9274,
      "stings": 9275,
      "stuffy": 9276,
      "strode": 9277,
      "stantly": 9278,
      "stitched": 9279,
      "stitches": 9280,
      "oray": 9281,
      "ornam": 9282,
      "ories": 9283,
      "oration": 9284,
      "orrow": 9285,
      "orness": 9286,
      "orously": 9287,
      "orchard": 9288,
      "ofess": 9289,
      "ili": 9290,
      "ilst": 9291,
      "iliz": 9292,
      "herd": 9293,
      "loot": 9294,
      "loss": 9295,
      "loser": 9296,
      "irs": 9297,
      "irred": 9298,
      "iration": 9299,
      "ends": 9300,
      "endid": 9301,
      "endure": 9302,
      "endeav": 9303,
      "neater": 9304,
      "Heat": 9305,
      "Heli": 9306,
      "Hearing": 9307,
      "befriend": 9308,
      "begr": 9309,
      "behaving": 9310,
      "begun": 9311,
      "besides": 9312,
      "bellowed": 9313,
      "becas": 9314,
      "beacon": 9315,
      "Shelter": 9316,
      "utes": 9317,
      "ution": 9318,
      "celled": 9319,
      "atized": 9320,
      "atform": 9321,
      "attem": 9322,
      "sel": 9323,
      "seve": 9324,
      "seated": 9325,
      "secur": 9326,
      "cking": 9327,
      "ckings": 9328,
      "ckpit": 9329,
      "amber": 9330,
      "amble": 9331,
      "ambit": 9332,
      "amused": 9333,
      "amusing": 9334,
      "exot": 9335,
      "owe": 9336,
      "owel": 9337,
      "owling": 9338,
      "keen": 9339,
      "kels": 9340,
      "sop": 9341,
      "soda": 9342,
      "socket": 9343,
      "sobs": 9344,
      "soaking": 9345,
      "sobbing": 9346,
      "ppled": 9347,
      "histori": 9348,
      "daylight": 9349,
      "plum": 9350,
      "plump": 9351,
      "plank": 9352,
      "plained": 9353,
      "placing": 9354,
      "platform": 9355,
      "rior": 9356,
      "rible": 9357,
      "richer": 9358,
      "riosity": 9359,
[...]
