{
  "version": "1.0",
  "truncation": {
    "direction": "Right",
    "max_length": 8,
    "strategy": "LongestFirst",
    "stride": 0
  },
  "padding": {
    "strategy": {
      "Fixed": 8
    },
    "direction": "Right",
    "pad_to_multiple_of": null,
    "pad_id": 0,
    "pad_type_id": 0,
    "pad_token": "[PAD]"
  },
  "added_tokens": [
    {
      "id": 0,
      "content": "[PAD]",
      "single_word": false,
      "lstrip": false,
      "rstrip": false,
      "normalized": false,
      "special": true
    },
    {
      "id": 1,
      "content": "[UNK]",
      "single_word": false,
      "lstrip": false,
      "rstrip": false,
      "normalized": false,
      "special": true
    },
    {
      "id": 2,
      "content": "<|endoftext|>",
      "single_word": false,
      "lstrip": false,
      "rstrip": false,
      "normalized": false,
      "special": true
    },
    {
      "id": 3,
      "content": "[|Human|]",
      "single_word": false,
      "lstrip": false,
      "rstrip": false,
      "normalized": false,
      "special": true
    },
    {
      "id": 4,
      "content": "[|AI|]",
      "single_word": false,
      "lstrip": false,
      "rstrip": false,
      "normalized": false,
      "special": true
    }
  ],
  "normalizer": null,
  "pre_tokenizer": {
    "type": "Whitespace"
  },
  "post_processor": null,
  "decoder": null,
  "model": {
    "type": "BPE",
    "dropout": null,
    "unk_token": "[UNK]",
    "continuing_subword_prefix": null,
    "end_of_word_suffix": null,
    "fuse_unk": false,
    "byte_fallback": false,
    "vocab": {
      "[PAD]": 0,
      "[UNK]": 1,
      "<|endoftext|>": 2,
      "[|Human|]": 3,
      "[|AI|]": 4,
      "!": 5,
      "\"": 6,
      "#": 7,
      "$": 8,
      "%": 9,
      "&": 10,
      "'": 11,
      "(": 12,
      ")": 13,
      "*": 14,
      "+": 15,
      ",": 16,
      "-": 17,
      ".": 18,
      "/": 19,
      "0": 20,
      "1": 21,
      "2": 22,
      "3": 23,
      "4": 24,
      "5": 25,
      "6": 26,
      "7": 27,
      "8": 28,
      "9": 29,
      ":": 30,
      ";": 31,
      "<": 32,
      "=": 33,
      ">": 34,
      "?": 35,
      "@": 36,
      "A": 37,
      "B": 38,
      "C": 39,
      "D": 40,
      "E": 41,
      "F": 42,
      "G": 43,
      "H": 44,
      "I": 45,
      "J": 46,
      "K": 47,
      "L": 48,
      "M": 49,
      "N": 50,
      "O": 51,
      "P": 52,
      "Q": 53,
      "R": 54,
      "S": 55,
      "T": 56,
      "U": 57,
      "V": 58,
      "W": 59,
      "X": 60,
      "Y": 61,
      "Z": 62,
      "[": 63,
      "]": 64,
      "^": 65,
      "_": 66,
      "`": 67,
      "a": 68,
      "b": 69,
      "c": 70,
      "d": 71,
      "e": 72,
      "f": 73,
      "g": 74,
      "h": 75,
      "i": 76,
      "j": 77,
      "k": 78,
      "l": 79,
      "m": 80,
      "n": 81,
      "o": 82,
      "p": 83,
      "q": 84,
      "r": 85,
      "s": 86,
      "t": 87,
      "u": 88,
      "v": 89,
      "w": 90,
      "x": 91,
      "y": 92,
      "z": 93,
      "{": 94,
      "|": 95,
      "}": 96,
      "~": 97,
      "Í": 98,
      "à": 99,
      "á": 100,
      "ç": 101,
      "è": 102,
      "é": 103,
      "ê": 104,
      "í": 105,
      "ó": 106,
      "ú": 107,
      "ā": 108,
      "Č": 109,
      "’": 110,
      "₂": 111,
      "in": 112,
      "th": 113,
      "an": 114,
      "er": 115,
      "on": 116,
      "ou": 117,
      "re": 118,
      "to": 119,
      "is": 120,
      "at": 121,
      "en": 122,
      "or": 123,
      "al": 124,
      "es": 125,
      "ing": 126,
      "and": 127,
      "ed": 128,
      "as": 129,
      "the": 130,
      "you": 131,
      "ti": 132,
      "of": 133,
      "it": 134,
      "ar": 135,
      "le": 136,
      "ve": 137,
      "ha": 138,
      "he": 139,
      "be": 140,
      "ic": 141,
      "om": 142,
      "st": 143,
      "ll": 144,
      "no": 145,
      "for": 146,
      "se": 147,
      "ly": 148,
      "su": 149,
      "ac": 150,
      "wi": 151,
      "your": 152,
      "ay": 153,
      "ro": 154,
      "ld": 155,
      "have": 156,
      "lo": 157,
      "id": 158,
      "ion": 159,
      "ent": 160,
      "my": 161,
      "[|": 162,
      "|]": 163,
      "ex": 164,
      "tion": 165,
      "am": 166,
      "tor": 167,
      "fe": 168,
      "oc": 169,
      "et": 170,
      "um": 171,
      "con": 172,
      "ke": 173,
      "ain": 174,
      "gh": 175,
      "ver": 176,
      "ther": 177,
      "wh": 178,
      "ch": 179,
      "li": 180,
      "can": 181,
      "od": 182,
      "are": 183,
      "ab": 184,
      "ur": 185,
      "ould": 186,
      "ne": 187,
      "ation": 188,
      "ad": 189,
      "octor": 190,
      "end": 191,
      "me": 192,
      "with": 193,
      "..": 194,
      "est": 195,
      "we": 196,
      "qu": 197,
      "ut": 198,
      "so": 199,
      "us": 200,
      "that": 201,
      "pe": 202,
      "ter": 203,
      "di": 204,
      "ag": 205,
      "this": 206,
      "pro": 207,
      "ul": 208,
      "ext": 209,
      "not": 210,
      "mo": 211,
      "un": 212,
      "ri": 213,
      "ome": 214,
      "do": 215,
      "pre": 216,
      "per": 217,
      "hat": 218,
      "oft": 219,
      "pain": 220,
      "ce": 221,
      "out": 222,
      "Th": 223,
      "AI": 224,
      "one": 225,
      "uman": 226,
      "Human": 227,
      "<|": 228,
      "|>": 229,
      "endoft": 230,
      "endoftext": 231,
      "go": 232,
      "ght": 233,
      "Doctor": 234,
      "if": 235,
      "ir": 236,
      "day": 237,
      "sh": 238,
      "ca": 239,
      "Chat": 240,
      "ta": 241,
      "po": 242,
      "all": 243,
      "ase": 244,
      "si": 245,
      "ment": 246,
      "any": 247,
      "get": 248,
      "but": 249,
      "will": 250,
      "use": 251,
      "ks": 252,
      "lp": 253,
      "was": 254,
      "com": 255,
      "help": 256,
      "ear": 257,
      "ist": 258,
      "der": 259,
      "now": 260,
      "el": 261,
      "ble": 262,
      "ast": 263,
      "ap": 264,
      "like": 265,
      "ine": 266,
      "mp": 267,
      "fec": 268,
      "fr": 269,
      "reat": 270,
      "sy": 271,
      "de": 272,
      "ms": 273,
      "fo": 274,
      "ess": 275,
      "co": 276,
      "wer": 277,
      "had": 278,
      "has": 279,
      "ery": 280,
      "art": 281,
      "mon": 282,
      "cer": 283,
      "tr": 284,
      "some": 285,
      "ate": 286,
      "llo": 287,
      "med": 288,
      "ho": 289,
      "up": 290,
      "du": 291,
      "ts": 292,
      "te": 293,
      "very": 294,
      "He": 295,
      "oun": 296,
      "Hi": 297,
      "treat": 298,
      "il": 299,
      "need": 300,
      "dis": 301,
      "wor": 302,
      "af": 303,
      "ple": 304,
      "tic": 305,
      "Than": 306,
      "from": 307,
      "should": 308,
      "You": 309,
      "cause": 310,
      "ally": 311,
      "may": 312,
      "im": 313,
      "Ho": 314,
      "ack": 315,
      "also": 316,
      "king": 317,
      "would": 318,
      "ans": 319,
      "pres": 320,
      "there": 321,
      "blo": 322,
      "take": 323,
      "pl": 324,
      "ich": 325,
      "ure": 326,
      "If": 327,
      "doctor": 328,
      "been": 329,
      "thing": 330,
      "query": 331,
      "sp": 332,
      "sul": 333,
      "hy": 334,
      "ough": 335,
      "ant": 336,
      "year": 337,
      "mal": 338,
      "test": 339,
      "by": 340,
      "which": 341,
      "ight": 342,
      "The": 343,
      "then": 344,
      "her": 345,
      "It": 346,
      "under": 347,
      "ide": 348,
      "after": 349,
      "cy": 350,
      "infec": 351,
      "ep": 352,
      "other": 353,
      "blood": 354,
      "ical": 355,
      "gg": 356,
      "ma": 357,
      "ated": 358,
      "ting": 359,
      "cl": 360,
      "estion": 361,
      "about": 362,
      "op": 363,
      "ving": 364,
      "Hope": 365,
      "feel": 366,
      "ust": 367,
      "mpto": 368,
      "ound": 369,
      "proble": 370,
      "bi": 371,
      "back": 372,
      "days": 373,
      "treatment": 374,
      "ard": 375,
      "infection": 376,
      "answer": 377,
      "sympto": 378,
      "his": 379,
      "gn": 380,
      "age": 381,
      "anti": 382,
      "what": 383,
      "ind": 384,
      "Thanks": 385,
      "able": 386,
      "cont": 387,
      "gi": 388,
      "pp": 389,
      "ge": 390,
      "when": 391,
      "nor": 392,
      "medic": 393,
      "heal": 394,
      "too": 395,
      "Hello": 396,
      "ct": 397,
      "wee": 398,
      "due": 399,
      "time": 400,
      "sult": 401,
      "see": 402,
      "ong": 403,
      "more": 404,
      "urther": 405,
      "know": 406,
      "...": 407,
      "cern": 408,
      "ck": 409,
      "ity": 410,
      "concern": 411,
      "ff": 412,
      "sugg": 413,
      "month": 414,
      "question": 415,
      "symptoms": 416,
      "log": 417,
      "could": 418,
      "hi": 419,
      "ry": 420,
      "sis": 421,
      "vis": 422,
      "she": 423,
      "our": 424,
      "further": 425,
      "ven": 426,
      "normal": 427,
      "ill": 428,
      "come": 429,
      "ru": 430,
      "ous": 431,
      "ass": 432,
      "side": 433,
      "In": 434,
      "ish": 435,
      "done": 436,
      "fl": 437,
      "good": 438,
      "health": 439,
      "start": 440,
      "ati": 441,
      "My": 442,
      "peri": 443,
      "well": 444,
      "act": 445,
      "years": 446,
      "having": 447,
      "than": 448,
      "reg": 449,
      "stand": 450,
      "cre": 451,
      "sur": 452,
      "ef": 453,
      "sure": 454,
      "suggest": 455,
      "just": 456,
      "oid": 457,
      "thr": 458,
      "ice": 459,
      "pos": 460,
      "right": 461,
      "amin": 462,
      "ction": 463,
      "tim": 464,
      "problem": 465,
      "tive": 466,
      "ere": 467,
      "res": 468,
      "old": 469,
      "ese": 470,
      "its": 471,
      "caus": 472,
      "ol": 473,
      "br": 474,
      "cle": 475,
      "sto": 476,
      "av": 477,
      "bet": 478,
      "ary": 479,
      "So": 480,
      "ci": 481,
      "red": 482,
      "ort": 483,
      "wo": 484,
      "tory": 485,
      "ations": 486,
      "agno": 487,
      "ful": 488,
      "care": 489,
      "bo": 490,
      "pregn": 491,
      "consult": 492,
      "way": 493,
      "times": 494,
      "ft": 495,
      "ite": 496,
      "possi": 497,
      "they": 498,
      "itis": 499,
      "diagno": 500,
      "An": 501,
      "sti": 502,
      "last": 503,
      "ia": 504,
      "understand": 505,
      "ular": 506,
      "low": 507,
      "ty": 508,
      "over": 509,
      "ness": 510,
      "ach": 511,
      "ake": 512,
      "10": 513,
      "llow": 514,
      "ame": 515,
      "bre": 516,
      "fir": 517,
      "only": 518,
      "che": 519,
      "months": 520,
      "ily": 521,
      "most": 522,
      "logist": 523,
      "happ": 524,
      "left": 525,
      "ince": 526,
      "ail": 527,
      "wn": 528,
      "ump": 529,
      "dom": 530,
      "mu": 531,
      "these": 532,
      "phy": 533,
      "otic": 534,
      "rel": 535,
      "dition": 536,
      "ves": 537,
      "through": 538,
      "gen": 539,
      "gr": 540,
      "This": 541,
      "men": 542,
      "don": 543,
      "fore": 544,
      "ffer": 545,
      "biotic": 546,
      "ning": 547,
      "advis": 548,
      "dise": 549,
      "lease": 550,
      "ath": 551,
      "heart": 552,
      "chan": 553,
      "worry": 554,
      "period": 555,
      "ink": 556,
      "da": 557,
      "ved": 558,
      "cor": 559,
      "requ": 560,
      "form": 561,
      "chest": 562,
      "car": 563,
      "cri": 564,
      "ago": 565,
      "sa": 566,
      "cur": 567,
      "Please": 568,
      "does": 569,
      "vel": 570,
      "Take": 571,
      "val": 572,
      "because": 573,
      "ater": 574,
      "ards": 575,
      "taking": 576,
      "antibiotic": 577,
      "follow": 578,
      "weeks": 579,
      "ici": 580,
      "got": 581,
      "spe": 582,
      "please": 583,
      "ile": 584,
      "min": 585,
      "still": 586,
      "head": 587,
      "ot": 588,
      "case": 589,
      "Thank": 590,
      "ies": 591,
      "ancy": 592,
      "sever": 593,
      "high": 594,
      "Re": 595,
      "....": 596,
      "surg": 597,
      "week": 598,
      "ow": 599,
      "sion": 600,
      "Wish": 601,
      "kid": 602,
      "ree": 603,
      "bl": 604,
      ").": 605,
      "ner": 606,
      "ue": 607,
      "cal": 608,
      "level": 609,
      "chi": 610,
      "cis": 611,
      "fever": 612,
      "apy": 613,
      "every": 614,
      "ren": 615,
      "phys": 616,
      "ten": 617,
      "aller": 618,
      "As": 619,
      "ress": 620,
      "bod": 621,
      "abdom": 622,
      "Al": 623,
      "inal": 624,
      "since": 625,
      "20": 626,
      "did": 627,
      "mg": 628,
      "les": 629,
      "examin": 630,
      "vi": 631,
      "cent": 632,
      "pregnancy": 633,
      "son": 634,
      "kin": 635,
      "sol": 636,
      "better": 637,
      "mus": 638,
      "disease": 639,
      "ating": 640,
      "det": 641,
      "condition": 642,
      "rep": 643,
      "few": 644,
      "em": 645,
      "possible": 646,
      "fac": 647,
      "body": 648,
      "pr": 649,
      "before": 650,
      "him": 651,
      "long": 652,
      "again": 653,
      "food": 654,
      "mor": 655,
      "started": 656,
      "loo": 657,
      "But": 658,
      "two": 659,
      "even": 660,
      "ray": 661,
      "area": 662,
      "fun": 663,
      "such": 664,
      "ser": 665,
      "sed": 666,
      "bed": 667,
      "ken": 668,
      "ried": 669,
      "arm": 670,
      "liver": 671,
      "first": 672,
      "might": 673,
      "lump": 674,
      "try": 675,
      "think": 676,
      "hope": 677,
      "much": 678,
      "ance": 679,
      "sel": 680,
      "ney": 681,
      "lower": 682,
      "effec": 683,
      "pressure": 684,
      "sen": 685,
      "answered": 686,
      "ER": 687,
      "int": 688,
      "history": 689,
      "comple": 690,
      "What": 691,
      "went": 692,
      "down": 693,
      "advise": 694,
      "suffer": 695,
      "incre": 696,
      "cess": 697,
      "getting": 698,
      "ted": 699,
      "going": 700,
      "reli": 701,
      "tests": 702,
      "wr": 703,
      "inj": 704,
      "bab": 705,
      "man": 706,
      "gone": 707,
      "coun": 708,
      "ber": 709,
      "iting": 710,
      "exer": 711,
      "helps": 712,
      "cancer": 713,
      "surgery": 714,
      "give": 715,
      "diagnosis": 716,
      "kidney": 717,
      "issu": 718,
      "RI": 719,
      "read": 720,
      "pati": 721,
      "sex": 722,
      "examination": 723,
      "leg": 724,
      "skin": 725,
      "flu": 726,
      "post": 727,
      "ding": 728,
      "using": 729,
      "night": 730,
      "ased": 731,
      "cho": 732,
      "who": 733,
      "requi": 734,
      "ative": 735,
      "stress": 736,
      "prescri": 737,
      "tooth": 738,
      "work": 739,
      "regular": 740,
      "fer": 741,
      "swell": 742,
      "patient": 743,
      "There": 744,
      "hour": 745,
      "causes": 746,
      "exercis": 747,
      "ask": 748,
      "ason": 749,
      "etc": 750,
      "weight": 751,
      "problems": 752,
      "proper": 753,
      "sm": 754,
      "said": 755,
      "while": 756,
      "dur": 757,
      "imp": 758,
      "Do": 759,
      "iz": 760,
      "avoid": 761,
      "disc": 762,
      "less": 763,
      "ases": 764,
      "related": 765,
      "des": 766,
      "ull": 767,
      "ence": 768,
      "IN": 769,
      "ific": 770,
      "check": 771,
      "Reg": 772,
      "xi": 773,
      "cough": 774,
      "inter": 775,
      "leep": 776,
      "allerg": 777,
      "fi": 778,
      "find": 779,
      "ces": 780,
      "around": 781,
      "same": 782,
      "complete": 783,
      "ced": 784,
      "vir": 785,
      "flam": 786,
      "hur": 787,
      "ital": 788,
      "sually": 789,
      "ob": 790,
      "table": 791,
      "rule": 792,
      "par": 793,
      "contin": 794,
      "For": 795,
      "ines": 796,
      "contro": 797,
      "valu": 798,
      "antibiotics": 799,
      "want": 800,
      "ician": 801,
      "diet": 802,
      "str": 803,
      "dr": 804,
      "inflam": 805,
      "common": 806,
      "Wel": 807,
      "mach": 808,
      "Welcome": 809,
      "Av": 810,
      "Also": 811,
      "daily": 812,
      "best": 813,
      "Is": 814,
      "self": 815,
      "swelling": 816,
      "them": 817,
      "therapy": 818,
      "happy": 819,
      "She": 820,
      "remo": 821,
      "ultr": 822,
      "yr": 823,
      "lot": 824,
      "sleep": 825,
      "cour": 826,
      "psy": 827,
      "many": 828,
      "taken": 829,
      "itch": 830,
      "clu": 831,
      "happen": 832,
      "hal": 833,
      "order": 834,
      "pill": 835,
      "detail": 836,
      "asound": 837,
      "ak": 838,
      "lar": 839,
      "tle": 840,
      "clin": 841,
      "ers": 842,
      "how": 843,
      "medication": 844,
      "feeling": 845,
      "ave": 846,
      "00": 847,
      "scan": 848,
      "Your": 849,
      "severe": 850,
      "sit": 851,
      "ov": 852,
      "small": 853,
      "ges": 854,
      "til": 855,
      "stomach": 856,
      "col": 857,
      "nt": 858,
      "ps": 859,
      "anxi": 860,
      "really": 861,
      "helpful": 862,
      "ick": 863,
      "say": 864,
      "row": 865,
      "formation": 866,
      "os": 867,
      "urine": 868,
      "were": 869,
      "redu": 870,
      "wever": 871,
      "comm": 872,
      "vesti": 873,
      "something": 874,
      "water": 875,
      "app": 876,
      "wal": 877,
      "used": 878,
      "ety": 879,
      "where": 880,
      "lit": 881,
      "past": 882,
      "AN": 883,
      "during": 884,
      "adv": 885,
      "gl": 886,
      "ax": 887,
      "opin": 888,
      "part": 889,
      "seems": 890,
      "12": 891,
      "Go": 892,
      "course": 893,
      "vestig": 894,
      "bad": 895,
      "rect": 896,
      "wel": 897,
      "ze": 898,
      "mi": 899,
      "TH": 900,
      "function": 901,
      "bit": 902,
      "reason": 903,
      "tain": 904,
      "neck": 905,
      "ung": 906,
      "MRI": 907,
      "medicine": 908,
      "Im": 909,
      "sid": 910,
      "opinion": 911,
      "evalu": 912,
      "Let": 913,
      "cr": 914,
      "show": 915,
      "child": 916,
      "tw": 917,
      "ility": 918,
      "eding": 919,
      "mention": 920,
      "given": 921,
      "vent": 922,
      "light": 923,
      "both": 924,
      "suffering": 925,
      "main": 926,
      "uro": 927,
      "assist": 928,
      "Regards": 929,
      "investig": 930,
      "commend": 931,
      "posi": 932,
      "eth": 933,
      "umb": 934,
      "action": 935,
      "And": 936,
      "appe": 937,
      "ace": 938,
      "ultrasound": 939,
      "recommend": 940,
      "male": 941,
      "off": 942,
      "abdomen": 943,
      "usually": 944,
      "resp": 945,
      "mar": 946,
      "ester": 947,
      "told": 948,
      "ult": 949,
      "stu": 950,
      "Avoid": 951,
      "plain": 952,
      "cardi": 953,
      "geon": 954,
      "little": 955,
      "oral": 956,
      "We": 957,
      "mat": 958,
      "hand": 959,
      "dent": 960,
      "once": 961,
      "morning": 962,
      "bur": 963,
      "ron": 964,
      "los": 965,
      "tal": 966,
      "recent": 967,
      "hen": 968,
      "anxiety": 969,
      "medicines": 970,
      "keep": 971,
      "ash": 972,
      "tell": 973,
      "ache": 974,
      "ade": 975,
      "put": 976,
      "smo": 977,
      "acid": 978,
      "teeth": 979,
      "bro": 980,
      "Good": 981,
      "??": 982,
      "Con": 983,
      "sive": 984,
      "cording": 985,
      "15": 986,
      "kind": 987,
      "cond": 988,
      "present": 989,
      "cted": 990,
      "lop": 991,
      "nee": 992,
      "pregnant": 993,
      "impro": 994,
      "hours": 995,
      "gar": 996,
      "anything": 997,
      "ways": 998,
      "ious": 999,
      "pen": 1000,
      "hor": 1001,
      "experi": 1002,
      "causing": 1003,
      "full": 1004,
      "muscle": 1005,
      "dia": 1006,
      "itamin": 1007,
      "stru": 1008,
      "prote": 1009,
      "control": 1010,
      "hard": 1011,
      "lead": 1012,
      "pat": 1013,
      "hosp": 1014,
      "without": 1015,
      "CT": 1016,
      "outh": 1017,
      "ulation": 1018,
      "def": 1019,
      "aw": 1020,
      "pri": 1021,
      "occur": 1022,
      "levels": 1023,
      "atr": 1024,
      "along": 1025,
      "found": 1026,
      "lung": 1027,
      "count": 1028,
      "cold": 1029,
      "ise": 1030,
      "ove": 1031,
      "upper": 1032,
      "relief": 1033,
      "lu": 1034,
      "questions": 1035,
      "band": 1036,
      "dy": 1037,
      "dou": 1038,
      "ON": 1039,
      "ute": 1040,
      "clinical": 1041,
      "ster": 1042,
      "treated": 1043,
      "physical": 1044,
      "tiv": 1045,
      "ual": 1046,
      "sometimes": 1047,
      "rest": 1048,
      "make": 1049,
      "gener": 1050,
      "sal": 1051,
      "twice": 1052,
      "mouth": 1053,
      "advice": 1054,
      "gu": 1055,
      "life": 1056,
      "inclu": 1057,
      "nerve": 1058,
      "thanks": 1059,
      "information": 1060,
      "issue": 1061,
      "ures": 1062,
      "into": 1063,
      "dont": 1064,
      "thy": 1065,
      "diagnosed": 1066,
      "ather": 1067,
      "reco": 1068,
      "nothing": 1069,
      "att": 1070,
      "bleeding": 1071,
      "needs": 1072,
      "today": 1073,
      "deve": 1074,
      "gum": 1075,
      "thro": 1076,
      "cial": 1077,
      "ive": 1078,
      "ES": 1079,
      "physician": 1080,
      "eries": 1081,
      "ments": 1082,
      "ately": 1083,
      "ption": 1084,
      "clo": 1085,
      "ele": 1086,
      "pan": 1087,
      "being": 1088,
      "doctors": 1089,
      "above": 1090,
      "baby": 1091,
      "cyst": 1092,
      "ial": 1093,
      "tu": 1094,
      "move": 1095,
      "took": 1096,
      "cell": 1097,
      "possib": 1098,
      "Any": 1099,
      "anal": 1100,
      "az": 1101,
      "call": 1102,
      "mentioned": 1103,
      "pression": 1104,
      "confir": 1105,
      "feels": 1106,
      "AL": 1107,
      "bin": 1108,
      "cop": 1109,
      "type": 1110,
      "affec": 1111,
      "needed": 1112,
      "according": 1113,
      "Dear": 1114,
      "ought": 1115,
      "doub": 1116,
      "recently": 1117,
      "EN": 1118,
      "hol": 1119,
      "brain": 1120,
      "prescribed": 1121,
      "mil": 1122,
      "brea": 1123,
      "ologist": 1124,
      "hospital": 1125,
      "hair": 1126,
      "report": 1127,
      "mis": 1128,
      "contact": 1129,
      "next": 1130,
      "size": 1131,
      "disorder": 1132,
      "ties": 1133,
      "away": 1134,
      "ph": 1135,
      "injur": 1136,
      "pul": 1137,
      "concerns": 1138,
      "three": 1139,
      "clear": 1140,
      "sup": 1141,
      "develop": 1142,
      "sign": 1143,
      "riend": 1144,
      "However": 1145,
      "viral": 1146,
      "rash": 1147,
      "breath": 1148,
      "llen": 1149,
      "though": 1150,
      "usband": 1151,
      "air": 1152,
      "manage": 1153,
      "queries": 1154,
      "spine": 1155,
      "mato": 1156,
      "came": 1157,
      "surgeon": 1158,
      "jo": 1159,
      "second": 1160,
      "ever": 1161,
      "diff": 1162,
      "painful": 1163,
      "worried": 1164,
      "dep": 1165,
      "differ": 1166,
      "medical": 1167,
      "husband": 1168,
      "knee": 1169,
      "yrs": 1170,
      "curren": 1171,
      "bron": 1172,
      "likely": 1173,
      "home": 1174,
      "enti": 1175,
      "ye": 1176,
      "roid": 1177,
      "ost": 1178,
      "resul": 1179,
      "stop": 1180,
      "Now": 1181,
      "cing": 1182,
      "never": 1183,
      "rad": 1184,
      "TI": 1185,
      "pass": 1186,
      "sore": 1187,
      "friend": 1188,
      "whe": 1189,
      "sub": 1190,
      "abdominal": 1191,
      "allergic": 1192,
      "always": 1193,
      "30": 1194,
      "gast": 1195,
      "sing": 1196,
      "details": 1197,
      "No": 1198,
      "bal": 1199,
      "ones": 1200,
      "welcome": 1201,
      "wa": 1202,
      "top": 1203,
      "YY": 1204,
      "lymp": 1205,
      "free": 1206,
      "special": 1207,
      "soon": 1208,
      "discus": 1209,
      "cure": 1210,
      "fam": 1211,
      "na": 1212,
      "ox": 1213,
      "exercise": 1214,
      "bone": 1215,
      "neuro": 1216,
      "tool": 1217,
      "Af": 1218,
      "urb": 1219,
      "mation": 1220,
      "ugh": 1221,
      "won": 1222,
      "dose": 1223,
      "cohol": 1224,
      "eat": 1225,
      "sist": 1226,
      "comes": 1227,
      "After": 1228,
      "vitamin": 1229,
      "seen": 1230,
      "another": 1231,
      "acter": 1232,
      "EC": 1233,
      "vom": 1234,
      "doing": 1235,
      "here": 1236,
      "OR": 1237,
      "following": 1238,
      "hes": 1239,
      "appear": 1240,
      "den": 1241,
      "caused": 1242,
      "hyper": 1243,
      "medications": 1244,
      "injury": 1245,
      "swo": 1246,
      "plan": 1247,
      "spo": 1248,
      "Wishing": 1249,
      "met": 1250,
      "almost": 1251,
      "visit": 1252,
      "sider": 1253,
      "healthy": 1254,
      "notic": 1255,
      "tum": 1256,
      "adder": 1257,
      "diffic": 1258,
      "wish": 1259,
      "look": 1260,
      "bs": 1261,
      "fat": 1262,
      "zz": 1263,
      "ang": 1264,
      "swollen": 1265,
      "),": 1266,
      "ually": 1267,
      "breast": 1268,
      "result": 1269,
      "face": 1270,
      "AS": 1271,
      "point": 1272,
      "ronic": 1273,
      "Best": 1274,
      "fine": 1275,
      "dentist": 1276,
      "tur": 1277,
      "regards": 1278,
      "ughter": 1279,
      "effects": 1280,
      "fluid": 1281,
      "experien": 1282,
      "improve": 1283,
      "ris": 1284,
      "urin": 1285,
      "family": 1286,
      "stool": 1287,
      "They": 1288,
      "logy": 1289,
      "tions": 1290,
      "require": 1291,
      "ni": 1292,
      "tra": 1293,
      "lt": 1294,
      "cles": 1295,
      "rate": 1296,
      "neg": 1297,
      "daughter": 1298,
      "Can": 1299,
      "vid": 1300,
      "let": 1301,
      "tivity": 1302,
      "active": 1303,
      "clar": 1304,
      "ses": 1305,
      "till": 1306,
      "continue": 1307,
      "reduce": 1308,
      "concerned": 1309,
      "results": 1310,
      "seem": 1311,
      "Since": 1312,
      "14": 1313,
      "When": 1314,
      "thought": 1315,
      "alcohol": 1316,
      "On": 1317,
      "loss": 1318,
      "management": 1319,
      "HI": 1320,
      "frequ": 1321,
      "thyroid": 1322,
      "eve": 1323,
      "answers": 1324,
      "lymph": 1325,
      "run": 1326,
      "ween": 1327,
      "mit": 1328,
      "acc": 1329,
      "pt": 1330,
      "person": 1331,
      "solved": 1332,
      "ChatDoctor": 1333,
      "depend": 1334,
      "bladder": 1335,
      "radi": 1336,
      "cou": 1337,
      "oci": 1338,
      "things": 1339,
      "appro": 1340,
      "import": 1341,
      "kes": 1342,
      "consider": 1343,
      "throat": 1344,
      "numb": 1345,
      "mild": 1346,
      "worse": 1347,
      "ogr": 1348,
      "comfor": 1349,
      "gy": 1350,
      "noticed": 1351,
      "Some": 1352,
      "addition": 1353,
      "indic": 1354,
      "between": 1355,
      "sens": 1356,
      "ically": 1357,
      "current": 1358,
      "early": 1359,
      "increase": 1360,
      "possibility": 1361,
      "sper": 1362,
      "white": 1363,
      "Sh": 1364,
      "cu": 1365,
      "later": 1366,
      "arr": 1367,
      "descri": 1368,
      "important": 1369,
      "ank": 1370,
      "reme": 1371,
      "prevent": 1372,
      "hot": 1373,
      "thank": 1374,
      "steroid": 1375,
      "specialist": 1376,
      "must": 1377,
      "ions": 1378,
      "periods": 1379,
      "produ": 1380,
      "exercises": 1381,
      "tend": 1382,
      "serious": 1383,
      "iness": 1384,
      "ailable": 1385,
      "char": 1386,
      "otherapy": 1387,
      "cream": 1388,
      "writing": 1389,
      "conce": 1390,
      "bronch": 1391,
      "patients": 1392,
      "ign": 1393,
      "relax": 1394,
      "respon": 1395,
      "breathing": 1396,
      "mm": 1397,
      "stem": 1398,
      "inje": 1399,
      "negative": 1400,
      "removed": 1401,
      "ither": 1402,
      "required": 1403,
      "ben": 1404,
      "path": 1405,
      "RE": 1406,
      "ush": 1407,
      "ency": 1408,
      "near": 1409,
      "asking": 1410,
      "chronic": 1411,
      "ged": 1412,
      "ings": 1413,
      "irr": 1414,
      "associ": 1415,
      "recovery": 1416,
      "asth": 1417,
      "penis": 1418,
      "issues": 1419,
      "pains": 1420,
      "inflammation": 1421,
      "OU": 1422,
      "non": 1423,
      "pped": 1424,
      "felt": 1425,
      "called": 1426,
      "atory": 1427,
      "direct": 1428,
      "situ": 1429,
      "ouch": 1430,
      "dizz": 1431,
      "advised": 1432,
      "warm": 1433,
      "continu": 1434,
      "bu": 1435,
      "plic": 1436,
      "positive": 1437,
      "bacter": 1438,
      "25": 1439,
      "thin": 1440,
      "als": 1441,
      "luck": 1442,
      "allergy": 1443,
      "probab": 1444,
      "short": 1445,
      "slight": 1446,
      "oma": 1447,
      "female": 1448,
      "spec": 1449,
      "evaluation": 1450,
      "dam": 1451,
      "kill": 1452,
      "touch": 1453,
      "tri": 1454,
      "why": 1455,
      "legs": 1456,
      "itate": 1457,
      "esterday": 1458,
      "pi": 1459,
      "tors": 1460,
      "orts": 1461,
      "ural": 1462,
      "within": 1463,
      "trans": 1464,
      "sugar": 1465,
      "heav": 1466,
      "clarific": 1467,
      "line": 1468,
      "inhal": 1469,
      "grow": 1470,
      "asturb": 1471,
      "treating": 1472,
      "sensi": 1473,
      "diseases": 1474,
      "IS": 1475,
      "Get": 1476,
      "ready": 1477,
      "large": 1478,
      "walk": 1479,
      "copy": 1480,
      "All": 1481,
      "matory": 1482,
      "hurt": 1483,
      "ari": 1484,
      "tablet": 1485,
      "cardiac": 1486,
      "associated": 1487,
      "local": 1488,
      "contr": 1489,
      "gets": 1490,
      "ole": 1491,
      "ton": 1492,
      "tes": 1493,
      "hurts": 1494,
      "frequent": 1495,
      "cant": 1496,
      "Be": 1497,
      "different": 1498,
      "ysis": 1499,
      "ofen": 1500,
      "either": 1501,
      "ra": 1502,
      "supp": 1503,
      "prog": 1504,
      "accordingly": 1505,
      "fast": 1506,
      "nat": 1507,
      "ok": 1508,
      "logical": 1509,
      "system": 1510,
      "infections": 1511,
      "tension": 1512,
      "Consult": 1513,
      "--": 1514,
      "vol": 1515,
      "weak": 1516,
      "chiatr": 1517,
      "11": 1518,
      "bump": 1519,
      "stone": 1520,
      "pills": 1521,
      "Don": 1522,
      "TO": 1523,
      "couple": 1524,
      "probably": 1525,
      "mber": 1526,
      "rout": 1527,
      "gall": 1528,
      "100": 1529,
      "medi": 1530,
      "lying": 1531,
      "mul": 1532,
      "regard": 1533,
      "amine": 1534,
      "least": 1535,
      "investigations": 1536,
      "ates": 1537,
      "coming": 1538,
      "cially": 1539,
      "ECG": 1540,
      "pal": 1541,
      "Should": 1542,
      "abs": 1543,
      "changes": 1544,
      "trying": 1545,
      "effect": 1546,
      "cannot": 1547,
      "new": 1548,
      "necess": 1549,
      "place": 1550,
      "fung": 1551,
      "asthma": 1552,
      "whether": 1553,
      "become": 1554,
      "bili": 1555,
      "increased": 1556,
      "injection": 1557,
      "gave": 1558,
      "mother": 1559,
      "complain": 1560,
      "inflammatory": 1561,
      "turn": 1562,
      "completely": 1563,
      "cycle": 1564,
      "SG": 1565,
      "cult": 1566,
      "itching": 1567,
      "hesitate": 1568,
      "nose": 1569,
      "mean": 1570,
      "tern": 1571,
      "persist": 1572,
      "lif": 1573,
      "nause": 1574,
      "gan": 1575,
      "lip": 1576,
      "Dr": 1577,
      "foot": 1578,
      "father": 1579,
      "!!": 1580,
      "ew": 1581,
      "chances": 1582,
      "vomiting": 1583,
      "osis": 1584,
      "St": 1585,
      "sha": 1586,
      "exact": 1587,
      "change": 1588,
      "yes": 1589,
      "situation": 1590,
      "fall": 1591,
      "AND": 1592,
      "goes": 1593,
      "ling": 1594,
      "smoking": 1595,
      "already": 1596,
      "shar": 1597,
      "doesn": 1598,
      "mostly": 1599,
      "psychiatr": 1600,
      "De": 1601,
      "creat": 1602,
      "consul": 1603,
      "mod": 1604,
      "inside": 1605,
      "until": 1606,
      "opsy": 1607,
      "mid": 1608,
      "These": 1609,
      "cular": 1610,
      "tility": 1611,
      "bru": 1612,
      "soft": 1613,
      "ins": 1614,
      "abnormal": 1615,
      "24": 1616,
      "root": 1617,
      "clean": 1618,
      "thor": 1619,
      "ants": 1620,
      "asis": 1621,
      "doc": 1622,
      "tissue": 1623,
      "decre": 1624,
      "ution": 1625,
      "AT": 1626,
      "posting": 1627,
      "burning": 1628,
      "masturb": 1629,
      "wonder": 1630,
      "defin": 1631,
      "sensation": 1632,
      "igh": 1633,
      "utes": 1634,
      "certain": 1635,
      "tract": 1636,
      "muscles": 1637,
      "yesterday": 1638,
      "ont": 1639,
      "several": 1640,
      "says": 1641,
      "supple": 1642,
      "ograp": 1643,
      "shoulder": 1644,
      "ral": 1645,
      "itation": 1646,
      "reaction": 1647,
      "prof": 1648,
      "feet": 1649,
      "quite": 1650,
      "block": 1651,
      "consulting": 1652,
      "ED": 1653,
      "cells": 1654,
      "ople": 1655,
      "sin": 1656,
      "dischar": 1657,
      "below": 1658,
      "ING": 1659,
      "minutes": 1660,
      "risk": 1661,
      "50": 1662,
      "ste": 1663,
      "sperm": 1664,
      "checked": 1665,
      "include": 1666,
      "dist": 1667,
      "espe": 1668,
      "betes": 1669,
      "safe": 1670,
      "headache": 1671,
      "wrong": 1672,
      "routine": 1673,
      "OT": 1674,
      "aches": 1675,
      "gesic": 1676,
      "pulmon": 1677,
      "Kind": 1678,
      "ose": 1679,
      "stage": 1680,
      "half": 1681,
      "vag": 1682,
      "suggestion": 1683,
      "stant": 1684,
      "immu": 1685,
      "general": 1686,
      "reports": 1687,
      "immedi": 1688,
      "pread": 1689,
      "additional": 1690,
      "heavy": 1691,
      "dear": 1692,
      "rup": 1693,
      "stones": 1694,
      "physi": 1695,
      "gums": 1696,
      "Ive": 1697,
      "cases": 1698,
      "azole": 1699,
      "13": 1700,
      "ped": 1701,
      "isod": 1702,
      "llic": 1703,
      "wait": 1704,
      "clarifications": 1705,
      "ju": 1706,
      "experiencing": 1707,
      "ori": 1708,
      "tablets": 1709,
      "doubts": 1710,
      "dden": 1711,
      "vical": 1712,
      "people": 1713,
      "episod": 1714,
      "biopsy": 1715,
      "discuss": 1716,
      "spread": 1717,
      "known": 1718,
      "hormon": 1719,
      "else": 1720,
      "foods": 1721,
      "ovulation": 1722,
      "explain": 1723,
      "milk": 1724,
      "culture": 1725,
      "pus": 1726,
      "tumor": 1727,
      "Have": 1728,
      "mic": 1729,
      "ology": 1730,
      "tried": 1731,
      "set": 1732,
      "semen": 1733,
      "Then": 1734,
      "apply": 1735,
      "necessary": 1736,
      "fing": 1737,
      "gre": 1738,
      "joint": 1739,
      "gastro": 1740,
      "mass": 1741,
      "sc": 1742,
      "means": 1743,
      "Ch": 1744,
      "open": 1745,
      "position": 1746,
      "developed": 1747,
      "simp": 1748,
      "mia": 1749,
      "contain": 1750,
      "18": 1751,
      "At": 1752,
      "repe": 1753,
      "meas": 1754,
      "state": 1755,
      "follic": 1756,
      "confirm": 1757,
      "Sur": 1758,
      "To": 1759,
      "eating": 1760,
      "ches": 1761,
      "deep": 1762,
      "analgesic": 1763,
      "matologist": 1764,
      "damage": 1765,
      "fully": 1766,
      "tired": 1767,
      "IC": 1768,
      "sudden": 1769,
      "wash": 1770,
      "constant": 1771,
      "usion": 1772,
      "sho": 1773,
      "especially": 1774,
      "fungal": 1775,
      "LE": 1776,
      "ange": 1777,
      "acti": 1778,
      "edic": 1779,
      "stren": 1780,
      "view": 1781,
      "Could": 1782,
      "Fr": 1783,
      "Pro": 1784,
      "ised": 1785,
      "hea": 1786,
      "invol": 1787,
      "chance": 1788,
      "IT": 1789,
      "ina": 1790,
      "ism": 1791,
      "proced": 1792,
      "dec": 1793,
      "discharge": 1794,
      "cin": 1795,
      "respir": 1796,
      "irth": 1797,
      "Se": 1798,
      "anem": 1799,
      "specific": 1800,
      "provid": 1801,
      "typ": 1802,
      "nausea": 1803,
      "BP": 1804,
      "bronchitis": 1805,
      "multi": 1806,
      "oper": 1807,
      "del": 1808,
      "fail": 1809,
      "kg": 1810,
      "cto": 1811,
      "irst": 1812,
      "conditions": 1813,
      "loc": 1814,
      "200": 1815,
      "sharp": 1816,
      "cus": 1817,
      "jaw": 1818,
      "numbness": 1819,
      "often": 1820,
      "matic": 1821,
      "psychiatrist": 1822,
      "zing": 1823,
      "uma": 1824,
      "preci": 1825,
      "assess": 1826,
      "AC": 1827,
      "acet": 1828,
      "temp": 1829,
      "affected": 1830,
      "available": 1831,
      "FT": 1832,
      "atch": 1833,
      "looks": 1834,
      "bul": 1835,
      "lim": 1836,
      "swe": 1837,
      "uled": 1838,
      "comfort": 1839,
      "giving": 1840,
      "mone": 1841,
      "cervical": 1842,
      "diabetes": 1843,
      "infected": 1844,
      "BC": 1845,
      "sir": 1846,
      "stic": 1847,
      "spot": 1848,
      "respiratory": 1849,
      "room": 1850,
      "painkill": 1851,
      "working": 1852,
      "How": 1853,
      "studi": 1854,
      "birth": 1855,
      "extr": 1856,
      "gency": 1857,
      "au": 1858,
      "hist": 1859,
      "16": 1860,
      "seiz": 1861,
      "extreme": 1862,
      "however": 1863,
      "their": 1864,
      "tight": 1865,
      "hepat": 1866,
      "pel": 1867,
      "Its": 1868,
      "amoun": 1869,
      "intercourse": 1870,
      "ography": 1871,
      "ith": 1872,
      "ret": 1873,
      "orth": 1874,
      "elev": 1875,
      "sinus": 1876,
      "ring": 1877,
      "ene": 1878,
      "fru": 1879,
      "suggested": 1880,
      "vious": 1881,
      "jac": 1882,
      "sick": 1883,
      "depression": 1884,
      "attack": 1885,
      "doubt": 1886,
      "sexual": 1887,
      "sound": 1888,
      "illness": 1889,
      "Un": 1890,
      "appropri": 1891,
      "AR": 1892,
      "First": 1893,
      "based": 1894,
      "chemo": 1895,
      "evaluated": 1896,
      "40": 1897,
      "correct": 1898,
      "cologist": 1899,
      "whole": 1900,
      "ized": 1901,
      "stopped": 1902,
      "Ac": 1903,
      "num": 1904,
      "color": 1905,
      "moni": 1906,
      "ME": 1907,
      "wife": 1908,
      "difficult": 1909,
      "discomfort": 1910,
      "gin": 1911,
      "mom": 1912,
      "intake": 1913,
      "ergency": 1914,
      "ared": 1915,
      "fract": 1916,
      "bing": 1917,
      "iti": 1918,
      "wom": 1919,
      "pect": 1920,
      "effective": 1921,
      "oscopy": 1922,
      "defici": 1923,
      ".-": 1924,
      "Me": 1925,
      "wondering": 1926,
      "anemia": 1927,
      "Other": 1928,
      "lesion": 1929,
      "controll": 1930,
      "iatr": 1931,
      "ents": 1932,
      "solve": 1933,
      "far": 1934,
      "var": 1935,
      "enter": 1936,
      "add": 1937,
      "fatty": 1938,
      "definite": 1939,
      "His": 1940,
      "acks": 1941,
      "meth": 1942,
      "spinal": 1943,
      "study": 1944,
      "close": 1945,
      "simple": 1946,
      "wise": 1947,
      "ENT": 1948,
      "HE": 1949,
      "sme": 1950,
      "tab": 1951,
      "losis": 1952,
      "regularly": 1953,
      "cut": 1954,
      "Sometimes": 1955,
      "complic": 1956,
      "ongue": 1957,
      "delay": 1958,
      "Li": 1959,
      "ker": 1960,
      "ages": 1961,
      "enz": 1962,
      "tech": 1963,
      "region": 1964,
      "reasons": 1965,
      "dle": 1966,
      "tongue": 1967,
      "veget": 1968,
      "strong": 1969,
      "walking": 1970,
      "appropriate": 1971,
      "appreci": 1972,
      "urinary": 1973,
      "Ne": 1974,
      "Treat": 1975,
      "ric": 1976,
      "solution": 1977,
      "ST": 1978,
      "tt": 1979,
      "iron": 1980,
      "enough": 1981,
      "AD": 1982,
      "atic": 1983,
      "surgical": 1984,
      "made": 1985,
      "beat": 1986,
      "happened": 1987,
      "Well": 1988,
      "protected": 1989,
      "procedure": 1990,
      "cram": 1991,
      "ging": 1992,
      "great": 1993,
      "diarr": 1994,
      "lab": 1995,
      "ending": 1996,
      "appears": 1997,
      "fin": 1998,
      "wards": 1999,
      "ane": 2000,
      "ulcer": 2001,
      "dermatologist": 2002,
      "ident": 2003,
      "itchy": 2004,
      "eye": 2005,
      "intest": 2006,
      "compression": 2007,
      "stay": 2008,
      "each": 2009,
      "mind": 2010,
      "eas": 2011,
      "sat": 2012,
      "UR": 2013,
      "name": 2014,
      "vic": 2015,
      "press": 2016,
      "yourself": 2017,
      "ured": 2018,
      "hip": 2019,
      "prescribe": 2020,
      "hands": 2021,
      "amol": 2022,
      "canal": 2023,
      "psycho": 2024,
      "happens": 2025,
      "balance": 2026,
      "PT": 2027,
      "black": 2028,
      "regarding": 2029,
      "amount": 2030,
      "glo": 2031,
      "step": 2032,
      "uture": 2033,
      "iry": 2034,
      "dizziness": 2035,
      "immediately": 2036,
      "diarrhea": 2037,
      "Yes": 2038,
      "ejac": 2039,
      "acute": 2040,
      "ied": 2041,
      "play": 2042,
      "shows": 2043,
      "panic": 2044,
      "difficul": 2045,
      "VE": 2046,
      "future": 2047,
      "lic": 2048,
      "mes": 2049,
      "remain": 2050,
      "activity": 2051,
      "upr": 2052,
      "hr": 2053,
      ".....": 2054,
      "aged": 2055,
      "ctomy": 2056,
      "With": 2057,
      "wear": 2058,
      "boy": 2059,
      "alright": 2060,
      "ched": 2061,
      "bot": 2062,
      "nia": 2063,
      "neum": 2064,
      "tested": 2065,
      "Anti": 2066,
      "ruled": 2067,
      "masturbation": 2068,
      "icy": 2069,
      "combin": 2070,
      "thritis": 2071,
      "emergency": 2072,
      "virus": 2073,
      "sitting": 2074,
      "spas": 2075,
      "starting": 2076,
      "maintain": 2077,
      "sensitivity": 2078,
      "ping": 2079,
      "ener": 2080,
      "standing": 2081,
      "multiple": 2082,
      "monitor": 2083,
      "bupr": 2084,
      "properly": 2085,
      "middle": 2086,
      "Most": 2087,
      "Phy": 2088,
      "ng": 2089,
      "arms": 2090,
      "useful": 2091,
      "Further": 2092,
      "cap": 2093,
      "hygi": 2094,
      "hormonal": 2095,
      "Treatment": 2096,
      "site": 2097,
      "rib": 2098,
      "ctive": 2099,
      "THE": 2100,
      "bacterial": 2101,
      "contrac": 2102,
      "rin": 2103,
      "meals": 2104,
      "ticular": 2105,
      "own": 2106,
      "buprofen": 2107,
      "Blo": 2108,
      "ior": 2109,
      "streng": 2110,
      "500": 2111,
      "nut": 2112,
      "OD": 2113,
      "Or": 2114,
      "mally": 2115,
      "tom": 2116,
      "simil": 2117,
      "17": 2118,
      "scal": 2119,
      "Pl": 2120,
      "gree": 2121,
      "cover": 2122,
      "followed": 2123,
      "everything": 2124,
      "tuber": 2125,
      "niqu": 2126,
      "Pain": 2127,
      "iv": 2128,
      "maybe": 2129,
      "description": 2130,
      "acetamol": 2131,
      "Su": 2132,
      "hello": 2133,
      "conf": 2134,
      "plate": 2135,
      "fertility": 2136,
      "techniqu": 2137,
      "myself": 2138,
      "supplements": 2139,
      "cm": 2140,
      "ables": 2141,
      "Kindly": 2142,
      "struction": 2143,
      "similar": 2144,
      "tious": 2145,
      "occurs": 2146,
      "thorough": 2147,
      "slow": 2148,
      "isdom": 2149,
      "chol": 2150,
      "showed": 2151,
      "growth": 2152,
      "LO": 2153,
      "ward": 2154,
      "arter": 2155,
      "including": 2156,
      "immune": 2157,
      "ict": 2158,
      "diagnose": 2159,
      "pediatr": 2160,
      "//": 2161,
      "hemo": 2162,
      "flux": 2163,
      "Just": 2164,
      "betic": 2165,
      "dairy": 2166,
      "looking": 2167,
      "hygiene": 2168,
      "AM": 2169,
      "perform": 2170,
      "coughing": 2171,
      "larged": 2172,
      "hormone": 2173,
      "suggestions": 2174,
      ",,": 2175,
      "process": 2176,
      "serum": 2177,
      "relieve": 2178,
      "hepatitis": 2179,
      "19": 2180,
      "uter": 2181,
      "gger": 2182,
      "esop": 2183,
      "arthritis": 2184,
      "protein": 2185,
      "wishes": 2186,
      "tender": 2187,
      "From": 2188,
      "fruits": 2189,
      "enzy": 2190,
      "contracep": 2191,
      "gue": 2192,
      "wisdom": 2193,
      "ros": 2194,
      "symptom": 2195,
      "Blood": 2196,
      "YOU": 2197,
      "cts": 2198,
      "takes": 2199,
      "syn": 2200,
      "slightly": 2201,
      "dro": 2202,
      "motion": 2203,
      "irl": 2204,
      "didnt": 2205,
      "green": 2206,
      "://": 2207,
      "pneum": 2208,
      "tin": 2209,
      "refer": 2210,
      "factors": 2211,
      "definitely": 2212,
      "node": 2213,
      "nodes": 2214,
      "renal": 2215,
      "htt": 2216,
      "onia": 2217,
      "examined": 2218,
      "evening": 2219,
      "psych": 2220,
      "lungs": 2221,
      "deficiency": 2222,
      "vegetables": 2223,
      "oil": 2224,
      "inner": 2225,
      "weakness": 2226,
      "esopha": 2227,
      "je": 2228,
      "ml": 2229,
      "asing": 2230,
      "meds": 2231,
      "plac": 2232,
      "tingling": 2233,
      "didn": 2234,
      "gland": 2235,
      "Ex": 2236,
      "reflux": 2237,
      "organ": 2238,
      "earli": 2239,
      "cessive": 2240,
      "Fe": 2241,
      "married": 2242,
      "28": 2243,
      "jor": 2244,
      "stat": 2245,
      "woke": 2246,
      "bowel": 2247,
      "remove": 2248,
      "difficulty": 2249,
      "scare": 2250,
      "thigh": 2251,
      "appoint": 2252,
      "big": 2253,
      "gies": 2254,
      "menstru": 2255,
      "bes": 2256,
      "necologist": 2257,
      "cept": 2258,
      "those": 2259,
      "cir": 2260,
      "pull": 2261,
      "yle": 2262,
      "inc": 2263,
      "minute": 2264,
      "drink": 2265,
      "entif": 2266,
      "ankle": 2267,
      "conceive": 2268,
      "elevated": 2269,
      "App": 2270,
      "Her": 2271,
      "echo": 2272,
      "girl": 2273,
      "yet": 2274,
      "beli": 2275,
      "rid": 2276,
      "itself": 2277,
      "consti": 2278,
      "front": 2279,
      "cision": 2280,
      "leading": 2281,
      "Once": 2282,
      "culosis": 2283,
      "Ab": 2284,
      "RO": 2285,
      "ds": 2286,
      "profile": 2287,
      "HY": 2288,
      "lay": 2289,
      "fill": 2290,
      "gel": 2291,
      "inten": 2292,
      "antihist": 2293,
      "enlarged": 2294,
      "investigation": 2295,
      "eyes": 2296,
      "formed": 2297,
      "ctro": 2298,
      "pin": 2299,
      "wound": 2300,
      "suc": 2301,
      "removal": 2302,
      "trauma": 2303,
      "running": 2304,
      "bite": 2305,
      "dar": 2306,
      "pir": 2307,
      "irregular": 2308,
      "movements": 2309,
      "lost": 2310,
      "plas": 2311,
      "initi": 2312,
      "major": 2313,
      "guid": 2314,
      "stead": 2315,
      "That": 2316,
      "ature": 2317,
      "trou": 2318,
      "hyth": 2319,
      "deter": 2320,
      "signs": 2321,
      "neurologist": 2322,
      "sci": 2323,
      "ister": 2324,
      "cium": 2325,
      "asked": 2326,
      "diabetic": 2327,
      "ium": 2328,
      "late": 2329,
      "doesnt": 2330,
      "findings": 2331,
      "En": 2332,
      "Usually": 2333,
      "real": 2334,
      "live": 2335,
      "areas": 2336,
      "pret": 2337,
      "abscess": 2338,
      "http": 2339,
      "Com": 2340,
      "gro": 2341,
      "pur": 2342,
      "scar": 2343,
      "lly": 2344,
      "pathology": 2345,
      "method": 2346,
      "aid": 2347,
      "arch": 2348,
      "excessive": 2349,
      "option": 2350,
      "saline": 2351,
      "CO": 2352,
      "partner": 2353,
      "combination": 2354,
      "ently": 2355,
      "quick": 2356,
      "orthop": 2357,
      "MY": 2358,
      "vas": 2359,
      "exam": 2360,
      "liqu": 2361,
      "severity": 2362,
      "confirmed": 2363,
      "failure": 2364,
      "controlled": 2365,
      "fact": 2366,
      "pho": 2367,
      "healing": 2368,
      "hit": 2369,
      "lesions": 2370,
      "salt": 2371,
      "dizzy": 2372,
      "US": 2373,
      "egg": 2374,
      "asal": 2375,
      "Based": 2376,
      "ga": 2377,
      "pare": 2378,
      "sun": 2379,
      "prescription": 2380,
      "AB": 2381,
      "oint": 2382,
      "recommended": 2383,
      "cured": 2384,
      "arian": 2385,
      "Ad": 2386,
      "vide": 2387,
      "havi": 2388,
      "illin": 2389,
      "dete": 2390,
      "sleeping": 2391,
      "constip": 2392,
      "ird": 2393,
      "upon": 2394,
      "electro": 2395,
      "currently": 2396,
      "bumps": 2397,
      "appointment": 2398,
      "lev": 2399,
      "hear": 2400,
      "options": 2401,
      "spots": 2402,
      ".,": 2403,
      "aking": 2404,
      "vacc": 2405,
      "hernia": 2406,
      "LY": 2407,
      "exclu": 2408,
      "starts": 2409,
      "stood": 2410,
      "natural": 2411,
      "Surgeon": 2412,
      "number": 2413,
      "TS": 2414,
      "cas": 2415,
      "clot": 2416,
      "pping": 2417,
      "fati": 2418,
      "lin": 2419,
      "apist": 2420,
      "dust": 2421,
      "underlying": 2422,
      "idea": 2423,
      "normally": 2424,
      "burn": 2425,
      "adequ": 2426,
      "hypertension": 2427,
      "pulmonologist": 2428,
      "Par": 2429,
      "estyle": 2430,
      "term": 2431,
      "unprotected": 2432,
      "YYYY": 2433,
      "Di": 2434,
      "mper": 2435,
      "rare": 2436,
      "previous": 2437,
      "headaches": 2438,
      "analysis": 2439,
      "episodes": 2440,
      "gest": 2441,
      "etri": 2442,
      "recover": 2443,
      "harm": 2444,
      "experience": 2445,
      "22": 2446,
      "Ke": 2447,
      "Ul": 2448,
      "four": 2449,
      "alot": 2450,
      "sual": 2451,
      "undergo": 2452,
      "intern": 2453,
      "affect": 2454,
      "studied": 2455,
      "bottom": 2456,
      "pretty": 2457,
      "lling": 2458,
      "ability": 2459,
      "fracture": 2460,
      "Mon": 2461,
      "sess": 2462,
      "spicy": 2463,
      "colon": 2464,
      "umbar": 2465,
      "benef": 2466,
      "pneumonia": 2467,
      "gain": 2468,
      "orry": 2469,
      "stro": 2470,
      "loose": 2471,
      "kindly": 2472,
      "FOR": 2473,
      "IV": 2474,
      "ball": 2475,
      "gment": 2476,
      "60": 2477,
      "gestion": 2478,
      "hind": 2479,
      "prostate": 2480,
      "anger": 2481,
      "techniques": 2482,
      "ints": 2483,
      "strain": 2484,
      "depends": 2485,
      "bri": 2486,
      "cul": 2487,
      "nd": 2488,
      "stret": 2489,
      "symptomatic": 2490,
      "sugges": 2491,
      "actually": 2492,
      "particular": 2493,
      "disorders": 2494,
      "tuberculosis": 2495,
      "scared": 2496,
      "dys": 2497,
      "guide": 2498,
      "led": 2499,
      "mental": 2500,
      "brush": 2501,
      "considered": 2502,
      "comfortable": 2503,
      "extraction": 2504,
      "ances": 2505,
      "behind": 2506,
      "meet": 2507,
      "opath": 2508,
      "calcium": 2509,
      "sw": 2510,
      "tile": 2511,
      "behavi": 2512,
      "omy": 2513,
      "acting": 2514,
      "ock": 2515,
      "lumps": 2516,
      "osing": 2517,
      "globin": 2518,
      "suggestive": 2519,
      "LD": 2520,
      "Try": 2521,
      "flow": 2522,
      "ili": 2523,
      "chee": 2524,
      "tention": 2525,
      "lifestyle": 2526,
      "cum": 2527,
      "ema": 2528,
      "usual": 2529,
      "review": 2530,
      "resolve": 2531,
      "choosing": 2532,
      "steroids": 2533,
      "OF": 2534,
      "One": 2535,
      "ritis": 2536,
      "range": 2537,
      "shall": 2538,
      "reduced": 2539,
      "cardiologist": 2540,
      "remember": 2541,
      "assessment": 2542,
      "gas": 2543,
      "temper": 2544,
      "hypo": 2545,
      "understood": 2546,
      "relie": 2547,
      "attacks": 2548,
      "signific": 2549,
      "gynecologist": 2550,
      "ID": 2551,
      "bath": 2552,
      "pa": 2553,
      "abies": 2554,
      "vision": 2555,
      "longer": 2556,
      "thinking": 2557,
      "B12": 2558,
      "yl": 2559,
      "aspir": 2560,
      "except": 2561,
      "pot": 2562,
      "response": 2563,
      "lifting": 2564,
      "extremely": 2565,
      "21": 2566,
      "Not": 2567,
      "PC": 2568,
      "pit": 2569,
      "syrup": 2570,
      "movement": 2571,
      "benign": 2572,
      "thes": 2573,
      "allergies": 2574,
      "bacteria": 2575,
      "Apply": 2576,
      "makes": 2577,
      "ously": 2578,
      "serv": 2579,
      "detailed": 2580,
      "esterol": 2581,
      "accident": 2582,
      "inhaled": 2583,
      "Make": 2584,
      "increases": 2585,
      "Available": 2586,
      "support": 2587,
      "Mean": 2588,
      "dry": 2589,
      "ler": 2590,
      "Last": 2591,
      "lap": 2592,
      "lumbar": 2593,
      "round": 2594,
      "ching": 2595,
      "dos": 2596,
      "break": 2597,
      "fibro": 2598,
      "secondary": 2599,
      "nutri": 2600,
      "ram": 2601,
      "provide": 2602,
      "improvement": 2603,
      "finger": 2604,
      "enzymes": 2605,
      "believe": 2606,
      "By": 2607,
      "ore": 2608,
      "rich": 2609,
      "young": 2610,
      "fell": 2611,
      "satis": 2612,
      "pediatrician": 2613,
      "SO": 2614,
      "sort": 2615,
      "inine": 2616,
      "tice": 2617,
      "expo": 2618,
      "consu": 2619,
      "commonly": 2620,
      "yellow": 2621,
      "mine": 2622,
      "pu": 2623,
      "rather": 2624,
      "ening": 2625,
      "answering": 2626,
      "rug": 2627,
      "reading": 2628,
      "Does": 2629,
      "chemotherapy": 2630,
      "ising": 2631,
      "altern": 2632,
      "poor": 2633,
      "bleed": 2634,
      "rubin": 2635,
      "sides": 2636,
      "vagina": 2637,
      "seizures": 2638,
      "ET": 2639,
      "zine": 2640,
      "expe": 2641,
      "helped": 2642,
      "testing": 2643,
      "Infec": 2644,
      "wrist": 2645,
      "kidneys": 2646,
      "missed": 2647,
      "appreciate": 2648,
      "Keep": 2649,
      "bor": 2650,
      "icillin": 2651,
      "genital": 2652,
      "duration": 2653,
      "colle": 2654,
      "stools": 2655,
      "irrit": 2656,
      "dark": 2657,
      "qual": 2658,
      "making": 2659,
      "happening": 2660,
      "cramps": 2661,
      "orthopedic": 2662,
      "CH": 2663,
      "cro": 2664,
      "date": 2665,
      "enty": 2666,
      "posed": 2667,
      "ize": 2668,
      "Meanwhile": 2669,
      "AP": 2670,
      "Are": 2671,
      "und": 2672,
      "reply": 2673,
      "rays": 2674,
      "oxy": 2675,
      "decrease": 2676,
      "provided": 2677,
      "90": 2678,
      "DO": 2679,
      "scr": 2680,
      "possibly": 2681,
      "sensitive": 2682,
      "significant": 2683,
      "80": 2684,
      "bas": 2685,
      "bil": 2686,
      "dial": 2687,
      "plant": 2688,
      "obstruction": 2689,
      "experienced": 2690,
      "gallbladder": 2691,
      "aspect": 2692,
      "oday": 2693,
      "complications": 2694,
      "NO": 2695,
      "emp": 2696,
      "squ": 2697,
      "bilities": 2698,
      "Ultr": 2699,
      "rece": 2700,
      "comp": 2701,
      "nerves": 2702,
      "PFT": 2703,
      "Today": 2704,
      "pack": 2705,
      "ulate": 2706,
      "hold": 2707,
      "bow": 2708,
      "ential": 2709,
      "mitted": 2710,
      "measures": 2711,
      "exposure": 2712,
      "ibuprofen": 2713,
      "rever": 2714,
      "smoke": 2715,
      "topical": 2716,
      "thoughts": 2717,
      "drug": 2718,
      "mary": 2719,
      "indi": 2720,
      "limit": 2721,
      "unless": 2722,
      "bile": 2723,
      "hurting": 2724,
      "indicate": 2725,
      "ip": 2726,
      "grad": 2727,
      "irritation": 2728,
      "frequently": 2729,
      "45": 2730,
      "fit": 2731,
      "riage": 2732,
      "imbalance": 2733,
      "passed": 2734,
      "Degree": 2735,
      "pulmonary": 2736,
      "painkillers": 2737,
      "monitoring": 2738,
      "constipation": 2739,
      "nasal": 2740,
      "someone": 2741,
      "worsen": 2742,
      "consultation": 2743,
      "ESR": 2744,
      "ointment": 2745,
      "electroly": 2746,
      "SA": 2747,
      "ger": 2748,
      "instead": 2749,
      "deal": 2750,
      "talk": 2751,
      "generally": 2752,
      "directly": 2753,
      "plication": 2754,
      "physiotherapy": 2755,
      "fingers": 2756,
      "Day": 2757,
      "May": 2758,
      "TB": 2759,
      "although": 2760,
      "tite": 2761,
      "height": 2762,
      "notice": 2763,
      "outside": 2764,
      "factor": 2765,
      "27": 2766,
      "UT": 2767,
      "sac": 2768,
      "aging": 2769,
      "perman": 2770,
      "poly": 2771,
      "possibilities": 2772,
      "pelvic": 2773,
      "mun": 2774,
      "total": 2775,
      "hemato": 2776,
      "identif": 2777,
      "feed": 2778,
      "sister": 2779,
      "fluids": 2780,
      "women": 2781,
      "fatigue": 2782,
      "ities": 2783,
      "job": 2784,
      "oth": 2785,
      "zed": 2786,
      "indu": 2787,
      "memor": 2788,
      "fect": 2789,
      "geal": 2790,
      "grade": 2791,
      "esterone": 2792,
      "cholesterol": 2793,
      "trouble": 2794,
      "liquid": 2795,
      "adequate": 2796,
      "LL": 2797,
      "Lo": 2798,
      "Sir": 2799,
      "event": 2800,
      "ides": 2801,
      "repeat": 2802,
      "strengthen": 2803,
      "success": 2804,
      "Sy": 2805,
      "malign": 2806,
      "actice": 2807,
      "menstrual": 2808,
      "Even": 2809,
      "HA": 2810,
      "towards": 2811,
      "suff": 2812,
      "occas": 2813,
      "prom": 2814,
      "impl": 2815,
      "fre": 2816,
      "condom": 2817,
      "plenty": 2818,
      "allergen": 2819,
      "glad": 2820,
      "depending": 2821,
      "fle": 2822,
      "lack": 2823,
      "lbs": 2824,
      "ears": 2825,
      "tics": 2826,
      "max": 2827,
      "vessel": 2828,
      "vities": 2829,
      "wallow": 2830,
      "appetite": 2831,
      "Because": 2832,
      "26": 2833,
      "35": 2834,
      "Hy": 2835,
      "dic": 2836,
      "lor": 2837,
      "mill": 2838,
      "cord": 2839,
      "raised": 2840,
      "HER": 2841,
      "swallow": 2842,
      "allow": 2843,
      "uring": 2844,
      "ila": 2845,
      "others": 2846,
      "otherwise": 2847,
      "grain": 2848,
      "minim": 2849,
      "against": 2850,
      "drin": 2851,
      "containing": 2852,
      "Ly": 2853,
      "tro": 2854,
      "concent": 2855,
      "sible": 2856,
      "auto": 2857,
      "memory": 2858,
      "hence": 2859,
      "ouse": 2860,
      "cau": 2861,
      "plz": 2862,
      "gives": 2863,
      "mark": 2864,
      "dental": 2865,
      "easily": 2866,
      "temperature": 2867,
      "suspe": 2868,
      "lots": 2869,
      "ocy": 2870,
      "acted": 2871,
      "relation": 2872,
      "urologist": 2873,
      "conception": 2874,
      "SGPT": 2875,
      "intestinal": 2876,
      "hemoglobin": 2877,
      "rologist": 2878,
      "unable": 2879,
      "AST": 2880,
      "shortness": 2881,
      "vaginal": 2882,
      "USG": 2883,
      "sk": 2884,
      "begin": 2885,
      "hoid": 2886,
      "immun": 2887,
      "moder": 2888,
      "ological": 2889,
      "forum": 2890,
      "radiation": 2891,
      "undice": 2892,
      "EE": 2893,
      "six": 2894,
      "plus": 2895,
      "exclude": 2896,
      "stroke": 2897,
      ":-": 2898,
      "GI": 2899,
      "Jay": 2900,
      "habit": 2901,
      "pls": 2902,
      "painkiller": 2903,
      "Ju": 2904,
      "cking": 2905,
      "yo": 2906,
      "ovarian": 2907,
      "bilirubin": 2908,
      "creatinine": 2909,
      "BE": 2910,
      "Till": 2911,
      "gam": 2912,
      "rap": 2913,
      "antis": 2914,
      "mucus": 2915,
      "gotten": 2916,
      "counter": 2917,
      "looked": 2918,
      "psychotherapy": 2919,
      "Nor": 2920,
      "Use": 2921,
      "aundice": 2922,
      "infertility": 2923,
      "return": 2924,
      "consist": 2925,
      "odila": 2926,
      "ulmon": 2927,
      "rible": 2928,
      "ified": 2929,
      "HelloThanks": 2930,
      "stiff": 2931,
      "fied": 2932,
      "persists": 2933,
      "episode": 2934,
      "status": 2935,
      "Fo": 2936,
      "bend": 2937,
      "gent": 2938,
      "pimp": 2939,
      "icken": 2940,
      "center": 2941,
      "increasing": 2942,
      "requires": 2943,
      "vomit": 2944,
      "repeated": 2945,
      "Second": 2946,
      "identify": 2947,
      "ana": 2948,
      "elbow": 2949,
      "tebr": 2950,
      "higher": 2951,
      "paracetamol": 2952,
      "clinic": 2953,
      "brown": 2954,
      "uterus": 2955,
      "placed": 2956,
      "exper": 2957,
      "coll": 2958,
      "changed": 2959,
      "wanted": 2960,
      "mainly": 2961,
      "matter": 2962,
      "cysts": 2963,
      "analgesics": 2964,
      "contraceptive": 2965,
      "cheek": 2966,
      "GP": 2967,
      "cry": 2968,
      "ec": 2969,
      "pes": 2970,
      "sent": 2971,
      "ortion": 2972,
      "fear": 2973,
      "pressed": 2974,
      "nature": 2975,
      "placement": 2976,
      "suddenly": 2977,
      "activities": 2978,
      "Phys": 2979,
      "Am": 2980,
      "Bet": 2981,
      "link": 2982,
      "remed": 2983,
      "forward": 2984,
      "redness": 2985,
      "grand": 2986,
      "bronchodila": 2987,
      "various": 2988,
      "70": 2989,
      "Doc": 2990,
      "ded": 2991,
      "tast": 2992,
      "needle": 2993,
      "seeing": 2994,
      "suggests": 2995,
      "muscular": 2996,
      "write": 2997,
      "append": 2998,
      "garg": 2999,
      "ejaculation": 3000,
      "spasm": 3001,
      "esophageal": 3002,
      "Test": 3003,
      "Ur": 3004,
      "uco": 3005,
      "rese": 3006,
      "belly": 3007,
      "load": 3008,
      "lied": 3009,
      "ressive": 3010,
      "calm": 3011,
      "AY": 3012,
      "Per": 3013,
      "pump": 3014,
      "send": 3015,
      "angi": 3016,
      "tial": 3017,
      "stab": 3018,
      "mood": 3019,
      "biotics": 3020,
      "advisable": 3021,
      "minor": 3022,
      "prazole": 3023,
      "suffered": 3024,
      "primary": 3025,
      "23": 3026,
      "UTI": 3027,
      "ran": 3028,
      "aria": 3029,
      "becomes": 3030,
      "lose": 3031,
      "elu": 3032,
      "groin": 3033,
      "snee": 3034,
      "reach": 3035,
      "degener": 3036,
      "gastritis": 3037,
      "boyfriend": 3038,
      "Pulmon": 3039,
      "itive": 3040,
      "lofen": 3041,
      "sod": 3042,
      "tun": 3043,
      "tox": 3044,
      "shot": 3045,
      "fraid": 3046,
      "cere": 3047,
      "ideas": 3048,
      "blister": 3049,
      "struct": 3050,
      "follicles": 3051,
      "NOT": 3052,
      "Will": 3053,
      "base": 3054,
      "thick": 3055,
      "resolved": 3056,
      "ended": 3057,
      "Start": 3058,
      "bruise": 3059,
      "dysfunction": 3060,
      "SI": 3061,
      "assi": 3062,
      "vertebr": 3063,
      "presence": 3064,
      "arding": 3065,
      "gram": 3066,
      "stra": 3067,
      "???": 3068,
      "gastroenter": 3069,
      "operation": 3070,
      "Dis": 3071,
      "ild": 3072,
      "rabies": 3073,
      "AIN": 3074,
      "gether": 3075,
      "finish": 3076,
      "earlier": 3077,
      "occasion": 3078,
      "afraid": 3079,
      "sorry": 3080,
      "inf": 3081,
      "anced": 3082,
      "feeding": 3083,
      "chill": 3084,
      "ribs": 3085,
      "dog": 3086,
      "amines": 3087,
      "........": 3088,
      "tube": 3089,
      "rashes": 3090,
      "passing": 3091,
      "assium": 3092,
      "ai": 3093,
      "foc": 3094,
      "phen": 3095,
      "together": 3096,
      "edema": 3097,
      "arrhyth": 3098,
      "supplement": 3099,
      "sweat": 3100,
      "behavior": 3101,
      "cycles": 3102,
      "saw": 3103,
      "sided": 3104,
      "copic": 3105,
      "SU": 3106,
      "anes": 3107,
      "recurrent": 3108,
      "alone": 3109,
      "fix": 3110,
      "mature": 3111,
      "tightness": 3112,
      "hrs": 3113,
      "la": 3114,
      "goo": 3115,
      "corti": 3116,
      "leads": 3117,
      "artery": 3118,
      "75": 3119,
      "ned": 3120,
      "ww": 3121,
      "attention": 3122,
      "application": 3123,
      "oph": 3124,
      "antifungal": 3125,
      "carefully": 3126,
      "five": 3127,
      "subside": 3128,
      "lofenac": 3129,
      "house": 3130,
      "hab": 3131,
      "prefer": 3132,
      "prior": 3133,
      "oste": 3134,
      "scalp": 3135,
      "bon": 3136,
      "ezing": 3137,
      "ived": 3138,
      "haven": 3139,
      "amox": 3140,
      "waiting": 3141,
      "ogram": 3142,
      "platelet": 3143,
      "dialysis": 3144,
      "hematoma": 3145,
      "straight": 3146,
      "Car": 3147,
      "letal": 3148,
      "dull": 3149,
      "Regarding": 3150,
      "single": 3151,
      "Surg": 3152,
      "seizure": 3153,
      "internal": 3154,
      "Au": 3155,
      "WI": 3156,
      "ration": 3157,
      "ometri": 3158,
      "stit": 3159,
      "grav": 3160,
      "follows": 3161,
      "kids": 3162,
      "progesterone": 3163,
      "injections": 3164,
      "Chest": 3165,
      "Here": 3166,
      "NE": 3167,
      "Tab": 3168,
      "cage": 3169,
      "eff": 3170,
      "nis": 3171,
      "wall": 3172,
      "oup": 3173,
      "aster": 3174,
      "keletal": 3175,
      "urination": 3176,
      "Under": 3177,
      "implant": 3178,
      "anus": 3179,
      "ries": 3180,
      "cost": 3181,
      "whenever": 3182,
      "gene": 3183,
      "practice": 3184,
      "transplant": 3185,
      "ross": 3186,
      "HO": 3187,
      "IG": 3188,
      "Pre": 3189,
      "basis": 3190,
      "flo": 3191,
      "push": 3192,
      "rain": 3193,
      "sten": 3194,
      "iday": 3195,
      "consulted": 3196,
      "chool": 3197,
      "paren": 3198,
      "CAN": 3199,
      "lately": 3200,
      "watch": 3201,
      "conne": 3202,
      "gluco": 3203,
      "pathy": 3204,
      "disturb": 3205,
      "follicle": 3206,
      "gradually": 3207,
      "permanent": 3208,
      "cortico": 3209,
      "danger": 3210,
      "inhi": 3211,
      "lessness": 3212,
      "evaluate": 3213,
      "appeared": 3214,
      "indicates": 3215,
      "rupt": 3216,
      "Ultrasound": 3217,
      "VER": 3218,
      "jaundice": 3219,
      "ics": 3220,
      "endometri": 3221,
      "asonography": 3222,
      "personal": 3223,
      "immuno": 3224,
      "moment": 3225,
      "gly": 3226,
      "len": 3227,
      "super": 3228,
      "examine": 3229,
      "endoscopy": 3230,
      "thrice": 3231,
      "values": 3232,
      "scro": 3233,
      "potassium": 3234,
      "scratch": 3235,
      "expert": 3236,
      "29": 3237,
      "CBC": 3238,
      "Le": 3239,
      "scre": 3240,
      "sched": 3241,
      "became": 3242,
      "acne": 3243,
      "weigh": 3244,
      "rizine": 3245,
      "Heal": 3246,
      "ateral": 3247,
      "suffici": 3248,
      "Pulmonary": 3249,
      "rand": 3250,
      "school": 3251,
      "molar": 3252,
      "otherapist": 3253,
      "metab": 3254,
      "oriasis": 3255,
      "determine": 3256,
      "brief": 3257,
      "taste": 3258,
      "2nd": 3259,
      "ATI": 3260,
      "wake": 3261,
      "noon": 3262,
      "treatments": 3263,
      "rub": 3264,
      "erection": 3265,
      "joints": 3266,
      "subst": 3267,
      "decreased": 3268,
      "micro": 3269,
      "tempor": 3270,
      "delayed": 3271,
      "psychological": 3272,
      "400": 3273,
      "AK": 3274,
      "coc": 3275,
      "mical": 3276,
      "ny": 3277,
      "enlarge": 3278,
      "tirizine": 3279,
      "stent": 3280,
      "emb": 3281,
      "applied": 3282,
      "broken": 3283,
      "woman": 3284,
      "antihistamine": 3285,
      "HERD": 3286,
      "2p": 3287,
      "Still": 3288,
      "stim": 3289,
      "bring": 3290,
      "boil": 3291,
      "brother": 3292,
      "continued": 3293,
      "trigger": 3294,
      "slowly": 3295,
      "Oral": 3296,
      "dri": 3297,
      "seemed": 3298,
      "described": 3299,
      "exactly": 3300,
      "involve": 3301,
      "smell": 3302,
      "vascular": 3303,
      "Medic": 3304,
      "Ser": 3305,
      "Wh": 3306,
      "bility": 3307,
      "sco": 3308,
      "tear": 3309,
      "leaf": 3310,
      "began": 3311,
      "choice": 3312,
      "constantly": 3313,
      "covered": 3314,
      "guidance": 3315,
      "glucose": 3316,
      "Main": 3317,
      "bones": 3318,
      "jun": 3319,
      "oily": 3320,
      "meal": 3321,
      "quit": 3322,
      "noted": 3323,
      "compres": 3324,
      "nerv": 3325,
      "finding": 3326,
      "Nothing": 3327,
      "products": 3328,
      "complaints": 3329,
      "sweating": 3330,
      "Feel": 3331,
      ".)": 3332,
      "ech": 3333,
      "kne": 3334,
      "zation": 3335,
      "recur": 3336,
      "Recent": 3337,
      "relaxant": 3338,
      "supply": 3339,
      "location": 3340,
      "limb": 3341,
      "moderate": 3342,
      "72": 3343,
      "MS": 3344,
      "NS": 3345,
      "YW": 3346,
      "pound": 3347,
      "inches": 3348,
      "bear": 3349,
      "extra": 3350,
      "ify": 3351,
      "bigger": 3352,
      "studies": 3353,
      "pelvis": 3354,
      "steps": 3355,
      "HAVE": 3356,
      "drinking": 3357,
      "48": 3358,
      "doses": 3359,
      "investigated": 3360,
      "fresh": 3361,
      "rapid": 3362,
      "arrhythmia": 3363,
      "aYW": 3364,
      "ig": 3365,
      "sity": 3366,
      "toe": 3367,
      "heat": 3368,
      "lotion": 3369,
      "entation": 3370,
      "motility": 3371,
      "pow": 3372,
      "sil": 3373,
      "stric": 3374,
      "ovary": 3375,
      "keeps": 3376,
      "sperms": 3377,
      "electrolytes": 3378,
      "immunity": 3379,
      "metabol": 3380,
      "2pR": 3381,
      "nervous": 3382,
      "aYW2pR": 3383,
      "Due": 3384,
      "MP": 3385,
      "SP": 3386,
      "lax": 3387,
      "excess": 3388,
      "pose": 3389,
      "train": 3390,
      "facing": 3391,
      "About": 3392,
      "powder": 3393,
      "Cy": 3394,
      "LI": 3395,
      "rd": 3396,
      "vari": 3397,
      "ontal": 3398,
      "lets": 3399,
      "heard": 3400,
      "ices": 3401,
      "utum": 3402,
      "duct": 3403,
      "gia": 3404,
      "facts": 3405,
      "stuff": 3406,
      "pulse": 3407,
      "yeast": 3408,
      "gastric": 3409,
      "Physi": 3410,
      "vaccine": 3411,
      "pitations": 3412,
      "inhibi": 3413,
      "nar": 3414,
      "oly": 3415,
      "tre": 3416,
      "vention": 3417,
      "rowing": 3418,
      "showing": 3419,
      "friends": 3420,
      "approx": 3421,
      "culos": 3422,
      "contains": 3423,
      "performing": 3424,
      "intense": 3425,
      "relieved": 3426,
      "dosage": 3427,
      "dad": 3428,
      "vity": 3429,
      "havent": 3430,
      "sputum": 3431,
      "icial": 3432,
      "smoker": 3433,
      "continuous": 3434,
      "Fun": 3435,
      "Gast": 3436,
      "bic": 3437,
      "ix": 3438,
      "onary": 3439,
      "idence": 3440,
      "idazole": 3441,
      "pred": 3442,
      "class": 3443,
      "posture": 3444,
      "migrain": 3445,
      "150": 3446,
      "pattern": 3447,
      "saliv": 3448,
      "providing": 3449,
      "detected": 3450,
      "nutrition": 3451,
      "CE": 3452,
      "Qu": 3453,
      "ible": 3454,
      "heral": 3455,
      "overweight": 3456,
      "saying": 3457,
      "matitis": 3458,
      "breathe": 3459,
      "sessions": 3460,
      "strengthening": 3461,
      "chills": 3462,
      "culoskeletal": 3463,
      "1st": 3464,
      "Had": 3465,
      "expect": 3466,
      "fee": 3467,
      "ably": 3468,
      "moving": 3469,
      "Therefore": 3470,
      "investigate": 3471,
      "respond": 3472,
      "inhaler": 3473,
      ".*": 3474,
      "CV": 3475,
      "L5": 3476,
      "ause": 3477,
      "nur": 3478,
      "secre": 3479,
      "dil": 3480,
      "uncomfortable": 3481,
      "pop": 3482,
      "cyto": 3483,
      "contacting": 3484,
      "everyday": 3485,
      "mix": 3486,
      "nearby": 3487,
      "testic": 3488,
      "lipid": 3489,
      "Care": 3490,
      "Many": 3491,
      "bp": 3492,
      "release": 3493,
      "achy": 3494,
      "soap": 3495,
      "eptic": 3496,
      "describe": 3497,
      "massage": 3498,
      "random": 3499,
      "leafy": 3500,
      "Clin": 3501,
      "aggrav": 3502,
      "hole": 3503,
      "solute": 3504,
      "fiber": 3505,
      "cleaning": 3506,
      "spotting": 3507,
      "URL": 3508,
      "aspiration": 3509,
      "stenosis": 3510,
      "CA": 3511,
      "SH": 3512,
      "iam": 3513,
      "law": 3514,
      "thus": 3515,
      "rection": 3516,
      "congestion": 3517,
      "fores": 3518,
      "survi": 3519,
      "valve": 3520,
      "2011": 3521,
      "complex": 3522,
      "reducing": 3523,
      "discussing": 3524,
      "complaint": 3525,
      "decid": 3526,
      "benefit": 3527,
      "autoimmune": 3528,
      "Every": 3529,
      "Post": 3530,
      "pad": 3531,
      "vein": 3532,
      "chemical": 3533,
      "musculoskeletal": 3534,
      "fig": 3535,
      "fibr": 3536,
      "guess": 3537,
      "Only": 3538,
      "According": 3539,
      "energy": 3540,
      "Paracetamol": 3541,
      "opathy": 3542,
      "expected": 3543,
      "born": 3544,
      "knees": 3545,
      "Recently": 3546,
      "foreskin": 3547,
      "BS": 3548,
      "During": 3549,
      "lox": 3550,
      "ulitis": 3551,
      "performed": 3552,
      "herni": 3553,
      "afternoon": 3554,
      "infectious": 3555,
      "careful": 3556,
      "ALT": 3557,
      "ChatDoctorI": 3558,
      "beats": 3559,
      "playing": 3560,
      "2d": 3561,
      "CON": 3562,
      "Jan": 3563,
      "Psy": 3564,
      "Sp": 3565,
      "Spe": 3566,
      "bace": 3567,
      "las": 3568,
      "erup": 3569,
      "tomor": 3570,
      "prolong": 3571,
      "spon": 3572,
      "epile": 3573,
      "healed": 3574,
      "speed": 3575,
      "counts": 3576,
      "neurological": 3577,
      "vidual": 3578,
      "palpitations": 3579,
      "remains": 3580,
      "Furthermore": 3581,
      "replacement": 3582,
      "aries": 3583,
      "fortun": 3584,
      "lips": 3585,
      "pep": 3586,
      "prob": 3587,
      "exten": 3588,
      "ril": 3589,
      "cavity": 3590,
      "depress": 3591,
      "inflamed": 3592,
      "pancreat": 3593,
      "planning": 3594,
      "juice": 3595,
      "origin": 3596,
      "gastroesophageal": 3597,
      "baceous": 3598,
      "tomorrow": 3599,
      "Gener": 3600,
      "UL": 3601,
      "bother": 3602,
      "cit": 3603,
      "alter": 3604,
      "extent": 3605,
      "surance": 3606,
      "children": 3607,
      "entire": 3608,
      "discussion": 3609,
      "vitamins": 3610,
      "growing": 3611,
      "blocked": 3612,
      "Need": 3613,
      "degenerative": 3614,
      "DI": 3615,
      "SE": 3616,
      "bum": 3617,
      "cat": 3618,
      "cof": 3619,
      "lac": 3620,
      "list": 3621,
      "recurren": 3622,
      "unlikely": 3623,
      "dermatitis": 3624,
      "meditation": 3625,
      "tical": 3626,
      "antacid": 3627,
      "office": 3628,
      "losing": 3629,
      "improving": 3630,
      "pillow": 3631,
      "turned": 3632,
      "dangerous": 3633,
      "enlargement": 3634,
      "Give": 3635,
      "RES": 3636,
      "pink": 3637,
      "tissues": 3638,
      "assu": 3639,
      "lear": 3640,
      "love": 3641,
      "ribut": 3642,
      "true": 3643,
      "sulin": 3644,
      "cystic": 3645,
      "flat": 3646,
      "marrow": 3647,
      "relaxed": 3648,
      "bruising": 3649,
      "types": 3650,
      "confused": 3651,
      "vessels": 3652,
      "ky": 3653,
      "mer": 3654,
      "vo": 3655,
      "aly": 3656,
      "esday": 3657,
      "arily": 3658,
      "ligam": 3659,
      "urved": 3660,
      "meat": 3661,
      "hosis": 3662,
      "progress": 3663,
      "involved": 3664,
      "antihistamines": 3665,
      "habits": 3666,
      "FE": 3667,
      "MD": 3668,
      "ming": 3669,
      "sam": 3670,
      "acy": 3671,
      "ula": 3672,
      "perfect": 3673,
      "anymore": 3674,
      "folic": 3675,
      "checking": 3676,
      "calcul": 3677,
      "ization": 3678,
      "psoriasis": 3679,
      "breathlessness": 3680,
      "----": 3681,
      "complaining": 3682,
      "psychologist": 3683,
      "individual": 3684,
      "antiseptic": 3685,
      "Maintain": 3686,
      "Ano": 3687,
      "MI": 3688,
      "cup": 3689,
      "pict": 3690,
      "toler": 3691,
      "tid": 3692,
      "absolute": 3693,
      "cep": 3694,
      "seek": 3695,
      "Read": 3696,
      "injured": 3697,
      "tivitamin": 3698,
      "resting": 3699,
      "oxid": 3700,
      "travel": 3701,
      "sneezing": 3702,
      "Met": 3703,
      "NAC": 3704,
      "Urologist": 3705,
      "aving": 3706,
      "xy": 3707,
      "leave": 3708,
      "veins": 3709,
      "note": 3710,
      "group": 3711,
      "parts": 3712,
      "keeping": 3713,
      "clarification": 3714,
      "physiotherapist": 3715,
      "bronchodilators": 3716,
      "Function": 3717,
      "Both": 3718,
      "RA": 3719,
      "cks": 3720,
      "wat": 3721,
      "org": 3722,
      "selling": 3723,
      "AID": 3724,
      "perip": 3725,
      "throughout": 3726,
      "mins": 3727,
      "talking": 3728,
      "acidity": 3729,
      "suppor": 3730,
      "profess": 3731,
      "beginning": 3732,
      "Physician": 3733,
      "scrotum": 3734,
      "Would": 3735,
      "stain": 3736,
      "ceed": 3737,
      "coronary": 3738,
      "irrhosis": 3739,
      "typhoid": 3740,
      "appreciated": 3741,
      "ulcers": 3742,
      "earliest": 3743,
      "pulled": 3744,
      "sque": 3745,
      "yoga": 3746,
      "Another": 3747,
      "fusion": 3748,
      "mas": 3749,
      "asone": 3750,
      "weird": 3751,
      "peel": 3752,
      "unt": 3753,
      "therefore": 3754,
      "prac": 3755,
      "patch": 3756,
      "creams": 3757,
      "hormones": 3758,
      "300": 3759,
      "amy": 3760,
      "fair": 3761,
      "insurance": 3762,
      "admitted": 3763,
      "sometime": 3764,
      "pler": 3765,
      "poster": 3766,
      "ronidazole": 3767,
      "broke": 3768,
      "umato": 3769,
      "strength": 3770,
      "filled": 3771,
      "3rd": 3772,
      "forget": 3773,
      "sequ": 3774,
      "acin": 3775,
      "kept": 3776,
      "webs": 3777,
      "anyone": 3778,
      "upset": 3779,
      "works": 3780,
      "bloating": 3781,
      "morr": 3782,
      "aware": 3783,
      "clots": 3784,
      "flex": 3785,
      "Follow": 3786,
      "Urine": 3787,
      "Tu": 3788,
      "cting": 3789,
      "ie": 3790,
      "rise": 3791,
      "sple": 3792,
      "armp": 3793,
      "lls": 3794,
      "abortion": 3795,
      "antime": 3796,
      "value": 3797,
      "abnormality": 3798,
      "measure": 3799,
      "decide": 3800,
      "decided": 3801,
      "31": 3802,
      "99": 3803,
      "FNAC": 3804,
      "UN": 3805,
      "cod": 3806,
      "gic": 3807,
      "lact": 3808,
      "reve": 3809,
      "heumato": 3810,
      "aph": 3811,
      "apart": 3812,
      "managed": 3813,
      "THER": 3814,
      "putting": 3815,
      "ALL": 3816,
      "soreness": 3817,
      "hyperten": 3818,
      "immediate": 3819,
      "bulge": 3820,
      "tiny": 3821,
      "limited": 3822,
      "coffee": 3823,
      "Vis": 3824,
      "py": 3825,
      "soc": 3826,
      "wants": 3827,
      "intra": 3828,
      "tili": 3829,
      "moist": 3830,
      "worst": 3831,
      "resist": 3832,
      "avoiding": 3833,
      "drain": 3834,
      "patches": 3835,
      "sounds": 3836,
      "Liver": 3837,
      "referred": 3838,
      "Monday": 3839,
      "peripheral": 3840,
      "Pan": 3841,
      "fain": 3842,
      "ogen": 3843,
      "sour": 3844,
      "undergone": 3845,
      "cies": 3846,
      "confirmation": 3847,
      "temporary": 3848,
      "recurrence": 3849,
      "spleen": 3850,
      "33": 3851,
      "Dia": 3852,
      "IU": 3853,
      "OK": 3854,
      "Ty": 3855,
      "fal": 3856,
      "hu": 3857,
      "kast": 3858,
      "mand": 3859,
      "ocar": 3860,
      "estro": 3861,
      "essential": 3862,
      "counselling": 3863,
      "Contin": 3864,
      "nip": 3865,
      "accum": 3866,
      "produce": 3867,
      "platelets": 3868,
      "YOUR": 3869,
      "initial": 3870,
      "ocket": 3871,
      "amoxicillin": 3872,
      "sufficient": 3873,
      "AG": 3874,
      "HP": 3875,
      "PD": 3876,
      "WBC": 3877,
      "bac": 3878,
      "insulin": 3879,
      "andid": 3880,
      "assure": 3881,
      "leu": 3882,
      "icitis": 3883,
      "suit": 3884,
      "achi": 3885,
      "High": 3886,
      "herpes": 3887,
      "highly": 3888,
      "fertile": 3889,
      "interest": 3890,
      "assistance": 3891,
      "approach": 3892,
      "pigment": 3893,
      "remedy": 3894,
      "genetic": 3895,
      "parents": 3896,
      "KG": 3897,
      "Kid": 3898,
      "Pos": 3899,
      "ked": 3900,
      "uous": 3901,
      "inch": 3902,
      "third": 3903,
      "aline": 3904,
      "request": 3905,
      "......": 3906,
      "calf": 3907,
      "Although": 3908,
      "strict": 3909,
      "crack": 3910,
      "miscar": 3911,
      "wheezing": 3912,
      "radiating": 3913,
      "character": 3914,
      "multivitamin": 3915,
      "elukast": 3916,
      "focus": 3917,
      "Physiotherapy": 3918,
      "organs": 3919,
      "website": 3920,
      "Ibuprofen": 3921,
      "cirrhosis": 3922,
      "fish": 3923,
      "gus": 3924,
      "beta": 3925,
      "space": 3926,
      "chew": 3927,
      "formin": 3928,
      "anxious": 3929,
      "frequency": 3930,
      "opening": 3931,
      "gastroenterologist": 3932,
      "Dop": 3933,
      "Hence": 3934,
      "Was": 3935,
      "bending": 3936,
      "gor": 3937,
      "ule": 3938,
      "onset": 3939,
      "ises": 3940,
      "condu": 3941,
      "prepar": 3942,
      "imum": 3943,
      "Wishes": 3944,
      "2010": 3945,
      "prone": 3946,
      "ovaries": 3947,
      "tubes": 3948,
      "seconds": 3949,
      "Stress": 3950,
      "circum": 3951,
      "oxygen": 3952,
      "probable": 3953,
      "Doppler": 3954,
      ".(": 3955,
      "toes": 3956,
      "ata": 3957,
      "consci": 3958,
      "lift": 3959,
      "arent": 3960,
      "urs": 3961,
      "thats": 3962,
      "helping": 3963,
      "advance": 3964,
      "persistent": 3965,
      "bathroom": 3966,
      "stiffness": 3967,
      "pounds": 3968,
      "32": 3969,
      "Why": 3970,
      "bus": 3971,
      "har": 3972,
      "iving": 3973,
      "inse": 3974,
      "isn": 3975,
      "tip": 3976,
      "hemorr": 3977,
      "adjust": 3978,
      "qui": 3979,
      "Along": 3980,
      "2012": 3981,
      "repair": 3982,
      "thinks": 3983,
      "tenderness": 3984,
      "colonoscopy": 3985,
      "crown": 3986,
      "Understanding": 3987,
      "nice": 3988,
      "susp": 3989,
      "accur": 3990,
      "role": 3991,
      "aden": 3992,
      "meantime": 3993,
      "ulated": 3994,
      "ureter": 3995,
      "atively": 3996,
      "supposed": 3997,
      "metast": 3998,
      "build": 3999,
      "pie": 4000,
      "abnormalities": 4001,
      "thesia": 4002,
      "WITH": 4003,
      "34": 4004,
      "BUT": 4005,
      "Col": 4006,
      "emotion": 4007,
      "hin": 4008,
      "han": 4009,
      "tigo": 4010,
      "sebaceous": 4011,
      "adine": 4012,
      "degree": 4013,
      "tru": 4014,
      "sexually": 4015,
      "ultrasonography": 4016,
      "includes": 4017,
      "depth": 4018,
      "continues": 4019,
      "blockage": 4020,
      "IVF": 4021,
      "basic": 4022,
      "120": 4023,
      "Lu": 4024,
      "More": 4025,
      "PS": 4026,
      "dinner": 4027,
      "ream": 4028,
      "tot": 4029,
      "ors": 4030,
      "nosis": 4031,
      "conazole": 4032,
      "deli": 4033,
      "visible": 4034,
      "cleared": 4035,
      "lasted": 4036,
      "worrying": 4037,
      "nights": 4038,
      "ification": 4039,
      "phase": 4040,
      "contraception": 4041,
      "initially": 4042,
      "posterior": 4043,
      "hypertensive": 4044,
      "Kidney": 4045,
      "37": 4046,
      "HT": 4047,
      "MG": 4048,
      "Mo": 4049,
      "Over": 4050,
      "Pres": 4051,
      "cort": 4052,
      "evid": 4053,
      "fom": 4054,
      "tia": 4055,
      "stair": 4056,
      "chicken": 4057,
      "tail": 4058,
      "hood": 4059,
      "India": 4060,
      "throm": 4061,
      "bling": 4062,
      "bodies": 4063,
      "EST": 4064,
      "thyroidism": 4065,
      "inhalation": 4066,
      "systemic": 4067,
      "shape": 4068,
      "Otherwise": 4069,
      "thoroughly": 4070,
      "42": 4071,
      "Ben": 4072,
      "Right": 4073,
      "rhyth": 4074,
      "alin": 4075,
      "accom": 4076,
      "preg": 4077,
      "Doctors": 4078,
      "ples": 4079,
      "counsel": 4080,
      "marriage": 4081,
      "resulting": 4082,
      "smear": 4083,
      "uterine": 4084,
      "collection": 4085,
      "bilateral": 4086,
      "pimple": 4087,
      "compresses": 4088,
      "profession": 4089,
      "36": 4090,
      "38": 4091,
      "55": 4092,
      "Bi": 4093,
      "CR": 4094,
      "Ce": 4095,
      "Che": 4096,
      "IF": 4097,
      "Low": 4098,
      "Med": 4099,
      "PAIN": 4100,
      "cous": 4101,
      "lum": 4102,
      "port": 4103,
      "yroid": 4104,
      "aces": 4105,
      "uric": 4106,
      "pee": 4107,
      "poten": 4108,
      "sprain": 4109,
      "cise": 4110,
      "pril": 4111,
      "pancre": 4112,
      "neuropathy": 4113,
      "strenuous": 4114,
      "photo": 4115,
      "cautions": 4116,
      "PRO": 4117,
      "ape": 4118,
      "ib": 4119,
      "mad": 4120,
      "pick": 4121,
      "tis": 4122,
      "ische": 4123,
      "asy": 4124,
      "mentation": 4125,
      "ophen": 4126,
      "stopping": 4127,
      "weights": 4128,
      "obvious": 4129,
      "gling": 4130,
      "okay": 4131,
      "absor": 4132,
      "added": 4133,
      "labor": 4134,
      "finally": 4135,
      "easy": 4136,
      "Antibiotics": 4137,
      "Adv": 4138,
      "stretching": 4139,
      "Infectious": 4140,
      "diclofenac": 4141,
      "corticosteroid": 4142,
      "Gastro": 4143,
      "Mal": 4144,
      "aver": 4145,
      "gust": 4146,
      "lat": 4147,
      "pm": 4148,
      "sep": 4149,
      "neur": 4150,
      "neph": 4151,
      "proton": 4152,
      "shin": 4153,
      "shif": 4154,
      "depressed": 4155,
      "specially": 4156,
      "improved": 4157,
      "micros": 4158,
      "gargles": 4159,
      "finished": 4160,
      "prolonged": 4161,
      "speedy": 4162,
      "armpit": 4163,
      "%.": 4164,
      "CP": 4165,
      "GG": 4166,
      "II": 4167,
      "aer": 4168,
      "ying": 4169,
      "ths": 4170,
      "rele": 4171,
      "alk": 4172,
      "congest": 4173,
      "ligh": 4174,
      "arely": 4175,
      "imen": 4176,
      "spir": 4177,
      "clusion": 4178,
      "ilet": 4179,
      "stressed": 4180,
      "smaller": 4181,
      "000": 4182,
      "Such": 4183,
      "research": 4184,
      "involvement": 4185,
      "Continue": 4186,
      "Sun": 4187,
      "Yesterday": 4188,
      "mess": 4189,
      "oo": 4190,
      "xray": 4191,
      "thumb": 4192,
      "itary": 4193,
      "eter": 4194,
      "precautions": 4195,
      "whats": 4196,
      "couldnt": 4197,
      "hile": 4198,
      "aminophen": 4199,
      "lasts": 4200,
      "viron": 4201,
      "obese": 4202,
      "cardia": 4203,
      "hardly": 4204,
      "panied": 4205,
      "Anyway": 4206,
      "esophagus": 4207,
      "methods": 4208,
      "alternative": 4209,
      "empty": 4210,
      "malignant": 4211,
      "suspect": 4212,
      "Better": 4213,
      "Which": 4214,
      "NSAID": 4215,
      "cytology": 4216,
      "picture": 4217,
      "reveal": 4218,
      "ian": 4219,
      "inser": 4220,
      "ison": 4221,
      "stere": 4222,
      "lobe": 4223,
      "urday": 4224,
      "adol": 4225,
      "mechan": 4226,
      "poo": 4227,
      "solid": 4228,
      "ONE": 4229,
      "mouthwash": 4230,
      "mission": 4231,
      "phic": 4232,
      "progressive": 4233,
      "pato": 4234,
      "quality": 4235,
      "received": 4236,
      "spondy": 4237,
      "fortunately": 4238,
      "totally": 4239,
      "Vitamin": 4240,
      "dge": 4241,
      "eld": 4242,
      "inform": 4243,
      "season": 4244,
      "member": 4245,
      "percent": 4246,
      "mont": 4247,
      "venous": 4248,
      "140": 4249,
      "lymphoma": 4250,
      "Before": 4251,
      "lipoma": 4252,
      "vaccin": 4253,
      "fomentation": 4254,
      "pancreas": 4255,
      "Two": 4256,
      "gap": 4257,
      "nu": 4258,
      "scopy": 4259,
      "becoming": 4260,
      "strep": 4261,
      "terrible": 4262,
      "agg": 4263,
      "menses": 4264,
      "Ask": 4265,
      "izing": 4266,
      "functioning": 4267,
      "broad": 4268,
      "developing": 4269,
      "ASE": 4270,
      "indicated": 4271,
      "decay": 4272,
      "Infection": 4273,
      "suspected": 4274,
      "floor": 4275,
      "Taking": 4276,
      "sle": 4277,
      "restric": 4278,
      "algia": 4279,
      "lean": 4280,
      "prox": 4281,
      "premature": 4282,
      "painless": 4283,
      "Hepat": 4284,
      "HiT": 4285,
      "actual": 4286,
      "HIV": 4287,
      "fasting": 4288,
      "satisfied": 4289,
      "drugs": 4290,
      "crying": 4291,
      "bony": 4292,
      "Surgical": 4293,
      "figure": 4294,
      "supportive": 4295,
      "conscious": 4296,
      "accompanied": 4297,
      "GU": 4298,
      "Pr": 4299,
      "cid": 4300,
      "ctr": 4301,
      "dl": 4302,
      "fight": 4303,
      "iod": 4304,
      "uary": 4305,
      "reactive": 4306,
      "environ": 4307,
      "across": 4308,
      "therapist": 4309,
      "neural": 4310,
      "prolap": 4311,
      "cope": 4312,
      "tea": 4313,
      "logram": 4314,
      "strange": 4315,
      "telling": 4316,
      "azy": 4317,
      "metronidazole": 4318,
      "responsible": 4319,
      "prognosis": 4320,
      "psychiatric": 4321,
      "ICS": 4322,
      "cinoma": 4323,
      "operated": 4324,
      "girlfriend": 4325,
      "TSH": 4326,
      "stretch": 4327,
      "brushing": 4328,
      "allergens": 4329,
      "prednis": 4330,
      "stairs": 4331,
      "6th": 4332,
      "AF": 4333,
      "Did": 4334,
      "While": 4335,
      "ahead": 4336,
      "toilet": 4337,
      "urally": 4338,
      "urgent": 4339,
      "backache": 4340,
      "aching": 4341,
      "miner": 4342,
      "2013": 4343,
      "protection": 4344,
      "relaxation": 4345,
      "damaged": 4346,
      "Aller": 4347,
      "shoo": 4348,
      "shown": 4349,
      "Friday": 4350,
      "wearing": 4351,
      "glands": 4352,
      "omycin": 4353,
      "maximum": 4354,
      "Special": 4355,
      "52": 4356,
      "65": 4357,
      "Ar": 4358,
      "Cal": 4359,
      "D3": 4360,
      "EKG": 4361,
      "ION": 4362,
      "OL": 4363,
      "Up": 4364,
      "WH": 4365,
      "knot": 4366,
      "rough": 4367,
      "died": 4368,
      "moved": 4369,
      "button": 4370,
      "colo": 4371,
      "cool": 4372,
      "imaging": 4373,
      "fertili": 4374,
      "obser": 4375,
      "ograph": 4376,
      "complication": 4377,
      "July": 4378,
      "vertebral": 4379,
      "ATION": 4380,
      "delivery": 4381,
      "ator": 4382,
      "ease": 4383,
      "albut": 4384,
      "chin": 4385,
      "abl": 4386,
      "somewhat": 4387,
      "worked": 4388,
      "hourly": 4389,
      "difference": 4390,
      "bronchi": 4391,
      "considering": 4392,
      "nearly": 4393,
      "kgs": 4394,
      "confidence": 4395,
      "plasma": 4396,
      "eggs": 4397,
      "particularly": 4398,
      "fibrosis": 4399,
      "induced": 4400,
      "malignancy": 4401,
      "minimal": 4402,
      "miscarriage": 4403,
      "sterectomy": 4404,
      "Gre": 4405,
      "Has": 4406,
      "PP": 4407,
      "Vir": 4408,
      "XX": 4409,
      "candid": 4410,
      "oking": 4411,
      "por": 4412,
      "umatic": 4413,
      "chlor": 4414,
      "nel": 4415,
      "unch": 4416,
      "dead": 4417,
      "bles": 4418,
      "osin": 4419,
      "extracted": 4420,
      "spasms": 4421,
      "filling": 4422,
      "successful": 4423,
      "toxic": 4424,
      "Hepatitis": 4425,
      "%,": 4426,
      "ARE": 4427,
      "April": 4428,
      "OC": 4429,
      "bar": 4430,
      "hank": 4431,
      "land": 4432,
      "nail": 4433,
      "vac": 4434,
      "ons": 4435,
      "exist": 4436,
      "lie": 4437,
      "urg": 4438,
      "ational": 4439,
      "sores": 4440,
      "uses": 4441,
      "asty": 4442,
      "carry": 4443,
      "Regular": 4444,
      "clinically": 4445,
      "functions": 4446,
      "planned": 4447,
      "ankles": 4448,
      "bruised": 4449,
      "Chronic": 4450,
      "located": 4451,
      "eventually": 4452,
      "Sympto": 4453,
      "nurse": 4454,
      "achycardia": 4455,
      "ligament": 4456,
      "44": 4457,
      "DAY": 4458,
      "GO": 4459,
      "HB": 4460,
      "bout": 4461,
      "fried": 4462,
      "faster": 4463,
      "conserv": 4464,
      "aphy": 4465,
      "worm": 4466,
      "knowled": 4467,
      "Soon": 4468,
      "diagnostic": 4469,
      "Anxi": 4470,
      "obes": 4471,
      "applying": 4472,
      "stuck": 4473,
      "horrible": 4474,
      "production": 4475,
      "HEL": 4476,
      "quickly": 4477,
      "session": 4478,
      "occasionally": 4479,
      "anesthesia": 4480,
      "rhythm": 4481,
      "HD": 4482,
      "L4": 4483,
      "LC": 4484,
      "MON": 4485,
      "Sat": 4486,
      "TM": 4487,
      "Tr": 4488,
      "ah": 4489,
      "mri": 4490,
      "wet": 4491,
      "tho": 4492,
      "threat": 4493,
      "erol": 4494,
      "atures": 4495,
      "ened": 4496,
      "conv": 4497,
      "chy": 4498,
      "Though": 4499,
      "trum": 4500,
      "plete": 4501,
      "cler": 4502,
      "thromycin": 4503,
      "affecting": 4504,
      "balanced": 4505,
      "steam": 4506,
      "spreading": 4507,
      "thighs": 4508,
      "appendicitis": 4509,
      "stabbing": 4510,
      "emotional": 4511,
      "Cer": 4512,
      "Dep": 4513,
      "Fever": 4514,
      "Sep": 4515,
      "ier": 4516,
      "intr": 4517,
      "rex": 4518,
      "tips": 4519,
      "whate": 4520,
      "agon": 4521,
      "unct": 4522,
      "visual": 4523,
      "ression": 4524,
      "forehead": 4525,
      "subsided": 4526,
      "OULD": 4527,
      "tonsil": 4528,
      "falling": 4529,
      "aneous": 4530,
      "rarely": 4531,
      "PCR": 4532,
      "alternate": 4533,
      "tremor": 4534,
      "migraine": 4535,
      "Possi": 4536,
      "knowledge": 4537,
      "Anxiety": 4538,
      "obesity": 4539,
      "God": 4540,
      "Masturb": 4541,
      "SS": 4542,
      "ae": 4543,
      "final": 4544,
      "hung": 4545,
      "pap": 4546,
      "hepato": 4547,
      "omet": 4548,
      "living": 4549,
      "quanti": 4550,
      "utter": 4551,
      "cember": 4552,
      "ticaria": 4553,
      "obstru": 4554,
      "larger": 4555,
      "????": 4556,
      "throb": 4557,
      "electr": 4558,
      "alcoholic": 4559,
      "OUT": 4560,
      "Normal": 4561,
      "substance": 4562,
      "pigmentation": 4563,
      "whatever": 4564,
      "54": 4565,
      "Cl": 4566,
      "mater": 4567,
      "vary": 4568,
      "resol": 4569,
      "toprazole": 4570,
      "atin": 4571,
      "etine": 4572,
      "motions": 4573,
      "unusual": 4574,
      "poison": 4575,
      "mption": 4576,
      "pressive": 4577,
      "urea": 4578,
      "atives": 4579,
      "surround": 4580,
      "facial": 4581,
      "occurred": 4582,
      "affects": 4583,
      "contrast": 4584,
      "naturally": 4585,
      "thorax": 4586,
      "puss": 4587,
      "See": 4588,
      "limbs": 4589,
      "Diagno": 4590,
      "switch": 4591,
      "NOW": 4592,
      "Lymp": 4593,
      "trophic": 4594,
      "concentration": 4595,
      "www": 4596,
      "Serum": 4597,
      "laser": 4598,
      "sample": 4599,
      "lactin": 4600,
      "conduction": 4601,
      "accurate": 4602,
      "DE": 4603,
      "PL": 4604,
      "S1": 4605,
      "culation": 4606,
      "none": 4607,
      "pic": 4608,
      "spl": 4609,
      "tachycardia": 4610,
      "thetic": 4611,
      "sting": 4612,
      "exc": 4613,
      "die": 4614,
      "discovered": 4615,
      "world": 4616,
      "infective": 4617,
      "mail": 4618,
      "blue": 4619,
      "avoided": 4620,
      "INE": 4621,
      "bitten": 4622,
      "injuries": 4623,
      "tummy": 4624,
      "mitt": 4625,
      "situations": 4626,
      "shots": 4627,
      "aneously": 4628,
      "lapar": 4629,
      "collar": 4630,
      "sodium": 4631,
      "Health": 4632,
      "junk": 4633,
      "absolutely": 4634,
      "social": 4635,
      "huge": 4636,
      "ursday": 4637,
      "ectomy": 4638,
      "sl": 4639,
      "ond": 4640,
      "online": 4641,
      "tored": 4642,
      "asleep": 4643,
      "hav": 4644,
      "nod": 4645,
      "ume": 4646,
      "vertigo": 4647,
      "aded": 4648,
      "anywhere": 4649,
      "minal": 4650,
      "partial": 4651,
      "drome": 4652,
      "gargling": 4653,
      "continuously": 4654,
      "spectrum": 4655,
      "sharing": 4656,
      "gastrointestinal": 4657,
      "shower": 4658,
      "varic": 4659,
      "arteries": 4660,
      "COPD": 4661,
      "aspirin": 4662,
      "Hyper": 4663,
      "EEG": 4664,
      "blisters": 4665,
      "bearable": 4666,
      "evidence": 4667,
      "DS": 4668,
      "MR": 4669,
      "TAK": 4670,
      "nam": 4671,
      "anter": 4672,
      "offer": 4673,
      "lemon": 4674,
      "idal": 4675,
      "exposed": 4676,
      "nea": 4677,
      "pea": 4678,
      "death": 4679,
      "decision": 4680,
      "trust": 4681,
      "hologram": 4682,
      "cycl": 4683,
      "surface": 4684,
      "overcome": 4685,
      "sons": 4686,
      "completed": 4687,
      "reduction": 4688,
      "wont": 4689,
      "breasts": 4690,
      "lateral": 4691,
      "palp": 4692,
      "masturbate": 4693,
      "explained": 4694,
      "STD": 4695,
      "ejaculate": 4696,
      "besides": 4697,
      "qualified": 4698,
      "swallowing": 4699,
      "pimples": 4700,
      "Masturbation": 4701,
      "Co": 4702,
      "Gy": 4703,
      "OP": 4704,
      "VT": 4705,
      "aqu": 4706,
      "nit": 4707,
      "acity": 4708,
      "kemia": 4709,
      "ules": 4710,
      "upus": 4711,
      "Help": 4712,
      "shoulders": 4713,
      "hydr": 4714,
      "headed": 4715,
      "bless": 4716,
      "sense": 4717,
      "paste": 4718,
      "badly": 4719,
      "proteins": 4720,
      "visited": 4721,
      "urinate": 4722,
      "Cancer": 4723,
      "HIT": 4724,
      "tiredness": 4725,
      "sinusitis": 4726,
      "detect": 4727,
      "satisfac": 4728,
      "basically": 4729,
      "ocytes": 4730,
      "skull": 4731,
      "gargle": 4732,
      "Ap": 4733,
      "Bron": 4734,
      "Gen": 4735,
      "MO": 4736,
      "WE": 4737,
      "eli": 4738,
      "pas": 4739,
      "war": 4740,
      "zole": 4741,
      "enol": 4742,
      "ets": 4743,
      "ulating": 4744,
      "power": 4745,
      "butto": 4746,
      "teen": 4747,
      "worries": 4748,
      "spray": 4749,
      "epid": 4750,
      "muco": 4751,
      "surgeries": 4752,
      "functional": 4753,
      "azep": 4754,
      "tends": 4755,
      "necessarily": 4756,
      "ternal": 4757,
      "!!!": 4758,
      "typical": 4759,
      "hepatic": 4760,
      "rinses": 4761,
      "laying": 4762,
      "preferably": 4763,
      "igno": 4764,
      "olytic": 4765,
      "General": 4766,
      "squee": 4767,
      "prolapse": 4768,
      "Ok": 4769,
      "Rest": 4770,
      "TEN": 4771,
      "pace": 4772,
      "swi": 4773,
      "throw": 4774,
      "nodu": 4775,
      "pox": 4776,
      "pleur": 4777,
      "couldn": 4778,
      "101": 4779,
      "mentia": 4780,
      "periodontal": 4781,
      "curable": 4782,
      "exertion": 4783,
      "posted": 4784,
      "crazy": 4785,
      "continuing": 4786,
      "sugars": 4787,
      "tonight": 4788,
      "grown": 4789,
      "omyalgia": 4790,
      "reviewed": 4791,
      "sacral": 4792,
      "calculus": 4793,
      "counseling": 4794,
      "montelukast": 4795,
      "AA": 4796,
      "Bes": 4797,
      "Flu": 4798,
      "lad": 4799,
      "rush": 4800,
      "rheumato": 4801,
      "yy": 4802,
      "outer": 4803,
      "iction": 4804,
      "acts": 4805,
      "excision": 4806,
      "aine": 4807,
      "methy": 4808,
      "ups": 4809,
      "upload": 4810,
      "weekend": 4811,
      "babies": 4812,
      "cancerous": 4813,
      "dietary": 4814,
      "radiograph": 4815,
      "transmitted": 4816,
      "intestine": 4817,
      "menstruation": 4818,
      "scientif": 4819,
      "worsening": 4820,
      "concentrate": 4821,
      "structure": 4822,
      "sweats": 4823,
      "osteop": 4824,
      "rupture": 4825,
      "screen": 4826,
      "loxacin": 4827,
      "nipple": 4828,
      "nodule": 4829,
      "LFT": 4830,
      "PSA": 4831,
      "UM": 4832,
      "pay": 4833,
      "infer": 4834,
      "alo": 4835,
      "lol": 4836,
      "cetirizine": 4837,
      "wasnt": 4838,
      "track": 4839,
      "102": 4840,
      "changing": 4841,
      "Forum": 4842,
      "rectal": 4843,
      "THIS": 4844,
      "missing": 4845,
      "metformin": 4846,
      "angry": 4847,
      "angina": 4848,
      "preventing": 4849,
      "SGOT": 4850,
      "fruit": 4851,
      "Neuro": 4852,
      "intestines": 4853,
      "intensity": 4854,
      "purple": 4855,
      "puff": 4856,
      "schedule": 4857,
      "metabolic": 4858,
      "epilepsy": 4859,
      "source": 4860,
      "albuterol": 4861,
      "material": 4862,
      "57": 4863,
      "5mg": 4864,
      "Def": 4865,
      "RBC": 4866,
      "Sen": 4867,
      "Tyl": 4868,
      "cam": 4869,
      "som": 4870,
      "tosis": 4871,
      "veg": 4872,
      "stages": 4873,
      "summ": 4874,
      "features": 4875,
      "verse": 4876,
      "neath": 4877,
      "admin": 4878,
      "rier": 4879,
      "comment": 4880,
      "cobal": 4881,
      "urethr": 4882,
      "hysterectomy": 4883,
      "knowing": 4884,
      "lasting": 4885,
      "physically": 4886,
      "inalysis": 4887,
      "intervention": 4888,
      "gestive": 4889,
      "develo": 4890,
      "sensations": 4891,
      "bug": 4892,
      "fungus": 4893,
      "definitive": 4894,
      "tumors": 4895,
      "follicular": 4896,
      "levoc": 4897,
      "revert": 4898,
      "ophil": 4899,
      "Clinical": 4900,
      "January": 4901,
      "Visit": 4902,
      "Lymph": 4903,
      "Tylenol": 4904,
      "95": 4905,
      "Scan": 4906,
      "bag": 4907,
      "catch": 4908,
      "mag": 4909,
      "otid": 4910,
      "ya": 4911,
      "retain": 4912,
      "ford": 4913,
      "ocal": 4914,
      "poop": 4915,
      "pollen": 4916,
      "points": 4917,
      "disappear": 4918,
      "pressing": 4919,
      "hydro": 4920,
      "Incre": 4921,
      "scans": 4922,
      "colour": 4923,
      "anxiolytic": 4924,
      "ANY": 4925,
      "sham": 4926,
      "cleaned": 4927,
      "example": 4928,
      "previously": 4929,
      "inhibitors": 4930,
      "bumin": 4931,
      "urvedic": 4932,
      "piece": 4933,
      "Sunday": 4934,
      "colored": 4935,
      ".?": 4936,
      "58": 4937,
      "Amo": 4938,
      "ctor": 4939,
      "ibr": 4940,
      "lan": 4941,
      "incision": 4942,
      "oncologist": 4943,
      "tore": 4944,
      "lla": 4945,
      "etings": 4946,
      "agents": 4947,
      "sized": 4948,
      "cogn": 4949,
      "pleural": 4950,
      "imal": 4951,
      "underneath": 4952,
      "ctu": 4953,
      "mening": 4954,
      "speak": 4955,
      "speech": 4956,
      ".......": 4957,
      "surgically": 4958,
      "obje": 4959,
      "burst": 4960,
      "clothes": 4961,
      "responding": 4962,
      "pier": 4963,
      "transfer": 4964,
      "bulging": 4965,
      "scaling": 4966,
      "circulation": 4967,
      "incident": 4968,
      "determin": 4969,
      "beneficial": 4970,
      "appendix": 4971,
      "training": 4972,
      "testicle": 4973,
      "pancreatitis": 4974,
      "learn": 4975,
      "accumulation": 4976,
      "hanks": 4977,
      "GUI": 4978,
      "shooting": 4979,
      "Specialist": 4980,
      "Dise": 4981,
      "Ear": 4982,
      "GOT": 4983,
      "MAL": 4984,
      "URI": 4985,
      "bc": 4986,
      "mam": 4987,
      "ote": 4988,
      "pite": 4989,
      "rhin": 4990,
      "saf": 4991,
      "ys": 4992,
      "toster": 4993,
      "theaded": 4994,
      "haps": 4995,
      "omen": 4996,
      "section": 4997,
      "exp": 4998,
      "conci": 4999,
      "proceed": 5000,
      "dow": 5001,
      "ifest": 5002,
      "shock": 5003,
      "sight": 5004,
      "butt": 5005,
      "spor": 5006,
      "malaria": 5007,
      "undergoing": 5008,
      "antidepress": 5009,
      "bled": 5010,
      "blade": 5011,
      "Alcohol": 5012,
      "manifest": 5013,
      "fluctu": 5014,
      "THAT": 5015,
      "actions": 5016,
      "oxetine": 5017,
      "productive": 5018,
      "directed": 5019,
      "Exer": 5020,
      "organism": 5021,
      "feedback": 5022,
      "scheduled": 5023,
      "extension": 5024,
      "DER": 5025,
      "GET": 5026,
      "Mus": 5027,
      "March": 5028,
      "Non": 5029,
      "PA": 5030,
      "Sit": 5031,
      "barely": 5032,
      "phosp": 5033,
      "zer": 5034,
      "enh": 5035,
      "tif": 5036,
      "lex": 5037,
      "stability": 5038,
      "search": 5039,
      "wide": 5040,
      "ids": 5041,
      "abalin": 5042,
      "ship": 5043,
      "polar": 5044,
      "hasnt": 5045,
      "Head": 5046,
      "regimen": 5047,
      "bris": 5048,
      "chole": 5049,
      "intermitt": 5050,
      "glass": 5051,
      "zema": 5052,
      "development": 5053,
      "cramping": 5054,
      "harmful": 5055,
      "relieving": 5056,
      "service": 5057,
      "stabili": 5058,
      "salivary": 5059,
      "practic": 5060,
      "average": 5061,
      "85": 5062,
      "EX": 5063,
      "IL": 5064,
      "Man": 5065,
      "QU": 5066,
      "ffe": 5067,
      "human": 5068,
      "ithromycin": 5069,
      "lon": 5070,
      "nes": 5071,
      "rit": 5072,
      "utic": 5073,
      "erve": 5074,
      "istic": 5075,
      "unbearable": 5076,
      "shi": 5077,
      "ChatDoc": 5078,
      "tran": 5079,
      "worth": 5080,
      "testis": 5081,
      "hives": 5082,
      "oids": 5083,
      "brought": 5084,
      "stops": 5085,
      "blur": 5086,
      "interval": 5087,
      "itches": 5088,
      "akes": 5089,
      "colic": 5090,
      "attach": 5091,
      "joy": 5092,
      "turning": 5093,
      "runny": 5094,
      "plastic": 5095,
      "levant": 5096,
      "consumption": 5097,
      "Secondly": 5098,
      "occasional": 5099,
      "Cardi": 5100,
      "narrowing": 5101,
      "cortis": 5102,
      "osinophil": 5103,
      "throbbing": 5104,
      "surrounding": 5105,
      "Der": 5106,
      "Dent": 5107,
      "IR": 5108,
      "Ro": 5109,
      "Res": 5110,
      "gth": 5111,
      "wart": 5112,
      "thicken": 5113,
      "tobac": 5114,
      "encies": 5115,
      "key": 5116,
      "perid": 5117,
      "caffe": 5118,
      "defect": 5119,
      "decongest": 5120,
      "afford": 5121,
      "spin": 5122,
      "hips": 5123,
      "genic": 5124,
      "weekly": 5125,
      "prick": 5126,
      "apped": 5127,
      "miss": 5128,
      "husbands": 5129,
      "radiotherapy": 5130,
      "mming": 5131,
      "procedures": 5132,
      "technique": 5133,
      "promin": 5134,
      "June": 5135,
      "Surgery": 5136,
      "survival": 5137,
      "altered": 5138,
      "fairly": 5139,
      "Diabetes": 5140,
      "CRP": 5141,
      "tosterone": 5142,
      "Ay": 5143,
      "Bre": 5144,
      "Po": 5145,
      "Pri": 5146,
      "Table": 5147,
      "Very": 5148,
      "Went": 5149,
      "bid": 5150,
      "fav": 5151,
      "gm": 5152,
      "ots": 5153,
      "rice": 5154,
      "tet": 5155,
      "isms": 5156,
      "ory": 5157,
      "edu": 5158,
      "tially": 5159,
      "leak": 5160,
      "acer": 5161,
      "rot": 5162,
      "liosis": 5163,
      "urinalysis": 5164,
      "diver": 5165,
      "omeprazole": 5166,
      "frust": 5167,
      "bia": 5168,
      "menis": 5169,
      "Asth": 5170,
      "observ": 5171,
      "relaxants": 5172,
      "bub": 5173,
      "250": 5174,
      "touching": 5175,
      "160": 5176,
      "strongly": 5177,
      "capacity": 5178,
      "Ensure": 5179,
      "million": 5180,
      "remedies": 5181,
      "VERY": 5182,
      "lightheaded": 5183,
      "develops": 5184,
      "39": 5185,
      "Dic": 5186,
      "Eat": 5187,
      "Sorry": 5188,
      "aim": 5189,
      "cha": 5190,
      "mn": 5191,
      "rating": 5192,
      "thru": 5193,
      "enal": 5194,
      "force": 5195,
      "endoc": 5196,
      "prolactin": 5197,
      "caution": 5198,
      "dish": 5199,
      "ished": 5200,
      "flutter": 5201,
      "otrex": 5202,
      "2014": 5203,
      "central": 5204,
      "impacted": 5205,
      "feelings": 5206,
      "oscopic": 5207,
      "bites": 5208,
      "protect": 5209,
      "topic": 5210,
      "thinner": 5211,
      "meaning": 5212,
      "vices": 5213,
      "nuts": 5214,
      "Complete": 5215,
      "breakfast": 5216,
      "dealing": 5217,
      "phene": 5218,
      "mixed": 5219,
      "watery": 5220,
      "professional": 5221,
      "environment": 5222,
      "Besides": 5223,
      "HAD": 5224,
      "Iam": 5225,
      "PER": 5226,
      "YE": 5227,
      "data": 5228,
      "fil": 5229,
      "mur": 5230,
      "vit": 5231,
      "wit": 5232,
      "tol": 5233,
      "attemp": 5234,
      "hage": 5235,
      "stable": 5236,
      "urticaria": 5237,
      "weather": 5238,
      "diure": 5239,
      "depos": 5240,
      "maker": 5241,
      "consultations": 5242,
      "desi": 5243,
      "twist": 5244,
      "CTOR": 5245,
      "cellent": 5246,
      "Anything": 5247,
      "Like": 5248,
      "Pls": 5249,
      "pinched": 5250,
      "guided": 5251,
      "hearing": 5252,
      "angiography": 5253,
      "Pregn": 5254,
      "Healthy": 5255,
      "metabolism": 5256,
      "inhibitor": 5257,
      "chewing": 5258,
      "Check": 5259,
      "Gastroenter": 5260,
      "Saturday": 5261,
      "quantity": 5262,
      "elimin": 5263,
      "shampoo": 5264,
      "Disease": 5265,
      "Diclofenac": 5266,
      "110": 5267,
      "43": 5268,
      "47": 5269,
      "Act": 5270,
      "Gall": 5271,
      "Home": 5272,
      "KE": 5273,
      "WAS": 5274,
      "pine": 5275,
      "tar": 5276,
      "erous": 5277,
      "relevant": 5278,
      "orally": 5279,
      "ingu": 5280,
      "lies": 5281,
      "abap": 5282,
      "ury": 5283,
      "adult": 5284,
      "Thyroid": 5285,
      "core": 5286,
      "words": 5287,
      "pleas": 5288,
      "spont": 5289,
      "antibodies": 5290,
      "older": 5291,
      "calc": 5292,
      "vix": 5293,
      "discs": 5294,
      "paran": 5295,
      "ventric": 5296,
      "suppose": 5297,
      "urinating": 5298,
      "traumatic": 5299,
      "runs": 5300,
      "gym": 5301,
      "heaviness": 5302,
      "inhalers": 5303,
      "coloration": 5304,
      "enzyme": 5305,
      "drops": 5306,
      "ROM": 5307,
      "consistent": 5308,
      "elucid": 5309,
      "glycer": 5310,
      "Cyst": 5311,
      "Following": 5312,
      "faint": 5313,
      "apeutic": 5314,
      "ischemic": 5315,
      "observation": 5316,
      "==": 5317,
      "Des": 5318,
      "MENT": 5319,
      "Sper": 5320,
      "eved": 5321,
      "kit": 5322,
      "pet": 5323,
      "tus": 5324,
      "via": 5325,
      "info": 5326,
      "thar": 5327,
      "ref": 5328,
      "isnt": 5329,
      "estim": 5330,
      "beating": 5331,
      "stated": 5332,
      "entin": 5333,
      "ocele": 5334,
      "soo": 5335,
      "mobile": 5336,
      "dementia": 5337,
      "Hosp": 5338,
      "brace": 5339,
      "overall": 5340,
      "ground": 5341,
      "ultra": 5342,
      "apparent": 5343,
      "ANK": 5344,
      "childhood": 5345,
      "marks": 5346,
      "double": 5347,
      "intoler": 5348,
      "neurotrophic": 5349,
      "metal": 5350,
      "touched": 5351,
      "progression": 5352,
      "shaking": 5353,
      "masturbating": 5354,
      "ontist": 5355,
      "reactions": 5356,
      "Prog": 5357,
      "LOW": 5358,
      "plasia": 5359,
      "opathic": 5360,
      "Noted": 5361,
      "CVTS": 5362,
      "moistur": 5363,
      "leukemia": 5364,
      "uncture": 5365,
      "Genl": 5366,
      "methyl": 5367,
      "otrexate": 5368,
      "53": 5369,
      "Back": 5370,
      "LA": 5371,
      "Mor": 5372,
      "Next": 5373,
      "Of": 5374,
      "PO": 5375,
      "bat": 5376,
      "fa": 5377,
      "fist": 5378,
      "pid": 5379,
      "rt": 5380,
      "sli": 5381,
      "van": 5382,
      "zinc": 5383,
      "oud": 5384,
      "tomy": 5385,
      "toms": 5386,
      "bever": 5387,
      "sule": 5388,
      "excellent": 5389,
      "comments": 5390,
      "sym": 5391,
      "cervix": 5392,
      "needles": 5393,
      "plasty": 5394,
      "sports": 5395,
      "herbal": 5396,
      "suggesting": 5397,
      "respe": 5398,
      "carcinoma": 5399,
      "stressor": 5400,
      "reduces": 5401,
      "kinda": 5402,
      "ESS": 5403,
      "pantoprazole": 5404,
      "pharm": 5405,
      "anging": 5406,
      "produces": 5407,
      "decreasing": 5408,
      "involves": 5409,
      "psychotic": 5410,
      "sciatic": 5411,
      "DOCTOR": 5412,
      "indigestion": 5413,
      "eczema": 5414,
      "ocardi": 5415,
      "Advil": 5416,
      "Depending": 5417,
      "caffeine": 5418,
      "Cor": 5419,
      "Ov": 5420,
      "TRE": 5421,
      "border": 5422,
      "galy": 5423,
      "ii": 5424,
      "jan": 5425,
      "portion": 5426,
      "rhea": 5427,
      "socket": 5428,
      "thal": 5429,
      "heel": 5430,
      "bel": 5431,
      "ication": 5432,
      "omas": 5433,
      "sume": 5434,
      "ocol": 5435,
      "depressive": 5436,
      "coag": 5437,
      "bloated": 5438,
      "olone": 5439,
      "brid": 5440,
      "gran": 5441,
      "cised": 5442,
      "tenance": 5443,
      "intro": 5444,
      "fermentation": 5445,
      "checkup": 5446,
      "CTION": 5447,
      "buli": 5448,
      "ario": 5449,
      "incter": 5450,
      "phology": 5451,
      "hypotension": 5452,
      "compon": 5453,
      "electrolyte": 5454,
      "Normally": 5455,
      "phenomen": 5456,
      "effusion": 5457,
      "false": 5458,
      "suitable": 5459,
      "insect": 5460,
      "NSAIDs": 5461,
      "aggressive": 5462,
      "Upper": 5463,
      "Viral": 5464,
      "Symptoms": 5465,
      "threatening": 5466,
      "swimming": 5467,
      "KD": 5468,
      "Later": 5469,
      "Pati": 5470,
      "Te": 5471,
      "Top": 5472,
      "UB": 5473,
      "sg": 5474,
      "vital": 5475,
      "atri": 5476,
      "iter": 5477,
      "suic": 5478,
      "ider": 5479,
      "adverse": 5480,
      "hasn": 5481,
      "tram": 5482,
      "firm": 5483,
      "menop": 5484,
      "spells": 5485,
      "paras": 5486,
      "scanning": 5487,
      "differenti": 5488,
      "waking": 5489,
      "indicative": 5490,
      "conceiving": 5491,
      "asthmatic": 5492,
      "modic": 5493,
      "scen": 5494,
      "washing": 5495,
      "involving": 5496,
      "ACK": 5497,
      "fractures": 5498,
      "controlling": 5499,
      "greatly": 5500,
      "pediatric": 5501,
      "excluded": 5502,
      "fibroid": 5503,
      "reversible": 5504,
      "Looking": 5505,
      "Syn": 5506,
      "minimum": 5507,
      "vomited": 5508,
      "rubbing": 5509,
      "herniation": 5510,
      "oxidants": 5511,
      "HPV": 5512,
      "released": 5513,
      "OCD": 5514,
      "clerosis": 5515,
      "Possibility": 5516,
      "peridone": 5517,
      "abapentin": 5518,
      "\".": 5519,
      "4th": 5520,
      "59": 5521,
      "64": 5522,
      "98": 5523,
      "BLO": 5524,
      "Having": 5525,
      "Min": 5526,
      "Tri": 5527,
      "TAB": 5528,
      "itic": 5529,
      "lunch": 5530,
      "instruction": 5531,
      "throwing": 5532,
      "anno": 5533,
      "onto": 5534,
      "titis": 5535,
      "icing": 5536,
      "ays": 5537,
      "user": 5538,
      "termin": 5539,
      "perit": 5540,
      "anyway": 5541,
      "team": 5542,
      "discoloration": 5543,
      "concerning": 5544,
      "param": 5545,
      "subsides": 5546,
      "eaten": 5547,
      "planation": 5548,
      "risks": 5549,
      "tendency": 5550,
      "transfusion": 5551,
      "failed": 5552,
      "acetaminophen": 5553,
      "email": 5554,
      "thickness": 5555,
      "nutritional": 5556,
      "minerals": 5557,
      "SSRI": 5558,
      "cognitive": 5559,
      "scenario": 5560,
      "62": 5561,
      "Cause": 5562,
      "Hor": 5563,
      "Sal": 5564,
      "Tot": 5565,
      "ctile": 5566,
      "pins": 5567,
      "slu": 5568,
      "tall": 5569,
      "ann": 5570,
      "alle": 5571,
      "albumin": 5572,
      "stin": 5573,
      "exha": 5574,
      "external": 5575,
      "utro": 5576,
      "usive": 5577,
      "wasn": 5578,
      "aphr": 5579,
      "spi": 5580,
      "heals": 5581,
      "Investig": 5582,
      "surely": 5583,
      "boost": 5584,
      "heartbeat": 5585,
      "chiz": 5586,
      "suffers": 5587,
      "colitis": 5588,
      "occurring": 5589,
      "attending": 5590,
      "attribut": 5591,
      "diffuse": 5592,
      "deny": 5593,
      "meanwhile": 5594,
      "persisting": 5595,
      "decreases": 5596,
      "simply": 5597,
      "fractured": 5598,
      "globul": 5599,
      "Orth": 5600,
      "syndrome": 5601,
      "USE": 5602,
      "burns": 5603,
      "gmenting": 5604,
      "PCs": 5605,
      "consume": 5606,
      "ski": 5607,
      "osteo": 5608,
      "approxim": 5609,
      "saliva": 5610,
      "aggravate": 5611,
      "resistance": 5612,
      "fertilization": 5613,
      "conservative": 5614,
      "HELP": 5615,
      "tonsils": 5616,
      "TENS": 5617,
      "meningitis": 5618,
      "tobacco": 5619,
      "elucidated": 5620,
      "Hospital": 5621,
      "BLOOD": 5622,
      "46": 5623,
      "68": 5624,
      "Age": 5625,
      "BLE": 5626,
      "Creat": 5627,
      "NA": 5628,
      "Sever": 5629,
      "SHE": 5630,
      "bright": 5631,
      "cast": 5632,
      "chair": 5633,
      "eti": 5634,
      "hum": 5635,
      "orange": 5636,
      "esh": 5637,
      "lethar": 5638,
      "ambul": 5639,
      "umn": 5640,
      "arest": 5641,
      "urge": 5642,
      "mold": 5643,
      "rima": 5644,
      "apies": 5645,
      "shouldn": 5646,
      "sph": 5647,
      "bypass": 5648,
      "gging": 5649,
      "contribut": 5650,
      "olic": 5651,
      "bosacral": 5652,
      "understanding": 5653,
      "icious": 5654,
      "column": 5655,
      "THANK": 5656,
      "RegardsJay": 5657,
      "student": 5658,
      "improves": 5659,
      "closed": 5660,
      "appearance": 5661,
      "product": 5662,
      "testosterone": 5663,
      "settle": 5664,
      "sinuses": 5665,
      "jection": 5666,
      "Abdom": 5667,
      "etrizine": 5668,
      "harmless": 5669,
      "compared": 5670,
      "events": 5671,
      "bronchodilator": 5672,
      "August": 5673,
      "length": 5674,
      "supervision": 5675,
      "embry": 5676,
      "LIKE": 5677,
      "peptic": 5678,
      "pregabalin": 5679,
      "Asthma": 5680,
      "5th": 5681,
      "67": 5682,
      "Az": 5683,
      "Cur": 5684,
      "Hear": 5685,
      "Mi": 5686,
      "PE": 5687,
      "Sin": 5688,
      "jump": 5689,
      "lupus": 5690,
      "pon": 5691,
      "pty": 5692,
      "packs": 5693,
      "rac": 5694,
      "beg": 5695,
      "roots": 5696,
      "conclusion": 5697,
      "usions": 5698,
      "door": 5699,
      "perhaps": 5700,
      "output": 5701,
      "Thursday": 5702,
      "visiting": 5703,
      "forearm": 5704,
      "correction": 5705,
      "forming": 5706,
      "services": 5707,
      "sence": 5708,
      "workout": 5709,
      "obtain": 5710,
      "sleepy": 5711,
      "Consider": 5712,
      "suppress": 5713,
      "requirement": 5714,
      "volume": 5715,
      "share": 5716,
      "distress": 5717,
      "Proper": 5718,
      "money": 5719,
      "deficiencies": 5720,
      "remaining": 5721,
      "organisms": 5722,
      "sunscreen": 5723,
      "structures": 5724,
      "substances": 5725,
      "Question": 5726,
      "antacids": 5727,
      "voice": 5728,
      "individuals": 5729,
      "laboratory": 5730,
      "prednisone": 5731,
      "excru": 5732,
      "azepam": 5733,
      "Pregnancy": 5734,
      "beverages": 5735,
      "aphrag": 5736,
      "rimazole": 5737,
      "sphincter": 5738,
      "7th": 5739,
      "IBS": 5740,
      "aor": 5741,
      "eosinophil": 5742,
      "sad": 5743,
      "wed": 5744,
      "zep": 5745,
      "alore": 5746,
      "forms": 5747,
      "seven": 5748,
      "roof": 5749,
      "ends": 5750,
      "establ": 5751,
      "terms": 5752,
      "prophy": 5753,
      "moves": 5754,
      "opt": 5755,
      "opram": 5756,
      "resid": 5757,
      "103": 5758,
      "gence": 5759,
      "maintenance": 5760,
      "hospitalized": 5761,
      "phone": 5762,
      "broncho": 5763,
      "ChatDoctorInfectious": 5764,
      "tendon": 5765,
      "physiological": 5766,
      "july": 5767,
      "typically": 5768,
      "2009": 5769,
      "stick": 5770,
      "capsule": 5771,
      "dropped": 5772,
      "bleeds": 5773,
      "genitals": 5774,
      "fibromyalgia": 5775,
      "herniated": 5776,
      "pancreatic": 5777,
      "Luck": 5778,
      "Greetings": 5779,
      "buttocks": 5780,
      "lady": 5781,
      "Senior": 5782,
      "rhinitis": 5783,
      "transi": 5784,
      "56": 5785,
      "FSH": 5786,
      "GER": 5787,
      "SY": 5788,
      "ey": 5789,
      "pup": 5790,
      "rine": 5791,
      "tabs": 5792,
      "une": 5793,
      "wan": 5794,
      "influ": 5795,
      "isy": 5796,
      "eng": 5797,
      "ensure": 5798,
      "enjoy": 5799,
      "separ": 5800,
      "ama": 5801,
      "among": 5802,
      "direction": 5803,
      "uncontrolled": 5804,
      "rief": 5805,
      "hate": 5806,
      "Ther": 5807,
      "shes": 5808,
      "cosme": 5809,
      "blow": 5810,
      "atio": 5811,
      "mucous": 5812,
      "country": 5813,
      "INR": 5814,
      "italopram": 5815,
      "commun": 5816,
      "appy": 5817,
      "burping": 5818,
      "tubal": 5819,
      "airway": 5820,
      "indication": 5821,
      "conceived": 5822,
      "benz": 5823,
      "raise": 5824,
      "December": 5825,
      "juana": 5826,
      "Unless": 5827,
      "Acute": 5828,
      "stronger": 5829,
      "cheeks": 5830,
      "yellowish": 5831,
      "returned": 5832,
      "aired": 5833,
      "testicles": 5834,
      "pillows": 5835,
      "revealed": 5836,
      "obstructive": 5837,
      "anterior": 5838,
      "summer": 5839,
      "intermittent": 5840,
      "prominent": 5841,
      "Actually": 5842,
      "51": 5843,
      "Em": 5844,
      "Echo": 5845,
      "Fat": 5846,
      "GE": 5847,
      "Hallow": 5848,
      "MA": 5849,
      "Mild": 5850,
      "PLE": 5851,
      "WW": 5852,
      "bent": 5853,
      "pha": 5854,
      "rated": 5855,
      "tb": 5856,
      "ingles": 5857,
      "lled": 5858,
      "sus": 5859,
      "exacer": 5860,
      "uria": 5861,
      "ender": 5862,
      "popping": 5863,
      "coma": 5864,
      "comprom": 5865,
      "hoping": 5866,
      "ticasone": 5867,
      "Indi": 5868,
      "regain": 5869,
      "standard": 5870,
      "braces": 5871,
      "everyone": 5872,
      "rent": 5873,
      "swelled": 5874,
      "liter": 5875,
      "rectum": 5876,
      "phil": 5877,
      "breaths": 5878,
      "TION": 5879,
      "eats": 5880,
      "angalore": 5881,
      "producing": 5882,
      "seriously": 5883,
      "localized": 5884,
      "gallstones": 5885,
      "biliary": 5886,
      "ATE": 5887,
      "generalized": 5888,
      "locally": 5889,
      "elevation": 5890,
      "numerous": 5891,
      "bottle": 5892,
      "Mostly": 5893,
      "Plz": 5894,
      "drop": 5895,
      "scars": 5896,
      "lining": 5897,
      "SOME": 5898,
      "Physical": 5899,
      "supplementation": 5900,
      "ophren": 5901,
      "connected": 5902,
      "endometriosis": 5903,
      "lacto": 5904,
      "Moreover": 5905,
      "GGT": 5906,
      "spondylosis": 5907,
      "Gynecologist": 5908,
      "Exercise": 5909,
      "Dentist": 5910,
      "respective": 5911,
      "chizophren": 5912,
      "Heart": 5913,
      "exacerb": 5914,
      "63": 5915,
      "Apart": 5916,
      "BD": 5917,
      "BMI": 5918,
      "BACK": 5919,
      "MED": 5920,
      "Poly": 5921,
      "PRES": 5922,
      "cate": 5923,
      "fu": 5924,
      "ras": 5925,
      "yond": 5926,
      "retention": 5927,
      "encour": 5928,
      "ayurvedic": 5929,
      "dili": 5930,
      "agree": 5931,
      "protr": 5932,
      "motile": 5933,
      "uncle": 5934,
      "apse": 5935,
      "haden": 5936,
      "contag": 5937,
      "ventil": 5938,
      "flare": 5939,
      "chiro": 5940,
      "stressful": 5941,
      "exercising": 5942,
      "removing": 5943,
      "Weight": 5944,
      "cellulitis": 5945,
      "hairs": 5946,
      "oxide": 5947,
      "IST": 5948,
      "complains": 5949,
      "june": 5950,
      "180": 5951,
      "recovered": 5952,
      "irritated": 5953,
      "cerely": 5954,
      "gastroenteritis": 5955,
      "implantation": 5956,
      "Lev": 5957,
      "epilep": 5958,
      "metastasis": 5959,
      "mechanism": 5960,
      "tremors": 5961,
      "administer": 5962,
      "urethra": 5963,
      "Tablet": 5964,
      "bridge": 5965,
      "approximately": 5966,
      "Bag": 5967,
      "Mul": 5968,
      "Meth": 5969,
      "Nov": 5970,
      "PUT": 5971,
      "WOR": 5972,
      "hv": 5973,
      "rist": 5974,
      "ud": 5975,
      "oul": 5976,
      "ences": 5977,
      "arthro": 5978,
      "beyond": 5979,
      "ican": 5980,
      "yours": 5981,
      "fetal": 5982,
      "congenital": 5983,
      "therapeutic": 5984,
      "therapies": 5985,
      "aret": 5986,
      "adi": 5987,
      "ades": 5988,
      "adhes": 5989,
      "agent": 5990,
      "oney": 5991,
      "anytime": 5992,
      "sonogram": 5993,
      "postures": 5994,
      "izz": 5995,
      "partic": 5996,
      "ordered": 5997,
      "twitching": 5998,
      "penicillin": 5999,
      "reported": 6000,
      "radiates": 6001,
      "nauseous": 6002,
      "create": 6003,
      "thorac": 6004,
      "certainly": 6005,
      "operative": 6006,
      "assessed": 6007,
      "sickness": 6008,
      "Wellcome": 6009,
      ",,,": 6010,
      "hypothyroidism": 6011,
      "noticeable": 6012,
      "liquids": 6013,
      "markers": 6014,
      "ruptured": 6015,
      "personality": 6016,
      "recurring": 6017,
      "Clinic": 6018,
      "assume": 6019,
      "amycin": 6020,
      "lumbosacral": 6021,
      "portal": 6022,
      "nephrologist": 6023,
      "hungry": 6024,
      "ignore": 6025,
      "safer": 6026,
      "cortisone": 6027,
      "meniscus": 6028,
      "Gastroenterologist": 6029,
      "Sperm": 6030,
      "sgpt": 6031,
      "Total": 6032,
      "41": 6033,
      "Det": 6034,
      "Esc": 6035,
      "FROM": 6036,
      "Never": 6037,
      "Ob": 6038,
      "Ray": 6039,
      "Skin": 6040,
      "TR": 6041,
      "Yo": 6042,
      "aus": 6043,
      "bt": 6044,
      "ban": 6045,
      "gut": 6046,
      "hn": 6047,
      "hon": 6048,
      "phe": 6049,
      "raw": 6050,
      "wakes": 6051,
      "xrays": 6052,
      "zen": 6053,
      "icate": 6054,
      "seed": 6055,
      "eters": 6056,
      "urbed": 6057,
      "diaphrag": 6058,
      "ria": 6059,
      "symp": 6060,
      "monds": 6061,
      "treatable": 6062,
      "antihypertensive": 6063,
      "ryl": 6064,
      "illary": 6065,
      "ciating": 6066,
      "10mg": 6067,
      "despite": 6068,
      "advanced": 6069,
      "smooth": 6070,
      "lopian": 6071,
      "bandage": 6072,
      "Stay": 6073,
      "histamine": 6074,
      "Common": 6075,
      "gained": 6076,
      "Ultrasonography": 6077,
      "connection": 6078,
      "corticosteroids": 6079,
      "endometrium": 6080,
      "extensive": 6081,
      "urveda": 6082,
      "Tuesday": 6083,
      "preparations": 6084,
      "WHAT": 6085,
      "enhance": 6086,
      "phenomenon": 6087,
      "chizophrenia": 6088,
      "contagious": 6089,
      "66": 6090,
      "AV": 6091,
      "Hg": 6092,
      "Iron": 6093,
      "Mar": 6094,
      "TE": 6095,
      "Wa": 6096,
      "Wor": 6097,
      "aut": 6098,
      "gist": 6099,
      "hall": 6100,
      "iasis": 6101,
      "mall": 6102,
      "nesday": 6103,
      "tree": 6104,
      "vate": 6105,
      "onut": 6106,
      "itting": 6107,
      "stances": 6108,
      "rox": 6109,
      "idine": 6110,
      "fetus": 6111,
      "quote": 6112,
      "pers": 6113,
      "Thus": 6114,
      "cot": 6115,
      "underwent": 6116,
      "clom": 6117,
      "heartburn": 6118,
      "ovum": 6119,
      "ANT": 6120,
      "strugg": 6121,
      "clears": 6122,
      "clarify": 6123,
      "trip": 6124,
      "mothers": 6125,
      "falls": 6126,
      "bruises": 6127,
      "disturbed": 6128,
      "heavyweight": 6129,
      "judge": 6130,
      "corrected": 6131,
      "correctly": 6132,
      "500mg": 6133,
      "covering": 6134,
      "constipated": 6135,
      "swab": 6136,
      "drinks": 6137,
      "angio": 6138,
      "disturbances": 6139,
      "migraines": 6140,
      "busy": 6141,
      "Biopsy": 6142,
      "potential": 6143,
      "members": 6144,
      "vaccination": 6145,
      "ometry": 6146,
      "TAKE": 6147,
      "determined": 6148,
      "mammo": 6149,
      "tetanus": 6150,
      "YEAR": 6151,
      "excruciating": 6152,
      "49": 6153,
      "5ft": 6154,
      "?)": 6155,
      "DR": 6156,
      "Nove": 6157,
      "STO": 6158,
      "Wed": 6159,
      "ba": 6160,
      "gon": 6161,
      "phi": 6162,
      "wks": 6163,
      "inde": 6164,
      "rea": 6165,
      "ley": 6166,
      "star": 6167,
      "stream": 6168,
      "lder": 6169,
      "identi": 6170,
      "theres": 6171,
      "odd": 6172,
      "poll": 6173,
      "clav": 6174,
      "bral": 6175,
      "1000": 6176,
      "speaking": 6177,
      "appt": 6178,
      "clearly": 6179,
      "passes": 6180,
      "pale": 6181,
      "palate": 6182,
      "blocker": 6183,
      "2008": 6184,
      "FTER": 6185,
      "amounts": 6186,
      "Unfortunately": 6187,
      "Firstly": 6188,
      "varies": 6189,
      "cutaneous": 6190,
      "pulling": 6191,
      "guidel": 6192,
      "numbers": 6193,
      "adequately": 6194,
      "college": 6195,
      "polycystic": 6196,
      "immunotherapy": 6197,
      "scoliosis": 6198,
      "secretions": 6199,
      "Generally": 6200,
      "resistant": 6201,
      "estrogen": 6202,
      "slept": 6203,
      "resolves": 6204,
      "annoying": 6205,
      "Escitalopram": 6206,
      "8th": 6207,
      "AFTER": 6208,
      "CM": 6209,
      "DU": 6210,
      "FER": 6211,
      "Mont": 6212,
      "Octo": 6213,
      "PV": 6214,
      "Ster": 6215,
      "ato": 6216,
      "nic": 6217,
      "pocket": 6218,
      "rom": 6219,
      "ratio": 6220,
      "vast": 6221,
      "wind": 6222,
      "inability": 6223,
      "reflex": 6224,
      "toconazole": 6225,
      "arri": 6226,
      "belt": 6227,
      "ented": 6228,
      "adam": 6229,
      "proto": 6230,
      "pol": 6231,
      "compress": 6232,
      "apnea": 6233,
      "deposition": 6234,
      "mond": 6235,
      "trin": 6236,
      "Hot": 6237,
      "oppos": 6238,
      "antibody": 6239,
      "Inter": 6240,
      "graph": 6241,
      "athy": 6242,
      "sonography": 6243,
      "ovulating": 6244,
      "march": 6245,
      "presents": 6246,
      "guy": 6247,
      "airways": 6248,
      "turns": 6249,
      "greater": 6250,
      "capsul": 6251,
      "places": 6252,
      "holding": 6253,
      "polyp": 6254,
      "condoms": 6255,
      "relationship": 6256,
      "fixed": 6257,
      "endometrial": 6258,
      "Psychiatr": 6259,
      "bothering": 6260,
      "obviously": 6261,
      "seasonal": 6262,
      "consciousness": 6263,
      "observed": 6264,
      "Defin": 6265,
      "favor": 6266,
      "deposits": 6267,
      "inguinal": 6268,
      "methylcobal": 6269,
      "atrial": 6270,
      "October": 6271,
      "Bru": 6272,
      "IM": 6273,
      "LH": 6274,
      "NOR": 6275,
      "bly": 6276,
      "bular": 6277,
      "equ": 6278,
      "fy": 6279,
      "god": 6280,
      "hic": 6281,
      "sn": 6282,
      "onitis": 6283,
      "orm": 6284,
      "orosis": 6285,
      "foramin": 6286,
      "ocaine": 6287,
      "chitis": 6288,
      "lith": 6289,
      "aren": 6290,
      "precaution": 6291,
      "defec": 6292,
      "fold": 6293,
      "traline": 6294,
      "tember": 6295,
      "worms": 6296,
      "content": 6297,
      "brand": 6298,
      "aves": 6299,
      "cortical": 6300,
      "formula": 6301,
      "vibr": 6302,
      "himself": 6303,
      "morphology": 6304,
      "toothpaste": 6305,
      "field": 6306,
      "differential": 6307,
      "TIS": 6308,
      "breastfeeding": 6309,
      "pathological": 6310,
      "killers": 6311,
      "modal": 6312,
      "anemic": 6313,
      "limiting": 6314,
      "Acid": 6315,
      "consuming": 6316,
      "receive": 6317,
      "Maybe": 6318,
      "caught": 6319,
      "coconut": 6320,
      "Colon": 6321,
      "thrombo": 6322,
      "message": 6323,
      "proxen": 6324,
      "bronchial": 6325,
      "MONTH": 6326,
      "poisoning": 6327,
      "pacemaker": 6328,
      "brisk": 6329,
      "witChatDoctor": 6330,
      "instructions": 6331,
      "November": 6332,
      "800": 6333,
      "Ca": 6334,
      "GH": 6335,
      "Gr": 6336,
      "Mic": 6337,
      "SD": 6338,
      "awhile": 6339,
      "biting": 6340,
      "ement": 6341,
      "fits": 6342,
      "honey": 6343,
      "rum": 6344,
      "ucin": 6345,
      "onide": 6346,
      "replaced": 6347,
      "ense": 6348,
      "ascular": 6349,
      "staph": 6350,
      "llar": 6351,
      "activ": 6352,
      "explanation": 6353,
      "consequ": 6354,
      "absence": 6355,
      "unknown": 6356,
      "unwanted": 6357,
      "plaqu": 6358,
      "spider": 6359,
      "indamycin": 6360,
      "flush": 6361,
      "welling": 6362,
      "causative": 6363,
      "stomy": 6364,
      "box": 6365,
      "fluticasone": 6366,
      "toothache": 6367,
      "obic": 6368,
      "drank": 6369,
      "waist": 6370,
      "dengue": 6371,
      "thinning": 6372,
      "Dec": 6373,
      "bruary": 6374,
      "OTC": 6375,
      "physio": 6376,
      "ICE": 6377,
      "Semen": 6378,
      "farin": 6379,
      "methotrexate": 6380,
      "ADHD": 6381,
      "cramp": 6382,
      "combined": 6383,
      "Sugg": 6384,
      "partners": 6385,
      "vasive": 6386,
      "Parkin": 6387,
      "nutritious": 6388,
      "polyps": 6389,
      "induction": 6390,
      "hoids": 6391,
      "ectopic": 6392,
      "secretion": 6393,
      "fibrous": 6394,
      "Psych": 6395,
      "intrauterine": 6396,
      "leuk": 6397,
      "preparation": 6398,
      "suspic": 6399,
      "Medical": 6400,
      "satisfaction": 6401,
      "mucosa": 6402,
      "Muscle": 6403,
      "parameters": 6404,
      "osteoarthritis": 6405,
      "PLEASE": 6406,
      ")-": 6407,
      "130": 6408,
      "Brain": 6409,
      "Chi": 6410,
      "Ide": 6411,
      "Lef": 6412,
      "MES": 6413,
      "Sto": 6414,
      "Wash": 6415,
      "cation": 6416,
      "clim": 6417,
      "ect": 6418,
      "fed": 6419,
      "ival": 6420,
      "jer": 6421,
      "nw": 6422,
      "pod": 6423,
      "tam": 6424,
      "animal": 6425,
      "err": 6426,
      "ord": 6427,
      "static": 6428,
      "tional": 6429,
      "kewarm": 6430,
      "nebuli": 6431,
      "nearest": 6432,
      "ager": 6433,
      "predis": 6434,
      "comput": 6435,
      "Hey": 6436,
      "disk": 6437,
      "tick": 6438,
      "hered": 6439,
      "logic": 6440,
      "erect": 6441,
      "cia": 6442,
      "relatively": 6443,
      "graf": 6444,
      "foreign": 6445,
      "carbon": 6446,
      "followup": 6447,
      "bedtime": 6448,
      "cancers": 6449,
      "THING": 6450,
      "protective": 6451,
      "lukewarm": 6452,
      "cystectomy": 6453,
      "ALSO": 6454,
      "topath": 6455,
      "lymphaden": 6456,
      "discussed": 6457,
      "fatal": 6458,
      "persons": 6459,
      "pipe": 6460,
      "50mg": 6461,
      "juices": 6462,
      "measuring": 6463,
      "deeply": 6464,
      "limits": 6465,
      "stayed": 6466,
      "bowels": 6467,
      "Endos": 6468,
      "Coming": 6469,
      "brill": 6470,
      "behavioral": 6471,
      "IGHT": 6472,
      "stimul": 6473,
      "echocardi": 6474,
      "laxity": 6475,
      "meric": 6476,
      "multivitamins": 6477,
      "bouts": 6478,
      "camphene": 6479,
      "Amox": 6480,
      "Dermatologist": 6481,
      "thickening": 6482,
      "stinence": 6483,
      "Left": 6484,
      "BI": 6485,
      "Bili": 6486,
      "HAS": 6487,
      "Id": 6488,
      "LU": 6489,
      "Lately": 6490,
      "Renal": 6491,
      "dest": 6492,
      "gid": 6493,
      "ki": 6494,
      "mum": 6495,
      "oster": 6496,
      "pical": 6497,
      "rite": 6498,
      "insight": 6499,
      "ens": 6500,
      "encounter": 6501,
      "align": 6502,
      "itus": 6503,
      "ham": 6504,
      "forte": 6505,
      "accep": 6506,
      "logies": 6507,
      "whic": 6508,
      "lia": 6509,
      "dig": 6510,
      "extre": 6511,
      "mole": 6512,
      "moglobin": 6513,
      "mobility": 6514,
      "untreated": 6515,
      "dermato": 6516,
      "apple": 6517,
      "cos": 6518,
      "traction": 6519,
      "blot": 6520,
      "clusive": 6521,
      "usted": 6522,
      "vise": 6523,
      "relate": 6524,
      "carrier": 6525,
      "everytime": 6526,
      "serve": 6527,
      "reliable": 6528,
      "imping": 6529,
      "impact": 6530,
      "presentation": 6531,
      "awake": 6532,
      "dye": 6533,
      "palm": 6534,
      "measured": 6535,
      "washed": 6536,
      "specifically": 6537,
      "difficulties": 6538,
      "maintaining": 6539,
      "rinologist": 6540,
      "confusion": 6541,
      "pinch": 6542,
      "excessively": 6543,
      "fatigu": 6544,
      "younger": 6545,
      "feeds": 6546,
      "grandson": 6547,
      "Period": 6548,
      "soda": 6549,
      "WILL": 6550,
      "driving": 6551,
      "Medicines": 6552,
      "laxis": 6553,
      "chemicals": 6554,
      "cephal": 6555,
      "drained": 6556,
      "AGE": 6557,
      "achieve": 6558,
      "asympto": 6559,
      "shift": 6560,
      "microscopic": 6561,
      "TMT": 6562,
      "squeeze": 6563,
      "Ayurveda": 6564,
      "paranoid": 6565,
      "tramadol": 6566,
      "Orthop": 6567,
      "Current": 6568,
      "protrusion": 6569,
      "cotton": 6570,
      "NORMAL": 6571,
      "600": 6572,
      "78": 6573,
      ":(": 6574,
      "Ci": 6575,
      "HS": 6576,
      "Jo": 6577,
      "OLD": 6578,
      "POD": 6579,
      "Swelling": 6580,
      "UP": 6581,
      "Whe": 6582,
      "aken": 6583,
      "brow": 6584,
      "etirizine": 6585,
      "lav": 6586,
      "mast": 6587,
      "nal": 6588,
      "swer": 6589,
      "ture": 6590,
      "va": 6591,
      "inqu": 6592,
      "informed": 6593,
      "ero": 6594,
      "atro": 6595,
      "alysis": 6596,
      "forgot": 6597,
      "lock": 6598,
      "whit": 6599,
      "liative": 6600,
      "odontist": 6601,
      "uscular": 6602,
      "probiotic": 6603,
      "uncommon": 6604,
      "unfortunately": 6605,
      "sim": 6606,
      "waste": 6607,
      "coz": 6608,
      "iling": 6609,
      "veness": 6610,
      "izer": 6611,
      "machine": 6612,
      "glans": 6613,
      "Immu": 6614,
      "cardio": 6615,
      "handle": 6616,
      "breaks": 6617,
      "join": 6618,
      "injected": 6619,
      "trim": 6620,
      "Been": 6621,
      "oked": 6622,
      "!!~": 6623,
      "sett": 6624,
      "Life": 6625,
      "gingiv": 6626,
      "stays": 6627,
      "ejaculated": 6628,
      "realize": 6629,
      "swings": 6630,
      "cerebral": 6631,
      "stitis": 6632,
      "watching": 6633,
      "disturbance": 6634,
      "screening": 6635,
      "Medication": 6636,
      "rapidly": 6637,
      "--------": 6638,
      "tailbone": 6639,
      "absorption": 6640,
      "cycline": 6641,
      "Increased": 6642,
      "piercing": 6643,
      "estimation": 6644,
      "Topical": 6645,
      "attributed": 6646,
      "etiology": 6647,
      "categor": 6648,
      "thoracic": 6649,
      "protocol": 6650,
      "2D": 6651,
      "CY": 6652,
      "CER": 6653,
      "Imp": 6654,
      "Local": 6655,
      "Rel": 6656,
      "SF": 6657,
      "Small": 6658,
      "eight": 6659,
      "fis": 6660,
      "fro": 6661,
      "flight": 6662,
      "gout": 6663,
      "hast": 6664,
      "ito": 6665,
      "mc": 6666,
      "net": 6667,
      "invasive": 6668,
      "asto": 6669,
      "ascertain": 6670,
      "leaving": 6671,
      "habil": 6672,
      "llitis": 6673,
      "lod": 6674,
      "vers": 6675,
      "uration": 6676,
      "probiotics": 6677,
      "program": 6678,
      "unk": 6679,
      "paint": 6680,
      "outcome": 6681,
      "gold": 6682,
      "sillitis": 6683,
      "frontal": 6684,
      "somewhere": 6685,
      "tec": 6686,
      "ggers": 6687,
      "bipolar": 6688,
      "flap": 6689,
      "reddish": 6690,
      "consultant": 6691,
      "items": 6692,
      "graphy": 6693,
      "carried": 6694,
      "calamine": 6695,
      "emia": 6696,
      "berry": 6697,
      "ifications": 6698,
      "partially": 6699,
      "clude": 6700,
      "125": 6701,
      "tude": 6702,
      "TIC": 6703,
      "TIME": 6704,
      "ASAP": 6705,
      "Whenever": 6706,
      "produced": 6707,
      "inject": 6708,
      "cussion": 6709,
      "closely": 6710,
      "layer": 6711,
      "clotting": 6712,
      "internet": 6713,
      "expector": 6714,
      "irritable": 6715,
      "Disorder": 6716,
      "anesthetic": 6717,
      "White": 6718,
      "codone": 6719,
      "IUD": 6720,
      "Male": 6721,
      "informative": 6722,
      "rheumatoid": 6723,
      "divertic": 6724,
      "fluttering": 6725,
      "TREAT": 6726,
      "Investigations": 6727,
      "globulin": 6728,
      "embryo": 6729,
      "Considering": 6730,
      "transient": 6731,
      "Emergency": 6732,
      "Detail": 6733,
      "Yoga": 6734,
      "diaphragm": 6735,
      "opposite": 6736,
      "destru": 6737,
      "asymptomatic": 6738,
      "Cough": 6739,
      "DIS": 6740,
      "DVT": 6741,
      "OTHER": 6742,
      "PR": 6743,
      "SIN": 6744,
      "TV": 6745,
      "TER": 6746,
      "TING": 6747,
      "ijuana": 6748,
      "lis": 6749,
      "lam": 6750,
      "tan": 6751,
      "text": 6752,
      "tears": 6753,
      "vice": 6754,
      "ws": 6755,
      "win": 6756,
      "infar": 6757,
      "redi": 6758,
      "reassure": 6759,
      "ension": 6760,
      "ora": 6761,
      "states": 6762,
      "sustain": 6763,
      "lodi": 6764,
      "amen": 6765,
      "abstinence": 6766,
      "neutro": 6767,
      "adays": 6768,
      "adryl": 6769,
      "prop": 6770,
      "motor": 6771,
      "prevention": 6772,
      "apical": 6773,
      "april": 6774,
      "friction": 6775,
      "dehydr": 6776,
      "trave": 6777,
      "ilt": 6778,
      "iltr": 6779,
      "Holder": 6780,
      "males": 6781,
      "ideal": 6782,
      "epi": 6783,
      "histopath": 6784,
      "indul": 6785,
      "knows": 6786,
      "regener": 6787,
      "stom": 6788,
      "donor": 6789,
      "corner": 6790,
      "correlation": 6791,
      "cartil": 6792,
      "Repe": 6793,
      "loosing": 6794,
      "fluconazole": 6795,
      "desper": 6796,
      "umbil": 6797,
      "penia": 6798,
      "penile": 6799,
      "analy": 6800,
      "neurosurgeon": 6801,
      "noticing": 6802,
      "resulted": 6803,
      "radio": 6804,
      "mildly": 6805,
      "OUN": 6806,
      "ITY": 6807,
      "complicated": 6808,
      "Neurologist": 6809,
      "staying": 6810,
      "LOG": 6811,
      "incidence": 6812,
      "benefits": 6813,
      "vomitting": 6814,
      "infest": 6815,
      "boiled": 6816,
      "variety": 6817,
      "xycycline": 6818,
      "Tuber": 6819,
      "interested": 6820,
      "hemorrhage": 6821,
      "suspicious": 6822,
      "urgently": 6823,
      "nodules": 6824,
      "nesium": 6825,
      "intolerance": 6826,
      "slipped": 6827,
      "borderline": 6828,
      "obtained": 6829,
      "residual": 6830,
      "indeed": 6831,
      "identified": 6832,
      ".).": 6833,
      "61": 6834,
      ":)": 6835,
      "Ane": 6836,
      "Dif": 6837,
      "Madam": 6838,
      "OB": 6839,
      "PH": 6840,
      "Ra": 6841,
      "Rep": 6842,
      "aur": 6843,
      "ficial": 6844,
      "loud": 6845,
      "schizophrenia": 6846,
      "ub": 6847,
      "thasone": 6848,
      "replace": 6849,
      "reproductive": 6850,
      "rehabil": 6851,
      "atal": 6852,
      "thecal": 6853,
      "ited": 6854,
      "hex": 6855,
      "icking": 6856,
      "fort": 6857,
      "sele": 6858,
      "exofen": 6859,
      "etr": 6860,
      "whom": 6861,
      "prove": 6862,
      "protru": 6863,
      "shed": 6864,
      "shingles": 6865,
      "degre": 6866,
      "decompression": 6867,
      "cystitis": 6868,
      "optim": 6869,
      "monthly": 6870,
      "Initi": 6871,
      "aryn": 6872,
      "104": 6873,
      "gra": 6874,
      "Always": 6875,
      "viol": 6876,
      "readmill": 6877,
      "marijuana": 6878,
      "sternum": 6879,
      "salicy": 6880,
      "calling": 6881,
      "wheat": 6882,
      "subsequ": 6883,
      "hyperplasia": 6884,
      "mitral": 6885,
      "dependent": 6886,
      "culi": 6887,
      "cuff": 6888,
      "trial": 6889,
      "route": 6890,
      "fathers": 6891,
      "shaft": 6892,
      "histamines": 6893,
      "Acet": 6894,
      "Plan": 6895,
      "pinching": 6896,
      "troubles": 6897,
      "induce": 6898,
      "gentle": 6899,
      "vertebrae": 6900,
      "stitches": 6901,
      "NEED": 6902,
      "aggravated": 6903,
      "CONT": 6904,
      "eruption": 6905,
      "peeling": 6906,
      "fallopian": 6907,
      "Practice": 6908,
      "Diagnosis": 6909,
      "varicose": 6910,
      "Bronchitis": 6911,
      "scientific": 6912,
      "explo": 6913,
      "attached": 6914,
      "endocrinologist": 6915,
      "spontaneously": 6916,
      "Progesterone": 6917,
      "eyel": 6918,
      "encourage": 6919,
      "pollution": 6920,
      "capsules": 6921,
      "Psychotherapy": 6922,
      "computer": 6923,
      "fatigued": 6924,
      "lodipine": 6925,
      "BY": 6926,
      "Ble": 6927,
      "Da": 6928,
      "Fi": 6929,
      "Fin": 6930,
      "GHT": 6931,
      "Ir": 6932,
      "MEN": 6933,
      "Respe": 6934,
      "Warm": 6935,
      "bis": 6936,
      "cli": 6937,
      "dex": 6938,
      "gur": 6939,
      "rus": 6940,
      "tel": 6941,
      "tact": 6942,
      "winter": 6943,
      "rec": 6944,
      "isol": 6945,
      "ingredi": 6946,
      "ediatr": 6947,
      "astic": 6948,
      "omic": 6949,
      "rota": 6950,
      "expen": 6951,
      "neither": 6952,
      "adjac": 6953,
      "motiv": 6954,
      "oneph": 6955,
      "popped": 6956,
      "afterwards": 6957,
      "bloody": 6958,
      "click": 6959,
      "Answer": 6960,
      "overnight": 6961,
      "carb": 6962,
      "cribed": 6963,
      "writ": 6964,
      "desonide": 6965,
      "fibrill": 6966,
      "0000": 6967,
      "severely": 6968,
      "hairline": 6969,
      "pulses": 6970,
      "100F": 6971,
      "safely": 6972,
      "temple": 6973,
      "retin": 6974,
      "enza": 6975,
      "gingival": 6976,
      "cholic": 6977,
      "February": 6978,
      "majority": 6979,
      "clotrimazole": 6980,
      "Diet": 6981,
      "ylori": 6982,
      "irritating": 6983,
      "antispas": 6984,
      "degeneration": 6985,
      "transplantation": 6986,
      "Everything": 6987,
      "squeezing": 6988,
      "circumstances": 6989,
      "photograph": 6990,
      "elder": 6991,
      "landed": 6992,
      "DAYS": 6993,
      "varicocele": 6994,
      "MRSA": 6995,
      "palpitation": 6996,
      "pleurisy": 6997,
      "osteoporosis": 6998,
      "cholecystectomy": 6999,
      "decongestants": 7000,
      "allevi": 7001,
      "Fatty": 7002,
      "Psychiatrist": 7003,
      "Whether": 7004,
      "cartilage": 7005,
      "exofenadine": 7006,
      "degrees": 7007,
      "adjacent": 7008,
      "77": 7009,
      "?!": 7010,
      "Bo": 7011,
      "CL": 7012,
      "Coun": 7013,
      "Chol": 7014,
      "Ep": 7015,
      "GR": 7016,
      "MOR": 7017,
      "PID": 7018,
      "PET": 7019,
      "Rheumato": 7020,
      "Ven": 7021,
      "Val": 7022,
      "fas": 7023,
      "ospor": 7024,
      "tone": 7025,
      "ination": 7026,
      "thre": 7027,
      "toward": 7028,
      "aty": 7029,
      "ale": 7030,
      "ofloxacin": 7031,
      "iced": 7032,
      "stents": 7033,
      "noise": 7034,
      "sec": 7035,
      "torn": 7036,
      "umes": 7037,
      "vera": 7038,
      "odor": 7039,
      "odia": 7040,
      "abras": 7041,
      "proved": 7042,
      "mobili": 7043,
      "hoe": 7044,
      "discontinue": 7045,
      "impossible": 7046,
      "spite": 7047,
      "gged": 7048,
      "clust": 7049,
      "agement": 7050,
      "antiviral": 7051,
      "inding": 7052,
      "index": 7053,
      "amination": 7054,
      "tylen": 7055,
      "bread": 7056,
      "cheese": 7057,
      "fevers": 7058,
      "patience": 7059,
      "impair": 7060,
      "recommendations": 7061,
      "ultaneously": 7062,
      "clovir": 7063,
      "puls": 7064,
      "subje": 7065,
      "famili": 7066,
      "tonsillitis": 7067,
      "100mg": 7068,
      "discharged": 7069,
      "provider": 7070,
      "spasmodic": 7071,
      "performance": 7072,
      "organic": 7073,
      "purpose": 7074,
      "ilities": 7075,
      "IDE": 7076,
      "permanently": 7077,
      "Hypo": 7078,
      "sneeze": 7079,
      "sode": 7080,
      "infiltr": 7081,
      "Augmenting": 7082,
      "molars": 7083,
      "compressing": 7084,
      "perfectly": 7085,
      "oxidil": 7086,
      "Type": 7087,
      "harder": 7088,
      "WHEN": 7089,
      "September": 7090,
      "inferential": 7091,
      "antidepressant": 7092,
      "Morning": 7093,
      "symtoms": 7094,
      "lactose": 7095,
      "diligence": 7096,
      "Anemia": 7097,
      "rehabilitation": 7098,
      "Again": 7099,
      "BT": 7100,
      "Bro": 7101,
      "Cost": 7102,
      "Few": 7103,
      "Folic": 7104,
      "GA": 7105,
      "HSG": 7106,
      "Ig": 7107,
      "Mr": 7108,
      "Our": 7109,
      "Oct": 7110,
      "Pen": 7111,
      "Ris": 7112,
      "Simp": 7113,
      "Ton": 7114,
      "Var": 7115,
      "iu": 7116,
      "litis": 7117,
      "oe": 7118,
      "pure": 7119,
      "vor": 7120,
      "vable": 7121,
      "india": 7122,
      "atus": 7123,
      "ofibr": 7124,
      "arising": 7125,
      "access": 7126,
      "aya": 7127,
      "idocaine": 7128,
      "congestive": 7129,
      "ketoconazole": 7130,
      "diam": 7131,
      "paining": 7132,
      "ceiling": 7133,
      "frag": 7134,
      "mono": 7135,
      "worsens": 7136,
      "impression": 7137,
      "ishing": 7138,
      "cig": 7139,
      "10th": 7140,
      "corn": 7141,
      "carotid": 7142,
      "icians": 7143,
      "legm": 7144,
      "IND": 7145,
      "interfer": 7146,
      "string": 7147,
      "ovulate": 7148,
      "tells": 7149,
      "thyrox": 7150,
      "pulp": 7151,
      "passage": 7152,
      "sessive": 7153,
      "14th": 7154,
      "describing": 7155,
      "triple": 7156,
      "triggers": 7157,
      "palliative": 7158,
      "modification": 7159,
      "spreads": 7160,
      "ICU": 7161,
      "lococ": 7162,
      "ART": 7163,
      "monitored": 7164,
      "phoid": 7165,
      "significantly": 7166,
      "tunnel": 7167,
      "stitute": 7168,
      "IGE": 7169,
      "pushing": 7170,
      "pushed": 7171,
      "parenchy": 7172,
      "boils": 7173,
      "drive": 7174,
      "score": 7175,
      "SHOULD": 7176,
      "ligaments": 7177,
      "thromb": 7178,
      "ibular": 7179,
      "inserted": 7180,
      "Management": 7181,
      "sciatica": 7182,
      "component": 7183,
      "MEDIC": 7184,
      "Multi": 7185,
      "hallucin": 7186,
      "foraminal": 7187,
      "Parkinson": 7188,
      "Currently": 7189,
      "Immuno": 7190,
      "destruction": 7191,
      "Acetaminophen": 7192,
      "Respected": 7193,
      "fibrillation": 7194,
      "84": 7195,
      "BR": 7196,
      "CRE": 7197,
      "FO": 7198,
      "Hb": 7199,
      "LS": 7200,
      "MB": 7201,
      "New": 7202,
      "Str": 7203,
      "STI": 7204,
      "Stop": 7205,
      "Vi": 7206,
      "Write": 7207,
      "b12": 7208,
      "dress": 7209,
      "gently": 7210,
      "oz": 7211,
      "wt": 7212,
      "zes": 7213,
      "zap": 7214,
      "ancies": 7215,
      "ongoing": 7216,
      "orrhea": 7217,
      "allop": 7218,
      "esis": 7219,
      "titude": 7220,
      "leaking": 7221,
      "hep": 7222,
      "hematologist": 7223,
      "concussion": 7224,
      "sole": 7225,
      "digestion": 7226,
      "ults": 7227,
      "gol": 7228,
      "poon": 7229,
      "sia": 7230,
      "monal": 7231,
      "update": 7232,
      "teas": 7233,
      "Hemato": 7234,
      "plex": 7235,
      "images": 7236,
      "clon": 7237,
      "antigen": 7238,
      "aryng": 7239,
      "cip": 7240,
      "Anal": 7241,
      "athyroid": 7242,
      "otin": 7243,
      "prin": 7244,
      "selves": 7245,
      "avoidance": 7246,
      "fire": 7247,
      "ova": 7248,
      "cran": 7249,
      "smoked": 7250,
      "diaper": 7251,
      "occurren": 7252,
      "lubr": 7253,
      "closer": 7254,
      "miles": 7255,
      "phlegm": 7256,
      "jogging": 7257,
      "ostatic": 7258,
      "daughters": 7259,
      "kills": 7260,
      "transmit": 7261,
      "fallen": 7262,
      "modifications": 7263,
      "orig": 7264,
      "august": 7265,
      "scale": 7266,
      "ointments": 7267,
      "recovering": 7268,
      "straining": 7269,
      "LDL": 7270,
      "satisfy": 7271,
      "holder": 7272,
      "elbows": 7273,
      "Beta": 7274,
      "vertebra": 7275,
      "glyce": 7276,
      "superficial": 7277,
      "tolerate": 7278,
      "practor": 7279,
      "characterized": 7280,
      "hemorrhoids": 7281,
      "electric": 7282,
      "blurred": 7283,
      "Patient": 7284,
      "Azithromycin": 7285,
      "wanna": 7286,
      "epileptic": 7287,
      "guidelines": 7288,
      "gingivitis": 7289,
      "mcg": 7290,
      "Tuberculosis": 7291,
      "hexidine": 7292,
      "tylenol": 7293,
      "sodeoxy": 7294,
      "Chemo": 7295,
      "Fl": 7296,
      "Fer": 7297,
      "Fru": 7298,
      "Friend": 7299,
      "GY": 7300,
      "Oc": 7301,
      "RS": 7302,
      "Redu": 7303,
      "Sim": 7304,
      "SUR": 7305,
      "SCAN": 7306,
      "Tb": 7307,
      "TEST": 7308,
      "VING": 7309,
      "Wi": 7310,
      "Where": 7311,
      "cross": 7312,
      "dream": 7313,
      "fic": 7314,
      "hp": 7315,
      "ht": 7316,
      "master": 7317,
      "phal": 7318,
      "sitis": 7319,
      "scopic": 7320,
      "wen": 7321,
      "rear": 7322,
      "town": 7323,
      "icit": 7324,
      "nost": 7325,
      "accept": 7326,
      "wipe": 7327,
      "wiped": 7328,
      "loid": 7329,
      "qua": 7330,
      "quad": 7331,
      "terol": 7332,
      "moterol": 7333,
      "unnecessarily": 7334,
      "systo": 7335,
      "monday": 7336,
      "trace": 7337,
      "disab": 7338,
      "worris": 7339,
      "imag": 7340,
      "spend": 7341,
      "ggish": 7342,
      "cline": 7343,
      "athle": 7344,
      "carboy": 7345,
      "whose": 7346,
      "workup": 7347,
      "virt": 7348,
      "obsessive": 7349,
      "marker": 7350,
      "matically": 7351,
      "mornings": 7352,
      "ashes": 7353,
      "Contact": 7354,
      "attend": 7355,
      "whee": 7356,
      "bald": 7357,
      "anged": 7358,
      "personally": 7359,
      "budesonide": 7360,
      "grows": 7361,
      "localizing": 7362,
      "testicular": 7363,
      "nauseated": 7364,
      "scary": 7365,
      "Took": 7366,
      "shoes": 7367,
      "address": 7368,
      "History": 7369,
      "cutting": 7370,
      "rinse": 7371,
      "Plus": 7372,
      "tubercular": 7373,
      "syncope": 7374,
      "Feb": 7375,
      "consumed": 7376,
      "company": 7377,
      "reached": 7378,
      "Discus": 7379,
      "lamy": 7380,
      "scratching": 7381,
      "triggered": 7382,
      "citrate": 7383,
      "lactic": 7384,
      "characteristic": 7385,
      "ischemia": 7386,
      "latest": 7387,
      "existing": 7388,
      "Trans": 7389,
      "Cervical": 7390,
      "laparoscopy": 7391,
      "scientifically": 7392,
      "osteophy": 7393,
      "levocetirizine": 7394,
      "ventricular": 7395,
      "menopause": 7396,
      "TABLE": 7397,
      "exhausted": 7398,
      "humid": 7399,
      "compromised": 7400,
      "Indian": 7401,
      "Wait": 7402,
      "Wednesday": 7403,
      "Ideally": 7404,
      "hereditary": 7405,
      "Orthopedic": 7406,
      "Bleeding": 7407,
      "written": 7408,
      "odiazep": 7409,
      "worrisome": 7410,
      "96": 7411,
      "Bangalore": 7412,
      "CKD": 7413,
      "Del": 7414,
      "Lung": 7415,
      "SER": 7416,
      "URE": 7417,
      "Ver": 7418,
      "Vol": 7419,
      "Wear": 7420,
      "dup": 7421,
      "eme": 7422,
      "fur": 7423,
      "fere": 7424,
      "kine": 7425,
      "oli": 7426,
      "rates": 7427,
      "sclerosis": 7428,
      "treadmill": 7429,
      "wave": 7430,
      "inst": 7431,
      "insist": 7432,
      "insuffici": 7433,
      "recall": 7434,
      "edge": 7435,
      "stre": 7436,
      "stri": 7437,
      "formoterol": 7438,
      "abuse": 7439,
      "mem": 7440,
      "ested": 7441,
      "uling": 7442,
      "prehen": 7443,
      "cathe": 7444,
      "poin": 7445,
      "demand": 7446,
      "tee": 7447,
      "iles": 7448,
      "dissolve": 7449,
      "erectile": 7450,
      "olar": 7451,
      "olism": 7452,
      "cleans": 7453,
      "Angi": 7454,
      "Almost": 7455,
      "20mg": 7456,
      "facility": 7457,
      "bably": 7458,
      "manner": 7459,
      "Doing": 7460,
      "intervertebral": 7461,
      "finds": 7462,
      "paroxetine": 7463,
      "wanting": 7464,
      "strate": 7465,
      "ANA": 7466,
      "ANTI": 7467,
      "12th": 7468,
      "mentioning": 7469,
      "denture": 7470,
      "presently": 7471,
      "private": 7472,
      "restless": 7473,
      "phine": 7474,
      "passages": 7475,
      "ORS": 7476,
      "killing": 7477,
      "palsy": 7478,
      "news": 7479,
      "complained": 7480,
      "sincerely": 7481,
      "scab": 7482,
      "opened": 7483,
      "operate": 7484,
      "temporal": 7485,
      "aneury": 7486,
      "THEY": 7487,
      "jelly": 7488,
      "Herpes": 7489,
      "gestational": 7490,
      "Lots": 7491,
      "market": 7492,
      "brownish": 7493,
      "resection": 7494,
      "disturbing": 7495,
      "stimulation": 7496,
      "bearing": 7497,
      "dilated": 7498,
      "survive": 7499,
      "assuming": 7500,
      "tolerance": 7501,
      "massive": 7502,
      "peels": 7503,
      "ogenic": 7504,
      "mandatory": 7505,
      "neuralgia": 7506,
      "convul": 7507,
      "Early": 7508,
      "pharmac": 7509,
      "prophylaxis": 7510,
      "thrombosis": 7511,
      "Stomach": 7512,
      "Amoxicillin": 7513,
      "whicChatDoc": 7514,
      "aryngitis": 7515,
      "Discuss": 7516,
      "lamydia": 7517,
      "insufficiency": 7518,
      "aneurysm": 7519,
      "5ml": 7520,
      "88": 7521,
      "::": 7522,
      "Bl": 7523,
      "Bas": 7524,
      "BAD": 7525,
      "Cold": 7526,
      "JU": 7527,
      "Oxy": 7528,
      "Pe": 7529,
      "Smo": 7530,
      "Urin": 7531,
      "WHO": 7532,
      "gp": 7533,
      "gs": 7534,
      "pts": 7535,
      "ride": 7536,
      "sav": 7537,
      "uitary": 7538,
      "xia": 7539,
      "inary": 7540,
      "ering": 7541,
      "retract": 7542,
      "record": 7543,
      "atous": 7544,
      "alarm": 7545,
      "ites": 7546,
      "itating": 7547,
      "hey": 7548,
      "ica": 7549,
      "icle": 7550,
      "nov": 7551,
      "seat": 7552,
      "supr": 7553,
      "acher": 7554,
      "wid": 7555,
      "excre": 7556,
      "vering": 7557,
      "lier": 7558,
      "adding": 7559,
      "terri": 7560,
      "digestive": 7561,
      "extended": 7562,
      "unit": 7563,
      "dots": 7564,
      "mentally": 7565,
      "butter": 7566,
      "friday": 7567,
      "duod": 7568,
      "improper": 7569,
      "Hopefully": 7570,
      "Inflam": 7571,
      "done1": 7572,
      "flank": 7573,
      "flora": 7574,
      "thrush": 7575,
      "blades": 7576,
      "examinations": 7577,
      "prit": 7578,
      "readings": 7579,
      "choose": 7580,
      "prescribing": 7581,
      "interfere": 7582,
      "paralysis": 7583,
      "aked": 7584,
      "bursitis": 7585,
      "patency": 7586,
      "awful": 7587,
      "subcutaneous": 7588,
      "prevents": 7589,
      "lipase": 7590,
      "shake": 7591,
      "profloxacin": 7592,
      "blockers": 7593,
      "Prote": 7594,
      "Probably": 7595,
      "sticky": 7596,
      "eyebrow": 7597,
      "plays": 7598,
      "maintained": 7599,
      "statitis": 7600,
      "gels": 7601,
      "sunday": 7602,
      "paper": 7603,
      "potent": 7604,
      "angiogram": 7605,
      "cerebe": 7606,
      "embolism": 7607,
      "bpm": 7608,
      "Psycho": 7609,
      "cups": 7610,
      "ALLER": 7611,
      "Typhoid": 7612,
      "PROBLE": 7613,
      "neurom": 7614,
      "microscopy": 7615,
      "progressively": 7616,
      "prednisolone": 7617,
      "observe": 7618,
      "candida": 7619,
      "vacu": 7620,
      "vacation": 7621,
      "epidural": 7622,
      "rheumatologist": 7623,
      "objects": 7624,
      "frustrated": 7625,
      "diuretics": 7626,
      "soothing": 7627,
      "apparently": 7628,
      "administered": 7629,
      "YEARS": 7630,
      "Montelukast": 7631,
      "plaque": 7632,
      "suspicion": 7633,
      "Endoscopy": 7634,
      "HSV": 7635,
      "travelling": 7636,
      "elderly": 7637,
      "Costco": 7638,
      "diameter": 7639,
      "cigaret": 7640,
      "golf": 7641,
      "sodeoxycholic": 7642,
      "nostril": 7643,
      "virtual": 7644,
      "membr": 7645,
      ",.": 7646,
      "86": 7647,
      "ACT": 7648,
      "Fast": 7649,
      "FEE": 7650,
      "Hal": 7651,
      "Lump": 7652,
      "MIN": 7653,
      "Max": 7654,
      "Ome": 7655,
      "Ps": 7656,
      "Sta": 7657,
      "Ure": 7658,
      "WHI": 7659,
      "bun": 7660,
      "cms": 7661,
      "dat": 7662,
      "ee": 7663,
      "ev": 7664,
      "fif": 7665,
      "fexofenadine": 7666,
      "gabapentin": 7667,
      "kers": 7668,
      "ls": 7669,
      "ologies": 7670,
      "pun": 7671,
      "incomplete": 7672,
      "thi": 7673,
      "anax": 7674,
      "resolution": 7675,
      "asap": 7676,
      "arched": 7677,
      "ico": 7678,
      "rock": 7679,
      "entrap": 7680,
      "aindic": 7681,
      "chocol": 7682,
      "limp": 7683,
      "ody": 7684,
      "abor": 7685,
      "necro": 7686,
      "quarter": 7687,
      "uten": 7688,
      "diagon": 7689,
      "proven": 7690,
      "ulatory": 7691,
      "unwell": 7692,
      "predic": 7693,
      "Three": 7694,
      "pool": 7695,
      "nowadays": 7696,
      "coil": 7697,
      "trapped": 7698,
      "Hep": 7699,
      "word": 7700,
      "spong": 7701,
      "herself": 7702,
      "tingly": 7703,
      "opril": 7704,
      "save": 7705,
      "spell": 7706,
      "heads": 7707,
      "pron": 7708,
      "practi": 7709,
      "series": 7710,
      "sedi": 7711,
      "lowering": 7712,
      "effected": 7713,
      "reliever": 7714,
      "encephal": 7715,
      "obsession": 7716,
      "parathyroid": 7717,
      "icked": 7718,
      "THY": 7719,
      "lightly": 7720,
      "ashed": 7721,
      "penet": 7722,
      "homeopathy": 7723,
      "turmeric": 7724,
      "Short": 7725,
      "buy": 7726,
      "probability": 7727,
      "contraindic": 7728,
      "Depression": 7729,
      "stems": 7730,
      "ITP": 7731,
      "16th": 7732,
      "orthostatic": 7733,
      "illnesses": 7734,
      "addic": 7735,
      "Direct": 7736,
      "strokes": 7737,
      "pituitary": 7738,
      "receiving": 7739,
      "Lower": 7740,
      "ocyte": 7741,
      "BEEN": 7742,
      "consists": 7743,
      "Food": 7744,
      "reaching": 7745,
      "infant": 7746,
      "erupt": 7747,
      "Metformin": 7748,
      "Cetirizine": 7749,
      "slee": 7750,
      "AFB": 7751,
      "Diagnostic": 7752,
      "squeezed": 7753,
      "antidepressants": 7754,
      "Breast": 7755,
      "attempt": 7756,
      "eliminate": 7757,
      "faith": 7758,
      "Creatinine": 7759,
      "Severe": 7760,
      "Abdominal": 7761,
      "benzodiazep": 7762,
      "honest": 7763,
      "Definite": 7764,
      "fissure": 7765,
      "catheter": 7766,
      "625": 7767,
      "97": 7768,
      "DNA": 7769,
      "Dizz": 7770,
      "Happy": 7771,
      "OLOG": 7772,
      "Pal": 7773,
      "Pus": 7774,
      "PUB": 7775,
      "RCT": 7776,
      "Scal": 7777,
      "Ti": 7778,
      "TES": 7779,
      "VA": 7780,
      "destro": 7781,
      "hs": 7782,
      "ka": 7783,
      "kno": 7784,
      "lase": 7785,
      "lines": 7786,
      "labs": 7787,
      "mac": 7788,
      "puncture": 7789,
      "shaving": 7790,
      "soci": 7791,
      "tococ": 7792,
      "ories": 7793,
      "lect": 7794,
      "sema": 7795,
      "seminal": 7796,
      "road": 7797,
      "idy": 7798,
      "enta": 7799,
      "tioner": 7800,
      "feature": 7801,
      "occured": 7802,
      "conclusive": 7803,
      "uted": 7804,
      "digest": 7805,
      "prolol": 7806,
      "taper": 7807,
      "blem": 7808,
      "trache": 7809,
      "trade": 7810,
      "upuncture": 7811,
      "ilateral": 7812,
      "disappeared": 7813,
      "span": 7814,
      "hyster": 7815,
      "claim": 7816,
      "context": 7817,
      "contents": 7818,
      "regurg": 7819,
      "amethasone": 7820,
      "calori": 7821,
      "para": 7822,
      "acidic": 7823,
      "15th": 7824,
      "recogn": 7825,
      "balances": 7826,
      "appearing": 7827,
      "specialists": 7828,
      "triglycer": 7829,
      "heavily": 7830,
      "contraction": 7831,
      "contractions": 7832,
      "sweet": 7833,
      "effectively": 7834,
      "Lip": 7835,
      "rinsing": 7836,
      "circle": 7837,
      "Abnormal": 7838,
      "PCOD": 7839,
      "nutrients": 7840,
      "pubic": 7841,
      "reverse": 7842,
      "Betadine": 7843,
      "baseline": 7844,
      "focal": 7845,
      "weighs": 7846,
      "AKT": 7847,
      "smells": 7848,
      "classical": 7849,
      "expectancy": 7850,
      "strictly": 7851,
      "absorbed": 7852,
      "neurofibr": 7853,
      "aerobic": 7854,
      "alkaline": 7855,
      "vaccinated": 7856,
      "Allergic": 7857,
      "Calcium": 7858,
      "Certain": 7859,
      "resolving": 7860,
      "names": 7861,
      "trusting": 7862,
      "magnesium": 7863,
      "lethargic": 7864,
      "ambulatory": 7865,
      "racing": 7866,
      "aortic": 7867,
      "separate": 7868,
      "cosmetic": 7869,
      "respectively": 7870,
      "chiropractor": 7871,
      "mammogram": 7872,
      "methylcobalamine": 7873,
      "defects": 7874,
      "Relax": 7875,
      "texture": 7876,
      "desperate": 7877,
      "Initially": 7878,
      "expensive": 7879,
      "Multiple": 7880,
      "calorie": 7881,
      "**": 7882,
      "74": 7883,
      "A1": 7884,
      "Clean": 7885,
      "DM": 7886,
      "Dan": 7887,
      "Elev": 7888,
      "HCV": 7889,
      "LT": 7890,
      "Long": 7891,
      "Mu": 7892,
      "Men": 7893,
      "Nerve": 7894,
      "OS": 7895,
      "Pneum": 7896,
      "Pediatr": 7897,
      "Stu": 7898,
      "TT": 7899,
      "diness": 7900,
      "eath": 7901,
      "ekg": 7902,
      "fused": 7903,
      "gender": 7904,
      "ition": 7905,
      "nex": 7906,
      "olive": 7907,
      "ucle": 7908,
      "wax": 7909,
      "react": 7910,
      "remission": 7911,
      "towel": 7912,
      "tomato": 7913,
      "lem": 7914,
      "hem": 7915,
      "sea": 7916,
      "entral": 7917,
      "oder": 7918,
      "tery": 7919,
      "mol": 7920,
      "units": 7921,
      "precise": 7922,
      "ception": 7923,
      "ifies": 7924,
      "tap": 7925,
      "allic": 7926,
      "apsed": 7927,
      "systems": 7928,
      "deform": 7929,
      "upto": 7930,
      "ducts": 7931,
      "blocks": 7932,
      "plu": 7933,
      "sprout": 7934,
      "hysema": 7935,
      "clindamycin": 7936,
      "geminal": 7937,
      "domin": 7938,
      "periodic": 7939,
      "Altern": 7940,
      "vigor": 7941,
      "sertraline": 7942,
      "themselves": 7943,
      "glion": 7944,
      "acids": 7945,
      "garments": 7946,
      "pants": 7947,
      "holiday": 7948,
      "pulsive": 7949,
      "vomits": 7950,
      "turing": 7951,
      "nie": 7952,
      "gyne": 7953,
      "beneath": 7954,
      "REG": 7955,
      "REP": 7956,
      "docter": 7957,
      "LEFT": 7958,
      "2007": 7959,
      "ADD": 7960,
      "fined": 7961,
      "easier": 7962,
      "mesh": 7963,
      "Female": 7964,
      "Advise": 7965,
      "gaining": 7966,
      "irritant": 7967,
      "HAVING": 7968,
      "prompt": 7969,
      "striction": 7970,
      "predict": 7971,
      "fibers": 7972,
      "nipples": 7973,
      "picked": 7974,
      "percentage": 7975,
      "restricted": 7976,
      "fighting": 7977,
      "chlorhexidine": 7978,
      "warfarin": 7979,
      "levocetrizine": 7980,
      "concieve": 7981,
      "glasses": 7982,
      "intervals": 7983,
      "warts": 7984,
      "bubble": 7985,
      "diuretic": 7986,
      "moisturizer": 7987,
      "introdu": 7988,
      "suicide": 7989,
      "begun": 7990,
      "establish": 7991,
      "adhesions": 7992,
      "PVC": 7993,
      "Bilirubin": 7994,
      "inquiry": 7995,
      "infestation": 7996,
      "Report": 7997,
      "thyroxine": 7998,
      "neuromuscular": 7999,
      "entrapment": 8000,
      "2x": 8001,
      "69": 8002,
      "73": 8003,
      "79": 8004,
      "LAST": 8005,
      "Mang": 8006,
      "OM": 8007,
      "Pap": 8008,
      "PCO": 8009,
      "REC": 8010,
      "San": 8011,
      "Sam": 8012,
      "Tina": 8013,
      "Talk": 8014,
      "Using": 8015,
      "dand": 8016,
      "eine": 8017,
      "mim": 8018,
      "mirr": 8019,
      "nil": 8020,
      "rab": 8021,
      "skills": 8022,
      "tough": 8023,
      "vul": 8024,
      "warr": 8025,
      "input": 8026,
      "inopril": 8027,
      "ano": 8028,
      "refle": 8029,
      "atation": 8030,
      "aler": 8031,
      "tible": 8032,
      "arth": 8033,
      "artic": 8034,
      "hell": 8035,
      "omal": 8036,
      "lytic": 8037,
      "suspec": 8038,
      "acial": 8039,
      "myel": 8040,
      "excer": 8041,
      "torso": 8042,
      "tories": 8043,
      "occult": 8044,
      "ochr": 8045,
      "occup": 8046,
      "adic": 8047,
      "melan": 8048,
      "que": 8049,
      "diasto": 8050,
      "omegaly": 8051,
      "dot": 8052,
      "hatase": 8053,
      "cectomy": 8054,
      "oneal": 8055,
      "daytime": 8056,
      "shut": 8057,
      "willing": 8058,
      "apar": 8059,
      "device": 8060,
      "monia": 8061,
      "needy": 8062,
      "imbalances": 8063,
      "pless": 8064,
      "spit": 8065,
      "testes": 8066,
      "biop": 8067,
      "HelloWelcome": 8068,
      "visits": 8069,
      "Inj": 8070,
      "Instead": 8071,
      "Review": 8072,
      "tensed": 8073,
      "solu": 8074,
      "ERCP": 8075,
      "swells": 8076,
      "INFE": 8077,
      "xime": 8078,
      "vestibular": 8079,
      "ANS": 8080,
      "kinds": 8081,
      "signal": 8082,
      "breathless": 8083,
      "surgeons": 8084,
      "naproxen": 8085,
      "ECHO": 8086,
      "metallic": 8087,
      "risperidone": 8088,
      "RED": 8089,
      "OUS": 8090,
      "Getting": 8091,
      "bilious": 8092,
      "!!!!": 8093,
      "blockages": 8094,
      "distance": 8095,
      "200mg": 8096,
      "author": 8097,
      "Until": 8098,
      "vegetarian": 8099,
      "remained": 8100,
      "AMH": 8101,
      "Append": 8102,
      "darker": 8103,
      "scarring": 8104,
      "Moni": 8105,
      "thesis": 8106,
      "accidentally": 8107,
      "consistency": 8108,
      "linked": 8109,
      "granddaughter": 8110,
      "ranial": 8111,
      "toxins": 8112,
      "scrotal": 8113,
      "scope": 8114,
      "narrow": 8115,
      "bicep": 8116,
      "Quit": 8117,
      "amylase": 8118,
      "quiet": 8119,
      "madam": 8120,
      "spondylitis": 8121,
      "decayed": 8122,
      "mineral": 8123,
      "nails": 8124,
      "carrying": 8125,
      "convin": 8126,
      "intrac": 8127,
      "electrical": 8128,
      "desire": 8129,
      "desired": 8130,
      "fistula": 8131,
      "Ovulation": 8132,
      "differentiate": 8133,
      "Hormonal": 8134,
      "ptyline": 8135,
      "angioplasty": 8136,
      "modalities": 8137,
      "Colonoscopy": 8138,
      "Causes": 8139,
      "consequences": 8140,
      "impingement": 8141,
      "simultaneously": 8142,
      "propion": 8143,
      "umbilical": 8144,
      "alleviate": 8145,
      "threw": 8146,
      "atypical": 8147,
      "Hematoma": 8148,
      "Fruits": 8149,
      "kinetic": 8150,
      "pointing": 8151,
      "practitioner": 8152,
      "sedimentation": 8153,
      "neurofibroma": 8154,
      "Manga": 8155,
      "mirror": 8156,
      ")?": 8157,
      "115": 8158,
      "81": 8159,
      "82": 8160,
      "?.": 8161,
      "Brief": 8162,
      "CC": 8163,
      "DON": 8164,
      "Ever": 8165,
      "Jaundice": 8166,
      "Ma": 8167,
      "NG": 8168,
      "RU": 8169,
      "Sup": 8170,
      "Sleep": 8171,
      "Syr": 8172,
      "Ye": 8173,
      "cs": 8174,
      "l5": 8175,
      "nac": 8176,
      "og": 8177,
      "pylori": 8178,
      "raz": 8179,
      "scream": 8180,
      "sending": 8181,
      "void": 8182,
      "inadequate": 8183,
      "tht": 8184,
      "rely": 8185,
      "reci": 8186,
      "toin": 8187,
      "enic": 8188,
      "almonds": 8189,
      "arcoma": 8190,
      "hay": 8191,
      "stings": 8192,
      "rocin": 8193,
      "ionally": 8194,
      "amoe": 8195,
      "ocon": 8196,
      "concer": 8197,
      "ursodeoxycholic": 8198,
      "ads": 8199,
      "meant": 8200,
      "megaly": 8201,
      "usage": 8202,
      "pros": 8203,
      "extend": 8204,
      "unexplained": 8205,
      "peric": 8206,
      "shunt": 8207,
      "pole": 8208,
      "comed": 8209,
      "compressed": 8210,
      "teacher": 8211,
      "spent": 8212,
      "hyp": 8213,
      "clue": 8214,
      "opi": 8215,
      "antiallergic": 8216,
      "anticoag": 8217,
      "norm": 8218,
      "regulate": 8219,
      "efaction": 8220,
      "effort": 8221,
      "posing": 8222,
      "restored": 8223,
      "avail": 8224,
      "board": 8225,
      "curious": 8226,
      "Thankyou": 8227,
      "bland": 8228,
      "vium": 8229,
      "lesser": 8230,
      "apping": 8231,
      "positions": 8232,
      "smokes": 8233,
      "garlic": 8234,
      "pens": 8235,
      "fullness": 8236,
      "luvium": 8237,
      "breaking": 8238,
      "hyperthyroidism": 8239,
      "sensory": 8240,
      "anky": 8241,
      "Dont": 8242,
      "absent": 8243,
      "modify": 8244,
      "vagin": 8245,
      "repeti": 8246,
      "ICAL": 8247,
      "retro": 8248,
      "viruses": 8249,
      "Sub": 8250,
      "referral": 8251,
      "deterior": 8252,
      "parent": 8253,
      "dusting": 8254,
      "publ": 8255,
      "expecting": 8256,
      "scrap": 8257,
      "worsened": 8258,
      "successfully": 8259,
      "swallowed": 8260,
      "ocyto": 8261,
      "repeatedly": 8262,
      "costs": 8263,
      "embarr": 8264,
      "fortunate": 8265,
      "depressants": 8266,
      "Panama": 8267,
      "fainting": 8268,
      "Diabetic": 8269,
      "metastatic": 8270,
      "Motility": 8271,
      "Benign": 8272,
      "cousin": 8273,
      "madin": 8274,
      "restriction": 8275,
      "Green": 8276,
      "XXXX": 8277,
      "hunger": 8278,
      "laparoscopic": 8279,
      "nodal": 8280,
      "Root": 8281,
      "decongestant": 8282,
      "leakage": 8283,
      "pleasure": 8284,
      "granul": 8285,
      "suicidal": 8286,
      "sluggish": 8287,
      "influenza": 8288,
      "struggling": 8289,
      "acceptable": 8290,
      "injectable": 8291,
      "diverticulitis": 8292,
      "TREATMENT": 8293,
      "window": 8294,
      "violent": 8295,
      "Fibro": 8296,
      "cluster": 8297,
      "lococcus": 8298,
      "parenchymal": 8299,
      "occurrence": 8300,
      "wheeze": 8301,
      "Psoriasis": 8302,
      "Alo": 8303,
      "Aspir": 8304,
      "BM": 8305,
      "BEC": 8306,
      "Cat": 8307,
      "Either": 8308,
      "Find": 8309,
      "Fung": 8310,
      "Fibr": 8311,
      "Gabapentin": 8312,
      "L3": 8313,
      "Lapar": 8314,
      "Mel": 8315,
      "Nep": 8316,
      "PATI": 8317,
      "Red": 8318,
      "Stal": 8319,
      "TY": 8320,
      "TRI": 8321,
      "TAL": 8322,
      "Zinc": 8323,
      "dint": 8324,
      "dnt": 8325,
      "fly": 8326,
      "foul": 8327,
      "nour": 8328,
      "othorax": 8329,
      "pcos": 8330,
      "rof": 8331,
      "rink": 8332,
      "sor": 8333,
      "story": 8334,
      "tack": 8335,
      "uti": 8336,
      "zone": 8337,
      "onucle": 8338,
      "oups": 8339,
      "tologist": 8340,
      "isis": 8341,
      "edist": 8342,
      "bee": 8343,
      "sept": 8344,
      "sue": 8345,
      "roll": 8346,
      "conjun": 8347,
      "chart": 8348,
      "canker": 8349,
      "abcess": 8350,
      "newer": 8351,
      "endoscopic": 8352,
      "tered": 8353,
      "ulum": 8354,
      "peroxide": 8355,
      "astro": 8356,
      "december": 8357,
      "ilst": 8358,
      "disappointment": 8359,
      "Howell": 8360,
      "anted": 8361,
      "bike": 8362,
      "antibacterial": 8363,
      "antioxidants": 8364,
      "medicated": 8365,
      "oloft": 8366,
      "dometri": 8367,
      "grace": 8368,
      "mini": 8369,
      "calculi": 8370,
      "everywhere": 8371,
      "Alle": 8372,
      "faced": 8373,
      "facet": 8374,
      "hopefully": 8375,
      "fib": 8376,
      "ovascular": 8377,
      "osal": 8378,
      "walks": 8379,
      "mias": 8380,
      "burp": 8381,
      "Contro": 8382,
      "ONG": 8383,
      "guard": 8384,
      "lifetime": 8385,
      "included": 8386,
      "clothing": 8387,
      "confirmatory": 8388,
      "nai": 8389,
      "spoon": 8390,
      "rising": 8391,
      "steroidal": 8392,
      "tendons": 8393,
      "responds": 8394,
      "transmission": 8395,
      "walked": 8396,
      "tons": 8397,
      "---": 8398,
      "fungals": 8399,
      "insom": 8400,
      "defined": 8401,
      "13th": 8402,
      "grew": 8403,
      "jaws": 8404,
      "ADV": 8405,
      "PTSD": 8406,
      "Antibiotic": 8407,
      "170": 8408,
      ",,,,": 8409,
      "placenta": 8410,
      "Examination": 8411,
      "28th": 8412,
      "intensive": 8413,
      "succeed": 8414,
      "steady": 8415,
      "exams": 8416,
      "hitting": 8417,
      "sunlight": 8418,
      "balls": 8419,
      "strained": 8420,
      "millions": 8421,
      "trophy": 8422,
      "returns": 8423,
      "laugh": 8424,
      "preferred": 8425,
      "walls": 8426,
      "HOW": 8427,
      "triggering": 8428,
      "trained": 8429,
      "pepper": 8430,
      "MIL": 8431,
      "UNDER": 8432,
      "estrol": 8433,
      "pieces": 8434,
      "congested": 8435,
      "oozing": 8436,
      "mechanical": 8437,
      "Allergy": 8438,
      "PPI": 8439,
      "HBV": 8440,
      "HDL": 8441,
      "stinging": 8442,
      "STDs": 8443,
      "satisfactory": 8444,
      "yyyy": 8445,
      "Cardiologist": 8446,
      "Posi": 8447,
      "lightheadedness": 8448,
      "peritonitis": 8449,
      "Levoc": 8450,
      "particles": 8451,
      "climbing": 8452,
      "digital": 8453,
      "Cipro": 8454,
      "atrophy": 8455,
      "trimester": 8456,
      "Repeat": 8457,
      "salicylic": 8458,
      "abrasion": 8459,
      "teaspoon": 8460,
      "Smoking": 8461,
      "Urinary": 8462,
      "saved": 8463,
      "Dizziness": 8464,
      "diastolic": 8465,
      "biopsi": 8466,
      "intracranial": 8467,
      "onucleosis": 8468,
      "71": 8469,
      "92": 8470,
      "94": 8471,
      "Afr": 8472,
      "CI": 8473,
      "Dar": 8474,
      "ECT": 8475,
      "GEN": 8476,
      "IVE": 8477,
      "KID": 8478,
      "Las": 8479,
      "Na": 8480,
      "Nause": 8481,
      "Radi": 8482,
      "Tur": 8483,
      "bought": 8484,
      "cab": 8485,
      "dan": 8486,
      "dated": 8487,
      "flos": 8488,
      "fumes": 8489,
      "gal": 8490,
      "game": 8491,
      "jus": 8492,
      "ware": 8493,
      "yed": 8494,
      "zhe": 8495,
      "thirst": 8496,
      "onic": 8497,
      "resume": 8498,
      "ats": 8499,
      "atleast": 8500,
      "alve": 8501,
      "stetr": 8502,
      "seu": 8503,
      "sum": 8504,
      "idi": 8505,
      "excised": 8506,
      "amit": 8507,
      "construction": 8508,
      "lives": 8509,
      "lifer": 8510,
      "web": 8511,
      "prolifer": 8512,
      "mos": 8513,
      "mosqu": 8514,
      "unsure": 8515,
      "rim": 8516,
      "presume": 8517,
      "shop": 8518,
      "pota": 8519,
      "aps": 8520,
      "fraction": 8521,
      "cooking": 8522,
      "artan": 8523,
      "hobia": 8524,
      "needing": 8525,
      "sprays": 8526,
      "cyte": 8527,
      "opport": 8528,
      "biotin": 8529,
      "antifungals": 8530,
      "ventive": 8531,
      "assing": 8532,
      "rightly": 8533,
      "ola": 8534,
      "105": 8535,
      "relapse": 8536,
      "critical": 8537,
      "Recurrent": 8538,
      "sions": 8539,
      "physicians": 8540,
      "20th": 8541,
      "moral": 8542,
      "impaired": 8543,
      "drs": 8544,
      "halogen": 8545,
      "liters": 8546,
      "adviced": 8547,
      "recommendation": 8548,
      "restroom": 8549,
      "cloth": 8550,
      "hospitalization": 8551,
      "misunderstand": 8552,
      "ORT": 8553,
      "angle": 8554,
      "lymphocytes": 8555,
      "consideration": 8556,
      "Shar": 8557,
      "prevented": 8558,
      "bacterium": 8559,
      "25mg": 8560,
      "shortly": 8561,
      "contract": 8562,
      "Consultant": 8563,
      "rupturing": 8564,
      "18th": 8565,
      "fails": 8566,
      "ACE": 8567,
      "Active": 8568,
      "controllable": 8569,
      "addiction": 8570,
      "ttage": 8571,
      "Sugar": 8572,
      "placing": 8573,
      "layers": 8574,
      "pinpoint": 8575,
      "Endometri": 8576,
      "COMP": 8577,
      "ABOUT": 8578,
      "stretched": 8579,
      "plantar": 8580,
      "emphysema": 8581,
      "fitted": 8582,
      "occasions": 8583,
      "ocytosis": 8584,
      "structural": 8585,
      "effic": 8586,
      "flox": 8587,
      "scratched": 8588,
      "microbi": 8589,
      "stenting": 8590,
      "CELL": 8591,
      "figured": 8592,
      "achieved": 8593,
      "sprained": 8594,
      "sepsis": 8595,
      "nephro": 8596,
      "III": 8597,
      "insertion": 8598,
      "Neurosurgeon": 8599,
      "retainer": 8600,
      "ritin": 8601,
      "shivering": 8602,
      "thinners": 8603,
      "calcified": 8604,
      "calcification": 8605,
      "peritoneal": 8606,
      "suscep": 8607,
      "ausal": 8608,
      "clomid": 8609,
      "Detailed": 8610,
      "neutrophil": 8611,
      "regeneration": 8612,
      "onephritis": 8613,
      "Rheumatoid": 8614,
      "original": 8615,
      "glycemia": 8616,
      "systolic": 8617,
      "sleepless": 8618,
      "sprouts": 8619,
      "Monitor": 8620,
      "Stalin": 8621,
      "Allegra": 8622,
      "zheim": 8623,
      "opportun": 8624,
      ".>": 8625,
      "76": 8626,
      "83": 8627,
      "9th": 8628,
      "Bu": 8629,
      "Body": 8630,
      "Den": 8631,
      "EV": 8632,
      "Frequ": 8633,
      "Hai": 8634,
      "Los": 8635,
      "MM": 8636,
      "MAY": 8637,
      "RT": 8638,
      "Soft": 8639,
      "Vom": 8640,
      "clop": 8641,
      "hid": 8642,
      "nine": 8643,
      "rings": 8644,
      "ranging": 8645,
      "sand": 8646,
      "sgot": 8647,
      "toun": 8648,
      "erican": 8649,
      "onwards": 8650,
      "alt": 8651,
      "held": 8652,
      "forth": 8653,
      "semi": 8654,
      "amel": 8655,
      "admit": 8656,
      "meto": 8657,
      "weaken": 8658,
      "pecia": 8659,
      "agyl": 8660,
      "agger": 8661,
      "unrelated": 8662,
      "riptyline": 8663,
      "cel": 8664,
      "Thought": 8665,
      "shrink": 8666,
      "apt": 8667,
      "frm": 8668,
      "fol": 8669,
      "tric": 8670,
      "trac": 8671,
      "somebody": 8672,
      "lloph": 8673,
      "ilar": 8674,
      "thereafter": 8675,
      "underwear": 8676,
      "backwards": 8677,
      "indentation": 8678,
      "Include": 8679,
      "reserve": 8680,
      "bra": 8681,
      "bran": 8682,
      "store": 8683,
      "grinding": 8684,
      "forever": 8685,
      "periodically": 8686,
      "minoxidil": 8687,
      "highest": 8688,
      "abdomin": 8689,
      "centre": 8690,
      "repaired": 8691,
      "emer": 8692,
      "loosen": 8693,
      "Whats": 8694,
      "toothbrush": 8695,
      "regularize": 8696,
      "fiance": 8697,
      "dra": 8698,
      "sites": 8699,
      "criter": 8700,
      "burnt": 8701,
      "Concern": 8702,
      "patent": 8703,
      "dysp": 8704,
      "clogged": 8705,
      "elements": 8706,
      "tub": 8707,
      "cellular": 8708,
      "azithromycin": 8709,
      "copper": 8710,
      "clearance": 8711,
      "hypersensitivity": 8712,
      "plane": 8713,
      "mites": 8714,
      "mmHg": 8715,
      "pathologies": 8716,
      "killer": 8717,
      "trigeminal": 8718,
      "shaky": 8719,
      "grey": 8720,
      "scabies": 8721,
      "confirming": 8722,
      "views": 8723,
      "elevate": 8724,
      "ringing": 8725,
      "Without": 8726,
      "scaly": 8727,
      "ABV": 8728,
      "detection": 8729,
      "gmentin": 8730,
      "collected": 8731,
      "fitness": 8732,
      "collapse": 8733,
      "SION": 8734,
      "SUGG": 8735,
      "stimulate": 8736,
      "pounding": 8737,
      "MPTO": 8738,
      "trem": 8739,
      "assumed": 8740,
      "acyclovir": 8741,
      "Metronidazole": 8742,
      "staining": 8743,
      "Celloph": 8744,
      "lighter": 8745,
      "spirometry": 8746,
      "Allergist": 8747,
      "ablation": 8748,
      "conservatively": 8749,
      "TMJ": 8750,
      "hepatologist": 8751,
      "Application": 8752,
      "epididy": 8753,
      "bugs": 8754,
      "transferred": 8755,
      "Earlier": 8756,
      "spinach": 8757,
      "twisted": 8758,
      "Desmond": 8759,
      "lethargy": 8760,
      "Sinus": 8761,
      "bronchoscopy": 8762,
      "literally": 8763,
      "vastatin": 8764,
      "lithium": 8765,
      "MONTHS": 8766,
      "echocardiography": 8767,
      "giddiness": 8768,
      "alignment": 8769,
      "haston": 8770,
      "optimum": 8771,
      "subsequent": 8772,
      "Simple": 8773,
      "FOOD": 8774,
      "lubric": 8775,
      "Within": 8776,
      "Basically": 8777,
      "People": 8778,
      "chocolate": 8779,
      "Fungal": 8780,
      "insomnia": 8781,
      "Nausea": 8782,
      "Cellophane": 8783,
      "\",": 8784,
      "02": 8785,
      "Bur": 8786,
      "Bone": 8787,
      "BRE": 8788,
      "BOD": 8789,
      "BET": 8790,
      "Cure": 8791,
      "CAL": 8792,
      "CLE": 8793,
      "DL": 8794,
      "Dil": 8795,
      "EP": 8796,
      "Ele": 8797,
      "Fam": 8798,
      "Ill": 8799,
      "Ice": 8800,
      "IES": 8801,
      "KNOW": 8802,
      "Mas": 8803,
      "OTH": 8804,
      "Rabies": 8805,
      "Stool": 8806,
      "UA": 8807,
      "Were": 8808,
      "WEE": 8809,
      "WOULD": 8810,
      "bound": 8811,
      "bothers": 8812,
      "card": 8813,
      "cock": 8814,
      "gkin": 8815,
      "gases": 8816,
      "hanging": 8817,
      "knew": 8818,
      "knu": 8819,
      "oks": 8820,
      "ruling": 8821,
      "smal": 8822,
      "soup": 8823,
      "ught": 8824,
      "indirect": 8825,
      "thursday": 8826,
      "anon": 8827,
      "istics": 8828,
      "oride": 8829,
      "beer": 8830,
      "omer": 8831,
      "llum": 8832,
      "wil": 8833,
      "rosis": 8834,
      "ional": 8835,
      "occip": 8836,
      "vert": 8837,
      "chlamydia": 8838,
      "cane": 8839,
      "odgkin": 8840,
      "abort": 8841,
      "ters": 8842,
      "ultim": 8843,
      "ulty": 8844,
      "unfortunate": 8845,
      "ribu": 8846,
      "preventive": 8847,
      "Third": 8848,
      "dering": 8849,
      "dee": 8850,
      "somehow": 8851,
      "needful": 8852,
      "plans": 8853,
      "herbs": 8854,
      "eping": 8855,
      "clam": 8856,
      "Inhal": 8857,
      "crease": 8858,
      "pregnancies": 8859,
      "periodon": 8860,
      "caries": 8861,
      "blunt": 8862,
      "calories": 8863,
      "2000": 8864,
      "vial": 8865,
      "emic": 8866,
      "RIGHT": 8867,
      "icky": 8868,
      "defense": 8869,
      "awa": 8870,
      "density": 8871,
      "fats": 8872,
      "experiences": 8873,
      "thankyou": 8874,
      "ISE": 8875,
      "Being": 8876,
      "Stren": 8877,
      "shadow": 8878,
      "mode": 8879,
      "docum": 8880,
      "safety": 8881,
      "folliculitis": 8882,
      "ACL": 8883,
      "ortho": 8884,
      "smelling": 8885,
      "Liqu": 8886,
      "ribcage": 8887,
      "processed": 8888,
      "reference": 8889,
      "beside": 8890,
      "Add": 8891,
      "Addition": 8892,
      "Monte": 8893,
      "brile": 8894,
      "meeting": 8895,
      "behaviour": 8896,
      "CHEST": 8897,
      "recep": 8898,
      "26th": 8899,
      "minimize": 8900,
      "cautious": 8901,
      "consistently": 8902,
      "ranges": 8903,
      "SURE": 8904,
      "Aug": 8905,
      "effluvium": 8906,
      "Medicine": 8907,
      "Feeling": 8908,
      "dilatation": 8909,
      "randomly": 8910,
      "erupting": 8911,
      "depressant": 8912,
      "ULAR": 8913,
      "cites": 8914,
      "pictures": 8915,
      "supporting": 8916,
      "flexion": 8917,
      "THERE": 8918,
      "intravenous": 8919,
      "building": 8920,
      "truly": 8921,
      "Motrin": 8922,
      "potency": 8923,
      "nuclear": 8924,
      "roughly": 8925,
      "object": 8926,
      "manifestation": 8927,
      "target": 8928,
      "sludge": 8929,
      "annular": 8930,
      "ambulance": 8931,
      "THANKS": 8932,
      "Abdomen": 8933,
      "ptysis": 8934,
      "SYMPTO": 8935,
      "fuzz": 8936,
      "DUE": 8937,
      "encounters": 8938,
      "sustained": 8939,
      "analyze": 8940,
      "Daily": 8941,
      "Finally": 8942,
      "ingredients": 8943,
      "rotator": 8944,
      "familiar": 8945,
      "Risperidone": 8946,
      "hallucinations": 8947,
      "Occas": 8948,
      "teething": 8949,
      "JUST": 8950,
      "alarming": 8951,
      "cigarettes": 8952,
      "FEEL": 8953,
      "dominant": 8954,
      "niece": 8955,
      "INFECTION": 8956,
      "Appendicitis": 8957,
      "oconstriction": 8958,
      "stetrician": 8959,
      "knuck": 8960,
      ")...": 8961,
      "5days": 8962,
      "Cap": 8963,
      "Cult": 8964,
      "CAT": 8965,
      "CSI": 8966,
      "Egg": 8967,
      "Especially": 8968,
      "FR": 8969,
      "LAD": 8970,
      "Mother": 8971,
      "OID": 8972,
      "Ple": 8973,
      "SR": 8974,
      "Son": 8975,
      "SIDE": 8976,
      "Tam": 8977,
      "UV": 8978,
      "aure": 8979,
      "bf": 8980,
      "dd": 8981,
      "dates": 8982,
      "evacu": 8983,
      "kis": 8984,
      "mite": 8985,
      "pared": 8986,
      "rant": 8987,
      "ss": 8988,
      "tren": 8989,
      "zo": 8990,
      "ining": 8991,
      "instant": 8992,
      "antic": 8993,
      "onin": 8994,
      "refr": 8995,
      "represent": 8996,
      "returning": 8997,
      "tores": 8998,
      "asks": 8999,
      "theli": 9000,
      "tide": 9001,
      "leaves": 9002,
      "icu": 9003,
      "style": 9004,
      "nowhere": 9005,
      "sem": 9006,
      "sets": 9007,
      "account": 9008,
      "acqui": 9009,
      "rol": 9010,
      "amput": 9011,
      "amlodipine": 9012,
      "females": 9013,
      "whilst": 9014,
      "odon": 9015,
      "abt": 9016,
      "neigh": 9017,
      "admission": 9018,
      "dimen": 9019,
      "dimin": 9020,
      "agging": 9021,
      "movable": 9022,
      "preced": 9023,
      "painfull": 9024,
      "onel": 9025,
      "ifen": 9026,
      "iring": 9027,
      "shor": 9028,
      "holes": 9029,
      "tsp": 9030,
      "Height": 9031,
      "Hemoglobin": 9032,
      "disappears": 9033,
      "disability": 9034,
      "displaced": 9035,
      "displacement": 9036,
      "spy": 9037,
      "spices": 9038,
      "undergarments": 9039,
      "bill": 9040,
      "cked": 9041,
      "illi": 9042,
      "Into": 9043,
      "Intra": 9044,
      "flav": 9045,
      "periapical": 9046,
      "regress": 9047,
      "woken": 9048,
      "pregnent": 9049,
      "gray": 9050,
      "carpal": 9051,
      "carries": 9052,
      "mination": 9053,
      "pray": 9054,
      "smile": 9055,
      "commonest": 9056,
      "itchen": 9057,
      "itchiness": 9058,
      "oscop": 9059,
      "mities": 9060,
      "THIN": 9061,
      "cardiovascular": 9062,
      "maturia": 9063,
      "lopathy": 9064,
      "ONLY": 9065,
      "ESE": 9066,
      "tuesday": 9067,
      "affection": 9068,
      "hospitals": 9069,
      "miser": 9070,
      "hypertrophy": 9071,
      "tumour": 9072,
      "145": 9073,
      "numbing": 9074,
      "benadryl": 9075,
      "arium": 9076,
      "ganglion": 9077,
      "creating": 9078,
      "wondered": 9079,
      "distended": 9080,
      "Sebaceous": 9081,
      "monella": 9082,
      "retard": 9083,
      "appropriately": 9084,
      "ARY": 9085,
      "psychosis": 9086,
      "confident": 9087,
      "https": 9088,
      "gait": 9089,
      "culprit": 9090,
      "wrists": 9091,
      "maxill": 9092,
      "graine": 9093,
      "immunization": 9094,
      "ecg": 9095,
      "temporarily": 9096,
      "Medications": 9097,
      "Physiotherapist": 9098,
      "CONSU": 9099,
      "peptid": 9100,
      "Pressure": 9101,
      "streptococ": 9102,
      "porn": 9103,
      "Symptomatic": 9104,
      "Sept": 9105,
      "papill": 9106,
      "picking": 9107,
      "TAKING": 9108,
      "OPG": 9109,
      "nitus": 9110,
      "blessed": 9111,
      "warning": 9112,
      "aloe": 9113,
      "puffy": 9114,
      "Increase": 9115,
      "phosphatase": 9116,
      "Headache": 9117,
      "stabilize": 9118,
      "lonopin": 9119,
      "spontaneous": 9120,
      "components": 9121,
      "menopausal": 9122,
      "skipping": 9123,
      "contributing": 9124,
      "aorta": 9125,
      "puppy": 9126,
      "engine": 9127,
      "exacerbate": 9128,
      "ristmas": 9129,
      "equally": 9130,
      "Grade": 9131,
      "lymphadenitis": 9132,
      "extremities": 9133,
      "whitish": 9134,
      "infarction": 9135,
      "clonazepam": 9136,
      "Diagnostics": 9137,
      "convinced": 9138,
      "Syrup": 9139,
      "public": 9140,
      "osalping": 9141,
      "MILK": 9142,
      "mosquito": 9143,
      "Vomiting": 9144,
      "occipital": 9145,
      "05": 9146,
      "3x": 9147,
      "87": 9148,
      "Ash": 9149,
      "Cou": 9150,
      "Call": 9151,
      "Clot": 9152,
      "Candid": 9153,
      "EM": 9154,
      "Each": 9155,
      "FOL": 9156,
      "FFER": 9157,
      "Gar": 9158,
      "Lim": 9159,
      "MU": 9160,
      "Marian": 9161,
      "Oste": 9162,
      "Pel": 9163,
      "PKD": 9164,
      "RY": 9165,
      "Rarely": 9166,
      "Ste": 9167,
      "Tes": 9168,
      "Xray": 9169,
      "Xanax": 9170,
      "cil": 9171,
      "dor": 9172,
      "emotions": 9173,
      "fate": 9174,
      "gf": 9175,
      "gard": 9176,
      "iet": 9177,
      "lb": 9178,
      "pac": 9179,
      "rhe": 9180,
      "vil": 9181,
      "wbc": 9182,
      "êpe": 9183,
      "inor": 9184,
      "ined": 9185,
      "eral": 9186,
      "retic": 9187,
      "recess": 9188,
      "recheck": 9189,
      "reaches": 9190,
      "atly": 9191,
      "attitude": 9192,
      "oric": 9193,
      "esp": 9194,
      "tives": 9195,
      "tiveness": 9196,
      "ardi": 9197,
      "arise": 9198,
      "articular": 9199,
      "ental": 9200,
      "feb": 9201,
      "febrile": 9202,
      "oct": 9203,
      "umar": 9204,
      "lio": 9205,
      "adop": 9206,
      "pean": 9207,
      "termed": 9208,
      "dies": 9209,
      "ulations": 9210,
      "cement": 9211,
      "pops": 9212,
      "allen": 9213,
      "compare": 9214,
      "combat": 9215,
      "compens": 9216,
      "debil": 9217,
      "thereby": 9218,
      "pled": 9219,
      "sprin": 9220,
      "cytes": 9221,
      "background": 9222,
      "antipsychotic": 9223,
      "contamin": 9224,
      "medically": 9225,
      "seeking": 9226,
      "shell": 9227,
      "flesh": 9228,
      "relative": 9229,
      "channel": 9230,
      "blu": 9231,
      "caly": 9232,
      "renulum": 9233,
      "funny": 9234,
      "impul": 9235,
      "paraly": 9236,
      "parotid": 9237,
      "swellings": 9238,
      "remote": 9239,
      "yrtec": 9240,
      "sleeps": 9241,
      "cluded": 9242,
      "whereas": 9243,
      "partment": 9244,
      "Going": 9245,
      "THESE": 9246,
      "crust": 9247,
      "craw": 9248,
      "crush": 9249,
      "horse": 9250,
      "countries": 9251,
      "mistake": 9252,
      "TIMES": 9253,
      "HIGH": 9254,
      "gyn": 9255,
      "indications": 9256,
      "responsive": 9257,
      "pathic": 9258,
      "associate": 9259,
      "newborn": 9260,
      "creatine": 9261,
      "ATER": 9262,
      "distal": 9263,
      "involunt": 9264,
      "Seiz": 9265,
      "locate": 9266,
      "sweets": 9267,
      "sticking": 9268,
      "viously": 9269,
      "vegetable": 9270,
      "ginger": 9271,
      "5000": 9272,
      "hemoptysis": 9273,
      "greenish": 9274,
      "Excision": 9275,
      "Hernia": 9276,
      "echogenic": 9277,
      "Enlarged": 9278,
      "orthopedist": 9279,
      "brushed": 9280,
      "PCP": 9281,
      "syrups": 9282,
      "borrhea": 9283,
      "irritability": 9284,
      "implanon": 9285,
      "freaking": 9286,
      "skip": 9287,
      "pumping": 9288,
[...]
