{
  "version": "1.0",
  "truncation": {
    "direction": "Right",
    "max_length": 16,
    "strategy": "LongestFirst",
    "stride": 0
  },
  "padding": {
    "strategy": {
      "Fixed": 16
    },
    "direction": "Right",
    "pad_to_multiple_of": null,
    "pad_id": 0,
    "pad_type_id": 0,
    "pad_token": "[PAD]"
  },
  "added_tokens": [
    {
      "id": 0,
      "content": "[PAD]",
      "single_word": false,
      "lstrip": false,
      "rstrip": false,
      "normalized": false,
      "special": true
    },
    {
      "id": 1,
      "content": "[UNK]",
      "single_word": false,
      "lstrip": false,
      "rstrip": false,
      "normalized": false,
      "special": true
    }
  ],
  "normalizer": null,
  "pre_tokenizer": {
    "type": "Whitespace"
  },
  "post_processor": null,
  "decoder": null,
  "model": {
    "type": "BPE",
    "dropout": null,
    "unk_token": null,
    "continuing_subword_prefix": null,
    "end_of_word_suffix": null,
    "fuse_unk": false,
    "byte_fallback": false,
    "vocab": {
      "[PAD]": 0,
      "[UNK]": 1,
      "!": 2,
      "\"": 3,
      "#": 4,
      "$": 5,
      "%": 6,
      "&": 7,
      "'": 8,
      "(": 9,
      ")": 10,
      "*": 11,
      "+": 12,
      ",": 13,
      "-": 14,
      ".": 15,
      "/": 16,
      "0": 17,
      "1": 18,
      "2": 19,
      "3": 20,
      "4": 21,
      "5": 22,
      "6": 23,
      "7": 24,
      "8": 25,
      "9": 26,
      ":": 27,
      ";": 28,
      "<": 29,
      "=": 30,
      ">": 31,
      "?": 32,
      "@": 33,
      "A": 34,
      "B": 35,
      "C": 36,
      "D": 37,
      "E": 38,
      "F": 39,
      "G": 40,
      "H": 41,
      "I": 42,
      "J": 43,
      "K": 44,
      "L": 45,
      "M": 46,
      "N": 47,
      "O": 48,
      "P": 49,
      "Q": 50,
      "R": 51,
      "S": 52,
      "T": 53,
      "U": 54,
      "V": 55,
      "W": 56,
      "X": 57,
      "Y": 58,
      "Z": 59,
      "[": 60,
      "\\": 61,
      "]": 62,
      "^": 63,
      "_": 64,
      "`": 65,
      "a": 66,
      "b": 67,
      "c": 68,
      "d": 69,
      "e": 70,
      "f": 71,
      "g": 72,
      "h": 73,
      "i": 74,
      "j": 75,
      "k": 76,
      "l": 77,
      "m": 78,
      "n": 79,
      "o": 80,
      "p": 81,
      "q": 82,
      "r": 83,
      "s": 84,
      "t": 85,
      "u": 86,
      "v": 87,
      "w": 88,
      "x": 89,
      "y": 90,
      "z": 91,
      "{": 92,
      "|": 93,
      "}": 94,
      "~": 95,
      "£": 96,
      "§": 97,
      "­": 98,
      "°": 99,
      "·": 100,
      "º": 101,
      "¼": 102,
      "½": 103,
      "Æ": 104,
      "É": 105,
      "Ö": 106,
      "×": 107,
      "Ü": 108,
      "à": 109,
      "á": 110,
      "â": 111,
      "ã": 112,
      "ä": 113,
      "æ": 114,
      "ç": 115,
      "è": 116,
      "é": 117,
      "ê": 118,
      "ë": 119,
      "ì": 120,
      "í": 121,
      "ð": 122,
      "ñ": 123,
      "ó": 124,
      "ô": 125,
      "õ": 126,
      "ö": 127,
      "÷": 128,
      "ú": 129,
      "ü": 130,
      "ý": 131,
      "ā": 132,
      "ă": 133,
      "č": 134,
      "ē": 135,
      "ě": 136,
      "ĝ": 137,
      "ī": 138,
      "ł": 139,
      "ŋ": 140,
      "ō": 141,
      "ŏ": 142,
      "ř": 143,
      "Š": 144,
      "š": 145,
      "ū": 146,
      "ž": 147,
      "ǒ": 148,
      "ə": 149,
      "ɡ": 150,
      "ɪ": 151,
      "ʊ": 152,
      "ʰ": 153,
      "ˈ": 154,
      "˚": 155,
      "̃": 156,
      "Λ": 157,
      "Μ": 158,
      "Ο": 159,
      "Ω": 160,
      "ά": 161,
      "έ": 162,
      "ί": 163,
      "α": 164,
      "γ": 165,
      "ε": 166,
      "ζ": 167,
      "ι": 168,
      "λ": 169,
      "μ": 170,
      "ν": 171,
      "ο": 172,
      "ς": 173,
      "σ": 174,
      "τ": 175,
      "в": 176,
      "е": 177,
      "з": 178,
      "н": 179,
      "о": 180,
      "т": 181,
      "у": 182,
      "я": 183,
      "ا": 184,
      "ر": 185,
      "س": 186,
      "ط": 187,
      "ع": 188,
      "ق": 189,
      "ك": 190,
      "م": 191,
      "ن": 192,
      "ه": 193,
      "و": 194,
      "ي": 195,
      "ہ": 196,
      "ی": 197,
      "ے": 198,
      "আ": 199,
      "ন": 200,
      "ম": 201,
      "র": 202,
      "া": 203,
      "ช": 204,
      "ผ": 205,
      "ม": 206,
      "ร": 207,
      "อ": 208,
      "า": 209,
      "ื": 210,
      "เ": 211,
      "่": 212,
      "ខ": 213,
      "ឈ": 214,
      "ញ": 215,
      "ម": 216,
      "ុ": 217,
      "ោ": 218,
      "ំ": 219,
      "ះ": 220,
      "្": 221,
      "ᵗ": 222,
      "​": 223,
      "‐": 224,
      "‑": 225,
      "–": 226,
      "—": 227,
      "‘": 228,
      "’": 229,
      "“": 230,
      "”": 231,
      "•": 232,
      "…": 233,
      "′": 234,
      "⁄": 235,
      "€": 236,
      "←": 237,
      "↑": 238,
      "→": 239,
      "↓": 240,
      "↵": 241,
      "⇩": 242,
      "≈": 243,
      "≥": 244,
      "⊞": 245,
      "⋮": 246,
      "⌘": 247,
      "⌥": 248,
      "⏎": 249,
      "②": 250,
      "─": 251,
      "│": 252,
      "└": 253,
      "├": 254,
      "☀": 255,
      "♭": 256,
      "♯": 257,
      "⚡": 258,
      "、": 259,
      "。": 260,
      "い": 261,
      "こ": 262,
      "し": 263,
      "す": 264,
      "そ": 265,
      "た": 266,
      "て": 267,
      "で": 268,
      "と": 269,
      "な": 270,
      "に": 271,
      "の": 272,
      "は": 273,
      "め": 274,
      "よ": 275,
      "る": 276,
      "れ": 277,
      "を": 278,
      "一": 279,
      "不": 280,
      "丝": 281,
      "中": 282,
      "为": 283,
      "丽": 284,
      "久": 285,
      "九": 286,
      "乡": 287,
      "予": 288,
      "争": 289,
      "二": 290,
      "互": 291,
      "交": 292,
      "人": 293,
      "仍": 294,
      "他": 295,
      "以": 296,
      "们": 297,
      "仰": 298,
      "会": 299,
      "佛": 300,
      "使": 301,
      "保": 302,
      "信": 303,
      "候": 304,
      "健": 305,
      "備": 306,
      "光": 307,
      "关": 308,
      "其": 309,
      "养": 310,
      "况": 311,
      "刻": 312,
      "前": 313,
      "力": 314,
      "劫": 315,
      "動": 316,
      "包": 317,
      "化": 318,
      "历": 319,
      "又": 320,
      "及": 321,
      "变": 322,
      "口": 323,
      "可": 324,
      "史": 325,
      "同": 326,
      "名": 327,
      "员": 328,
      "周": 329,
      "和": 330,
      "哈": 331,
      "响": 332,
      "商": 333,
      "喷": 334,
      "嚇": 335,
      "因": 336,
      "围": 337,
      "国": 338,
      "在": 339,
      "地": 340,
      "型": 341,
      "基": 342,
      "外": 343,
      "多": 344,
      "够": 345,
      "大": 346,
      "她": 347,
      "威": 348,
      "字": 349,
      "存": 350,
      "学": 351,
      "安": 352,
      "定": 353,
      "実": 354,
      "害": 355,
      "家": 356,
      "容": 357,
      "察": 358,
      "对": 359,
      "将": 360,
      "尊": 361,
      "尚": 362,
      "尽": 363,
      "巨": 364,
      "希": 365,
      "带": 366,
      "常": 367,
      "平": 368,
      "庁": 369,
      "序": 370,
      "应": 371,
      "庭": 372,
      "康": 373,
      "廉": 374,
      "当": 375,
      "影": 376,
      "很": 377,
      "必": 378,
      "悠": 379,
      "情": 380,
      "感": 381,
      "憲": 382,
      "成": 383,
      "我": 384,
      "戦": 385,
      "手": 386,
      "括": 387,
      "持": 388,
      "损": 389,
      "描": 390,
      "放": 391,
      "数": 392,
      "文": 393,
      "斯": 394,
      "日": 395,
      "时": 396,
      "明": 397,
      "是": 398,
      "景": 399,
      "有": 400,
      "期": 401,
      "未": 402,
      "本": 403,
      "条": 404,
      "来": 405,
      "样": 406,
      "棄": 407,
      "権": 408,
      "正": 409,
      "此": 410,
      "武": 411,
      "段": 412,
      "母": 413,
      "民": 414,
      "气": 415,
      "永": 416,
      "求": 417,
      "決": 418,
      "泉": 419,
      "法": 420,
      "洋": 421,
      "活": 422,
      "海": 423,
      "涉": 424,
      "深": 425,
      "热": 426,
      "然": 427,
      "照": 428,
      "父": 429,
      "物": 430,
      "理": 431,
      "生": 432,
      "用": 433,
      "発": 434,
      "的": 435,
      "目": 436,
      "相": 437,
      "着": 438,
      "知": 439,
      "研": 440,
      "私": 441,
      "种": 442,
      "秩": 443,
      "究": 444,
      "空": 445,
      "章": 446,
      "第": 447,
      "管": 448,
      "类": 449,
      "系": 450,
      "紛": 451,
      "繁": 452,
      "经": 453,
      "美": 454,
      "義": 455,
      "而": 456,
      "肯": 457,
      "能": 458,
      "自": 459,
      "艾": 460,
      "荒": 461,
      "莉": 462,
      "营": 463,
      "虫": 464,
      "蚌": 465,
      "行": 466,
      "衛": 467,
      "表": 468,
      "要": 469,
      "觉": 470,
      "解": 471,
      "認": 472,
      "誠": 473,
      "調": 474,
      "警": 475,
      "许": 476,
      "该": 477,
      "说": 478,
      "负": 479,
      "责": 480,
      "质": 481,
      "足": 482,
      "軍": 483,
      "辈": 484,
      "还": 485,
      "这": 486,
      "述": 487,
      "逃": 488,
      "造": 489,
      "達": 490,
      "重": 491,
      "量": 492,
      "长": 493,
      "间": 494,
      "院": 495,
      "陸": 496,
      "隊": 497,
      "際": 498,
      "难": 499,
      "需": 500,
      "非": 501,
      "面": 502,
      "項": 503,
      "项": 504,
      "顾": 505,
      "频": 506,
      "风": 507,
      "饥": 508,
      "례": 509,
      "묘": 510,
      "벌": 511,
      "석": 512,
      "성": 513,
      "송": 514,
      "차": 515,
      "초": 516,
      "추": 517,
      "편": 518,
      "": 519,
      "": 520,
      "️": 521,
      "（": 522,
      "）": 523,
      "，": 524,
      "：": 525,
      "🐍": 526,
      "👫": 527,
      "💦": 528,
      "😎": 529,
      "🙏": 530,
      "🚨": 531,
      "🛑": 532,
      "🤩": 533,
      "🦟": 534,
      "🧭": 535,
      "th": 536,
      "in": 537,
      "the": 538,
      "ou": 539,
      "re": 540,
      "an": 541,
      "on": 542,
      "er": 543,
      "at": 544,
      "or": 545,
      "to": 546,
      "en": 547,
      "ing": 548,
      "you": 549,
      "st": 550,
      "al": 551,
      "le": 552,
      "it": 553,
      "is": 554,
      "ar": 555,
      "es": 556,
      "and": 557,
      "of": 558,
      "se": 559,
      "ic": 560,
      "ed": 561,
      "as": 562,
      "om": 563,
      "ion": 564,
      "ch": 565,
      "ve": 566,
      "your": 567,
      "be": 568,
      "ly": 569,
      "``": 570,
      "he": 571,
      "wi": 572,
      "ow": 573,
      "ac": 574,
      "for": 575,
      "ll": 576,
      "de": 577,
      "ent": 578,
      "ot": 579,
      "ay": 580,
      "me": 581,
      "ke": 582,
      "ge": 583,
      "are": 584,
      "##": 585,
      "that": 586,
      "li": 587,
      "ro": 588,
      "ce": 589,
      "ad": 590,
      "ut": 591,
      "ld": 592,
      "ct": 593,
      "ab": 594,
      "ver": 595,
      "gh": 596,
      "with": 597,
      "su": 598,
      "lo": 599,
      "wh": 600,
      "ri": 601,
      "ap": 602,
      "if": 603,
      "ir": 604,
      "am": 605,
      "can": 606,
      "ne": 607,
      "```": 608,
      "si": 609,
      "un": 610,
      "ter": 611,
      "mo": 612,
      "sh": 613,
      "ation": 614,
      "pe": 615,
      "so": 616,
      "ti": 617,
      "fe": 618,
      "out": 619,
      "ex": 620,
      "con": 621,
      "ma": 622,
      "com": 623,
      "ave": 624,
      "ur": 625,
      "do": 626,
      "all": 627,
      "co": 628,
      "we": 629,
      "ther": 630,
      "our": 631,
      "ate": 632,
      "pl": 633,
      "qu": 634,
      "The": 635,
      "po": 636,
      "tr": 637,
      "us": 638,
      "pro": 639,
      "one": 640,
      "ght": 641,
      "ome": 642,
      "not": 643,
      "ul": 644,
      "ple": 645,
      "te": 646,
      "per": 647,
      "oo": 648,
      "have": 649,
      "use": 650,
      "res": 651,
      "will": 652,
      "###": 653,
      "fr": 654,
      "id": 655,
      "ould": 656,
      "ant": 657,
      "ain": 658,
      "um": 659,
      "oun": 660,
      "im": 661,
      "il": 662,
      "wor": 663,
      "end": 664,
      "art": 665,
      "Th": 666,
      "up": 667,
      "ally": 668,
      "ment": 669,
      "If": 670,
      "ag": 671,
      "from": 672,
      "this": 673,
      "any": 674,
      "ess": 675,
      "ts": 676,
      "fo": 677,
      "--": 678,
      "some": 679,
      "by": 680,
      "able": 681,
      "di": 682,
      "ers": 683,
      "but": 684,
      "et": 685,
      "pr": 686,
      "em": 687,
      "ren": 688,
      "der": 689,
      "king": 690,
      "other": 691,
      "ind": 692,
      "ame": 693,
      "ine": 694,
      "el": 695,
      "cl": 696,
      "they": 697,
      "ta": 698,
      "way": 699,
      "bo": 700,
      "ust": 701,
      "ard": 702,
      "ep": 703,
      "ive": 704,
      "act": 705,
      "You": 706,
      "age": 707,
      "av": 708,
      "ile": 709,
      "ort": 710,
      "them": 711,
      "op": 712,
      "get": 713,
      "thing": 714,
      "ity": 715,
      "gr": 716,
      "ack": 717,
      "In": 718,
      "ast": 719,
      "red": 720,
      "time": 721,
      "ite": 722,
      "more": 723,
      "ach": 724,
      "own": 725,
      "may": 726,
      "sour": 727,
      "like": 728,
      "ace": 729,
      "ci": 730,
      "ound": 731,
      "ie": 732,
      "ty": 733,
      "about": 734,
      "str": 735,
      "ough": 736,
      "source": 737,
      "ST": 738,
      "ER": 739,
      "ure": 740,
      "ON": 741,
      "go": 742,
      "NS": 743,
      "cre": 744,
      "ice": 745,
      "ions": 746,
      "ase": 747,
      "was": 748,
      "ble": 749,
      "This": 750,
      "UE": 751,
      "ION": 752,
      "make": 753,
      "form": 754,
      "ANS": 755,
      "QUE": 756,
      "WER": 757,
      "ANSWER": 758,
      "STION": 759,
      "QUESTION": 760,
      "Wh": 761,
      "ight": 762,
      "]###": 763,
      "ck": 764,
      "ue": 765,
      "ong": 766,
      "no": 767,
      "ick": 768,
      "need": 769,
      "ater": 770,
      "ig": 771,
      "pre": 772,
      "ang": 773,
      "les": 774,
      "ass": 775,
      "ood": 776,
      "how": 777,
      "very": 778,
      "their": 779,
      "int": 780,
      "when": 781,
      "wr": 782,
      "ol": 783,
      "work": 784,
      "also": 785,
      "ev": 786,
      "over": 787,
      "ans": 788,
      "port": 789,
      "ich": 790,
      "ies": 791,
      "should": 792,
      "her": 793,
      "hel": 794,
      "ill": 795,
      "ting": 796,
      "It": 797,
      "has": 798,
      "ist": 799,
      "now": 800,
      "ob": 801,
      "part": 802,
      "off": 803,
      "cont": 804,
      "spe": 805,
      "af": 806,
      "my": 807,
      "sp": 808,
      "ber": 809,
      "dif": 810,
      "ry": 811,
      "want": 812,
      "into": 813,
      "there": 814,
      "ction": 815,
      "ated": 816,
      "sel": 817,
      "ca": 818,
      "ide": 819,
      "ange": 820,
      "dis": 821,
      "br": 822,
      "what": 823,
      "here": 824,
      "feren": 825,
      "help": 826,
      "which": 827,
      "ho": 828,
      "loo": 829,
      "then": 830,
      "ress": 831,
      "app": 832,
      "ous": 833,
      "its": 834,
      "pos": 835,
      "air": 836,
      "urn": 837,
      "day": 838,
      "ance": 839,
      "iz": 840,
      "ample": 841,
      "cor": 842,
      "ear": 843,
      "iv": 844,
      "cal": 845,
      "ip": 846,
      "ild": 847,
      "ud": 848,
      "ect": 849,
      "would": 850,
      "top": 851,
      "new": 852,
      "fore": 853,
      "sure": 854,
      "add": 855,
      "don": 856,
      "put": 857,
      "than": 858,
      "self": 859,
      "au": 860,
      "water": 861,
      "ish": 862,
      "comm": 863,
      "thr": 864,
      "ors": 865,
      "just": 866,
      "bl": 867,
      "est": 868,
      "ser": 869,
      "ary": 870,
      "fir": 871,
      "For": 872,
      "ical": 873,
      "min": 874,
      "read": 875,
      "ces": 876,
      "side": 877,
      "pt": 878,
      "son": 879,
      "ition": 880,
      "cess": 881,
      "ks": 882,
      "ake": 883,
      "ph": 884,
      "----": 885,
      "ree": 886,
      "bet": 887,
      "back": 888,
      "ations": 889,
      ").": 890,
      "cause": 891,
      "differen": 892,
      "she": 893,
      "set": 894,
      "fl": 895,
      "try": 896,
      "only": 897,
      "aw": 898,
      "line": 899,
      "par": 900,
      "How": 901,
      "hand": 902,
      "change": 903,
      "ten": 904,
      "let": 905,
      "des": 906,
      "ef": 907,
      "ds": 908,
      "using": 909,
      "know": 910,
      "example": 911,
      "tw": 912,
      "led": 913,
      "ence": 914,
      "ents": 915,
      "00": 916,
      "tho": 917,
      "cr": 918,
      "most": 919,
      "num": 920,
      "ful": 921,
      "see": 922,
      "ople": 923,
      "down": 924,
      "ject": 925,
      "turn": 926,
      "who": 927,
      "col": 928,
      "fun": 929,
      "clo": 930,
      "cur": 931,
      "through": 932,
      "cle": 933,
      "ial": 934,
      "feel": 935,
      "each": 936,
      "gn": 937,
      "does": 938,
      "coun": 939,
      "take": 940,
      "St": 941,
      "gen": 942,
      "tom": 943,
      "where": 944,
      "long": 945,
      "ink": 946,
      "good": 947,
      "rel": 948,
      "first": 949,
      "val": 950,
      "even": 951,
      "light": 952,
      "people": 953,
      "his": 954,
      "ise": 955,
      "right": 956,
      "ning": 957,
      "bu": 958,
      "du": 959,
      "Ch": 960,
      "sk": 961,
      "ste": 962,
      "ari": 963,
      "low": 964,
      "start": 965,
      "sm": 966,
      "sim": 967,
      "could": 968,
      "ath": 969,
      "fin": 970,
      "acke": 971,
      "tim": 972,
      "find": 973,
      "dy": 974,
      "He": 975,
      "person": 976,
      "before": 977,
      "An": 978,
      "mu": 979,
      "comp": 980,
      "less": 981,
      "ak": 982,
      "hi": 983,
      "such": 984,
      "under": 985,
      "ext": 986,
      "requ": 987,
      "sy": 988,
      "dr": 989,
      "lect": 990,
      "man": 991,
      "reat": 992,
      "dog": 993,
      "two": 994,
      "llow": 995,
      "sur": 996,
      "move": 997,
      "every": 998,
      "..": 999,
      "ire": 1000,
      "ory": 1001,
      "might": 1002,
      "keep": 1003,
      "different": 1004,
      "ever": 1005,
      "ens": 1006,
      "pu": 1007,
      "too": 1008,
      "rest": 1009,
      "used": 1010,
      "ating": 1011,
      "atch": 1012,
      "child": 1013,
      "while": 1014,
      "play": 1015,
      "Re": 1016,
      "aper": 1017,
      "che": 1018,
      "pres": 1019,
      "inter": 1020,
      "ific": 1021,
      "same": 1022,
      "name": 1023,
      "incl": 1024,
      "these": 1025,
      "quot": 1026,
      "fri": 1027,
      "ular": 1028,
      "eas": 1029,
      "rect": 1030,
      "arr": 1031,
      "around": 1032,
      "med": 1033,
      "place": 1034,
      "ments": 1035,
      "writ": 1036,
      "list": 1037,
      "well": 1038,
      "ways": 1039,
      "ily": 1040,
      "There": 1041,
      "bre": 1042,
      "pare": 1043,
      "sign": 1044,
      "class": 1045,
      "number": 1046,
      "after": 1047,
      "look": 1048,
      "much": 1049,
      "tal": 1050,
      "sol": 1051,
      "fect": 1052,
      "boo": 1053,
      "cus": 1054,
      "sing": 1055,
      "When": 1056,
      "To": 1057,
      "ates": 1058,
      "mem": 1059,
      "),": 1060,
      "cent": 1061,
      "stand": 1062,
      "sit": 1063,
      "xchange": 1064,
      "ings": 1065,
      "stacke": 1066,
      "because": 1067,
      "friend": 1068,
      "stackexchange": 1069,
      "ward": 1070,
      "say": 1071,
      "mar": 1072,
      "Con": 1073,
      "many": 1074,
      "vis": 1075,
      "sub": 1076,
      "come": 1077,
      "()": 1078,
      "dri": 1079,
      "tri": 1080,
      "been": 1081,
      "sup": 1082,
      "cut": 1083,
      "pri": 1084,
      "small": 1085,
      "stem": 1086,
      "cri": 1087,
      "eng": 1088,
      "yourself": 1089,
      "follow": 1090,
      "ms": 1091,
      "ner": 1092,
      "uring": 1093,
      "import": 1094,
      "sed": 1095,
      "ia": 1096,
      "table": 1097,
      "vers": 1098,
      "iew": 1099,
      "ix": 1100,
      "mon": 1101,
      "cond": 1102,
      "sible": 1103,
      "prov": 1104,
      "reg": 1105,
      "ft": 1106,
      "ship": 1107,
      "ween": 1108,
      "Use": 1109,
      "car": 1110,
      "allow": 1111,
      "sa": 1112,
      "between": 1113,
      "being": 1114,
      "Your": 1115,
      "ative": 1116,
      "ult": 1117,
      "point": 1118,
      "lit": 1119,
      "type": 1120,
      "lar": 1121,
      "ically": 1122,
      "something": 1123,
      "body": 1124,
      "high": 1125,
      "ict": 1126,
      "ask": 1127,
      "As": 1128,
      "Be": 1129,
      "choo": 1130,
      "til": 1131,
      "10": 1132,
      "gl": 1133,
      "att": 1134,
      "had": 1135,
      "tem": 1136,
      "stead": 1137,
      "home": 1138,
      "ves": 1139,
      "him": 1140,
      "als": 1141,
      "exp": 1142,
      "plan": 1143,
      "ash": 1144,
      "char": 1145,
      "things": 1146,
      "On": 1147,
      "stru": 1148,
      "What": 1149,
      "Make": 1150,
      "bot": 1151,
      "log": 1152,
      "inform": 1153,
      "write": 1154,
      "times": 1155,
      "ude": 1156,
      "ities": 1157,
      "key": 1158,
      "life": 1159,
      "ger": 1160,
      "oid": 1161,
      "run": 1162,
      "few": 1163,
      "old": 1164,
      "lear": 1165,
      "call": 1166,
      "ote": 1167,
      "both": 1168,
      "gu": 1169,
      "os": 1170,
      "file": 1171,
      "ls": 1172,
      "inte": 1173,
      "opt": 1174,
      "care": 1175,
      "fic": 1176,
      "until": 1177,
      "fer": 1178,
      "sul": 1179,
      "hav": 1180,
      "ply": 1181,
      "Do": 1182,
      "best": 1183,
      "cer": 1184,
      "paper": 1185,
      "vol": 1186,
      "ual": 1187,
      "arch": 1188,
      "ze": 1189,
      "cour": 1190,
      "plic": 1191,
      "tle": 1192,
      "gener": 1193,
      "So": 1194,
      "kes": 1195,
      "ss": 1196,
      "peri": 1197,
      "possible": 1198,
      "Some": 1199,
      "information": 1200,
      "dd": 1201,
      "give": 1202,
      "vari": 1203,
      "comple": 1204,
      "auth": 1205,
      "happ": 1206,
      "code": 1207,
      "mit": 1208,
      "sto": 1209,
      "que": 1210,
      "object": 1211,
      "leg": 1212,
      "cial": 1213,
      "going": 1214,
      "paren": 1215,
      ");": 1216,
      "food": 1217,
      "pie": 1218,
      "ious": 1219,
      "ason": 1220,
      "year": 1221,
      "ign": 1222,
      "during": 1223,
      "important": 1224,
      "away": 1225,
      "Ex": 1226,
      "inst": 1227,
      "ters": 1228,
      "writing": 1229,
      "En": 1230,
      "again": 1231,
      "ail": 1232,
      "ven": 1233,
      "ving": 1234,
      "ics": 1235,
      "were": 1236,
      "step": 1237,
      "head": 1238,
      "room": 1239,
      "pect": 1240,
      "20": 1241,
      "ced": 1242,
      "fam": 1243,
      "order": 1244,
      "ility": 1245,
      "hold": 1246,
      "cy": 1247,
      "tain": 1248,
      "open": 1249,
      "relation": 1250,
      "view": 1251,
      "sider": 1252,
      "ps": 1253,
      "ually": 1254,
      "still": 1255,
      "bab": 1256,
      "jo": 1257,
      "pon": 1258,
      "We": 1259,
      "ather": 1260,
      "ese": 1261,
      "function": 1262,
      "ru": 1263,
      "acti": 1264,
      "typ": 1265,
      "cap": 1266,
      "mer": 1267,
      "wa": 1268,
      "doesn": 1269,
      "stud": 1270,
      "show": 1271,
      "Pl": 1272,
      "ution": 1273,
      "ulti": 1274,
      "bus": 1275,
      "face": 1276,
      ".\"": 1277,
      "prom": 1278,
      "vent": 1279,
      "ank": 1280,
      "spec": 1281,
      "system": 1282,
      "pay": 1283,
      "ince": 1284,
      "atter": 1285,
      "metho": 1286,
      "//": 1287,
      "base": 1288,
      "giv": 1289,
      "ki": 1290,
      "mode": 1291,
      "alth": 1292,
      "ages": 1293,
      "ding": 1294,
      "last": 1295,
      "arm": 1296,
      "They": 1297,
      "proble": 1298,
      "produ": 1299,
      "better": 1300,
      "pain": 1301,
      "vice": 1302,
      "direct": 1303,
      "must": 1304,
      "create": 1305,
      "often": 1306,
      "Try": 1307,
      "ton": 1308,
      "another": 1309,
      "dep": 1310,
      "quest": 1311,
      "Is": 1312,
      "ey": 1313,
      "ull": 1314,
      "ved": 1315,
      "won": 1316,
      "gin": 1317,
      "state": 1318,
      "someone": 1319,
      "cept": 1320,
      "clean": 1321,
      "resul": 1322,
      "ames": 1323,
      "angu": 1324,
      "relationship": 1325,
      "bit": 1326,
      "oc": 1327,
      "left": 1328,
      "Un": 1329,
      "hour": 1330,
      "appro": 1331,
      "large": 1332,
      "velo": 1333,
      "real": 1334,
      "minut": 1335,
      "check": 1336,
      "case": 1337,
      "multi": 1338,
      "main": 1339,
      "web": 1340,
      "return": 1341,
      "search": 1342,
      "sive": 1343,
      "trans": 1344,
      "emp": 1345,
      "ready": 1346,
      "free": 1347,
      "ith": 1348,
      "iness": 1349,
      "those": 1350,
      "Al": 1351,
      "ither": 1352,
      "lot": 1353,
      "pow": 1354,
      "text": 1355,
      "wee": 1356,
      "hal": 1357,
      "avel": 1358,
      "gram": 1359,
      "made": 1360,
      "words": 1361,
      "ize": 1362,
      "py": 1363,
      "word": 1364,
      "prof": 1365,
      "ys": 1366,
      "ature": 1367,
      "without": 1368,
      "world": 1369,
      "ier": 1370,
      "pass": 1371,
      "ted": 1372,
      "usu": 1373,
      "gether": 1374,
      "Ar": 1375,
      "gre": 1376,
      "together": 1377,
      "elect": 1378,
      "ending": 1379,
      "bers": 1380,
      "did": 1381,
      "great": 1382,
      "always": 1383,
      "iss": 1384,
      "process": 1385,
      "member": 1386,
      "De": 1387,
      "bi": 1388,
      "hot": 1389,
      "local": 1390,
      "test": 1391,
      "--------": 1392,
      "langu": 1393,
      "dist": 1394,
      "ices": 1395,
      "interest": 1396,
      "think": 1397,
      "struct": 1398,
      "Mo": 1399,
      "ping": 1400,
      "sc": 1401,
      "hair": 1402,
      "ness": 1403,
      "ouch": 1404,
      "proper": 1405,
      "Com": 1406,
      "reason": 1407,
      "aph": 1408,
      "rent": 1409,
      "chang": 1410,
      "ows": 1411,
      "includ": 1412,
      "authors": 1413,
      "ric": 1414,
      "area": 1415,
      "ately": 1416,
      "bag": 1417,
      "lin": 1418,
      "scre": 1419,
      "ures": 1420,
      "value": 1421,
      "item": 1422,
      "coo": 1423,
      "plain": 1424,
      "\",": 1425,
      "But": 1426,
      "wiki": 1427,
      "lling": 1428,
      "means": 1429,
      "though": 1430,
      "xt": 1431,
      "loc": 1432,
      "sist": 1433,
      "contro": 1434,
      "job": 1435,
      "appe": 1436,
      "include": 1437,
      "hard": 1438,
      "ident": 1439,
      "likely": 1440,
      "And": 1441,
      "fil": 1442,
      "instead": 1443,
      "bow": 1444,
      "cas": 1445,
      "ele": 1446,
      "stop": 1447,
      "net": 1448,
      "usually": 1449,
      "pts": 1450,
      "ook": 1451,
      "enough": 1452,
      "second": 1453,
      "contain": 1454,
      "However": 1455,
      "little": 1456,
      "really": 1457,
      "wikihow": 1458,
      "card": 1459,
      "either": 1460,
      "travel": 1461,
      "health": 1462,
      "Then": 1463,
      "array": 1464,
      "19": 1465,
      "lay": 1466,
      "irt": 1467,
      "present": 1468,
      "bas": 1469,
      "kn": 1470,
      "la": 1471,
      "ub": 1472,
      "Here": 1473,
      "My": 1474,
      "ats": 1475,
      "develo": 1476,
      "train": 1477,
      "ends": 1478,
      "Add": 1479,
      "ient": 1480,
      "least": 1481,
      "mean": 1482,
      "pop": 1483,
      "effect": 1484,
      "specific": 1485,
      "ener": 1486,
      "vel": 1487,
      "experi": 1488,
      "making": 1489,
      "quick": 1490,
      "following": 1491,
      "bal": 1492,
      "once": 1493,
      "next": 1494,
      "dam": 1495,
      "done": 1496,
      "whe": 1497,
      "count": 1498,
      "parents": 1499,
      "minutes": 1500,
      "language": 1501,
      "dat": 1502,
      "fact": 1503,
      "mind": 1504,
      "non": 1505,
      "program": 1506,
      "family": 1507,
      "treat": 1508,
      "ars": 1509,
      "conf": 1510,
      "tra": 1511,
      "book": 1512,
      "friends": 1513,
      "12": 1514,
      "ense": 1515,
      "cho": 1516,
      "learn": 1517,
      "cum": 1518,
      "wear": 1519,
      "gy": 1520,
      "pot": 1521,
      "fit": 1522,
      "ctor": 1523,
      "bottom": 1524,
      "business": 1525,
      "30": 1526,
      "Don": 1527,
      "od": 1528,
      "sts": 1529,
      "cially": 1530,
      "ped": 1531,
      "sum": 1532,
      "consider": 1533,
      "ants": 1534,
      "color": 1535,
      "current": 1536,
      "skin": 1537,
      "option": 1538,
      "atic": 1539,
      "comfor": 1540,
      "ount": 1541,
      "support": 1542,
      "Ke": 1543,
      "hum": 1544,
      "complete": 1545,
      "ima": 1546,
      "etc": 1547,
      "others": 1548,
      "avoid": 1549,
      "...": 1550,
      "equ": 1551,
      "respon": 1552,
      "ground": 1553,
      "publ": 1554,
      "ff": 1555,
      "ian": 1556,
      "ought": 1557,
      "online": 1558,
      "oney": 1559,
      "ield": 1560,
      "15": 1561,
      "safe": 1562,
      "found": 1563,
      "remove": 1564,
      "loy": 1565,
      "love": 1566,
      "why": 1567,
      "cover": 1568,
      "idd": 1569,
      "letter": 1570,
      "having": 1571,
      "land": 1572,
      "na": 1573,
      "sal": 1574,
      "custom": 1575,
      "cript": 1576,
      "Keep": 1577,
      "Pr": 1578,
      "bin": 1579,
      "pur": 1580,
      "wal": 1581,
      "def": 1582,
      "rid": 1583,
      "tax": 1584,
      "piece": 1585,
      "big": 1586,
      "dry": 1587,
      "ling": 1588,
      "site": 1589,
      "ural": 1590,
      "Once": 1591,
      "Cl": 1592,
      "por": 1593,
      "espe": 1594,
      "method": 1595,
      "Se": 1596,
      "date": 1597,
      "board": 1598,
      "clear": 1599,
      "build": 1600,
      "product": 1601,
      "ont": 1602,
      "ator": 1603,
      "stick": 1604,
      "begin": 1605,
      "lock": 1606,
      "print": 1607,
      "night": 1608,
      "vide": 1609,
      "incre": 1610,
      "stay": 1611,
      "load": 1612,
      "bed": 1613,
      "ired": 1614,
      "page": 1615,
      "wer": 1616,
      "foot": 1617,
      "action": 1618,
      "bon": 1619,
      "lic": 1620,
      "slow": 1621,
      "seem": 1622,
      "adv": 1623,
      "comes": 1624,
      "That": 1625,
      "charac": 1626,
      "activ": 1627,
      "''": 1628,
      "schoo": 1629,
      "reach": 1630,
      "ket": 1631,
      "Take": 1632,
      "ove": 1633,
      "simple": 1634,
      "ade": 1635,
      "money": 1636,
      "erc": 1637,
      "never": 1638,
      "especially": 1639,
      "aking": 1640,
      "fast": 1641,
      "mess": 1642,
      "ouse": 1643,
      "stre": 1644,
      "These": 1645,
      "phone": 1646,
      "understand": 1647,
      "solution": 1648,
      "hours": 1649,
      "ues": 1650,
      "sty": 1651,
      "itch": 1652,
      "mail": 1653,
      "pract": 1654,
      "Get": 1655,
      "mix": 1656,
      "leave": 1657,
      "ape": 1658,
      "close": 1659,
      "At": 1660,
      "ush": 1661,
      "ify": 1662,
      "ilar": 1663,
      "ength": 1664,
      "Tr": 1665,
      "ax": 1666,
      "mus": 1667,
      "ional": 1668,
      "necess": 1669,
      "redu": 1670,
      "gs": 1671,
      "game": 1672,
      "term": 1673,
      "cli": 1674,
      "sound": 1675,
      "inv": 1676,
      "orm": 1677,
      "tech": 1678,
      "itive": 1679,
      "corn": 1680,
      "problem": 1681,
      "control": 1682,
      "fing": 1683,
      "sw": 1684,
      "size": 1685,
      "pet": 1686,
      "contin": 1687,
      "prompts": 1688,
      "oper": 1689,
      "tic": 1690,
      "comput": 1691,
      "partic": 1692,
      "students": 1693,
      "hy": 1694,
      "ible": 1695,
      "since": 1696,
      "dec": 1697,
      "conne": 1698,
      "plac": 1699,
      "tell": 1700,
      "fold": 1701,
      "getting": 1702,
      "address": 1703,
      "commun": 1704,
      "certain": 1705,
      "data": 1706,
      "ball": 1707,
      "length": 1708,
      "ord": 1709,
      "working": 1710,
      "box": 1711,
      "11": 1712,
      "story": 1713,
      "defin": 1714,
      "ared": 1715,
      "doing": 1716,
      "writingprompts": 1717,
      "school": 1718,
      "Pro": 1719,
      "git": 1720,
      "team": 1721,
      "works": 1722,
      "days": 1723,
      "hands": 1724,
      "years": 1725,
      "ouble": 1726,
      "ark": 1727,
      "teach": 1728,
      "addition": 1729,
      "based": 1730,
      "sle": 1731,
      "ross": 1732,
      "applic": 1733,
      "makes": 1734,
      "div": 1735,
      "string": 1736,
      "space": 1737,
      "power": 1738,
      "Wr": 1739,
      "match": 1740,
      "issu": 1741,
      "sever": 1742,
      "post": 1743,
      "While": 1744,
      "public": 1745,
      "Sh": 1746,
      "cup": 1747,
      "pan": 1748,
      "ror": 1749,
      "ently": 1750,
      "ential": 1751,
      "called": 1752,
      "talk": 1753,
      "week": 1754,
      "touch": 1755,
      "exerc": 1756,
      "actually": 1757,
      "common": 1758,
      "fully": 1759,
      "medi": 1760,
      "Ap": 1761,
      "dro": 1762,
      "press": 1763,
      "wind": 1764,
      "ability": 1765,
      "ety": 1766,
      "prot": 1767,
      "angle": 1768,
      "looking": 1769,
      "design": 1770,
      "longer": 1771,
      "Name": 1772,
      "fac": 1773,
      "ref": 1774,
      "roll": 1775,
      "near": 1776,
      "sho": 1777,
      "single": 1778,
      "ality": 1779,
      "separ": 1780,
      "live": 1781,
      "short": 1782,
      "math": 1783,
      "party": 1784,
      "diffic": 1785,
      "fab": 1786,
      "gan": 1787,
      "men": 1788,
      "inside": 1789,
      "already": 1790,
      "ited": 1791,
      "isn": 1792,
      "doctor": 1793,
      "anything": 1794,
      "trying": 1795,
      "provid": 1796,
      "variable": 1797,
      "Ne": 1798,
      "ken": 1799,
      "access": 1800,
      "exist": 1801,
      "similar": 1802,
      "easy": 1803,
      "da": 1804,
      "edu": 1805,
      "above": 1806,
      "ended": 1807,
      "situ": 1808,
      "month": 1809,
      "ied": 1810,
      "ili": 1811,
      "war": 1812,
      "dex": 1813,
      "cell": 1814,
      "company": 1815,
      "children": 1816,
      "iddle": 1817,
      "several": 1818,
      "With": 1819,
      "bar": 1820,
      "pen": 1821,
      "uses": 1822,
      "prevent": 1823,
      "idea": 1824,
      "three": 1825,
      "toward": 1826,
      "ster": 1827,
      "verse": 1828,
      "amp": 1829,
      "probab": 1830,
      "partner": 1831,
      "position": 1832,
      "phys": 1833,
      "against": 1834,
      "cir": 1835,
      "sof": 1836,
      "rece": 1837,
      "ones": 1838,
      "select": 1839,
      "```,": 1840,
      "offer": 1841,
      "command": 1842,
      "firm": 1843,
      "18": 1844,
      "fill": 1845,
      "ges": 1846,
      "vir": 1847,
      "amount": 1848,
      "tern": 1849,
      "front": 1850,
      "tail": 1851,
      "answer": 1852,
      "simply": 1853,
      "draw": 1854,
      "including": 1855,
      "rather": 1856,
      "ug": 1857,
      "orig": 1858,
      "level": 1859,
      "become": 1860,
      "lif": 1861,
      "sug": 1862,
      "perform": 1863,
      "needs": 1864,
      "ized": 1865,
      "origin": 1866,
      "ention": 1867,
      "limit": 1868,
      "white": 1869,
      "correct": 1870,
      "Place": 1871,
      "employ": 1872,
      "half": 1873,
      "Te": 1874,
      "kind": 1875,
      "void": 1876,
      "lead": 1877,
      "gear": 1878,
      "const": 1879,
      "course": 1880,
      "result": 1881,
      "probably": 1882,
      "Can": 1883,
      "No": 1884,
      "extra": 1885,
      "core": 1886,
      "aving": 1887,
      "choose": 1888,
      "full": 1889,
      "hor": 1890,
      "pick": 1891,
      "uck": 1892,
      "lying": 1893,
      "meet": 1894,
      "docum": 1895,
      "store": 1896,
      "fabric": 1897,
      "middle": 1898,
      "within": 1899,
      "outside": 1900,
      "convers": 1901,
      "provide": 1902,
      "experience": 1903,
      "whether": 1904,
      "$\\": 1905,
      "Ask": 1906,
      "Or": 1907,
      "One": 1908,
      "Pre": 1909,
      "Set": 1910,
      "got": 1911,
      "mp": 1912,
      "sl": 1913,
      "particular": 1914,
      "16": 1915,
      "Let": 1916,
      "az": 1917,
      "bad": 1918,
      "wise": 1919,
      "thin": 1920,
      "taking": 1921,
      "baby": 1922,
      "cat": 1923,
      "ring": 1924,
      "sci": 1925,
      "itions": 1926,
      "gest": 1927,
      "break": 1928,
      "known": 1929,
      "Go": 1930,
      "nat": 1931,
      "ances": 1932,
      "heat": 1933,
      "vert": 1934,
      "weight": 1935,
      "event": 1936,
      "model": 1937,
      "question": 1938,
      "quickly": 1939,
      ",\"": 1940,
      "bro": 1941,
      "fire": 1942,
      "kit": 1943,
      "path": 1944,
      "ints": 1945,
      "ons": 1946,
      "lip": 1947,
      "prove": 1948,
      "graph": 1949,
      "pull": 1950,
      "14": 1951,
      "ches": 1952,
      "button": 1953,
      "else": 1954,
      "finish": 1955,
      "surface": 1956,
      "cing": 1957,
      "fall": 1958,
      "stress": 1959,
      "chain": 1960,
      "soci": 1961,
      "true": 1962,
      "grow": 1963,
      "comfortable": 1964,
      "necessary": 1965,
      "100": 1966,
      "Str": 1967,
      "oil": 1968,
      "sent": 1969,
      "iting": 1970,
      "account": 1971,
      "loop": 1972,
      "pose": 1973,
      "pret": 1974,
      "flu": 1975,
      "colle": 1976,
      "learning": 1977,
      "cu": 1978,
      "forward": 1979,
      "lies": 1980,
      "ational": 1981,
      "require": 1982,
      "items": 1983,
      "Look": 1984,
      "ah": 1985,
      "rom": 1986,
      "row": 1987,
      "beli": 1988,
      "meas": 1989,
      "plement": 1990,
      "bring": 1991,
      "drive": 1992,
      "regular": 1993,
      "gue": 1994,
      "pack": 1995,
      "ses": 1996,
      "vi": 1997,
      "thought": 1998,
      "lease": 1999,
      "icle": 2000,
      "aren": 2001,
      "cannot": 2002,
      "```.": 2003,
      "uni": 2004,
      "copy": 2005,
      "types": 2006,
      "appear": 2007,
      "aid": 2008,
      "pair": 2009,
      "ão": 2010,
      "lean": 2011,
      "mach": 2012,
      "cost": 2013,
      "focus": 2014,
      "avail": 2015,
      "service": 2016,
      "happen": 2017,
      "):": 2018,
      "ference": 2019,
      "whole": 2020,
      "easier": 2021,
      "eyes": 2022,
      "connect": 2023,
      "50": 2024,
      "frequ": 2025,
      "along": 2026,
      "expect": 2027,
      "gover": 2028,
      "Start": 2029,
      "personal": 2030,
      "lines": 2031,
      "screen": 2032,
      "smo": 2033,
      "website": 2034,
      "mater": 2035,
      "omen": 2036,
      "gets": 2037,
      "books": 2038,
      "energy": 2039,
      "difficult": 2040,
      "By": 2041,
      "cast": 2042,
      "lam": 2043,
      "ron": 2044,
      "sort": 2045,
      "tool": 2046,
      "sid": 2047,
      "project": 2048,
      "pieces": 2049,
      "given": 2050,
      "questions": 2051,
      "changes": 2052,
      "Af": 2053,
      "far": 2054,
      "mot": 2055,
      "nam": 2056,
      "respect": 2057,
      "spect": 2058,
      "general": 2059,
      "style": 2060,
      "kitten": 2061,
      "material": 2062,
      "eve": 2063,
      "gri": 2064,
      "house": 2065,
      "ns": 2066,
      "uel": 2067,
      "coming": 2068,
      "reng": 2069,
      "grou": 2070,
      "Instead": 2071,
      "dish": 2072,
      "logy": 2073,
      "field": 2074,
      "norm": 2075,
      "fork": 2076,
      "apple": 2077,
      "social": 2078,
      "ids": 2079,
      "contact": 2080,
      "Choo": 2081,
      "profess": 2082,
      "bowl": 2083,
      "cases": 2084,
      "human": 2085,
      "After": 2086,
      "Not": 2087,
      "band": 2088,
      "invol": 2089,
      "ories": 2090,
      "deli": 2091,
      "shirt": 2092,
      "feet": 2093,
      "cold": 2094,
      "tract": 2095,
      "aft": 2096,
      "everything": 2097,
      "temper": 2098,
      "mathb": 2099,
      "available": 2100,
      "govern": 2101,
      "\".": 2102,
      "->": 2103,
      "city": 2104,
      "jor": 2105,
      "past": 2106,
      "tre": 2107,
      "wood": 2108,
      "posed": 2109,
      "Why": 2110,
      "special": 2111,
      "apply": 2112,
      "serv": 2113,
      "sitting": 2114,
      "said": 2115,
      "attention": 2116,
      "joy": 2117,
      "cook": 2118,
      "divid": 2119,
      "Find": 2120,
      "flo": 2121,
      "fur": 2122,
      "hist": 2123,
      "ior": 2124,
      "ris": 2125,
      "range": 2126,
      "ins": 2127,
      "ency": 2128,
      "ties": 2129,
      "imum": 2130,
      "astic": 2131,
      "ills": 2132,
      "easily": 2133,
      "Choose": 2134,
      "Le": 2135,
      "Ser": 2136,
      "ben": 2137,
      "email": 2138,
      "ging": 2139,
      "mat": 2140,
      "tu": 2141,
      "tit": 2142,
      "organ": 2143,
      "ism": 2144,
      "ledge": 2145,
      "basic": 2146,
      "200": 2147,
      "Che": 2148,
      "dom": 2149,
      "fre": 2150,
      "reli": 2151,
      "remember": 2152,
      "stri": 2153,
      "behav": 2154,
      "ute": 2155,
      "reading": 2156,
      "final": 2157,
      "wax": 2158,
      "directly": 2159,
      "character": 2160,
      "(\"": 2161,
      ".”": 2162,
      "],": 2163,
      "hind": 2164,
      "ox": 2165,
      "rou": 2166,
      "spr": 2167,
      "vious": 2168,
      "recor": 2169,
      "streng": 2170,
      "els": 2171,
      "ization": 2172,
      "breath": 2173,
      "Dr": 2174,
      "Note": 2175,
      "US": 2176,
      "cult": 2177,
      "fig": 2178,
      "link": 2179,
      "arn": 2180,
      "deep": 2181,
      "sil": 2182,
      "exact": 2183,
      "avor": 2184,
      "wash": 2185,
      "completely": 2186,
      "protect": 2187,
      "Now": 2188,
      "aim": 2189,
      "sch": 2190,
      "spo": 2191,
      "setting": 2192,
      "numbers": 2193,
      "options": 2194,
      "eye": 2195,
      "multiple": 2196,
      "application": 2197,
      "Write": 2198,
      "All": 2199,
      "Bu": 2200,
      "ires": 2201,
      "save": 2202,
      "index": 2203,
      "behind": 2204,
      "und": 2205,
      "unch": 2206,
      "major": 2207,
      "cloth": 2208,
      "healthy": 2209,
      "viron": 2210,
      "Many": 2211,
      "lt": 2212,
      "pat": 2213,
      "ture": 2214,
      "ots": 2215,
      "difference": 2216,
      "standard": 2217,
      "training": 2218,
      "physical": 2219,
      "She": 2220,
      "mil": 2221,
      "scr": 2222,
      "remain": 2223,
      "sem": 2224,
      "force": 2225,
      "note": 2226,
      "diaper": 2227,
      "related": 2228,
      "lower": 2229,
      "paint": 2230,
      "develop": 2231,
      "reduce": 2232,
      "natural": 2233,
      "measure": 2234,
      "bility": 2235,
      "cul": 2236,
      "dress": 2237,
      "miss": 2238,
      "round": 2239,
      "onto": 2240,
      "stra": 2241,
      "needed": 2242,
      "helps": 2243,
      "signific": 2244,
      "problems": 2245,
      "results": 2246,
      "practice": 2247,
      "computer": 2248,
      "situation": 2249,
      "Even": 2250,
      "eat": 2251,
      "games": 2252,
      "oth": 2253,
      "research": 2254,
      "ences": 2255,
      "environ": 2256,
      "aling": 2257,
      "across": 2258,
      "areas": 2259,
      "ift": 2260,
      "wel": 2261,
      "improve": 2262,
      "buy": 2263,
      "push": 2264,
      "express": 2265,
      "guide": 2266,
      "image": 2267,
      "walk": 2268,
      "sleep": 2269,
      "Co": 2270,
      "came": 2271,
      "fut": 2272,
      "four": 2273,
      "rings": 2274,
      "thes": 2275,
      "heav": 2276,
      "ird": 2277,
      "black": 2278,
      "Consider": 2279,
      "increase": 2280,
      "ni": 2281,
      "patter": 2282,
      "thon": 2283,
      "recomm": 2284,
      "fort": 2285,
      "fee": 2286,
      "implement": 2287,
      "prefer": 2288,
      "speed": 2289,
      "acket": 2290,
      "depend": 2291,
      "New": 2292,
      "Sy": 2293,
      "Since": 2294,
      "Wor": 2295,
      "due": 2296,
      "dark": 2297,
      "las": 2298,
      "later": 2299,
      "mis": 2300,
      "rout": 2301,
      "wall": 2302,
      "warm": 2303,
      "represent": 2304,
      "ensure": 2305,
      "acy": 2306,
      "coat": 2307,
      "parts": 2308,
      "members": 2309,
      "priv": 2310,
      "allows": 2311,
      "higher": 2312,
      "appropri": 2313,
      "Most": 2314,
      "String": 2315,
      "government": 2316,
      "Ob": 2317,
      "Ty": 2318,
      "bs": 2319,
      "bul": 2320,
      "burn": 2321,
      "cm": 2322,
      "ker": 2323,
      "slight": 2324,
      "static": 2325,
      "itself": 2326,
      "ases": 2327,
      "entire": 2328,
      "output": 2329,
      "user": 2330,
      "ava": 2331,
      "hole": 2332,
      "values": 2333,
      "Engl": 2334,
      "Wind": 2335,
      "fly": 2336,
      "mom": 2337,
      "squ": 2338,
      "watch": 2339,
      "zer": 2340,
      "rist": 2341,
      "sometimes": 2342,
      "strong": 2343,
      "active": 2344,
      "25": 2345,
      "List": 2346,
      "din": 2347,
      "igh": 2348,
      "lish": 2349,
      "law": 2350,
      "rain": 2351,
      "sample": 2352,
      "detail": 2353,
      "termin": 2354,
      "cool": 2355,
      "however": 2356,
      "hoto": 2357,
      "marri": 2358,
      "instance": 2359,
      "property": 2360,
      "cooking": 2361,
      "cards": 2362,
      "document": 2363,
      "future": 2364,
      "Ac": 2365,
      "pi": 2366,
      "init": 2367,
      "review": 2368,
      "edge": 2369,
      "neg": 2370,
      "neck": 2371,
      "immedi": 2372,
      "aves": 2373,
      "prepare": 2374,
      "center": 2375,
      "files": 2376,
      "typically": 2377,
      "methods": 2378,
      "exercise": 2379,
      "mathbf": 2380,
      "Check": 2381,
      "Cre": 2382,
      "har": 2383,
      "istr": 2384,
      "matter": 2385,
      "og": 2386,
      "outh": 2387,
      "enjoy": 2388,
      "sun": 2389,
      "moving": 2390,
      "shop": 2391,
      "shape": 2392,
      "click": 2393,
      "objects": 2394,
      "effective": 2395,
      "customer": 2396,
      "straight": 2397,
      "Put": 2398,
      "fix": 2399,
      "gor": 2400,
      "ially": 2401,
      "pict": 2402,
      "scal": 2403,
      "individ": 2404,
      "almost": 2405,
      "vest": 2406,
      "enter": 2407,
      "adder": 2408,
      "points": 2409,
      "butter": 2410,
      "everyone": 2411,
      "activities": 2412,
      "original": 2413,
      "temperature": 2414,
      "',": 2415,
      "je": 2416,
      "mor": 2417,
      "sn": 2418,
      "sense": 2419,
      "dest": 2420,
      "share": 2421,
      "feed": 2422,
      "exe": 2423,
      "door": 2424,
      "agr": 2425,
      "wrong": 2426,
      "positive": 2427,
      "required": 2428,
      "Cont": 2429,
      "visit": 2430,
      "happy": 2431,
      "advant": 2432,
      "separate": 2433,
      "English": 2434,
      ".)": 2435,
      "?\"": 2436,
      "Ad": 2437,
      "Amer": 2438,
      "Avoid": 2439,
      "aut": 2440,
      "fight": 2441,
      "ime": 2442,
      "mic": 2443,
      "oice": 2444,
      "tch": 2445,
      "ified": 2446,
      "maint": 2447,
      "pool": 2448,
      "offic": 2449,
      "brea": 2450,
      "classes": 2451,
      "condition": 2452,
      "generally": 2453,
      "legal": 2454,
      "approach": 2455,
      "salt": 2456,
      "message": 2457,
      "environment": 2458,
      "appropriate": 2459,
      "Americ": 2460,
      "13": 2461,
      "_turn": 2462,
      "double": 2463,
      "ht": 2464,
      "ju": 2465,
      "section": 2466,
      "accept": 2467,
      "lift": 2468,
      "host": 2469,
      "lood": 2470,
      "commit": 2471,
      "counter": 2472,
      "pressure": 2473,
      "ficient": 2474,
      "install": 2475,
      "multi_turn": 2476,
      "video": 2477,
      "map": 2478,
      "xi": 2479,
      "yet": 2480,
      "input": 2481,
      "ctions": 2482,
      "content": 2483,
      "spend": 2484,
      "skills": 2485,
      "templ": 2486,
      "running": 2487,
      "$$": 2488,
      "17": 2489,
      "AT": 2490,
      "ged": 2491,
      "kne": 2492,
      "kids": 2493,
      "ming": 2494,
      "ned": 2495,
      "ines": 2496,
      "instruct": 2497,
      "suc": 2498,
      "coll": 2499,
      "therap": 2500,
      "quite": 2501,
      "aged": 2502,
      "handle": 2503,
      "starting": 2504,
      "();": 2505,
      "finger": 2506,
      "Create": 2507,
      "Po": 2508,
      "bri": 2509,
      "ra": 2510,
      "rate": 2511,
      "sess": 2512,
      "tar": 2513,
      "tend": 2514,
      "tree": 2515,
      "zed": 2516,
      "repe": 2517,
      "ises": 2518,
      "sides": 2519,
      "pean": 2520,
      "explain": 2521,
      "complain": 2522,
      "perfect": 2523,
      "takes": 2524,
      "auce": 2525,
      "colum": 2526,
      "author": 2527,
      "ridge": 2528,
      "benef": 2529,
      "significant": 2530,
      "Just": 2531,
      "fuel": 2532,
      "gir": 2533,
      "gain": 2534,
      "rand": 2535,
      "replace": 2536,
      "ening": 2537,
      "ensive": 2538,
      "sequ": 2539,
      "ably": 2540,
      "loss": 2541,
      "mov": 2542,
      "forms": 2543,
      "cording": 2544,
      "flow": 2545,
      "steps": 2546,
      "didn": 2547,
      "Click": 2548,
      "additional": 2549,
      "drop": 2550,
      "towards": 2551,
      "conversation": 2552,
      "normal": 2553,
      "Pe": 2554,
      "bound": 2555,
      "fle": 2556,
      "photo": 2557,
      "youn": 2558,
      "aring": 2559,
      "ication": 2560,
      "asing": 2561,
      "rodu": 2562,
      "tight": 2563,
      "iled": 2564,
      "goes": 2565,
      "selves": 2566,
      "says": 2567,
      "smaller": 2568,
      "iction": 2569,
      "Fir": 2570,
      "fine": 2571,
      "ler": 2572,
      "reme": 2573,
      "error": 2574,
      "bel": 2575,
      "wide": 2576,
      "accom": 2577,
      "imp": 2578,
      "shell": 2579,
      "knowledge": 2580,
      "clothes": 2581,
      "curity": 2582,
      "lights": 2583,
      "Chin": 2584,
      "request": 2585,
      "requires": 2586,
      "gery": 2587,
      "elements": 2588,
      "''''": 2589,
      "Py": 2590,
      "bor": 2591,
      "cit": 2592,
      "favor": 2593,
      "io": 2594,
      "pal": 2595,
      "rit": 2596,
      "var": 2597,
      "anti": 2598,
      "below": 2599,
      "trad": 2600,
      "notice": 2601,
      "tee": 2602,
      "aging": 2603,
      "emot": 2604,
      "anger": 2605,
      "affect": 2606,
      "early": 2607,
      "flat": 2608,
      "aware": 2609,
      "country": 2610,
      "prim": 2611,
      "glass": 2612,
      "Also": 2613,
      "reasons": 2614,
      "filter": 2615,
      "First": 2616,
      "))": 2617,
      "90": 2618,
      "Bar": 2619,
      "Jo": 2620,
      "Of": 2621,
      "gg": 2622,
      "ore": 2623,
      "song": 2624,
      "inch": 2625,
      "seen": 2626,
      "super": 2627,
      "combin": 2628,
      "teen": 2629,
      "cies": 2630,
      "pread": 2631,
      "ister": 2632,
      "000": 2633,
      "syn": 2634,
      "sites": 2635,
      "wait": 2636,
      "location": 2637,
      "popular": 2638,
      "products": 2639,
      "$.": 2640,
      "cry": 2641,
      "sand": 2642,
      "inse": 2643,
      "ery": 2644,
      "iter": 2645,
      "chase": 2646,
      "umb": 2647,
      "ilities": 2648,
      "worth": 2649,
      "grad": 2650,
      "ives": 2651,
      "legs": 2652,
      "holding": 2653,
      "occur": 2654,
      "weeks": 2655,
      "----------------": 2656,
      "element": 2657,
      "termine": 2658,
      "further": 2659,
      "fresh": 2660,
      "Windows": 2661,
      "Me": 2662,
      "NA": 2663,
      "Ph": 2664,
      "Using": 2665,
      "ye": 2666,
      "yarn": 2667,
      "aps": 2668,
      "apers": 2669,
      "ney": 2670,
      "agna": 2671,
      "prote": 2672,
      "emer": 2673,
      "display": 2674,
      "bike": 2675,
      "treatment": 2676,
      "potential": 2677,
      "soft": 2678,
      "history": 2679,
      "($": 2680,
      "('": 2681,
      "40": 2682,
      "Im": 2683,
      "PC": 2684,
      "blood": 2685,
      "ered": 2686,
      "fi": 2687,
      "rad": 2688,
      "sq": 2689,
      "anim": 2690,
      "advice": 2691,
      "ilt": 2692,
      "indic": 2693,
      "claim": 2694,
      "themselves": 2695,
      "cide": 2696,
      "format": 2697,
      "portun": 2698,
      "feeling": 2699,
      "feelings": 2700,
      "written": 2701,
      "giving": 2702,
      "music": 2703,
      "issue": 2704,
      "menu": 2705,
      "==": 2706,
      "CO": 2707,
      "Java": 2708,
      "bir": 2709,
      "sor": 2710,
      "soon": 2711,
      "agon": 2712,
      "dire": 2713,
      "tach": 2714,
      "nothing": 2715,
      "clothing": 2716,
      "surgery": 2717,
      "mark": 2718,
      "trip": 2719,
      "Islam": 2720,
      "decis": 2721,
      "window": 2722,
      "title": 2723,
      "immediately": 2724,
      "Dis": 2725,
      "Have": 2726,
      "ault": 2727,
      "names": 2728,
      "swe": 2729,
      "send": 2730,
      "stu": 2731,
      "altern": 2732,
      "depart": 2733,
      "lose": 2734,
      "ury": 2735,
      "quality": 2736,
      "boy": 2737,
      "bracket": 2738,
      "looks": 2739,
      "extreme": 2740,
      "solve": 2741,
      "plicit": 2742,
      "faster": 2743,
      "mixture": 2744,
      "months": 2745,
      "constant": 2746,
      "lasagna": 2747,
      "slightly": 2748,
      "execut": 2749,
      "32": 2750,
      "60": 2751,
      "View": 2752,
      "aur": 2753,
      "foo": 2754,
      "gas": 2755,
      "mouth": 2756,
      "atures": 2757,
      "alk": 2758,
      "dev": 2759,
      "decor": 2760,
      "metal": 2761,
      "ife": 2762,
      "concer": 2763,
      "dies": 2764,
      "adding": 2765,
      "serious": 2766,
      "arrow": 2767,
      "media": 2768,
      "period": 2769,
      "slowly": 2770,
      "strength": 2771,
      "schedu": 2772,
      "target": 2773,
      "$,": 2774,
      "Cut": 2775,
      "Des": 2776,
      "Dep": 2777,
      "Fin": 2778,
      "Li": 2779,
      "Val": 2780,
      "].": 2781,
      "ai": 2782,
      "block": 2783,
      "ded": 2784,
      "pun": 2785,
      "ray": 2786,
      "tor": 2787,
      "tick": 2788,
      "zz": 2789,
      "ond": 2790,
      "ands": 2791,
      "asks": 2792,
      "chan": 2793,
      "acking": 2794,
      "death": 2795,
      "sole": 2796,
      "plot": 2797,
      "opportun": 2798,
      "speak": 2799,
      "ideas": 2800,
      "autom": 2801,
      "subject": 2802,
      "()```": 2803,
      "cutting": 2804,
      "struction": 2805,
      "complex": 2806,
      "changing": 2807,
      "shoes": 2808,
      "lifts": 2809,
      "figure": 2810,
      "maintain": 2811,
      "Fo": 2812,
      "Ste": 2813,
      "cure": 2814,
      "fair": 2815,
      "ok": 2816,
      "saw": 2817,
      "ww": 2818,
      "reco": 2819,
      "star": 2820,
      "alse": 2821,
      "ghter": 2822,
      "amer": 2823,
      "outfit": 2824,
      "conds": 2825,
      "cream": 2826,
      "descri": 2827,
      "attack": 2828,
      "parent": 2829,
      "meaning": 2830,
      "config": 2831,
      "community": 2832,
      "pretty": 2833,
      "group": 2834,
      "behavior": 2835,
      "negative": 2836,
      "bly": 2837,
      "catch": 2838,
      "hab": 2839,
      "hur": 2840,
      "hang": 2841,
      "women": 2842,
      "ising": 2843,
      "seconds": 2844,
      "becomes": 2845,
      "ros": 2846,
      "exc": 2847,
      "frame": 2848,
      "achie": 2849,
      "strate": 2850,
      "introdu": 2851,
      "wrap": 2852,
      "istic": 2853,
      "office": 2854,
      "examples": 2855,
      "manage": 2856,
      "rub": 2857,
      "building": 2858,
      "exactly": 2859,
      "gorith": 2860,
      "**": 2861,
      "Open": 2862,
      "bie": 2863,
      "gang": 2864,
      "rot": 2865,
      "refer": 2866,
      "atically": 2867,
      "ital": 2868,
      "arg": 2869,
      "associ": 2870,
      "wid": 2871,
      "decl": 2872,
      "sume": 2873,
      "moder": 2874,
      "max": 2875,
      "ump": 2876,
      "discus": 2877,
      "bran": 2878,
      "blue": 2879,
      "sheet": 2880,
      "depending": 2881,
      "damage": 2882,
      "characters": 2883,
      "suggest": 2884,
      "machine": 2885,
      "risk": 2886,
      "ban": 2887,
      "eating": 2888,
      "fits": 2889,
      "glo": 2890,
      "nice": 2891,
      "ume": 2892,
      "invest": 2893,
      "ream": 2894,
      "anced": 2895,
      "icking": 2896,
      "assign": 2897,
      "chall": 2898,
      "met": 2899,
      "confirm": 2900,
      "plant": 2901,
      "article": 2902,
      "built": 2903,
      "intern": 2904,
      "join": 2905,
      "rules": 2906,
      "interested": 2907,
      "stretch": 2908,
      "places": 2909,
      "floor": 2910,
      "details": 2911,
      "individual": 2912,
      "::": 2913,
      "cred": 2914,
      "wire": 2915,
      "```$": 2916,
      "die": 2917,
      "formul": 2918,
      "ists": 2919,
      "spir": 2920,
      "ived": 2921,
      "throw": 2922,
      "throughout": 2923,
      "courage": 2924,
      "profile": 2925,
      "network": 2926,
      "safety": 2927,
      "ports": 2928,
      "seems": 2929,
      "activity": 2930,
      "favorite": 2931,
      "OS": 2932,
      "Other": 2933,
      "bill": 2934,
      "cou": 2935,
      "fli": 2936,
      "lice": 2937,
      "mill": 2938,
      "sens": 2939,
      "ured": 2940,
      "stat": 2941,
      "algorith": 2942,
      "beaut": 2943,
      "ental": 2944,
      "cop": 2945,
      "trust": 2946,
      "useful": 2947,
      "idence": 2948,
      "spot": 2949,
      "ival": 2950,
      "audi": 2951,
      "starts": 2952,
      "player": 2953,
      "signal": 2954,
      "explo": 2955,
      "student": 2956,
      "scen": 2957,
      "screw": 2958,
      "issues": 2959,
      "professional": 2960,
      "culture": 2961,
      "System": 2962,
      "square": 2963,
      "instructions": 2964,
      "Python": 2965,
      "Ear": 2966,
      "Give": 2967,
      "cats": 2968,
      "mir": 2969,
      "uro": 2970,
      "resist": 2971,
      "release": 2972,
      "lever": 2973,
      "sex": 2974,
      "season": 2975,
      "deal": 2976,
      "determine": 2977,
      "apan": 2978,
      "apart": 2979,
      "except": 2980,
      "optim": 2981,
      "calcul": 2982,
      "arily": 2983,
      "started": 2984,
      "restaur": 2985,
      "charge": 2986,
      "container": 2987,
      "Class": 2988,
      "stream": 2989,
      "techno": 2990,
      "mptom": 2991,
      "college": 2992,
      "forklifts": 2993,
      "milk": 2994,
      "heavy": 2995,
      "moment": 2996,
      "xiety": 2997,
      "direction": 2998,
      "Ro": 2999,
      "gar": 3000,
      "json": 3001,
      "late": 3002,
      "rough": 3003,
      "tes": 3004,
      "task": 3005,
      "thick": 3006,
      "thread": 3007,
      "reference": 3008,
      "anxiety": 3009,
      "attem": 3010,
      "asy": 3011,
      "kets": 3012,
      "tire": 3013,
      "polit": 3014,
      "usion": 3015,
      "cret": 3016,
      "brush": 3017,
      "added": 3018,
      "dogs": 3019,
      "playing": 3020,
      "signs": 3021,
      "glue": 3022,
      "gives": 3023,
      "green": 3024,
      "distance": 3025,
      "wearing": 3026,
      "defined": 3027,
      "services": 3028,
      "AI": 3029,
      "Japan": 3030,
      "SA": 3031,
      "fro": 3032,
      "mass": 3033,
      "tank": 3034,
      "wish": 3035,
      "aries": 3036,
      "ribut": 3037,
      "shap": 3038,
      "conside": 3039,
      "notes": 3040,
      "ables": 3041,
      "goal": 3042,
      "visible": 3043,
      "rule": 3044,
      "models": 3045,
      "empty": 3046,
      "Although": 3047,
      "sticks": 3048,
      "router": 3049,
      "private": 3050,
      "considered": 3051,
      "!\"": 3052,
      "24": 3053,
      "Lear": 3054,
      "false": 3055,
      "ky": 3056,
      "mas": 3057,
      "rt": 3058,
      "sets": 3059,
      "security": 3060,
      "chance": 3061,
      "vered": 3062,
      "entry": 3063,
      "libr": 3064,
      "ceed": 3065,
      "```\\": 3066,
      "shared": 3067,
      "condu": 3068,
      "trick": 3069,
      "trouble": 3070,
      "users": 3071,
      "upon": 3072,
      "diet": 3073,
      "hope": 3074,
      "colors": 3075,
      "gency": 3076,
      "Christ": 3077,
      "Remove": 3078,
      "various": 3079,
      "happens": 3080,
      "United": 3081,
      "walking": 3082,
      "fingers": 3083,
      "continue": 3084,
      "recommended": 3085,
      "morning": 3086,
      "success": 3087,
      "citiz": 3088,
      "tradition": 3089,
      "Barbie": 3090,
      ",”": 3091,
      "Col": 3092,
      "Sim": 3093,
      "cket": 3094,
      "dim": 3095,
      "hat": 3096,
      "nut": 3097,
      "sli": 3098,
      "ering": 3099,
      "tow": 3100,
      "comb": 3101,
      "wet": 3102,
      "atever": 3103,
      "agree": 3104,
      "actions": 3105,
      "cks": 3106,
      "valid": 3107,
      "Any": 3108,
      "Another": 3109,
      "Remember": 3110,
      "talking": 3111,
      "Before": 3112,
      "taxes": 3113,
      "performance": 3114,
      "smooth": 3115,
      "delivery": 3116,
      "peanut": 3117,
      "girl": 3118,
      "movie": 3119,
      "birth": 3120,
      "department": 3121,
      "width": 3122,
      "=>": 3123,
      "Talk": 3124,
      "cart": 3125,
      "fa": 3126,
      "lp": 3127,
      "lun": 3128,
      "nia": 3129,
      "pred": 3130,
      "sion": 3131,
      "script": 3132,
      "vac": 3133,
      "anal": 3134,
      "today": 3135,
      "ali": 3136,
      "leaves": 3137,
      "heart": 3138,
      "modu": 3139,
      "qual": 3140,
      "strain": 3141,
      "obj": 3142,
      "loose": 3143,
      "minimum": 3144,
      "keeping": 3145,
      "allowed": 3146,
      "larger": 3147,
      "bottle": 3148,
      "comfort": 3149,
      "See": 3150,
      "package": 3151,
      "pattern": 3152,
      "Type": 3153,
      "Are": 3154,
      "File": 3155,
      "dust": 3156,
      "lap": 3157,
      "mes": 3158,
      "une": 3159,
      "via": 3160,
      "rely": 3161,
      "remo": 3162,
      "resid": 3163,
      "ators": 3164,
      "alone": 3165,
      "arms": 3166,
      "asking": 3167,
      "entially": 3168,
      "meat": 3169,
      "ades": 3170,
      "adjust": 3171,
      "conut": 3172,
      "please": 3173,
      "boil": 3174,
      "spelling": 3175,
      "wanted": 3176,
      "tware": 3177,
      "relax": 3178,
      "symptom": 3179,
      "enses": 3180,
      "solute": 3181,
      "vision": 3182,
      "prior": 3183,
      "regard": 3184,
      "homeless": 3185,
      "older": 3186,
      "cape": 3187,
      "issors": 3188,
      "techni": 3189,
      "Apply": 3190,
      "finished": 3191,
      "believe": 3192,
      "domin": 3193,
      "modern": 3194,
      "BA": 3195,
      "Euro": 3196,
      "Man": 3197,
      "Pop": 3198,
      "spread": 3199,
      "third": 3200,
      "told": 3201,
      "total": 3202,
      "itude": 3203,
      "aces": 3204,
      "dered": 3205,
      "ado": 3206,
      "terms": 3207,
      "mag": 3208,
      "covered": 3209,
      "prop": 3210,
      "strict": 3211,
      "created": 3212,
      "wards": 3213,
      "version": 3214,
      "calls": 3215,
      "payment": 3216,
      "statement": 3217,
      "knife": 3218,
      "client": 3219,
      "provided": 3220,
      "employe": 3221,
      "guests": 3222,
      "unique": 3223,
      "materials": 3224,
      "mission": 3225,
      "argum": 3226,
      "From": 3227,
      "Please": 3228,
      "aqu": 3229,
      "den": 3230,
      "oven": 3231,
      "pin": 3232,
      "ware": 3233,
      "ying": 3234,
      "yond": 3235,
      "reci": 3236,
      "oring": 3237,
      "oman": 3238,
      "veget": 3239,
      "vels": 3240,
      "ford": 3241,
      "ads": 3242,
      "absolute": 3243,
      "ries": 3244,
      "cope": 3245,
      "coconut": 3246,
      "creating": 3247,
      "previous": 3248,
      "ferences": 3249,
      "possi": 3250,
      "sert": 3251,
      "background": 3252,
      "desk": 3253,
      "supp": 3254,
      "Plan": 3255,
      "systems": 3256,
      "beginning": 3257,
      "invit": 3258,
      "switch": 3259,
      "daily": 3260,
      "Tell": 3261,
      "thinking": 3262,
      "scale": 3263,
      "htt": 3264,
      "column": 3265,
      "couple": 3266,
      "AP": 3267,
      "Each": 3268,
      "Hold": 3269,
      "IP": 3270,
      "Wear": 3271,
      "ait": 3272,
      "bath": 3273,
      "five": 3274,
      "fail": 3275,
      "gently": 3276,
      "jour": 3277,
      "ny": 3278,
      "thumb": 3279,
      "ino": 3280,
      "ert": 3281,
      "tore": 3282,
      "alle": 3283,
      "arri": 3284,
      "hear": 3285,
      "according": 3286,
      "dem": 3287,
      "lid": 3288,
      "ablish": 3289,
      "shor": 3290,
      "plastic": 3291,
      "track": 3292,
      "ool": 3293,
      "willing": 3294,
      "ender": 3295,
      "anyone": 3296,
      "digit": 3297,
      "nose": 3298,
      "wants": 3299,
      "holi": 3300,
      "apping": 3301,
      "phy": 3302,
      "differences": 3303,
      "para": 3304,
      "smile": 3305,
      "conditions": 3306,
      "expensive": 3307,
      "Sometimes": 3308,
      "Example": 3309,
      "interesting": 3310,
      "scissors": 3311,
      "layer": 3312,
      "damental": 3313,
      "purpose": 3314,
      "software": 3315,
      "young": 3316,
      "emergency": 3317,
      "Earth": 3318,
      ".,": 3319,
      "://": 3320,
      "Clever": 3321,
      "Hel": 3322,
      "Que": 3323,
      "SE": 3324,
      "bud": 3325,
      "cs": 3326,
      "cles": 3327,
      "ease": 3328,
      "nlp": 3329,
      "oud": 3330,
      "stage": 3331,
      "enty": 3332,
      "suit": 3333,
      "proof": 3334,
      "ults": 3335,
      "Inter": 3336,
      "crush": 3337,
      "compan": 3338,
      "ification": 3339,
      "saying": 3340,
      "driving": 3341,
      "volume": 3342,
      "lots": 3343,
      "choice": 3344,
      "default": 3345,
      "provides": 3346,
      "involved": 3347,
      "Object": 3348,
      "zero": 3349,
      "initial": 3350,
      "credit": 3351,
      "Cleverbot": 3352,
      "Act": 3353,
      "CD": 3354,
      "May": 3355,
      "Res": 3356,
      "baking": 3357,
      "dir": 3358,
      "danger": 3359,
      "fat": 3360,
      "gress": 3361,
      "mi": 3362,
      "recent": 3363,
      "attach": 3364,
      "towel": 3365,
      "lev": 3366,
      "leaving": 3367,
      "itution": 3368,
      "icate": 3369,
      "deg": 3370,
      "decide": 3371,
      "role": 3372,
      "whatever": 3373,
      "exper": 3374,
      "foc": 3375,
      "izing": 3376,
      "ished": 3377,
      "phr": 3378,
      "efficient": 3379,
      "cru": 3380,
      "State": 3381,
      "Child": 3382,
      "arium": 3383,
      "drain": 3384,
      "surv": 3385,
      "players": 3386,
      "tries": 3387,
      "asked": 3388,
      "Play": 3389,
      "approx": 3390,
      "greater": 3391,
      "hotel": 3392,
      "messages": 3393,
      "pipe": 3394,
      "picture": 3395,
      "People": 3396,
      "schedule": 3397,
      "Gr": 3398,
      "His": 3399,
      "Say": 3400,
      "Turn": 3401,
      "cities": 3402,
      "eli": 3403,
      "hn": 3404,
      "hook": 3405,
      "knew": 3406,
      "ral": 3407,
      "rical": 3408,
      "chem": 3409,
      "chick": 3410,
      "accur": 3411,
      "root": 3412,
      "felt": 3413,
      "teas": 3414,
      "actual": 3415,
      "memory": 3416,
      "bags": 3417,
      "Addition": 3418,
      "kittens": 3419,
      "trees": 3420,
      "spray": 3421,
      "agraph": 3422,
      "advantage": 3423,
      "achieve": 3424,
      "symptoms": 3425,
      "aquarium": 3426,
      "Car": 3427,
      "ED": 3428,
      "Every": 3429,
      "Know": 3430,
      "OR": 3431,
      "Per": 3432,
      "S_": 3433,
      "ik": 3434,
      "tasks": 3435,
      "zen": 3436,
      "inf": 3437,
      "onic": 3438,
      "icing": 3439,
      "beyond": 3440,
      "suf": 3441,
      "rib": 3442,
      "soap": 3443,
      "master": 3444,
      "costs": 3445,
      "tru": 3446,
      "ulite": 3447,
      "tele": 3448,
      "umin": 3449,
      "worry": 3450,
      "goals": 3451,
      "ption": 3452,
      "effort": 3453,
      "crit": 3454,
      "compli": 3455,
      "tribut": 3456,
      "keys": 3457,
      "famili": 3458,
      "relationships": 3459,
      "minute": 3460,
      "password": 3461,
      "structure": 3462,
      "properly": 3463,
      "includes": 3464,
      "variables": 3465,
      "record": 3466,
      "istration": 3467,
      "official": 3468,
      "session": 3469,
      "complaint": 3470,
      "town": 3471,
      "chicken": 3472,
      "\")": 3473,
      "IT": 3474,
      "Lo": 3475,
      "Ma": 3476,
      "Sp": 3477,
      "aver": 3478,
      "gift": 3479,
      "harm": 3480,
      "rat": 3481,
      "swi": 3482,
      "ane": 3483,
      "erk": 3484,
      "vet": 3485,
      "device": 3486,
      "metr": 3487,
      "living": 3488,
      "road": 3489,
      "advis": 3490,
      "iful": 3491,
      "ament": 3492,
      "tip": 3493,
      "fection": 3494,
      "exit": 3495,
      "consist": 3496,
      "compar": 3497,
      "weak": 3498,
      "ager": 3499,
      "ards": 3500,
      "serve": 3501,
      "writer": 3502,
      "engine": 3503,
      "charco": 3504,
      "ception": 3505,
      "Array": 3506,
      "contains": 3507,
      "clim": 3508,
      "receive": 3509,
      "scient": 3510,
      "frequency": 3511,
      "spoon": 3512,
      "development": 3513,
      "guideline": 3514,
      "marriage": 3515,
      "breathing": 3516,
      "template": 3517,
      "random": 3518,
      "extremely": 3519,
      "decorations": 3520,
      "opportunity": 3521,
      "teaspo": 3522,
      "45": 3523,
      "Pri": 3524,
      "Rep": 3525,
      "Su": 3526,
      "Sub": 3527,
      "Test": 3528,
      "bur": 3529,
      "cow": 3530,
      "camer": 3531,
      "gi": 3532,
      "gam": 3533,
      "null": 3534,
      "papers": 3535,
      "scan": 3536,
      "wed": 3537,
      "report": 3538,
      "ancy": 3539,
      "encies": 3540,
      "levels": 3541,
      "offee": 3542,
      "assist": 3543,
      "dead": 3544,
      "among": 3545,
      "mod": 3546,
      "tial": 3547,
      "explicit": 3548,
      "plat": 3549,
      "plum": 3550,
      "resour": 3551,
      "taken": 3552,
      "oppos": 3553,
      "events": 3554,
      "afford": 3555,
      "holes": 3556,
      "corner": 3557,
      "establish": 3558,
      "paragraph": 3559,
      "surround": 3560,
      "looked": 3561,
      "driver": 3562,
      "Because": 3563,
      "plane": 3564,
      "calling": 3565,
      "career": 3566,
      "volun": 3567,
      "capac": 3568,
      "scroll": 3569,
      "balance": 3570,
      "humans": 3571,
      "exercises": 3572,
      "cellulite": 3573,
      "American": 3574,
      "primary": 3575,
      "algorithm": 3576,
      "degree": 3577,
      "approxim": 3578,
      "ribbon": 3579,
      "Over": 3580,
      "Qu": 3581,
      "Whe": 3582,
      "Wash": 3583,
      "__": 3584,
      "ahead": 3585,
      "coffee": 3586,
      "echo": 3587,
      "gt": 3588,
      "hun": 3589,
      "jud": 3590,
      "sat": 3591,
      "tag": 3592,
      "wing": 3593,
      "}}": 3594,
      "thus": 3595,
      "inches": 3596,
      "influ": 3597,
      "stir": 3598,
      "secure": 3599,
      "secret": 3600,
      "held": 3601,
      "determin": 3602,
      "mechan": 3603,
      "unit": 3604,
      "mother": 3605,
      "plants": 3606,
      "grate": 3607,
      "sources": 3608,
      "letters": 3609,
      "craft": 3610,
      "carry": 3611,
      "liter": 3612,
      "Enter": 3613,
      "study": 3614,
      "label": 3615,
      "experien": 3616,
      "filling": 3617,
      "science": 3618,
      "grill": 3619,
      "Draw": 3620,
      "accompl": 3621,
      "recogn": 3622,
      "cartridge": 3623,
      "23": 3624,
      "Day": 3625,
      "Fe": 3626,
      "Gu": 3627,
      "IS": 3628,
      "camp": 3629,
      "gle": 3630,
      "ha": 3631,
      "ham": 3632,
      "lack": 3633,
      "ladder": 3634,
      "ml": 3635,
      "mist": 3636,
      "paid": 3637,
      "voice": 3638,
      "{\\": 3639,
      "ondon": 3640,
      "lets": 3641,
      "meal": 3642,
      "lier": 3643,
      "loved": 3644,
      "apter": 3645,
      "shall": 3646,
      "plenty": 3647,
      "ressed": 3648,
      "mention": 3649,
      "ague": 3650,
      "dial": 3651,
      "crease": 3652,
      "brow": 3653,
      "brown": 3654,
      "helpful": 3655,
      "iving": 3656,
      "topic": 3657,
      "series": 3658,
      "phi": 3659,
      "dynam": 3660,
      "interview": 3661,
      "medical": 3662,
      "ankle": 3663,
      "returns": 3664,
      "placed": 3665,
      "folder": 3666,
      "teacher": 3667,
      "sentence": 3668,
      "relig": 3669,
      "expression": 3670,
      "teeth": 3671,
      "alternative": 3672,
      "hurt": 3673,
      "associated": 3674,
      "chemical": 3675,
      "Additionally": 3676,
      "37": 3677,
      "Boo": 3678,
      "Gener": 3679,
      "La": 3680,
      "Line": 3681,
      "Mon": 3682,
      "Met": 3683,
      "Pal": 3684,
      "Pay": 3685,
      "Ref": 3686,
      "Select": 3687,
      "UN": 3688,
      "bone": 3689,
      "fauce": 3690,
      "gun": 3691,
      "went": 3692,
      "wool": 3693,
      "redi": 3694,
      "atom": 3695,
      "attr": 3696,
      "tox": 3697,
      "ingredi": 3698,
      "acne": 3699,
      "lim": 3700,
      "rog": 3701,
      "rop": 3702,
      "abilities": 3703,
      "appoint": 3704,
      "```:": 3705,
      "shar": 3706,
      "shield": 3707,
      "feature": 3708,
      "features": 3709,
      "conom": 3710,
      "plans": 3711,
      "proced": 3712,
      "pers": 3713,
      "worse": 3714,
      "price": 3715,
      "otherwise": 3716,
      "boss": 3717,
      "ache": 3718,
      "ivity": 3719,
      "bladder": 3720,
      "flag": 3721,
      "functions": 3722,
      "States": 3723,
      "relative": 3724,
      "proved": 3725,
      "transl": 3726,
      "profit": 3727,
      "response": 3728,
      "designed": 3729,
      "horse": 3730,
      "eventually": 3731,
      "motion": 3732,
      "Buy": 3733,
      "scratch": 3734,
      "samples": 3735,
      "decision": 3736,
      "automatically": 3737,
      "branch": 3738,
      "beautiful": 3739,
      "Whether": 3740,
      "21": 3741,
      "Ele": 3742,
      "Fun": 3743,
      "IN": 3744,
      "MS": 3745,
      "econom": 3746,
      "ln": 3747,
      "mut": 3748,
      "mask": 3749,
      "np": 3750,
      "rup": 3751,
      "sou": 3752,
      "sen": 3753,
      "sme": 3754,
      "za": 3755,
      "iny": 3756,
      "std": 3757,
      "sea": 3758,
      "ower": 3759,
      "acts": 3760,
      "roy": 3761,
      "loso": 3762,
      "sized": 3763,
      "quant": 3764,
      "tage": 3765,
      "grade": 3766,
      "wasn": 3767,
      "prec": 3768,
      "pregn": 3769,
      "eval": 3770,
      "flash": 3771,
      "seeing": 3772,
      "feels": 3773,
      "valu": 3774,
      "finding": 3775,
      "boost": 3776,
      "tried": 3777,
      "followed": 3778,
      "carbon": 3779,
      "stores": 3780,
      "prompt": 3781,
      "directory": 3782,
      "Under": 3783,
      "currently": 3784,
      "respond": 3785,
      "requirements": 3786,
      "tools": 3787,
      "Build": 3788,
      "repeat": 3789,
      "China": 3790,
      "stuff": 3791,
      "library": 3792,
      "$(": 3793,
      "JS": 3794,
      "London": 3795,
      "TV": 3796,
      "Tap": 3797,
      "bing": 3798,
      "hit": 3799,
      "nor": 3800,
      "olog": 3801,
      "tub": 3802,
      "ught": 3803,
      "ination": 3804,
      "infect": 3805,
      "rem": 3806,
      "stack": 3807,
      "ison": 3808,
      "ised": 3809,
      "chair": 3810,
      "cele": 3811,
      "shown": 3812,
      "Who": 3813,
      "offers": 3814,
      "spell": 3815,
      "myself": 3816,
      "disk": 3817,
      "putting": 3818,
      "parame": 3819,
      "closer": 3820,
      "counsel": 3821,
      "drink": 3822,
      "drill": 3823,
      "Only": 3824,
      "electrical": 3825,
      "interests": 3826,
      "confident": 3827,
      "equal": 3828,
      "continu": 3829,
      "medium": 3830,
      "facing": 3831,
      "selected": 3832,
      "employer": 3833,
      "documents": 3834,
      "growth": 3835,
      "spective": 3836,
      "groups": 3837,
      "therapist": 3838,
      "status": 3839,
      "module": 3840,
      "Internet": 3841,
      "27": 3842,
      "28": 3843,
      "Fr": 3844,
      "ML": 3845,
      "Min": 3846,
      "QL": 3847,
      "RL": 3848,
      "Spe": 3849,
      "Up": 3850,
      "[]": 3851,
      "bits": 3852,
      "cand": 3853,
      "father": 3854,
      "flip": 3855,
      "ga": 3856,
      "gif": 3857,
      "mal": 3858,
      "mid": 3859,
      "vot": 3860,
      "vote": 3861,
      "thor": 3862,
      "inct": 3863,
      "relev": 3864,
      "anks": 3865,
      "wist": 3866,
      "wife": 3867,
      "acces": 3868,
      "llo": 3869,
      "utions": 3870,
      "ride": 3871,
      "ulate": 3872,
      "agent": 3873,
      "rench": 3874,
      "preci": 3875,
      "context": 3876,
      "took": 3877,
      "cheese": 3878,
      "standing": 3879,
      "variety": 3880,
      "foods": 3881,
      "opening": 3882,
      "shows": 3883,
      "powder": 3884,
      "appears": 3885,
      "film": 3886,
      "decid": 3887,
      "Provide": 3888,
      "limited": 3889,
      "strips": 3890,
      "married": 3891,
      "benefits": 3892,
      "challeng": 3893,
      "dangerous": 3894,
      "charcoal": 3895,
      "resources": 3896,
      "faucet": 3897,
      "evalu": 3898,
      "')": 3899,
      "FT": 3900,
      "Ger": 3901,
      "IM": 3902,
      "Out": 3903,
      "SQL": 3904,
      "Text": 3905,
      "War": 3906,
      "bble": 3907,
      "bright": 3908,
      "cular": 3909,
      "dent": 3910,
      "ech": 3911,
      "fish": 3912,
      "hus": 3913,
      "kill": 3914,
      "spl": 3915,
      "sions": 3916,
      "voc": 3917,
      "win": 3918,
      "zing": 3919,
      "},": 3920,
      "escape": 3921,
      "iced": 3922,
      "icles": 3923,
      "chor": 3924,
      "abor": 3925,
      "unless": 3926,
      "compet": 3927,
      "pod": 3928,
      "ustr": 3929,
      "portation": 3930,
      "mysq": 3931,
      "earch": 3932,
      "fundamental": 3933,
      "planning": 3934,
      "identify": 3935,
      "images": 3936,
      "connection": 3937,
      "sugar": 3938,
      "meeting": 3939,
      "viol": 3940,
      "thoughts": 3941,
      "deliver": 3942,
      "Value": 3943,
      "maximum": 3944,
      "million": 3945,
      "Learn": 3946,
      "traditional": 3947,
      "dominant": 3948,
      "opposite": 3949,
      "celebr": 3950,
      ")$": 3951,
      "++": 3952,
      "80": 3953,
      "CS": 3954,
      "During": 3955,
      "Face": 3956,
      "Har": 3957,
      "Lu": 3958,
      "Our": 3959,
      "Pur": 3960,
      "UT": 3961,
      "Vol": 3962,
      "XX": 3963,
      "Yes": 3964,
      "cot": 3965,
      "dates": 3966,
      "nu": 3967,
      "nav": 3968,
      "pul": 3969,
      "pages": 3970,
      "independ": 3971,
      "reaction": 3972,
      "ana": 3973,
      "ork": 3974,
      "ites": 3975,
      "heard": 3976,
      "sight": 3977,
      "peat": 3978,
      "peace": 3979,
      "confl": 3980,
      "police": 3981,
      "progress": 3982,
      "ulation": 3983,
      "telling": 3984,
      "Think": 3985,
      "elastic": 3986,
      "Index": 3987,
      "owner": 3988,
      "shouldn": 3989,
      "obvious": 3990,
      "brain": 3991,
      "calm": 3992,
      "ips": 3993,
      "ester": 3994,
      "------": 3995,
      "clock": 3996,
      "county": 3997,
      "Repeat": 3998,
      "friendly": 3999,
      "subst": 4000,
      "careful": 4001,
      "wonder": 4002,
      "transfer": 4003,
      "elections": 4004,
      "located": 4005,
      "programs": 4006,
      "idden": 4007,
      "Pract": 4008,
      "purchase": 4009,
      "understanding": 4010,
      "muscles": 4011,
      "invoice": 4012,
      "hydr": 4013,
      "sorted": 4014,
      "tube": 4015,
      "World": 4016,
      "routine": 4017,
      "knees": 4018,
      "radi": 4019,
      "Like": 4020,
      "attempt": 4021,
      "budget": 4022,
      "familiar": 4023,
      "average": 4024,
      "camera": 4025,
      "ingredients": 4026,
      "losophy": 4027,
      "Bring": 4028,
      "God": 4029,
      "Hz": 4030,
      "IC": 4031,
      "LE": 4032,
      "Mac": 4033,
      "fans": 4034,
      "hon": 4035,
      "hone": 4036,
      "hob": 4037,
      "lled": 4038,
      "moun": 4039,
      "mile": 4040,
      "nail": 4041,
      "pa": 4042,
      "pting": 4043,
      "shel": 4044,
      "sauce": 4045,
      "vary": 4046,
      "ret": 4047,
      "reve": 4048,
      "erg": 4049,
      "edit": 4050,
      "aspect": 4051,
      "veh": 4052,
      "height": 4053,
      "forget": 4054,
      "demon": 4055,
      "lied": 4056,
      "rock": 4057,
      "suic": 4058,
      "lost": 4059,
      "nels": 4060,
      "moves": 4061,
      "shut": 4062,
      "excl": 4063,
      "construct": 4064,
      "urs": 4065,
      "weather": 4066,
      "polic": 4067,
      "tea": 4068,
      "percent": 4069,
      "mental": 4070,
      "prin": 4071,
      "pron": 4072,
      "clerk": 4073,
      "maybe": 4074,
      "formal": 4075,
      "evil": 4076,
      "partition": 4077,
      "affic": 4078,
      "ipment": 4079,
      "augh": 4080,
      "minim": 4081,
      "park": 4082,
      "countries": 4083,
      "surrog": 4084,
      "driven": 4085,
      "crimin": 4086,
      "registration": 4087,
      "himself": 4088,
      "ashion": 4089,
      "guess": 4090,
      "carefully": 4091,
      "instant": 4092,
      "occas": 4093,
      "websites": 4094,
      "layers": 4095,
      "developing": 4096,
      "Trans": 4097,
      "placing": 4098,
      "exists": 4099,
      "particularly": 4100,
      "regularly": 4101,
      "route": 4102,
      "dinner": 4103,
      "prepared": 4104,
      "knee": 4105,
      "sequence": 4106,
      "impact": 4107,
      "''''''''": 4108,
      "Step": 4109,
      "okay": 4110,
      "supplies": 4111,
      "wedding": 4112,
      "relevant": 4113,
      "mysql": 4114,
      "\");": 4115,
      "33": 4116,
      "CP": 4117,
      "CT": 4118,
      "Call": 4119,
      "Clean": 4120,
      "Her": 4121,
      "ID": 4122,
      "Pick": 4123,
      "Path": 4124,
      "Vis": 4125,
      "dut": 4126,
      "nal": 4127,
      "nature": 4128,
      "ran": 4129,
      "tex": 4130,
      "tape": 4131,
      "station": 4132,
      "states": 4133,
      "lection": 4134,
      "asp": 4135,
      "assed": 4136,
      "chur": 4137,
      "delay": 4138,
      "liqu": 4139,
      "lored": 4140,
      "six": 4141,
      "sian": 4142,
      "coh": 4143,
      "imate": 4144,
      "iler": 4145,
      "distr": 4146,
      "taste": 4147,
      "opin": 4148,
      "gry": 4149,
      "acks": 4150,
      "ideal": 4151,
      "disease": 4152,
      "apps": 4153,
      "earth": 4154,
      "desired": 4155,
      "turning": 4156,
      "compare": 4157,
      "drin": 4158,
      "tooth": 4159,
      "Read": 4160,
      "solved": 4161,
      "market": 4162,
      "submit": 4163,
      "supposed": 4164,
      "engage": 4165,
      "guid": 4166,
      "rooms": 4167,
      "famous": 4168,
      "changed": 4169,
      "included": 4170,
      "jobs": 4171,
      "traveling": 4172,
      "developed": 4173,
      "suming": 4174,
      "equival": 4175,
      "increasing": 4176,
      "advance": 4177,
      "techn": 4178,
      "operator": 4179,
      "teaching": 4180,
      "touching": 4181,
      "correctly": 4182,
      "collection": 4183,
      "belief": 4184,
      "connected": 4185,
      "forklift": 4186,
      "measurement": 4187,
      "advantages": 4188,
      "Chinese": 4189,
      "combination": 4190,
      "protection": 4191,
      "audience": 4192,
      "explore": 4193,
      "technology": 4194,
      "frozen": 4195,
      "shaped": 4196,
      "ratio": 4197,
      "accomplish": 4198,
      "36": 4199,
      "AS": 4200,
      "Dri": 4201,
      "Having": 4202,
      "PH": 4203,
      "Show": 4204,
      "_1": 4205,
      "bac": 4206,
      "cross": 4207,
      "hu": 4208,
      "hidden": 4209,
      "pad": 4210,
      "sad": 4211,
      "slip": 4212,
      "vic": 4213,
      "woman": 4214,
      "theore": 4215,
      "resolution": 4216,
      "itary": 4217,
      "edges": 4218,
      "beat": 4219,
      "dealing": 4220,
      "ados": 4221,
      "nel": 4222,
      "```/": 4223,
      "mole": 4224,
      "modif": 4225,
      "outfits": 4226,
      "exten": 4227,
      "explan": 4228,
      "conv": 4229,
      "contr": 4230,
      "ques": 4231,
      "poly": 4232,
      "Thank": 4233,
      "ago": 4234,
      "somewhere": 4235,
      "avas": 4236,
      "grab": 4237,
      "asts": 4238,
      "aster": 4239,
      "iest": 4240,
      "igno": 4241,
      "hernia": 4242,
      "hash": 4243,
      "speaking": 4244,
      "aff": 4245,
      "bra": 4246,
      "blade": 4247,
      "server": 4248,
      "caused": 4249,
      "knowing": 4250,
      "Reg": 4251,
      "listed": 4252,
      "attle": 4253,
      "produce": 4254,
      "depends": 4255,
      "hale": 4256,
      "electron": 4257,
      "cription": 4258,
      "muscle": 4259,
      "swap": 4260,
      "reflect": 4261,
      "circle": 4262,
      "expected": 4263,
      "organization": 4264,
      "representative": 4265,
      "burning": 4266,
      "fighting": 4267,
      "therapy": 4268,
      "John": 4269,
      "Follow": 4270,
      "political": 4271,
      "slide": 4272,
      "https": 4273,
      "bathroom": 4274,
      "holiday": 4275,
      "dirty": 4276,
      "Practice": 4277,
      "70": 4278,
      "Au": 4279,
      "Long": 4280,
      "Link": 4281,
      "NE": 4282,
      "Oc": 4283,
      "PD": 4284,
      "Pull": 4285,
      "URL": 4286,
      "Watch": 4287,
      "bes": 4288,
      "cking": 4289,
      "fan": 4290,
      "fashion": 4291,
      "gap": 4292,
      "gone": 4293,
      "gine": 4294,
      "haps": 4295,
      "luck": 4296,
      "ners": 4297,
      "pes": 4298,
      "race": 4299,
      "tical": 4300,
      "usive": 4301,
      "yog": 4302,
      "ção": 4303,
      "inj": 4304,
      "erve": 4305,
      "ened": 4306,
      "encourage": 4307,
      "adults": 4308,
      "ctors": 4309,
      "uration": 4310,
      "fru": 4311,
      "abled": 4312,
      "cium": 4313,
      "lesson": 4314,
      "whenever": 4315,
      "poses": 4316,
      "izer": 4317,
      "calcium": 4318,
      "crank": 4319,
      "seek": 4320,
      "surpr": 4321,
      "cheap": 4322,
      "rectangle": 4323,
      "medic": 4324,
      "versions": 4325,
      "highly": 4326,
      "tempor": 4327,
      "expand": 4328,
      "dden": 4329,
      "queue": 4330,
      "waist": 4331,
      "effects": 4332,
      "videos": 4333,
      "sounds": 4334,
      "communicate": 4335,
      "definition": 4336,
      "warning": 4337,
      "circum": 4338,
      "lifting": 4339,
      "horiz": 4340,
      "slice": 4341,
      "broken": 4342,
      "machines": 4343,
      "frequently": 4344,
      "strengthen": 4345,
      "shopping": 4346,
      "templates": 4347,
      "collar": 4348,
      "sqrt": 4349,
      "boyfriend": 4350,
      "Depending": 4351,
      "www": 4352,
      "companies": 4353,
      "toxic": 4354,
      "avascript": 4355,
      "\":": 4356,
      "Coun": 4357,
      "Em": 4358,
      "Grou": 4359,
      "Hum": 4360,
      "II": 4361,
      "Mic": 4362,
      "Main": 4363,
      "Nor": 4364,
      "Old": 4365,
      "Par": 4366,
      "RO": 4367,
      "Wait": 4368,
      "bust": 4369,
      "cil": 4370,
      "ibility": 4371,
      "rich": 4372,
      "uma": 4373,
      "wast": 4374,
      "ygen": 4375,
      "insert": 4376,
      "ony": 4377,
      "atives": 4378,
      "chron": 4379,
      "vere": 4380,
      "acid": 4381,
      "appreci": 4382,
      "amin": 4383,
      "conven": 4384,
      "perman": 4385,
      "oogle": 4386,
      "essential": 4387,
      "foil": 4388,
      "prices": 4389,
      "shoulders": 4390,
      "causing": 4391,
      "thology": 4392,
      "turned": 4393,
      "collect": 4394,
      "Stay": 4395,
      "sym": 4396,
      "dram": 4397,
      "listen": 4398,
      "Therefore": 4399,
      "boolean": 4400,
      "centime": 4401,
      "Does": 4402,
      "court": 4403,
      "merge": 4404,
      "realize": 4405,
      "freeze": 4406,
      "testing": 4407,
      "properties": 4408,
      "equipment": 4409,
      "license": 4410,
      "Prepare": 4411,
      "broad": 4412,
      "guest": 4413,
      "named": 4414,
      "Serial": 4415,
      "records": 4416,
      "silver": 4417,
      "remaining": 4418,
      "recommend": 4419,
      "pictures": 4420,
      "Contin": 4421,
      "juice": 4422,
      "syntax": 4423,
      "Finally": 4424,
      "habit": 4425,
      "formula": 4426,
      "mirror": 4427,
      "Help": 4428,
      "phrase": 4429,
      "volunte": 4430,
      "procedure": 4431,
      "Facebook": 4432,
      "':": 4433,
      "22": 4434,
      "65": 4435,
      "?”": 4436,
      "DNA": 4437,
      "ES": 4438,
      "Fill": 4439,
      "James": 4440,
      "Save": 4441,
      "Script": 4442,
      "Tim": 4443,
      "Where": 4444,
      "batter": 4445,
      "kitch": 4446,
      "mount": 4447,
      "sne": 4448,
      "tone": 4449,
      "vit": 4450,
      "virt": 4451,
      "threat": 4452,
      "intim": 4453,
      "inner": 4454,
      "rein": 4455,
      "lex": 4456,
      "lives": 4457,
      "aby": 4458,
      "sig": 4459,
      "shaft": 4460,
      "console": 4461,
      "complic": 4462,
      "doll": 4463,
      "plt": 4464,
      "tray": 4465,
      "ulty": 4466,
      "frustr": 4467,
      "upper": 4468,
      "speech": 4469,
      "earlier": 4470,
      "letting": 4471,
      "twice": 4472,
      "turns": 4473,
      "Station": 4474,
      "ario": 4475,
      "arian": 4476,
      "finally": 4477,
      "register": 4478,
      "expenses": 4479,
      "shower": 4480,
      "Arab": 4481,
      "distribut": 4482,
      "More": 4483,
      "secondary": 4484,
      "trained": 4485,
      "specifically": 4486,
      "confidence": 4487,
      "responsi": 4488,
      "lands": 4489,
      "define": 4490,
      "communication": 4491,
      "posture": 4492,
      "kinds": 4493,
      "conversations": 4494,
      "graphy": 4495,
      "loops": 4496,
      "motiv": 4497,
      "settings": 4498,
      "bullying": 4499,
      "raise": 4500,
      "flex": 4501,
      "global": 4502,
      "restaurant": 4503,
      "roughly": 4504,
      "removed": 4505,
      "techniques": 4506,
      "digital": 4507,
      "elimin": 4508,
      "tribute": 4509,
      "capacity": 4510,
      "precise": 4511,
      "Purchase": 4512,
      "PHP": 4513,
      "Continue": 4514,
      "&&": 4515,
      "64": 4516,
      "Bible": 4517,
      "Eye": 4518,
      "Je": 4519,
      "Stop": 4520,
      "Tit": 4521,
      "Will": 4522,
      "bile": 4523,
      "cable": 4524,
      "flight": 4525,
      "laugh": 4526,
      "noun": 4527,
      "osa": 4528,
      "pand": 4529,
      "pace": 4530,
      "rics": 4531,
      "sicle": 4532,
      "tab": 4533,
      "vous": 4534,
      "attract": 4535,
      "oral": 4536,
      "orts": 4537,
      "orage": 4538,
      "stain": 4539,
      "ica": 4540,
      "heels": 4541,
      "acc": 4542,
      "mel": 4543,
      "meals": 4544,
      "adap": 4545,
      "adult": 4546,
      "advert": 4547,
      "rix": 4548,
      "aming": 4549,
      "mocr": 4550,
      "mood": 4551,
      "mobile": 4552,
      "tie": 4553,
      "excess": 4554,
      "poor": 4555,
      "fraid": 4556,
      "illegal": 4557,
      "pra": 4558,
      "indust": 4559,
      "Int": 4560,
      "Inte": 4561,
      "disorder": 4562,
      "brought": 4563,
      "apped": 4564,
      "wouldn": 4565,
      "download": 4566,
      "counts": 4567,
      "bubble": 4568,
      "compon": 4569,
      "easiest": 4570,
      "supply": 4571,
      "runs": 4572,
      "stock": 4573,
      "busy": 4574,
      "painting": 4575,
      "Comm": 4576,
      "filled": 4577,
      "launch": 4578,
      "bigger": 4579,
      "invite": 4580,
      "matching": 4581,
      "faces": 4582,
      "situations": 4583,
      "society": 4584,
      "sident": 4585,
      "fields": 4586,
      "treated": 4587,
      "oxygen": 4588,
      "missing": 4589,
      "Post": 4590,
      "benefit": 4591,
      "emotions": 4592,
      "90s": 4593,
      "international": 4594,
      "citizen": 4595,
      "Popsicle": 4596,
      "employee": 4597,
      "argument": 4598,
      "vegetables": 4599,
      "Children": 4600,
      "teaspoon": 4601,
      "browser": 4602,
      "Metro": 4603,
      "counselor": 4604,
      "princi": 4605,
      "equivalent": 4606,
      ">>": 4607,
      "Allow": 4608,
      "Cover": 4609,
      "Ident": 4610,
      "NO": 4611,
      "NBA": 4612,
      "Off": 4613,
      "afraid": 4614,
      "bda": 4615,
      "gent": 4616,
      "gment": 4617,
      "ito": 4618,
      "não": 4619,
      "patch": 4620,
      "tall": 4621,
      "encry": 4622,
      "stuck": 4623,
      "alumin": 4624,
      "wipe": 4625,
      "roid": 4626,
      "irrit": 4627,
      "ams": 4628,
      "neath": 4629,
      "concl": 4630,
      "convert": 4631,
      "comments": 4632,
      "dos": 4633,
      "notation": 4634,
      "ulated": 4635,
      "ooking": 4636,
      "resent": 4637,
      "antic": 4638,
      "update": 4639,
      "bodies": 4640,
      "novel": 4641,
      "prepar": 4642,
      "spin": 4643,
      "causes": 4644,
      "ears": 4645,
      "udd": 4646,
      "news": 4647,
      "ishing": 4648,
      "awah": 4649,
      "handling": 4650,
      "knows": 4651,
      "whose": 4652,
      "Static": 4653,
      "Stream": 4654,
      "whereas": 4655,
      "evening": 4656,
      "Char": 4657,
      "aked": 4658,
      "underneath": 4659,
      "interpret": 4660,
      "classic": 4661,
      "trig": 4662,
      "prime": 4663,
      "versity": 4664,
      "showing": 4665,
      "specify": 4666,
      "cleaning": 4667,
      "python": 4668,
      "languages": 4669,
      "locations": 4670,
      "casual": 4671,
      "popcorn": 4672,
      "123": 4673,
      "potentially": 4674,
      "customers": 4675,
      "linger": 4676,
      "clearly": 4677,
      "necessarily": 4678,
      "matches": 4679,
      "nearby": 4680,
      "paste": 4681,
      "cooked": 4682,
      "matrix": 4683,
      "behavi": 4684,
      "sleeping": 4685,
      "emotional": 4686,
      "scene": 4687,
      "restaurants": 4688,
      "Christmas": 4689,
      "Europe": 4690,
      "possibly": 4691,
      "accurate": 4692,
      "sufficient": 4693,
      "advisor": 4694,
      "appointment": 4695,
      "JSON": 4696,
      "Harry": 4697,
      "conflict": 4698,
      "occasion": 4699,
      "2n": 4700,
      "DO": 4701,
      "Def": 4702,
      "Google": 4703,
      "Map": 4704,
      "Mess": 4705,
      "Pour": 4706,
      "Sc": 4707,
      "Search": 4708,
      "bare": 4709,
      "bid": 4710,
      "dance": 4711,
      "dream": 4712,
      "gies": 4713,
      "iet": 4714,
      "pli": 4715,
      "pants": 4716,
      "pitch": 4717,
      "passed": 4718,
      "rows": 4719,
      "twist": 4720,
      "vase": 4721,
      "ingu": 4722,
      "aside": 4723,
      "chrom": 4724,
      "acing": 4725,
      "acce": 4726,
      "lighter": 4727,
      "rose": 4728,
      "utili": 4729,
      "iron": 4730,
      "construction": 4731,
      "urally": 4732,
      "weap": 4733,
      "plate": 4734,
      "poem": 4735,
      "polar": 4736,
      "perspective": 4737,
      "frac": 4738,
      "anywhere": 4739,
      "pray": 4740,
      "strange": 4741,
      "crew": 4742,
      "creates": 4743,
      "shoulder": 4744,
      "Ital": 4745,
      "therefore": 4746,
      "brand": 4747,
      "helping": 4748,
      "ously": 4749,
      "partial": 4750,
      "lighting": 4751,
      "bugs": 4752,
      "drag": 4753,
      "century": 4754,
      "sult": 4755,
      "courses": 4756,
      "vention": 4757,
      "although": 4758,
      "occup": 4759,
      "Always": 4760,
      "grees": 4761,
      "electric": 4762,
      "hardware": 4763,
      "basically": 4764,
      "factors": 4765,
      "responding": 4766,
      "operating": 4767,
      "hypo": 4768,
      "ordin": 4769,
      "Apple": 4770,
      "received": 4771,
      "buttons": 4772,
      "happened": 4773,
      "dishes": 4774,
      "Notice": 4775,
      "fortun": 4776,
      "brief": 4777,
      "glasses": 4778,
      "protein": 4779,
      "concerns": 4780,
      "described": 4781,
      "management": 4782,
      "discuss": 4783,
      "Otherwise": 4784,
      "dimens": 4785,
      "philosophy": 4786,
      "gifts": 4787,
      "suicide": 4788,
      "Groupon": 4789,
      "osaurs": 4790,
      "99": 4791,
      "Bel": 4792,
      "Both": 4793,
      "Cur": 4794,
      "Ho": 4795,
      "Hand": 4796,
      "Ima": 4797,
      "Lord": 4798,
      "Mus": 4799,
      "Mem": 4800,
      "Net": 4801,
      "Next": 4802,
      "Part": 4803,
      "RS": 4804,
      "Sch": 4805,
      "Sup": 4806,
      "Sure": 4807,
      "Tw": 4808,
      "Tip": 4809,
      "Women": 4810,
      "bite": 4811,
      "bank": 4812,
      "battle": 4813,
      "cate": 4814,
      "cros": 4815,
      "haz": 4816,
      "mort": 4817,
      "p_": 4818,
      "pip": 4819,
      "pient": 4820,
      "rors": 4821,
      "tun": 4822,
      "uum": 4823,
      "ufact": 4824,
      "winter": 4825,
      "insur": 4826,
      "inju": 4827,
      "theme": 4828,
      "toy": 4829,
      "toys": 4830,
      "token": 4831,
      "stone": 4832,
      "stories": 4833,
      "align": 4834,
      "iso": 4835,
      "icon": 4836,
      "beard": 4837,
      "degrees": 4838,
      "lib": 4839,
      "sudden": 4840,
      "rim": 4841,
      "rial": 4842,
      "unk": 4843,
      "unable": 4844,
      "conce": 4845,
      "conver": 4846,
      "mathem": 4847,
      "colored": 4848,
      "plug": 4849,
      "query": 4850,
      "trave": 4851,
      "proceed": 4852,
      "club": 4853,
      "ively": 4854,
      "Inst": 4855,
      "itely": 4856,
      "angles": 4857,
      "workplace": 4858,
      "evidence": 4859,
      "hero": 4860,
      "thentic": 4861,
      "iven": 4862,
      "thank": 4863,
      "blan": 4864,
      "numer": 4865,
      "rights": 4866,
      "finan": 4867,
      "timately": 4868,
      "compared": 4869,
      "akes": 4870,
      "arrange": 4871,
      "medit": 4872,
      "solutions": 4873,
      "marke": 4874,
      "follows": 4875,
      "allowing": 4876,
      "guar": 4877,
      "cert": 4878,
      "Exception": 4879,
      "directions": 4880,
      "Prom": 4881,
      "True": 4882,
      "balls": 4883,
      "lambda": 4884,
      "household": 4885,
      "normally": 4886,
      "Leave": 4887,
      "military": 4888,
      "patterns": 4889,
      "Work": 4890,
      "According": 4891,
      "micro": 4892,
      "columns": 4893,
      "boundaries": 4894,
      "decisions": 4895,
      "devices": 4896,
      "punk": 4897,
      "rubber": 4898,
      "flir": 4899,
      "released": 4900,
      "conduct": 4901,
      "citizens": 4902,
      "lungs": 4903,
      "analy": 4904,
      "API": 4905,
      "cohol": 4906,
      "bacter": 4907,
      "kitchen": 4908,
      "2nd": 4909,
      "');": 4910,
      "(&": 4911,
      ".-": 4912,
      "/```": 4913,
      "38": 4914,
      "AL": 4915,
      "Am": 4916,
      "Bas": 4917,
      "Bus": 4918,
      "Dire": 4919,
      "Eat": 4920,
      "Fam": 4921,
      "Fold": 4922,
      "Ferg": 4923,
      "Ge": 4924,
      "MA": 4925,
      "Num": 4926,
      "Press": 4927,
      "S2": 4928,
      "Teach": 4929,
      "UI": 4930,
      "_name": 4931,
      "`.": 4932,
      "ais": 4933,
      "eze": 4934,
      "hide": 4935,
      "kiss": 4936,
      "px": 4937,
      "ram": 4938,
      "vents": 4939,
      "yes": 4940,
      "inc": 4941,
      "incontin": 4942,
      "remind": 4943,
      "removing": 4944,
      "orical": 4945,
      "orient": 4946,
      "enge": 4947,
      "leep": 4948,
      "itor": 4949,
      "ando": 4950,
      "dete": 4951,
      "ada": 4952,
      "iring": 4953,
      "unlock": 4954,
      "moon": 4955,
      "shad": 4956,
      "tive": 4957,
      "tipo": 4958,
      "polo": 4959,
      "uson": 4960,
      "iding": 4961,
      "impress": 4962,
      "Though": 4963,
      "bytes": 4964,
      "deriv": 4965,
      "assess": 4966,
      "contribut": 4967,
      "airport": 4968,
      "foreign": 4969,
      "aws": 4970,
      "parties": 4971,
      "skip": 4972,
      "manual": 4973,
      "manufact": 4974,
      "differently": 4975,
      "ensity": 4976,
      "tood": 4977,
      "lists": 4978,
      "margin": 4979,
      "drivers": 4980,
      "carri": 4981,
      "gling": 4982,
      "logical": 4983,
      "osen": 4984,
      "intell": 4985,
      "generated": 4986,
      "rush": 4987,
      "Develo": 4988,
      "distinct": 4989,
      "Comple": 4990,
      "identical": 4991,
      "datab": 4992,
      "programming": 4993,
      "operation": 4994,
      "hydro": 4995,
      "facial": 4996,
      "refers": 4997,
      "shoot": 4998,
      "TeX": 4999,
      "babysitting": 5000,
      "naturally": 5001,
      "effectively": 5002,
      "destination": 5003,
      "yellow": 5004,
      "COM": 5005,
      "fairly": 5006,
      "spirit": 5007,
      "sensitive": 5008,
      "vacuum": 5009,
      "Maybe": 5010,
      "Prior": 5011,
      "satis": 5012,
      "dynamic": 5013,
      "sharp": 5014,
      "smell": 5015,
      "centimeters": 5016,
      "Identify": 5017,
      "aluminum": 5018,
      "Ferguson": 5019,
      "incontinence": 5020,
      ";&": 5021,
      "Bo": 5022,
      "Bal": 5023,
      "City": 5024,
      "Dawah": 5025,
      "Gian": 5026,
      "HE": 5027,
      "Ju": 5028,
      "Mar": 5029,
      "Mix": 5030,
      "Names": 5031,
      "Pat": 5032,
      "Pol": 5033,
      "Pos": 5034,
      "Rev": 5035,
      "];": 5036,
      "_time": 5037,
      "bun": 5038,
      "bread": 5039,
      "cache": 5040,
      "dedu": 5041,
      "eg": 5042,
      "ets": 5043,
      "egg": 5044,
      "gave": 5045,
      "hom": 5046,
      "hund": 5047,
      "ium": 5048,
      "kin": 5049,
      "lunch": 5050,
      "nation": 5051,
      "pour": 5052,
      "rc": 5053,
      "tour": 5054,
      "uri": 5055,
      "wound": 5056,
      "zy": 5057,
      "instruction": 5058,
      "rer": 5059,
      "org": 5060,
      "ington": 5061,
      "stur": 5062,
      "staff": 5063,
      "alled": 5064,
      "lemon": 5065,
      "bels": 5066,
      "wires": 5067,
      "forced": 5068,
      "deed": 5069,
      "decrease": 5070,
      "gel": 5071,
      "gears": 5072,
      "admin": 5073,
      "sures": 5074,
      "amine": 5075,
      "uncomfortable": 5076,
      "shot": 5077,
      "shallow": 5078,
      "tips": 5079,
      "fear": 5080,
      "concept": 5081,
      "contract": 5082,
      "doors": 5083,
      "cos": 5084,
      "usage": 5085,
      "ussian": 5086,
      "improv": 5087,
      "impossible": 5088,
      "foam": 5089,
      "civ": 5090,
      "cient": 5091,
      "noise": 5092,
      "wrote": 5093,
      "olk": 5094,
      "obtain": 5095,
      "my_": 5096,
      "spent": 5097,
      "sports": 5098,
      "cake": 5099,
      "caught": 5100,
      "izations": 5101,
      "bling": 5102,
      "crow": 5103,
      "Stud": 5104,
      "couldn": 5105,
      "compass": 5106,
      "manager": 5107,
      "keeps": 5108,
      "pressed": 5109,
      "trim": 5110,
      "cuts": 5111,
      "cribe": 5112,
      "haven": 5113,
      "Explain": 5114,
      "installed": 5115,
      "typing": 5116,
      "waiting": 5117,
      "Uni": 5118,
      "transportation": 5119,
      "links": 5120,
      "supported": 5121,
      "purposes": 5122,
      "println": 5123,
      "increases": 5124,
      "practical": 5125,
      "powerful": 5126,
      "windows": 5127,
      "windshield": 5128,
      "physically": 5129,
      "falling": 5130,
      "fluid": 5131,
      "appearance": 5132,
      "involves": 5133,
      "domain": 5134,
      "unders": 5135,
      "implementation": 5136,
      "feeding": 5137,
      "ATE": 5138,
      "significantly": 5139,
      "younger": 5140,
      "accommod": 5141,
      "songs": 5142,
      "fiber": 5143,
      "configuration": 5144,
      "declar": 5145,
      "confirmation": 5146,
      "resistance": 5147,
      "predict": 5148,
      "absolutely": 5149,
      "invitation": 5150,
      "journal": 5151,
      "focusing": 5152,
      "Grab": 5153,
      "compliment": 5154,
      "swim": 5155,
      "scientific": 5156,
      "approximately": 5157,
      "remote": 5158,
      "split": 5159,
      "hydrated": 5160,
      "honest": 5161,
      "molecu": 5162,
      "circumst": 5163,
      "lingerie": 5164,
      "intellig": 5165,
      "hundred": 5166,
      "));": 5167,
      "AD": 5168,
      "Box": 5169,
      "Dear": 5170,
      "EM": 5171,
      "Fl": 5172,
      "Good": 5173,
      "MO": 5174,
      "MV": 5175,
      "Sm": 5176,
      "Slice": 5177,
      "Store": 5178,
      "Tor": 5179,
      "York": 5180,
      "bt": 5181,
      "bash": 5182,
      "border": 5183,
      "cation": 5184,
      "dtype": 5185,
      "dict": 5186,
      "gers": 5187,
      "ience": 5188,
      "jest": 5189,
      "knot": 5190,
      "mary": 5191,
      "pup": 5192,
      "pix": 5193,
      "sque": 5194,
      "scope": 5195,
      "tap": 5196,
      "tren": 5197,
      "zone": 5198,
      "threading": 5199,
      "infection": 5200,
      "stable": 5201,
      "stitch": 5202,
      "storage": 5203,
      "alty": 5204,
      "alcohol": 5205,
      "sections": 5206,
      "severe": 5207,
      "chip": 5208,
      "ller": 5209,
      "deck": 5210,
      "cture": 5211,
      "approved": 5212,
      "irts": 5213,
      "amoun": 5214,
      "```-": 5215,
      "pep": 5216,
      "pets": 5217,
      "peel": 5218,
      "solid": 5219,
      "comment": 5220,
      "therm": 5221,
      "quiet": 5222,
      "polish": 5223,
      "noticed": 5224,
      "illed": 5225,
      "arts": 5226,
      "upgrade": 5227,
      "bold": 5228,
      "grav": 5229,
      "asty": 5230,
      "oughly": 5231,
      "crete": 5232,
      "forming": 5233,
      "formed": 5234,
      "anga": 5235,
      "overnight": 5236,
      "spaces": 5237,
      "cade": 5238,
      "ression": 5239,
      "floral": 5240,
      "paralle": 5241,
      "mostly": 5242,
      "bucket": 5243,
      "Chi": 5244,
      "compiler": 5245,
      "extend": 5246,
      "pressive": 5247,
      "internet": 5248,
      "visibility": 5249,
      "Being": 5250,
      "choosing": 5251,
      "plication": 5252,
      "generate": 5253,
      "joke": 5254,
      "Web": 5255,
      "capt": 5256,
      "Altern": 5257,
      "stops": 5258,
      "population": 5259,
      "learned": 5260,
      "imagine": 5261,
      "computers": 5262,
      "folded": 5263,
      "orders": 5264,
      "applications": 5265,
      "divor": 5266,
      "existing": 5267,
      "vertical": 5268,
      "1000": 5269,
      "believ": 5270,
      "projects": 5271,
      "apples": 5272,
      "Serve": 5273,
      "strip": 5274,
      "buying": 5275,
      "watching": 5276,
      "Access": 5277,
      "harder": 5278,
      "perfectly": 5279,
      "sequences": 5280,
      "constantly": 5281,
      "strategies": 5282,
      "challenge": 5283,
      "girlfriend": 5284,
      "regarding": 5285,
      "survive": 5286,
      "truth": 5287,
      "critical": 5288,
      "metric": 5289,
      "explicitly": 5290,
      "judge": 5291,
      "pronoun": 5292,
      "texts": 5293,
      "huge": 5294,
      "explanation": 5295,
      "horizon": 5296,
      "permanent": 5297,
      "volunteer": 5298,
      "sneak": 5299,
      "complicated": 5300,
      "eliminate": 5301,
      "trigger": 5302,
      "Message": 5303,
      "database": 5304,
      "Gianna": 5305,
      "amounts": 5306,
      ")```": 5307,
      "1st": 5308,
      "54": 5309,
      "85": 5310,
      "Could": 5311,
      "Dat": 5312,
      "Did": 5313,
      "High": 5314,
      "Jord": 5315,
      "Lay": 5316,
      "ME": 5317,
      "Rob": 5318,
      "Reach": 5319,
      "Sign": 5320,
      "Sonic": 5321,
      "Ter": 5322,
      "Word": 5323,
      "_i": 5324,
      "_path": 5325,
      "dough": 5326,
      "hall": 5327,
      "hop": 5328,
      "len": 5329,
      "mur": 5330,
      "pir": 5331,
      "rum": 5332,
      "rice": 5333,
      "sin": 5334,
      "sac": 5335,
      "sco": 5336,
      "src": 5337,
      "van": 5338,
      "wave": 5339,
      "};": 5340,
      "──": 5341,
      "thous": 5342,
      "repair": 5343,
      "resolve": 5344,
      "angry": 5345,
      "stic": 5346,
      "alph": 5347,
      "ara": 5348,
      "arqu": 5349,
      "sew": 5350,
      "chat": 5351,
      "belong": 5352,
      "gests": 5353,
      "absor": 5354,
      "losing": 5355,
      "```--": 5356,
      "shift": 5357,
      "soda": 5358,
      "feat": 5359,
      "exha": 5360,
      "concent": 5361,
      "urine": 5362,
      "coding": 5363,
      "proto": 5364,
      "iment": 5365,
      "worn": 5366,
      "endar": 5367,
      "Thanks": 5368,
      "agues": 5369,
      "dio": 5370,
      "diagon": 5371,
      "printer": 5372,
      "prints": 5373,
      "gold": 5374,
      "ased": 5375,
      "intent": 5376,
      "portion": 5377,
      "istics": 5378,
      "nowledge": 5379,
      "sphere": 5380,
      "hosp": 5381,
      "aughter": 5382,
      "authentic": 5383,
      "Form": 5384,
      "phase": 5385,
      "reek": 5386,
      "funny": 5387,
      "Change": 5388,
      "skill": 5389,
      "smart": 5390,
      "interact": 5391,
      "interpre": 5392,
      "())": 5393,
      "engaged": 5394,
      "cars": 5395,
      "plywood": 5396,
      "volution": 5397,
      "voltage": 5398,
      "cycle": 5399,
      "views": 5400,
      "Well": 5401,
      "capable": 5402,
      "promise": 5403,
      "paying": 5404,
      "returned": 5405,
      "passing": 5406,
      "usual": 5407,
      "Ark": 5408,
      "tests": 5409,
      "appeal": 5410,
      "containing": 5411,
      "ballo": 5412,
      "choices": 5413,
      "datetime": 5414,
      "advanced": 5415,
      "clients": 5416,
      "pressing": 5417,
      "circular": 5418,
      "ternal": 5419,
      "suggests": 5420,
      "graphic": 5421,
      "graphics": 5422,
      "rowave": 5423,
      "frequent": 5424,
      "washing": 5425,
      "patent": 5426,
      "patient": 5427,
      "remains": 5428,
      "kernels": 5429,
      "Contact": 5430,
      "affected": 5431,
      "occurs": 5432,
      "fibers": 5433,
      "sweet": 5434,
      "introduced": 5435,
      "flirt": 5436,
      "Japanese": 5437,
      "Simply": 5438,
      "faith": 5439,
      "boiling": 5440,
      "technique": 5441,
      "employees": 5442,
      "arguments": 5443,
      "recipient": 5444,
      "recently": 5445,
      "focused": 5446,
      "surrounding": 5447,
      "experienced": 5448,
      "Palace": 5449,
      "soul": 5450,
      "decided": 5451,
      "independent": 5452,
      "clockwise": 5453,
      "shelter": 5454,
      "reveal": 5455,
      "liquid": 5456,
      "distract": 5457,
      "Image": 5458,
      "insurance": 5459,
      "mathemat": 5460,
      "financial": 5461,
      "arquiv": 5462,
      "exhaust": 5463,
      "\"$": 5464,
      "29": 5465,
      ";,": 5466,
      "El": 5467,
      "FO": 5468,
      "Fre": 5469,
      "Fli": 5470,
      "Fri": 5471,
      "French": 5472,
      "HT": 5473,
      "Hot": 5474,
      "OCD": 5475,
      "Push": 5476,
      "Ret": 5477,
      "Sun": 5478,
      "Touch": 5479,
      "WW": 5480,
      "athe": 5481,
      "ael": 5482,
      "diction": 5483,
      "ffin": 5484,
      "gal": 5485,
      "gather": 5486,
      "hood": 5487,
      "ians": 5488,
      "loud": 5489,
      "mates": 5490,
      "native": 5491,
      "pit": 5492,
      "pite": 5493,
      "pure": 5494,
      "rhy": 5495,
      "tly": 5496,
      "tled": 5497,
      "ux": 5498,
      "vo": 5499,
      "zes": 5500,
      "income": 5501,
      "rep": 5502,
      "retri": 5503,
      "eral": 5504,
      "enh": 5505,
      "enem": 5506,
      "stal": 5507,
      "stars": 5508,
      "ale": 5509,
      "alter": 5510,
      "edia": 5511,
      "assume": 5512,
      "omb": 5513,
      "chapter": 5514,
      "forth": 5515,
      "forma": 5516,
      "kept": 5517,
      "lig": 5518,
      "cel": 5519,
      "unge": 5520,
      "shaving": 5521,
      "sold": 5522,
      "fered": 5523,
      "expl": 5524,
      "consci": 5525,
      "atell": 5526,
      "Their": 5527,
      "pode": 5528,
      "tered": 5529,
      "perhaps": 5530,
      "umping": 5531,
      "iling": 5532,
      "dia": 5533,
      "died": 5534,
      "diag": 5535,
      "Input": 5536,
      "creative": 5537,
      "igation": 5538,
      "prefix": 5539,
      "overall": 5540,
      "spouse": 5541,
      "commonly": 5542,
      "cessed": 5543,
      "flour": 5544,
      "flavor": 5545,
      "linear": 5546,
      "fund": 5547,
      "closed": 5548,
      "Hello": 5549,
      "muffin": 5550,
      "hibit": 5551,
      "draft": 5552,
      "Tok": 5553,
      "tablespoon": 5554,
      "ships": 5555,
      "completed": 5556,
      "joint": 5557,
      "depth": 5558,
      "statements": 5559,
      "passport": 5560,
      "biot": 5561,
      "Move": 5562,
      "reasonable": 5563,
      "basis": 5564,
      "experiences": 5565,
      "printed": 5566,
      "certainly": 5567,
      "boxes": 5568,
      "cups": 5569,
      "drops": 5570,
      "nearly": 5571,
      "brother": 5572,
      "colleagues": 5573,
      "oxide": 5574,
      "cultural": 5575,
      "protected": 5576,
      "majority": 5577,
      "semble": 5578,
      "destroy": 5579,
      "officer": 5580,
      "born": 5581,
      "JavaScript": 5582,
      "excited": 5583,
      "combine": 5584,
      "European": 5585,
      "Majest": 5586,
      "affordable": 5587,
      "grateful": 5588,
      "recognize": 5589,
      "pregnancy": 5590,
      "valuable": 5591,
      "parameter": 5592,
      "accessible": 5593,
      "cotton": 5594,
      "hono": 5595,
      "duty": 5596,
      "temporary": 5597,
      "Micro": 5598,
      "convenient": 5599,
      "Network": 5600,
      "Position": 5601,
      "pepper": 5602,
      "Data": 5603,
      "Jordan": 5604,
      "Majesty": 5605,
      "$-": 5606,
      "(\\": 5607,
      ")?": 5608,
      "26": 5609,
      "35": 5610,
      "3D": 5611,
      "97": 5612,
      "AB": 5613,
      "B3": 5614,
      "Bl": 5615,
      "Best": 5616,
      "CH": 5617,
      "Cook": 5618,
      "FA": 5619,
      "Glo": 5620,
      "Hy": 5621,
      "Has": 5622,
      "Key": 5623,
      "Mich": 5624,
      "NL": 5625,
      "SO": 5626,
      "Sing": 5627,
      "Sight": 5628,
      "Tem": 5629,
      "Tik": 5630,
      "Wik": 5631,
      "['": 5632,
      "^\\": 5633,
      "^^": 5634,
      "ause": 5635,
      "brid": 5636,
      "bilities": 5637,
      "dirt": 5638,
      "fed": 5639,
      "fant": 5640,
      "furn": 5641,
      "fiction": 5642,
      "gro": 5643,
      "hips": 5644,
      "iP": 5645,
      "nur": 5646,
      "odd": 5647,
      "plo": 5648,
      "pink": 5649,
      "picking": 5650,
      "rise": 5651,
      "rinse": 5652,
      "sick": 5653,
      "tent": 5654,
      "uals": 5655,
      "vill": 5656,
      "}$": 5657,
      "insp": 5658,
      "reput": 5659,
      "refri": 5660,
      "reverse": 5661,
      "restrict": 5662,
      "references": 5663,
      "ante": 5664,
      "ato": 5665,
      "ston": 5666,
      "sting": 5667,
      "arc": 5668,
      "sell": 5669,
      "edom": 5670,
      "chess": 5671,
      "chest": 5672,
      "chosen": 5673,
      "forces": 5674,
      "delic": 5675,
      "ays": 5676,
      "rolling": 5677,
      "roses": 5678,
      "verb": 5679,
      "```#": 5680,
      "sip": 5681,
      "shirts": 5682,
      "peak": 5683,
      "conference": 5684,
      "ometer": 5685,
      "img": 5686,
      "anymore": 5687,
      "dig": 5688,
      "digest": 5689,
      "embed": 5690,
      "clar": 5691,
      "owned": 5692,
      "noon": 5693,
      "nock": 5694,
      "igate": 5695,
      "preh": 5696,
      "contents": 5697,
      "species": 5698,
      "Anthology": 5699,
      "played": 5700,
      "cheaper": 5701,
      "presents": 5702,
      "listening": 5703,
      "Toky": 5704,
      "Conne": 5705,
      "attend": 5706,
      "Entry": 5707,
      "realistic": 5708,
      "powered": 5709,
      "processing": 5710,
      "Death": 5711,
      "identification": 5712,
      "Android": 5713,
      "arrays": 5714,
      "summer": 5715,
      "sumption": 5716,
      "summary": 5717,
      "covering": 5718,
      "begins": 5719,
      "staying": 5720,
      "slower": 5721,
      "closely": 5722,
      "Traffic": 5723,
      "sleev": 5724,
      "App": 5725,
      "cellent": 5726,
      "Without": 5727,
      "circu": 5728,
      "receiving": 5729,
      "Tech": 5730,
      "leads": 5731,
      "corer": 5732,
      "growing": 5733,
      "sentences": 5734,
      "professor": 5735,
      "2000": 5736,
      "scrub": 5737,
      "dinosaurs": 5738,
      "microwave": 5739,
      "sessions": 5740,
      "repeated": 5741,
      "NAME": 5742,
      "sorry": 5743,
      "ticks": 5744,
      "suggestions": 5745,
      "joining": 5746,
      "sexual": 5747,
      "apartment": 5748,
      "birthday": 5749,
      "Queen": 5750,
      "harmful": 5751,
      "platform": 5752,
      "experiencing": 5753,
      "Guide": 5754,
      "mentioned": 5755,
      "limits": 5756,
      "challenging": 5757,
      "policy": 5758,
      "beliefs": 5759,
      "injury": 5760,
      "fruit": 5761,
      "medications": 5762,
      "accident": 5763,
      "conclusion": 5764,
      "fortunately": 5765,
      "bacteria": 5766,
      "derivable": 5767,
      "sturdy": 5768,
      "Sightseeing": 5769,
      "refriger": 5770,
      "Tokyo": 5771,
      "48": 5772,
      "96": 5773,
      "AR": 5774,
      "Bre": 5775,
      "Cour": 5776,
      "Cop": 5777,
      "CMS": 5778,
      "Ed": 5779,
      "FFT": 5780,
      "GA": 5781,
      "Given": 5782,
      "Hash": 5783,
      "Mr": 5784,
      "Men": 5785,
      "Med": 5786,
      "Null": 5787,
      "Red": 5788,
      "Sen": 5789,
      "Sep": 5790,
      "Ve": 5791,
      "_P": 5792,
      "`,": 5793,
      "bent": 5794,
      "cab": 5795,
      "dating": 5796,
      "dados": 5797,
      "density": 5798,
      "fake": 5799,
      "gres": 5800,
      "lace": 5801,
      "mers": 5802,
      "oh": 5803,
      "ods": 5804,
      "oste": 5805,
      "ology": 5806,
      "psi": 5807,
      "pinch": 5808,
      "rac": 5809,
      "rare": 5810,
      "rul": 5811,
      "rangle": 5812,
      "sche": 5813,
      "satell": 5814,
      "tiny": 5815,
      "wagon": 5816,
      "├──": 5817,
      "infer": 5818,
      "theory": 5819,
      "atory": 5820,
      "atitude": 5821,
      "ortho": 5822,
      "orker": 5823,
      "toile": 5824,
      "stap": 5825,
      "stim": 5826,
      "itis": 5827,
      "iture": 5828,
      "ander": 5829,
      "icated": 5830,
      "eds": 5831,
      "becoming": 5832,
      "wiper": 5833,
      "aced": 5834,
      "dee": 5835,
      "del": 5836,
      "deta": 5837,
      "otta": 5838,
      "rol": 5839,
      "util": 5840,
      "cted": 5841,
      "neut": 5842,
      "terri": 5843,
      "tires": 5844,
      "tiles": 5845,
      "export": 5846,
      "exposed": 5847,
      "excellent": 5848,
      "compreh": 5849,
      "coats": 5850,
      "pler": 5851,
      "pol": 5852,
      "usar": 5853,
      "ples": 5854,
      "ides": 5855,
      "umn": 5856,
      "ums": 5857,
      "worst": 5858,
      "upset": 5859,
      "upload": 5860,
      "somewhat": 5861,
      "emic": 5862,
      "boots": 5863,
      "Insert": 5864,
      "strand": 5865,
      "strings": 5866,
      "Which": 5867,
      "node": 5868,
      "anging": 5869,
      "workers": 5870,
      "spon": 5871,
      "spending": 5872,
      "diff": 5873,
      "aircraft": 5874,
      "ipedia": 5875,
      "blank": 5876,
      "blades": 5877,
      "serving": 5878,
      "readers": 5879,
      "handed": 5880,
      "effic": 5881,
      "craf": 5882,
      "crash": 5883,
      "stema": 5884,
      "manner": 5885,
      "manually": 5886,
      "movement": 5887,
      "eases": 5888,
      "booking": 5889,
      "marks": 5890,
      "Console": 5891,
      "visual": 5892,
      "submodule": 5893,
      "nervous": 5894,
      "region": 5895,
      "atively": 5896,
      "fewer": 5897,
      "mitted": 5898,
      "typical": 5899,
      "distingu": 5900,
      "filen": 5901,
      "stopped": 5902,
      "MyClass": 5903,
      "whey": 5904,
      "salary": 5905,
      "pursu": 5906,
      "productive": 5907,
      "bonus": 5908,
      "reached": 5909,
      "ticket": 5910,
      "tickets": 5911,
      "teams": 5912,
      "Writer": 5913,
      "separated": 5914,
      "cells": 5915,
      "employment": 5916,
      "picked": 5917,
      "slate": 5918,
      "organizations": 5919,
      "guidelines": 5920,
      "implemented": 5921,
      "Sincerely": 5922,
      "moments": 5923,
      "complaints": 5924,
      "girls": 5925,
      "replacement": 5926,
      "photos": 5927,
      "indicates": 5928,
      "sweat": 5929,
      "opportunities": 5930,
      "Focus": 5931,
      "gangs": 5932,
      "internal": 5933,
      "copies": 5934,
      "combat": 5935,
      "invitations": 5936,
      "journey": 5937,
      "demort": 5938,
      "shorter": 5939,
      "attached": 5940,
      "Super": 5941,
      "determined": 5942,
      "literally": 5943,
      "religion": 5944,
      "thoroughly": 5945,
      "evaluation": 5946,
      "chorus": 5947,
      "Voldemort": 5948,
      "mountain": 5949,
      "opinion": 5950,
      "broadcast": 5951,
      "Times": 5952,
      "pandemic": 5953,
      "Commun": 5954,
      "Office": 5955,
      "marketing": 5956,
      "Review": 5957,
      "circumstances": 5958,
      "alpha": 5959,
      "Microsoft": 5960,
      "Global": 5961,
      "Michael": 5962,
      "detailed": 5963,
      "%~": 5964,
      "63": 5965,
      "88": 5966,
      "95": 5967,
      ";.": 5968,
      "AE": 5969,
      "Bi": 5970,
      "Cong": 5971,
      "DE": 5972,
      "Down": 5973,
      "DNS": 5974,
      "Eld": 5975,
      "Emp": 5976,
      "FC": 5977,
      "Fn": 5978,
      "KE": 5979,
      "Light": 5980,
      "Langu": 5981,
      "Mag": 5982,
      "None": 5983,
      "National": 5984,
      "Oh": 5985,
      "Op": 5986,
      "Pu": 5987,
      "Power": 5988,
      "Rem": 5989,
      "SH": 5990,
      "Ul": 5991,
      "])": 5992,
      "_cast": 5993,
      "bend": 5994,
      "cin": 5995,
      "cro": 5996,
      "daughter": 5997,
      "eight": 5998,
      "fare": 5999,
      "gard": 6000,
      "gage": 6001,
      "ggling": 6002,
      "iver": 6003,
      "jas": 6004,
      "lab": 6005,
      "mine": 6006,
      "pump": 6007,
      "rof": 6008,
      "sword": 6009,
      "sending": 6010,
      "tan": 6011,
      "tack": 6012,
      "ube": 6013,
      "uate": 6014,
      "vast": 6015,
      "wers": 6016,
      "thigh": 6017,
      "infl": 6018,
      "intake": 6019,
      "reset": 6020,
      "resolved": 6021,
      "oros": 6022,
      "ordered": 6023,
      "tower": 6024,
      "storm": 6025,
      "alive": 6026,
      "isms": 6027,
      "armed": 6028,
      "argu": 6029,
      "seat": 6030,
      "seam": 6031,
      "became": 6032,
      "lyrics": 6033,
      "acade": 6034,
      "forts": 6035,
      "democr": 6036,
      "sus": 6037,
      "nest": 6038,
      "units": 6039,
      "unlikely": 6040,
      "sharing": 6041,
      "till": 6042,
      "feine": 6043,
      "urin": 6044,
      "codes": 6045,
      "cogn": 6046,
      "truck": 6047,
      "usr": 6048,
      "umble": 6049,
      "implicit": 6050,
      "artment": 6051,
      "rence": 6052,
      "boot": 6053,
      "episo": 6054,
      "Incl": 6055,
      "cia": 6056,
      "former": 6057,
      "cker": 6058,
      "angular": 6059,
      "intended": 6060,
      "answers": 6061,
      "affirm": 6062,
      "affeine": 6063,
      "dispos": 6064,
      "discomfort": 6065,
      "disabled": 6066,
      "applies": 6067,
      "corpor": 6068,
      "topics": 6069,
      "auto": 6070,
      "blow": 6071,
      "phones": 6072,
      "handy": 6073,
      "handles": 6074,
      "thod": 6075,
      "cris": 6076,
      "crack": 6077,
      "closing": 6078,
      "countable": 6079,
      "vals": 6080,
      "evenly": 6081,
      "lightly": 6082,
      "bug": 6083,
      "simpler": 6084,
      "compens": 6085,
      "movements": 6086,
      "pulling": 6087,
      "puzz": 6088,
      "playful": 6089,
      "medication": 6090,
      "writes": 6091,
      "afternoon": 6092,
      "march": 6093,
      "supports": 6094,
      "tablespo": 6095,
      "integer": 6096,
      "archite": 6097,
      "Something": 6098,
      "queen": 6099,
      "Express": 6100,
      "headlights": 6101,
      "holds": 6102,
      "opened": 6103,
      "specified": 6104,
      "cleaner": 6105,
      "ocate": 6106,
      "largest": 6107,
      "checkout": 6108,
      "returning": 6109,
      "freezer": 6110,
      "Decide": 6111,
      "locking": 6112,
      "presentation": 6113,
      "balanced": 6114,
      "factor": 6115,
      "treats": 6116,
      "optional": 6117,
      "supporting": 6118,
      "responsible": 6119,
      "Second": 6120,
      "stays": 6121,
      "bones": 6122,
      "styles": 6123,
      "mixed": 6124,
      "clip": 6125,
      "tells": 6126,
      "Proper": 6127,
      "Shan": 6128,
      "facts": 6129,
      "commands": 6130,
      "drawing": 6131,
      "azing": 6132,
      "thinner": 6133,
      "motor": 6134,
      "mathbb": 6135,
      "cookies": 6136,
      "bullet": 6137,
      "entirely": 6138,
      "terminal": 6139,
      "documentation": 6140,
      "initially": 6141,
      "reviews": 6142,
      "jeans": 6143,
      "snacks": 6144,
      "breaks": 6145,
      "acceptable": 6146,
      "installation": 6147,
      "photography": 6148,
      "antibiot": 6149,
      "--------------------------------": 6150,
      "Method": 6151,
      "PCs": 6152,
      "animation": 6153,
      "indicate": 6154,
      "studies": 6155,
      "Department": 6156,
      "tricks": 6157,
      "homelessness": 6158,
      "suitable": 6159,
      "migr": 6160,
      "gamma": 6161,
      "Washington": 6162,
      "mistake": 6163,
      "religious": 6164,
      "Boolean": 6165,
      "atomic": 6166,
      "relatively": 6167,
      "economic": 6168,
      "Understand": 6169,
      "continuous": 6170,
      "voter": 6171,
      "pulled": 6172,
      "miles": 6173,
      "vehicle": 6174,
      "exclusive": 6175,
      "percentage": 6176,
      "minimal": 6177,
      "Visit": 6178,
      "churros": 6179,
      "drinks": 6180,
      "guidance": 6181,
      "Linked": 6182,
      "Maintain": 6183,
      "symbo": 6184,
      "sigma": 6185,
      "meditation": 6186,
      "Promise": 6187,
      "Develop": 6188,
      "Complete": 6189,
      "eggs": 6190,
      "declaration": 6191,
      "molecules": 6192,
      "parallel": 6193,
      "TikTok": 6194,
      "Wikipedia": 6195,
      "furniture": 6196,
      "reputation": 6197,
      "atoes": 6198,
      "Congress": 6199,
      "Language": 6200,
      "tablespoons": 6201,
      "47": 6202,
      "800": 6203,
      "='": 6204,
      "Case": 6205,
      "Event": 6206,
      "Hist": 6207,
      "Jes": 6208,
      "Job": 6209,
      "June": 6210,
      "Javascript": 6211,
      "King": 6212,
      "MY": 6213,
      "Mil": 6214,
      "OC": 6215,
      "Run": 6216,
      "Rinse": 6217,
      "S1": 6218,
      "SS": 6219,
      "Sur": 6220,
      "Shad": 6221,
      "Spread": 6222,
      "TO": 6223,
      "Usu": 6224,
      "UAE": 6225,
      "[\"": 6226,
      "_2": 6227,
      "blo": 6228,
      "grid": 6229,
      "hes": 6230,
      "hous": 6231,
      "hiding": 6232,
      "ients": 6233,
      "jig": 6234,
      "ked": 6235,
      "kick": 6236,
      "lad": 6237,
      "mature": 6238,
      "nom": 6239,
      "none": 6240,
      "rap": 6241,
      "sav": 6242,
      "sink": 6243,
      "score": 6244,
      "tz": 6245,
      "uine": 6246,
      "vation": 6247,
      "|\\": 6248,
      "}(": 6249,
      "}\\": 6250,
      "thir": 6251,
      "ining": 6252,
      "infr": 6253,
      "reply": 6254,
      "resume": 6255,
      "replaced": 6256,
      "atmo": 6257,
      "orial": 6258,
      "orbit": 6259,
      "tock": 6260,
      "env": 6261,
      "enance": 6262,
      "ley": 6263,
      "itar": 6264,
      "island": 6265,
      "args": 6266,
      "seph": 6267,
      "ico": 6268,
      "omy": 6269,
      "ionally": 6270,
      "cher": 6271,
      "chop": 6272,
      "veter": 6273,
      "bell": 6274,
      "heal": 6275,
      "acqu": 6276,
      "accounts": 6277,
      "lie": 6278,
      "lips": 6279,
      "cts": 6280,
      "verbs": 6281,
      "ghai": 6282,
      "suspect": 6283,
      "apolog": 6284,
      "canister": 6285,
      "sizes": 6286,
      "territ": 6287,
      "moist": 6288,
      "soak": 6289,
      "fees": 6290,
      "extract": 6291,
      "thernet": 6292,
      "atest": 6293,
      "pling": 6294,
      "poking": 6295,
      "trail": 6296,
      "ulations": 6297,
      "plements": 6298,
      "ilot": 6299,
      "Thus": 6300,
      "essentially": 6301,
      "diam": 6302,
      "diapers": 6303,
      "eling": 6304,
      "usta": 6305,
      "opposed": 6306,
      "oporos": 6307,
      "India": 6308,
      "urer": 6309,
      "angled": 6310,
      "overhead": 6311,
      "oversized": 6312,
      "spots": 6313,
      "applying": 6314,
      "applied": 6315,
      "positions": 6316,
      "cali": 6317,
      "parad": 6318,
      "leton": 6319,
      "desire": 6320,
      "seeking": 6321,
      "Stu": 6322,
      "Stand": 6323,
      "genet": 6324,
      "buf": 6325,
      "smalle": 6326,
      "personality": 6327,
      "checking": 6328,
      "signals": 6329,
      "visiting": 6330,
      "importance": 6331,
      "carpet": 6332,
      "attitude": 6333,
      "paperwork": 6334,
      "Social": 6335,
      "Explo": 6336,
      "Encourage": 6337,
      "promot": 6338,
      "painful": 6339,
      "searching": 6340,
      "ysis": 6341,
      "greatest": 6342,
      "bipolar": 6343,
      "Comp": 6344,
      "layou": 6345,
      "wheel": 6346,
      "gym": 6347,
      "fitted": 6348,
      "considering": 6349,
      "safely": 6350,
      "Keeping": 6351,
      "walks": 6352,
      "biggest": 6353,
      "printf": 6354,
      "seemed": 6355,
      "adequ": 6356,
      "practicing": 6357,
      "mixing": 6358,
      "petition": 6359,
      "definitely": 6360,
      "difficulty": 6361,
      "leading": 6362,
      "Order": 6363,
      "Setting": 6364,
      "gotten": 6365,
      "falls": 6366,
      "uniform": 6367,
      "happening": 6368,
      "bands": 6369,
      "Serv": 6370,
      "protective": 6371,
      "fourth": 6372,
      "heavily": 6373,
      "istry": 6374,
      "fixed": 6375,
      "individuals": 6376,
      "jection": 6377,
      "breathe": 6378,
      "saltwater": 6379,
      "accepted": 6380,
      "flesh": 6381,
      "Often": 6382,
      "PhD": 6383,
      "animals": 6384,
      "Design": 6385,
      "plotlib": 6386,
      "maintaining": 6387,
      "recovery": 6388,
      "hanging": 6389,
      "branches": 6390,
      "suggested": 6391,
      "beauty": 6392,
      "trusted": 6393,
      "shapes": 6394,
      "recipe": 6395,
      "http": 6396,
      "inoa": 6397,
      "truly": 6398,
      "Lock": 6399,
      "comparison": 6400,
      "campus": 6401,
      "attractive": 6402,
      "Spec": 6403,
      "German": 6404,
      "Germany": 6405,
      "substit": 6406,
      "saucepan": 6407,
      "yoga": 6408,
      "crankshaft": 6409,
      "virtual": 6410,
      "responsibility": 6411,
      "NOT": 6412,
      "gentle": 6413,
      "pliers": 6414,
      "weapon": 6415,
      "divorce": 6416,
      "sneakers": 6417,
      "balloon": 6418,
      "arquivos": 6419,
      "Shanghai": 6420,
      "Jesus": 6421,
      "Usually": 6422,
      "oporosis": 6423,
      "smallest": 6424,
      "().": 6425,
      "350": 6426,
      "Back": 6427,
      "Bill": 6428,
      "Baby": 6429,
      "CIS": 6430,
      "Du": 6431,
      "FF": 6432,
      "Fi": 6433,
      "Foo": 6434,
      "Fast": 6435,
      "GB": 6436,
      "Gre": 6437,
      "Gold": 6438,
      "Greek": 6439,
      "IQ": 6440,
      "Last": 6441,
      "Mu": 6442,
      "Mad": 6443,
      "Meas": 6444,
      "Making": 6445,
      "Pa": 6446,
      "Por": 6447,
      "Pack": 6448,
      "RE": 6449,
      "Roman": 6450,
      "Sa": 6451,
      "Spray": 6452,
      "Tri": 6453,
      "Top": 6454,
      "Time": 6455,
      "Tai": 6456,
      "Would": 6457,
      "ação": 6458,
      "bother": 6459,
      "couch": 6460,
      "eu": 6461,
      "fired": 6462,
      "flies": 6463,
      "gender": 6464,
      "hooking": 6465,
      "jar": 6466,
      "kid": 6467,
      "mber": 6468,
      "nic": 6469,
      "narrow": 6470,
      "osome": 6471,
      "olive": 6472,
      "s_": 6473,
      "tur": 6474,
      "tong": 6475,
      "tarn": 6476,
      "usi": 6477,
      "vs": 6478,
      "yolk": 6479,
      "}{": 6480,
      "”.": 6481,
      "inser": 6482,
      "insul": 6483,
      "invent": 6484,
      "reward": 6485,
      "anx": 6486,
      "ancient": 6487,
      "atin": 6488,
      "tos": 6489,
      "altit": 6490,
      "ision": 6491,
      "argue": 6492,
      "seven": 6493,
      "omer": 6494,
      "champ": 6495,
      "bered": 6496,
      "began": 6497,
      "````": 6498,
      "heating": 6499,
      "forgiv": 6500,
      "iff": 6501,
      "ifi": 6502,
      "amb": 6503,
      "amed": 6504,
      "neur": 6505,
      "```)": 6506,
      "tist": 6507,
      "outdoor": 6508,
      "uran": 6509,
      "docker": 6510,
      "weigh": 6511,
      "quer": 6512,
      "quet": 6513,
      "quinoa": 6514,
      "pointer": 6515,
      "reser": 6516,
      "dip": 6517,
      "diverse": 6518,
      "prone": 6519,
      "render": 6520,
      "grand": 6521,
      "owners": 6522,
      "formation": 6523,
      "intu": 6524,
      "intention": 6525,
      "wrapping": 6526,
      "spid": 6527,
      "bris": 6528,
      "append": 6529,
      "apparen": 6530,
      "corresponding": 6531,
      "ivot": 6532,
      "thritis": 6533,
      "estimate": 6534,
      "minor": 6535,
      "tension": 6536,
      "description": 6537,
      "efforts": 6538,
      "valve": 6539,
      "lighten": 6540,
      "finite": 6541,
      "ackets": 6542,
      "Heat": 6543,
      "Annotation": 6544,
      "hire": 6545,
      "extended": 6546,
      "manip": 6547,
      "surfaces": 6548,
      "....": 6549,
      "Reich": 6550,
      "presence": 6551,
      "quote": 6552,
      "arrows": 6553,
      "breaking": 6554,
      "Const": 6555,
      "visor": 6556,
      "crime": 6557,
      "pointing": 6558,
      "expands": 6559,
      "keyboard": 6560,
      "guy": 6561,
      "generation": 6562,
      "periods": 6563,
      "stored": 6564,
      "Exerc": 6565,
      "End": 6566,
      "functional": 6567,
      "capture": 6568,
      "produced": 6569,
      "Unforgiv": 6570,
      "mainly": 6571,
      "sively": 6572,
      "transition": 6573,
      "passes": 6574,
      "Moon": 6575,
      "ricotta": 6576,
      "identity": 6577,
      "traveler": 6578,
      "192": 6579,
      "wheels": 6580,
      "chose": 6581,
      "chocol": 6582,
      "published": 6583,
      "Security": 6584,
      "loads": 6585,
      "reduced": 6586,
      "controlled": 6587,
      "addresses": 6588,
      "Wrap": 6589,
      "touches": 6590,
      "receip": 6591,
      "limitations": 6592,
      "leader": 6593,
      "babysit": 6594,
      "breakup": 6595,
      "fireworks": 6596,
      "fallen": 6597,
      "universe": 6598,
      "focuses": 6599,
      "historical": 6600,
      "spring": 6601,
      "linked": 6602,
      "walls": 6603,
      "immediate": 6604,
      "movies": 6605,
      "belly": 6606,
      "requests": 6607,
      "borrow": 6608,
      "Joseph": 6609,
      "claims": 6610,
      "===": 6611,
      "execute": 6612,
      "execution": 6613,
      "concern": 6614,
      "torch": 6615,
      "complexity": 6616,
      "attacks": 6617,
      "exciting": 6618,
      "strategy": 6619,
      "declared": 6620,
      "discussing": 6621,
      "gloves": 6622,
      "nicely": 6623,
      "screws": 6624,
      "calculate": 6625,
      "Learning": 6626,
      "Similar": 6627,
      "failed": 6628,
      "magic": 6629,
      "previously": 6630,
      "failure": 6631,
      "holidays": 6632,
      "plums": 6633,
      "tags": 6634,
      "influence": 6635,
      "carrying": 6636,
      "Generally": 6637,
      "LaTeX": 6638,
      "translation": 6639,
      "Elements": 6640,
      "Function": 6641,
      "rupt": 6642,
      "quantum": 6643,
      "pregnant": 6644,
      "tubing": 6645,
      "você": 6646,
      "++)": 6647,
      "------|": 6648,
      "hobby": 6649,
      "vehicles": 6650,
      "technical": 6651,
      "flexible": 6652,
      "Integer": 6653,
      "chromosome": 6654,
      "Italian": 6655,
      "Member": 6656,
      "Two": 6657,
      "suddenly": 6658,
      "certific": 6659,
      "manufacturer": 6660,
      "hydrogen": 6661,
      "Alternatively": 6662,
      "horizontal": 6663,
      "Robusta": 6664,
      "concentr": 6665,
      "protocol": 6666,
      "diagonal": 6667,
      "hospital": 6668,
      "Return": 6669,
      "fantasy": 6670,
      "digits": 6671,
      "Connect": 6672,
      "Techn": 6673,
      "osteoporosis": 6674,
      "distinguish": 6675,
      "Include": 6676,
      "veterin": 6677,
      "Unforgivable": 6678,
      "\").": 6679,
      "(```": 6680,
      "31": 6681,
      "41": 6682,
      "46": 6683,
      "52": 6684,
      "Air": 6685,
      "Bro": 6686,
      "Bake": 6687,
      "Black": 6688,
      "Cus": 6689,
      "Cross": 6690,
      "Del": 6691,
      "DOS": 6692,
      "E_": 6693,
      "Gen": 6694,
      "Grand": 6695,
      "Home": 6696,
      "Its": 6697,
      "KT": 6698,
      "Kore": 6699,
      "Lin": 6700,
      "Mer": 6701,
      "Mel": 6702,
      "Mob": 6703,
      "Ning": 6704,
      "Nevil": 6705,
      "Opt": 6706,
      "RI": 6707,
      "Treat": 6708,
      "Tube": 6709,
      "Very": 6710,
      "Wester": 6711,
      "bought": 6712,
      "baked": 6713,
      "có": 6714,
      "cam": 6715,
      "caffeine": 6716,
      "dome": 6717,
      "ders": 6718,
      "epo": 6719,
      "egot": 6720,
      "flying": 6721,
      "glow": 6722,
      "iency": 6723,
      "jacket": 6724,
      "jump": 6725,
      "killed": 6726,
      "knock": 6727,
      "lenses": 6728,
      "mac": 6729,
      "nit": 6730,
      "oke": 6731,
      "piz": 6732,
      "pivot": 6733,
      "rome": 6734,
      "rust": 6735,
      "slot": 6736,
      "tches": 6737,
      "vag": 6738,
      "vine": 6739,
      "wake": 6740,
      "wings": 6741,
      "zation": 6742,
      "}$.": 6743,
      "thri": 6744,
      "thaw": 6745,
      "ina": 6746,
      "inno": 6747,
      "inher": 6748,
      "inspir": 6749,
      "thetic": 6750,
      "ouis": 6751,
      "rew": 6752,
      "rever": 6753,
      "anno": 6754,
      "atility": 6755,
      "orange": 6756,
      "towe": 6757,
      "tober": 6758,
      "encour": 6759,
      "sters": 6760,
      "stages": 6761,
      "stability": 6762,
      "sticking": 6763,
      "alo": 6764,
      "offered": 6765,
      "seu": 6766,
      "sewing": 6767,
      "segment": 6768,
      "icy": 6769,
      "ican": 6770,
      "asleep": 6771,
      "chi": 6772,
      "yours": 6773,
      "bever": 6774,
      "acies": 6775,
      "decade": 6776,
      "debris": 6777,
      "entered": 6778,
      "meant": 6779,
      "rope": 6780,
      "abul": 6781,
      "amm": 6782,
      "amazing": 6783,
      "neither": 6784,
      "neural": 6785,
      "ung": 6786,
      "unnecessary": 6787,
      "moved": 6788,
      "socks": 6789,
      "tili": 6790,
      "fell": 6791,
      "exhale": 6792,
      "constrain": 6793,
      "compromise": 6794,
      "plus": 6795,
      "quake": 6796,
      "trash": 6797,
      "proposed": 6798,
      "perm": 6799,
      "aint": 6800,
      "imney": 6801,
      "ils": 6802,
      "Third": 6803,
      "upright": 6804,
      "agency": 6805,
      "foli": 6806,
      "YouTube": 6807,
      "grain": 6808,
      "grass": 6809,
      "Inv": 6810,
      "ounds": 6811,
      "evol": 6812,
      "specially": 6813,
      "brace": 6814,
      "airplane": 6815,
      "izes": 6816,
      "calendar": 6817,
      "tops": 6818,
      "forest": 6819,
      "blind": 6820,
      "este": 6821,
      "reader": 6822,
      "phen": 6823,
      "backdoor": 6824,
      "setup": 6825,
      "crate": 6826,
      "curds": 6827,
      "Stre": 6828,
      "Star": 6829,
      "sky": 6830,
      "Hey": 6831,
      "surfing": 6832,
      "resting": 6833,
      "breasts": 6834,
      "memories": 6835,
      "centers": 6836,
      "());": 6837,
      "primit": 6838,
      "cripts": 6839,
      "highlight": 6840,
      "glu": 6841,
      "temple": 6842,
      "ashes": 6843,
      "Dogs": 6844,
      "happiness": 6845,
      "stove": 6846,
      "parenthe": 6847,
      "typed": 6848,
      "tones": 6849,
      "resulting": 6850,
      "checked": 6851,
      "multiply": 6852,
      "ission": 6853,
      "Deli": 6854,
      "sister": 6855,
      "contained": 6856,
      "array_": 6857,
      "damaged": 6858,
      "treating": 6859,
      "treatments": 6860,
      "128": 6861,
      "landing": 6862,
      "Prof": 6863,
      "Prague": 6864,
      "binary": 6865,
      "loaded": 6866,
      "football": 6867,
      "street": 6868,
      "closest": 6869,
      "reduces": 6870,
      "reducing": 6871,
      "operations": 6872,
      "particip": 6873,
      "applicable": 6874,
      "publication": 6875,
      "reflex": 6876,
      "shoe": 6877,
      "providing": 6878,
      "education": 6879,
      "offering": 6880,
      "horror": 6881,
      "President": 6882,
      "romantic": 6883,
      "bringing": 6884,
      "smoking": 6885,
      "involve": 6886,
      "rising": 6887,
      "freedom": 6888,
      "relieve": 6889,
      "cultures": 6890,
      "standards": 6891,
      "dressing": 6892,
      "Code": 6893,
      "preferred": 6894,
      "Listen": 6895,
      "maintenance": 6896,
      "America": 6897,
      "succeed": 6898,
      "widely": 6899,
      "combined": 6900,
      "worthy": 6901,
      "Mean": 6902,
      "marked": 6903,
      "alternate": 6904,
      "concerned": 6905,
      "strengths": 6906,
      "dedicated": 6907,
      "Steve": 6908,
      "describes": 6909,
      "habits": 6910,
      "framework": 6911,
      "introduce": 6912,
      "stretching": 6913,
      "algorithms": 6914,
      "jsonb": 6915,
      "asyn": 6916,
      "SARS": 6917,
      "successful": 6918,
      "Collection": 6919,
      "vacation": 6920,
      "Queue": 6921,
      "SELE": 6922,
      "csv": 6923,
      "companion": 6924,
      "experts": 6925,
      "amente": 6926,
      "consistent": 6927,
      "climb": 6928,
      "teaspoons": 6929,
      "influen": 6930,
      "mechanism": 6931,
      "infections": 6932,
      "vocabul": 6933,
      "criminal": 6934,
      "''''''''''''''''": 6935,
      "earthquake": 6936,
      "drinking": 6937,
      "accomplishments": 6938,
      "victim": 6939,
      "contrast": 6940,
      "ignored": 6941,
      "October": 6942,
      "Country": 6943,
      "Human": 6944,
      "vitamin": 6945,
      "advertise": 6946,
      "components": 6947,
      "encryption": 6948,
      "behaviour": 6949,
      "categ": 6950,
      "Priority": 6951,
      "Students": 6952,
      "intelligence": 6953,
      "squeeze": 6954,
      "Termin": 6955,
      "dictionary": 6956,
      "conscious": 6957,
      "sleeves": 6958,
      "circuit": 6959,
      "refrigerator": 6960,
      "Remind": 6961,
      "buffer": 6962,
      "Company": 6963,
      "adequate": 6964,
      "Measure": 6965,
      "tarnish": 6966,
      "altitude": 6967,
      "chocolate": 6968,
      "Similarly": 6969,
      "Custom": 6970,
      "KTN": 6971,
      "Mobile": 6972,
      "Neville": 6973,
      "towels": 6974,
      "SELECT": 6975,
      "vocabulary": 6976,
      "\"\"": 6977,
      "\";": 6978,
      "\"]": 6979,
      "'.": 6980,
      "34": 6981,
      "500": 6982,
      "</": 6983,
      "=\"": 6984,
      "AM": 6985,
      "AN": 6986,
      "Aust": 6987,
      "Bron": 6988,
      "Brit": 6989,
      "CE": 6990,
      "Care": 6991,
      "Cap": 6992,
      "Clar": 6993,
      "Dan": 6994,
      "Dist": 6995,
      "Div": 6996,
      "Er": 6997,
      "Eli": 6998,
      "Ethernet": 6999,
      "Fur": 7000,
      "G1": 7001,
      "GO": 7002,
      "Ga": 7003,
      "Gather": 7004,
      "GED": 7005,
      "House": 7006,
      "Log": 7007,
      "Louis": 7008,
      "MST": 7009,
      "Mark": 7010,
      "Manga": 7011,
      "OK": 7012,
      "Pure": 7013,
      "Row": 7014,
      "Rad": 7015,
      "Ver": 7016,
      "][": 7017,
      "^{": 7018,
      "_t": 7019,
      "aks": 7020,
      "bsp": 7021,
      "cash": 7022,
      "df": 7023,
      "dressed": 7024,
      "eks": 7025,
      "gown": 7026,
      "hug": 7027,
      "ij": 7028,
      "javascript": 7029,
      "mL": 7030,
      "mad": 7031,
      "mate": 7032,
      "nine": 7033,
      "national": 7034,
      "ncia": 7035,
      "ose": 7036,
      "pm": 7037,
      "rm": 7038,
      "rin": 7039,
      "rav": 7040,
      "rates": 7041,
      "tough": 7042,
      "tary": 7043,
      "tread": 7044,
      "ui": 7045,
      "va": 7046,
      "wine": 7047,
      "wrench": 7048,
      "wp_": 7049,
      "yield": 7050,
      "});": 7051,
      "ém": 7052,
      "ões": 7053,
      "thic": 7054,
      "thusi": 7055,
      "iner": 7056,
      "info": 7057,
      "instr": 7058,
      "indeed": 7059,
      "recur": 7060,
      "refund": 7061,
      "ancing": 7062,
      "onion": 7063,
      "ero": 7064,
      "attribute": 7065,
      "orge": 7066,
      "ena": 7067,
      "enthusi": 7068,
      "staph": 7069,
      "stamp": 7070,
      "leston": 7071,
      "arthritis": 7072,
      "essed": 7073,
      "andom": 7074,
      "vectors": 7075,
      "beer": 7076,
      "hem": 7077,
      "accent": 7078,
      "lla": 7079,
      "deals": 7080,
      "otlin": 7081,
      "meter": 7082,
      "meters": 7083,
      "likes": 7084,
      "roast": 7085,
      "abs": 7086,
      "sumer": 7087,
      "whom": 7088,
      "ried": 7089,
      "neigh": 7090,
      "sia": 7091,
      "shy": 7092,
      "shine": 7093,
      "shiny": 7094,
      "outline": 7095,
      "consult": 7096,
      "consequences": 7097,
      "covers": 7098,
      "west": 7099,
      "ateval": 7100,
      "quad": 7101,
      "quads": 7102,
      "traffic": 7103,
      "usado": 7104,
      "pros": 7105,
      "processed": 7106,
      "pleas": 7107,
      "perce": 7108,
      "ument": 7109,
      "endment": 7110,
      "Through": 7111,
      "upwards": 7112,
      "anyway": 7113,
      "erson": 7114,
      "prison": 7115,
      "emb": 7116,
      "renal": 7117,
      "rency": 7118,
      "clin": 7119,
      "taught": 7120,
      "acknowledge": 7121,
      "ERT": 7122,
      "gos": 7123,
      "helf": 7124,
      "observ": 7125,
      "disability": 7126,
      "discrimin": 7127,
      "posit": 7128,
      "aux": 7129,
      "waterproof": 7130,
      "await": 7131,
      "funding": 7132,
      "cursions": 7133,
      "Stir": 7134,
      "genic": 7135,
      "simp": 7136,
      "compat": 7137,
      "hio": 7138,
      "underlying": 7139,
      "syll": 7140,
      "everyday": 7141,
      "welling": 7142,
      "subtle": 7143,
      "()`": 7144,
      "drives": 7145,
      "supplement": 7146,
      "supplements": 7147,
      "engaging": 7148,
      "litter": 7149,
      "gland": 7150,
      "steady": 7151,
      "planet": 7152,
      "planned": 7153,
      "strugg": 7154,
      "struggling": 7155,
      "logs": 7156,
      "logies": 7157,
      "keyword": 7158,
      "lifestyle": 7159,
      "guard": 7160,
      "Doe": 7161,
      "Doing": 7162,
      "volatility": 7163,
      "happier": 7164,
      "2014": 7165,
      "functionality": 7166,
      "merged": 7167,
      "payments": 7168,
      "bitcode": 7169,
      "grams": 7170,
      "pyram": 7171,
      "Artic": 7172,
      "processes": 7173,
      "biases": 7174,
      "distances": 7175,
      "nesses": 7176,
      "Common": 7177,
      "controls": 7178,
      "healthier": 7179,
      "developer": 7180,
      "Address": 7181,
      "damaging": 7182,
      "factory": 7183,
      "coloring": 7184,
      "imagin": 7185,
      "salmon": 7186,
      "bins": 7187,
      "nights": 7188,
      "bond": 7189,
      "reaching": 7190,
      "stretches": 7191,
      "hyper": 7192,
      "Should": 7193,
      "weekend": 7194,
      "roller": 7195,
      "shock": 7196,
      "provider": 7197,
      "180": 7198,
      "performing": 7199,
      "performed": 7200,
      "slack": 7201,
      "breakfast": 7202,
      "stressful": 7203,
      "pairs": 7204,
      "connecting": 7205,
      "connections": 7206,
      "expectations": 7207,
      "smoke": 7208,
      "respectively": 7209,
      "temperatures": 7210,
      "League": 7211,
      "LeBron": 7212,
      "semi": 7213,
      "significance": 7214,
      "pushing": 7215,
      "increased": 7216,
      "stronger": 7217,
      "actively": 7218,
      "gained": 7219,
      "boring": 7220,
      "displayed": 7221,
      "animal": 7222,
      "referred": 7223,
      "assignment": 7224,
      "metro": 7225,
      "technologies": 7226,
      "threads": 7227,
      "tirement": 7228,
      "conduit": 7229,
      "Christian": 7230,
      "nuts": 7231,
      "agreement": 7232,
      "analysis": 7233,
      "Seek": 7234,
      "residence": 7235,
      "demand": 7236,
      "phrases": 7237,
      "efficiently": 7238,
      "Spend": 7239,
      "aneous": 7240,
      "metrics": 7241,
      "comparing": 7242,
      "Such": 7243,
      "coworker": 7244,
      "giant": 7245,
      "platforms": 7246,
      "stirring": 7247,
      "chemicals": 7248,
      "scratching": 7249,
      "parameters": 7250,
      "Output": 7251,
      "competition": 7252,
      "violence": 7253,
      "CSV": 7254,
      "demonstr": 7255,
      "CPU": 7256,
      "opinions": 7257,
      "theorem": 7258,
      "ignore": 7259,
      "electronics": 7260,
      "Occur": 7261,
      "appreciate": 7262,
      "accepting": 7263,
      "dimensional": 7264,
      "crossed": 7265,
      "tuning": 7266,
      "Family": 7267,
      "George": 7268,
      "impression": 7269,
      "satisf": 7270,
      "HEAD": 7271,
      "University": 7272,
      "accommodations": 7273,
      "thermometer": 7274,
      "pronounced": 7275,
      "diagno": 7276,
      "Temple": 7277,
      "satellite": 7278,
      "toilet": 7279,
      "deeper": 7280,
      "neutral": 7281,
      "efficiency": 7282,
      "Ultimately": 7283,
      "jasper": 7284,
      "academic": 7285,
      "Services": 7286,
      "anxious": 7287,
      "champion": 7288,
      "veterinarian": 7289,
      "PriorityQueue": 7290,
      "Further": 7291,
      "GEDCOM": 7292,
      "';": 7293,
      "(),": 7294,
      "+=": 7295,
      "42": 7296,
      "49": 7297,
      "57": 7298,
      "Ab": 7299,
      "Afr": 7300,
      "Bot": 7301,
      "Bet": 7302,
      "Bridge": 7303,
      "CF": 7304,
      "CV": 7305,
      "Cal": 7306,
      "Ctr": 7307,
      "Civ": 7308,
      "Center": 7309,
      "CNAME": 7310,
      "DF": 7311,
      "Dress": 7312,
      "Elect": 7313,
      "Either": 7314,
      "Fire": 7315,
      "Flip": 7316,
      "FUN": 7317,
      "HR": 7318,
      "LL": 7319,
      "Lar": 7320,
      "Lagr": 7321,
      "Latin": 7322,
      "Mat": 7323,
      "Mom": 7324,
      "Mario": 7325,
      "Never": 7326,
      "Ome": 7327,
      "Oper": 7328,
      "Rel": 7329,
      "Sn": 7330,
      "Sar": 7331,
      "Sli": 7332,
      "Squ": 7333,
      "Slow": 7334,
      "Span": 7335,
      "Tower": 7336,
      "UPD": 7337,
      "VGA": 7338,
      "Wi": 7339,
      "Water": 7340,
      "ao": 7341,
      "aud": 7342,
      "bars": 7343,
      "cub": 7344,
      "crop": 7345,
      "dou": 7346,
      "gible": 7347,
      "hs": 7348,
      "hip": 7349,
      "jug": 7350,
      "jah": 7351,
      "lone": 7352,
      "mm": 7353,
      "mice": 7354,
      "pits": 7355,
      "pilot": 7356,
      "raw": 7357,
      "rude": 7358,
      "slic": 7359,
      "txt": 7360,
      "tends": 7361,
      "uation": 7362,
      "ws": 7363,
      "yard": 7364,
      "})": 7365,
      "oujo": 7366,
      "rev": 7367,
      "react": 7368,
      "reject": 7369,
      "retain": 7370,
      "recover": 7371,
      "reports": 7372,
      "recru": 7373,
      "replacing": 7374,
      "represents": 7375,
      "announ": 7376,
      "onds": 7377,
      "enna": 7378,
      "enqueue": 7379,
      "stations": 7380,
      "alt": 7381,
      "alert": 7382,
      "lete": 7383,
      "isch": 7384,
      "seal": 7385,
      "assem": 7386,
      "chet": 7387,
      "chances": 7388,
      "chimney": 7389,
      "vey": 7390,
      "belt": 7391,
      "hest": 7392,
      "heated": 7393,
      "hearing": 7394,
      "wild": 7395,
      "adian": 7396,
      "verbal": 7397,
      "sudo": 7398,
      "sumed": 7399,
      "sie": 7400,
      "undry": 7401,
      "unknown": 7402,
      "terior": 7403,
      "mos": 7404,
      "shaking": 7405,
      "solo": 7406,
      "tired": 7407,
      "femin": 7408,
      "excursions": 7409,
      "concrete": 7410,
      "urt": 7411,
      "urch": 7412,
      "coals": 7413,
      "weave": 7414,
      "wealth": 7415,
      "quar": 7416,
      "poll": 7417,
      "posts": 7418,
      "noted": 7419,
      "perial": 7420,
      "imit": 7421,
      "upside": 7422,
      "agencies": 7423,
      "divide": 7424,
      "derived": 7425,
      "kingdom": 7426,
      "oppon": 7427,
      "Increase": 7428,
      "gov": 7429,
      "creation": 7430,
      "nobody": 7431,
      "needle": 7432,
      "atering": 7433,
      "prey": 7434,
      "president": 7435,
      "oblig": 7436,
      "affection": 7437,
      "disci": 7438,
      "commer": 7439,
      "blender": 7440,
      "served": 7441,
      "flows": 7442,
      "parking": 7443,
      "despite": 7444,
      "numbered": 7445,
      "gene": 7446,
      "bull": 7447,
      "skirt": 7448,
      "Health": 7449,
      "lessly": 7450,
      "managed": 7451,
      "Replace": 7452,
      "signed": 7453,
      "solar": 7454,
      "solving": 7455,
      "stands": 7456,
      "markets": 7457,
      "subway": 7458,
      "Someone": 7459,
      "stomach": 7460,
      "legant": 7461,
      "Ensure": 7462,
      "tons": 7463,
      "deploy": 7464,
      "Unfortunately": 7465,
      "powers": 7466,
      "Art": 7467,
      "Arch": 7468,
      "process_": 7469,
      "Deal": 7470,
      "Comb": 7471,
      "Commit": 7472,
      "screaming": 7473,
      "controller": 7474,
      "netic": 7475,
      "basket": 7476,
      "labels": 7477,
      "MyStatic": 7478,
      "confused": 7479,
      "trait": 7480,
      "chores": 7481,
      "consideration": 7482,
      "customs": 7483,
      "purch": 7484,
      "locked": 7485,
      "bedroom": 7486,
      "schools": 7487,
      "Attach": 7488,
      "Attribute": 7489,
      "Train": 7490,
      "axes": 7491,
      "swing": 7492,
      "operate": 7493,
      "definitions": 7494,
      "Prop": 7495,
      "separately": 7496,
      "pencil": 7497,
      "originally": 7498,
      "Team": 7499,
      "bookshelf": 7500,
      "patients": 7501,
      "improvement": 7502,
      "thesis": 7503,
      "representation": 7504,
      "entertain": 7505,
      "feedback": 7506,
      "conditioner": 7507,
      "Americans": 7508,
      "collabor": 7509,
      "explained": 7510,
      "pallet": 7511,
      "varies": 7512,
      "gradually": 7513,
      "Disney": 7514,
      "torque": 7515,
      "modules": 7516,
      "relaxed": 7517,
      "regardless": 7518,
      "vegetable": 7519,
      "possibility": 7520,
      "arrive": 7521,
      "shortest": 7522,
      "sprays": 7523,
      "compliments": 7524,
      "scientists": 7525,
      "hammer": 7526,
      "mistakes": 7527,
      "375": 7528,
      "Ministry": 7529,
      "challenges": 7530,
      "evaluate": 7531,
      "husband": 7532,
      "-------": 7533,
      "nails": 7534,
      "aspects": 7535,
      "toothpaste": 7536,
      "drama": 7537,
      "intimid": 7538,
      "frustration": 7539,
      "distribution": 7540,
      "attractions": 7541,
      "component": 7542,
      ">>>": 7543,
      "hazards": 7544,
      "pipes": 7545,
      "injured": 7546,
      "blanket": 7547,
      "flirting": 7548,
      "Juli": 7549,
      "deduct": 7550,
      "improving": 7551,
      "understood": 7552,
      "swimming": 7553,
      "mathematics": 7554,
      "Flix": 7555,
      "enemies": 7556,
      "exploring": 7557,
      "honoree": 7558,
      "NLP": 7559,
      "inspired": 7560,
      "filename": 7561,
      "Property": 7562,
      "LinkedIn": 7563,
      "MYSQL": 7564,
      "houses": 7565,
      "Babysitting": 7566,
      "Technion": 7567,
      "códi": 7568,
      "pizza": 7569,
      "vinegar": 7570,
      "GOES": 7571,
      "Occurs": 7572,
      "CVB3": 7573,
      "FUNCNAME": 7574,
      "UPDATE": 7575,
      "%)": 7576,
      "'{": 7577,
      "([": 7578,
      "-%": 7579,
      ".[": 7580,
      "/.": 7581,
      "43": 7582,
      "69": 7583,
      "75": 7584,
      "77": 7585,
      "86": 7586,
      "94": 7587,
      "=&": 7588,
      "Aut": 7589,
      "Bri": 7590,
      "Cent": 7591,
      "Cup": 7592,
      "Cry": 7593,
      "Date": 7594,
      "Dim": 7595,
      "Equal": 7596,
      "Food": 7597,
      "Gl": 7598,
      "Gently": 7599,
      "HO": 7600,
      "Hu": 7601,
      "Hang": 7602,
      "Jack": 7603,
      "Life": 7604,
      "Mi": 7605,
      "Multi": 7606,
      "NP": 7607,
      "NT": 7608,
      "Ohio": 7609,
      "Pot": 7610,
      "Pass": 7611,
      "Phi": 7612,
      "Ru": 7613,
      "Rom": 7614,
      "Russian": 7615,
      "Sit": 7616,
      "Sect": 7617,
      "Sky": 7618,
      "Too": 7619,
      "Taking": 7620,
      "TSA": 7621,
      "Vo": 7622,
      "WH": 7623,
      "XUS": 7624,
      "XML": 7625,
      "_script": 7626,
      "bies": 7627,
      "bund": 7628,
      "cf": 7629,
      "dated": 7630,
      "ell": 7631,
      "elegant": 7632,
      "fts": 7633,
      "farm": 7634,
      "gly": 7635,
      "gate": 7636,
      "hou": 7637,
      "hate": 7638,
      "hatt": 7639,
      "ius": 7640,
      "java": 7641,
      "kHz": 7642,
      "lu": 7643,
      "mild": 7644,
      "mier": 7645,
      "pile": 7646,
      "pher": 7647,
      "sam": 7648,
      "sport": 7649,
      "tation": 7650,
      "tact": 7651,
      "tles": 7652,
      "uary": 7653,
      "vend": 7654,
      "waves": 7655,
      "{}": 7656,
      "ári": 7657,
      "inject": 7658,
      "inspect": 7659,
      "theta": 7660,
      "oul": 7661,
      "rebase": 7662,
      "onna": 7663,
      "onload": 7664,
      "orn": 7665,
      "tot": 7666,
      "enable": 7667,
      "enroll": 7668,
      "stan": 7669,
      "leaf": 7670,
      "is_": 7671,
      "arbit": 7672,
      "semit": 7673,
      "secu": 7674,
      "chart": 7675,
      "beach": 7676,
      "het": 7677,
      "forcing": 7678,
      "lli": 7679,
      "defect": 7680,
      "entries": 7681,
      "arer": 7682,
      "cean": 7683,
      "ading": 7684,
      "aded": 7685,
      "utility": 7686,
      "susp": 7687,
      "whis": 7688,
      "ifth": 7689,
      "unlike": 7690,
      "shots": 7691,
      "expr": 7692,
      "exceed": 7693,
      "external": 7694,
      "consuming": 7695,
      "consumption": 7696,
      "consumer": 7697,
      "mais": 7698,
      "magn": 7699,
      "como": 7700,
      "comed": 7701,
      "coordin": 7702,
      "weird": 7703,
      "poop": 7704,
      "trap": 7705,
      "trous": 7706,
      "frames": 7707,
      "umes": 7708,
      "improved": 7709,
      "worried": 7710,
      "Thread": 7711,
      "agre": 7712,
      "agger": 7713,
      "diame": 7714,
      "renowned": 7715,
      "clou": 7716,
      "bolt": 7717,
      "opens": 7718,
      "gray": 7719,
      "grows": 7720,
      "strap": 7721,
      "godd": 7722,
      "creature": 7723,
      "makeup": 7724,
      "nodes": 7725,
      "preferences": 7726,
      "intend": 7727,
      "workout": 7728,
      "overtime": 7729,
      "hasht": 7730,
      "partitions": 7731,
      "spelled": 7732,
      "spacing": 7733,
      "disco": 7734,
      "discover": 7735,
      "brows": 7736,
      "hose": 7737,
      "earn": 7738,
      "forever": 7739,
      "adds": 7740,
      "puts": 7741,
      "thanks": 7742,
      "watermark": 7743,
      "commits": 7744,
      "estim": 7745,
      "-----": 7746,
      "backward": 7747,
      "backwards": 7748,
      "paring": 7749,
      "colour": 7750,
      "func": 7751,
      "Chateval": 7752,
      "timer": 7753,
      "personally": 7754,
      "everybody": 7755,
      "childcare": 7756,
      "median": 7757,
      "classmates": 7758,
      "centered": 7759,
      "Confirm": 7760,
      "vised": 7761,
      "drip": 7762,
      "cute": 7763,
      "engers": 7764,
      "tables": 7765,
      "icted": 7766,
      "atted": 7767,
      "logic": 7768,
      "callable": 7769,
      "guitar": 7770,
      "variations": 7771,
      "objective": 7772,
      "legit": 7773,
      "Excel": 7774,
      "instanti": 7775,
      "institution": 7776,
      "jokes": 7777,
      "capital": 7778,
      "venture": 7779,
      "attering": 7780,
      "armpits": 7781,
      "Unless": 7782,
      "transport": 7783,
      "emphas": 7784,
      "freezing": 7785,
      "haling": 7786,
      "grew": 7787,
      "Determine": 7788,
      "localhost": 7789,
      "Comput": 7790,
      "identified": 7791,
      "filters": 7792,
      "elev": 7793,
      "arraySlice": 7794,
      "layoff": 7795,
      "lazy": 7796,
      "equally": 7797,
      "coverage": 7798,
      "sales": 7799,
      "Prot": 7800,
      "Secret": 7801,
      "loading": 7802,
      "folders": 7803,
      "boxing": 7804,
      "sleepo": 7805,
      "Shift": 7806,
      "mediate": 7807,
      "accessories": 7808,
      "monthly": 7809,
      "penalty": 7810,
      "selecting": 7811,
      "firmly": 7812,
      "constitution": 7813,
      "Preheat": 7814,
      "thinks": 7815,
      "weights": 7816,
      "graphs": 7817,
      "cuis": 7818,
      "viation": 7819,
      "copyright": 7820,
      "casting": 7821,
      "spectrum": 7822,
      "griev": 7823,
      "profession": 7824,
      "humanity": 7825,
      "float": 7826,
      "relief": 7827,
      "recording": 7828,
      "breaths": 7829,
      "spoke": 7830,
      "measurements": 7831,
      "welcome": 7832,
      "dependent": 7833,
      "darker": 7834,
      "burns": 7835,
      "harsh": 7836,
      "straightforward": 7837,
      "jewel": 7838,
      "snip": 7839,
      "approaches": 7840,
      "counterclockwise": 7841,
      "inputs": 7842,
      "Poke": 7843,
      "Pointer": 7844,
      "impul": 7845,
      "affects": 7846,
      "synchron": 7847,
      "graduate": 7848,
      "claimed": 7849,
      "birds": 7850,
      "scheduled": 7851,
      "blocks": 7852,
      "zzy": 7853,
      "speakers": 7854,
      "subjects": 7855,
      "describe": 7856,
      "assignments": 7857,
      "scenario": 7858,
      "attempts": 7859,
      "libraries": 7860,
      "Collect": 7861,
      "dimin": 7862,
      "alien": 7863,
      "qualified": 7864,
      "Files": 7865,
      "laptop": 7866,
      "residents": 7867,
      "Manhatt": 7868,
      "propag": 7869,
      "switching": 7870,
      "arrived": 7871,
      "shorts": 7872,
      "Examples": 7873,
      "expert": 7874,
      "experiment": 7875,
      "Everything": 7876,
      "critic": 7877,
      "cowork": 7878,
      "assistance": 7879,
      "Query": 7880,
      "Boost": 7881,
      "General": 7882,
      "Fundamental": 7883,
      "hitting": 7884,
      "Speak": 7885,
      "gaze": 7886,
      "Warning": 7887,
      "husk": 7888,
      "celebrate": 7889,
      "UTF": 7890,
      "IndexPath": 7891,
      "radiation": 7892,
      "radius": 7893,
      "mounted": 7894,
      "policies": 7895,
      "minimize": 7896,
      "surrogacy": 7897,
      "extension": 7898,
      "polynom": 7899,
      "NET": 7900,
      "NEXUS": 7901,
      "yogurt": 7902,
      "North": 7903,
      "Paris": 7904,
      "onym": 7905,
      "threatening": 7906,
      "dollars": 7907,
      "praise": 7908,
      "industry": 7909,
      "industrial": 7910,
      "principal": 7911,
      "preparation": 7912,
      "behaviors": 7913,
      "Scroll": 7914,
      "dreams": 7915,
      "civili": 7916,
      "MVP": 7917,
      "thousands": 7918,
      "golden": 7919,
      "enhance": 7920,
      "SOAP": 7921,
      "iPad": 7922,
      "Court": 7923,
      "Copy": 7924,
      "sponge": 7925,
      "atmosphere": 7926,
      "moisturi": 7927,
      "diamonds": 7928,
      "Explorer": 7929,
      "Golden": 7930,
      "Western": 7931,
      "Invite": 7932,
      "esteem": 7933,
      "reflexão": 7934,
      "Elijah": 7935,
      "simplif": 7936,
      "Ctrl": 7937,
      "commercial": 7938,
      "código": 7939,
      "secured": 7940,
      "goddess": 7941,
      "hashtag": 7942,
      "Manhattan": 7943,
      "coworkers": 7944,
      "!=": 7945,
      "({": 7946,
      ")\\": 7947,
      ")$.": 7948,
      "*/": 7949,
      "+--------": 7950,
      ".```": 7951,
      "300": 7952,
      "72": 7953,
      ":%": 7954,
      ";)": 7955,
      "<=": 7956,
      "=\\": 7957,
      "Book": 7958,
      "Count": 7959,
      "Close": 7960,
      "Catering": 7961,
      "DA": 7962,
      "DR": 7963,
      "Free": 7964,
      "Fix": 7965,
      "Field": 7966,
      "GP": 7967,
      "Great": 7968,
      "Greg": 7969,
      "Hi": 7970,
      "Hor": 7971,
      "INS": 7972,
      "Jon": 7973,
      "Ko": 7974,
      "Kent": 7975,
      "Krav": 7976,
      "L2": 7977,
      "LI": 7978,
      "Love": 7979,
      "Limit": 7980,
      "Mor": 7981,
      "Mot": 7982,
      "Nav": 7983,
      "Ori": 7984,
      "Page": 7985,
      "Park": 7986,
      "Rather": 7987,
      "Redu": 7988,
      "Sour": 7989,
      "Sol": 7990,
      "Schoo": 7991,
      "SIM": 7992,
      "Stock": 7993,
      "UP": 7994,
      "User": 7995,
      "Virt": 7996,
      "WY": 7997,
      "X_": 7998,
      "]:": 7999,
      "_EM": 8000,
      "aise": 8001,
      "bind": 8002,
      "cave": 8003,
      "dot": 8004,
      "dge": 8005,
      "iel": 8006,
      "jQuery": 8007,
      "ku": 8008,
      "mn": 8009,
      "nations": 8010,
      "oz": 8011,
      "ogue": 8012,
      "pq": 8013,
      "pend": 8014,
      "pically": 8015,
      "rd": 8016,
      "rack": 8017,
      "rament": 8018,
      "sis": 8019,
      "saving": 8020,
      "south": 8021,
      "swelling": 8022,
      "vas": 8023,
      "vict": 8024,
      "wat": 8025,
      "wit": 8026,
      "whel": 8027,
      "xml": 8028,
      "||": 8029,
      "ined": 8030,
      "inity": 8031,
      "resemble": 8032,
      "retirement": 8033,
      "antee": 8034,
      "anonym": 8035,
      "errors": 8036,
      "attribut": 8037,
      "encoding": 8038,
      "stab": 8039,
      "alarm": 8040,
      "itiner": 8041,
      "isl": 8042,
      "isol": 8043,
      "escal": 8044,
      "selection": 8045,
      "icts": 8046,
      "icop": 8047,
      "icited": 8048,
      "asse": 8049,
      "assumed": 8050,
      "vector": 8051,
      "behave": 8052,
      "beans": 8053,
      "bearing": 8054,
      "forks": 8055,
      "deb": 8056,
      "defe": 8057,
      "delet": 8058,
      "decent": 8059,
      "meg": 8060,
      "meets": 8061,
      "geo": 8062,
      "rocket": 8063,
      "uting": 8064,
      "utter": 8065,
      "aband": 8066,
      "abuse": 8067,
      "suff": 8068,
      "sustain": 8069,
      "loving": 8070,
      "whites": 8071,
      "ria": 8072,
      "rip": 8073,
      "riff": 8074,
      "canned": 8075,
      "```'": 8076,
      "```?": 8077,
      "sistema": 8078,
      "unci": 8079,
      "unsol": 8080,
      "uncertain": 8081,
      "undefined": 8082,
      "shake": 8083,
      "tied": 8084,
      "fel": 8085,
      "fetch": 8086,
      "outines": 8087,
      "exces": 8088,
      "consent": 8089,
      "urban": 8090,
      "dore": 8091,
      "doctors": 8092,
      "plaid": 8093,
      "plots": 8094,
      "tric": 8095,
      "ulating": 8096,
      "ultimately": 8097,
      "tear": 8098,
      "teens": 8099,
      "persist": 8100,
      "umped": 8101,
      "umsem": 8102,
      "imal": 8103,
      "Those": 8104,
      "byte": 8105,
      "ableView": 8106,
      "dian": 8107,
      "diagr": 8108,
      "ette": 8109,
      "emes": 8110,
      "emiss": 8111,
      "ortal": 8112,
      "Invest": 8113,
      "itement": 8114,
      "aching": 8115,
      "stract": 8116,
      "bled": 8117,
      "igen": 8118,
      "igating": 8119,
      "prevents": 8120,
      "angers": 8121,
      "inton": 8122,
      "worked": 8123,
      "overwhel": 8124,
      "offset": 8125,
      "spare": 8126,
      "spine": 8127,
      "cakes": 8128,
      "caution": 8129,
      "diseases": 8130,
      "brave": 8131,
      "airports": 8132,
      "correlation": 8133,
      "coroutines": 8134,
      "ipation": 8135,
      "newsp": 8136,
      "thrust": 8137,
      "blic": 8138,
      "blend": 8139,
      "serves": 8140,
      "Forms": 8141,
      "pted": 8142,
      "phant": 8143,
      "awk": 8144,
      "colon": 8145,
      "genes": 8146,
      "genuine": 8147,
      "goods": 8148,
      "Church": 8149,
      "lowest": 8150,
      "extends": 8151,
      "drum": 8152,
      "managing": 8153,
      "suring": 8154,
      "cheer": 8155,
      "intermediate": 8156,
      "ifications": 8157,
      "talks": 8158,
      "Today": 8159,
      "subtract": 8160,
      "drilling": 8161,
      "engines": 8162,
      "msg": 8163,
      "versal": 8164,
      "regist": 8165,
      "cardio": 8166,
      "Begin": 8167,
      "ashing": 8168,
      "charged": 8169,
      "keywords": 8170,
      "integers": 8171,
      "fering": 8172,
      "volt": 8173,
      "plications": 8174,
      "Exper": 8175,
      "2010": 8176,
      "2015": 8177,
      "ulties": 8178,
      "lasts": 8179,
      "production": 8180,
      "produces": 8181,
      "depression": 8182,
      "cleaners": 8183,
      "bitter": 8184,
      "hourly": 8185,
      "checks": 8186,
      "powdered": 8187,
      "passwords": 8188,
      "bikes": 8189,
      "distort": 8190,
      "structures": 8191,
      "scary": 8192,
      "locate": 8193,
      "controlling": 8194,
      "filt": 8195,
      "containers": 8196,
      "laying": 8197,
      "basics": 8198,
      "developers": 8199,
      "Adding": 8200,
      "avoiding": 8201,
      "equation": 8202,
      "lingu": 8203,
      "locks": 8204,
      "printing": 8205,
      "footnote": 8206,
      "Getting": 8207,
      "axis": 8208,
      "corners": 8209,
      "teachers": 8210,
      "panel": 8211,
      "protest": 8212,
      "refuel": 8213,
      "difficulties": 8214,
      "virus": 8215,
      "viruses": 8216,
      "tails": 8217,
      "Canadian": 8218,
      "conversion": 8219,
      "curi": 8220,
      "packages": 8221,
      "respective": 8222,
      "grip": 8223,
      "floating": 8224,
      "Lean": 8225,
      "Service": 8226,
      "emails": 8227,
      "matters": 8228,
      "matplotlib": 8229,
      "],[": 8230,
      "silent": 8231,
      "forcement": 8232,
      "preferably": 8233,
      "speeds": 8234,
      "laser": 8235,
      "missed": 8236,
      "privacy": 8237,
      "Typically": 8238,
      "username": 8239,
      "laws": 8240,
      "scales": 8241,
      "snap": 8242,
      "exec": 8243,
      "Adv": 8244,
      "collap": 8245,
      "flexi": 8246,
      "tightly": 8247,
      "grades": 8248,
      "Phys": 8249,
      "radio": 8250,
      "animated": 8251,
      "indicator": 8252,
      "formatting": 8253,
      "seriously": 8254,
      "punct": 8255,
      "punish": 8256,
      "speaker": 8257,
      "automatic": 8258,
      "excuse": 8259,
      "excitement": 8260,
      "banana": 8261,
      "assigned": 8262,
      "mirrors": 8263,
      "resistant": 8264,
      "optimal": 8265,
      "Roll": 8266,
      "garlic": 8267,
      "politics": 8268,
      "AIL": 8269,
      "tricky": 8270,
      "successfully": 8271,
      "smoothly": 8272,
      "lung": 8273,
      "mesmo": 8274,
      "denim": 8275,
      "crucial": 8276,
      "survival": 8277,
      "S_t": 8278,
      "infant": 8279,
      "infty": 8280,
      "soapy": 8281,
      "officials": 8282,
      "Repair": 8283,
      "establishment": 8284,
      "hungry": 8285,
      "hammo": 8286,
      "economy": 8287,
      "lnk": 8288,
      "prompted": 8289,
      "chords": 8290,
      "Luke": 8291,
      "esterday": 8292,
      "wonderful": 8293,
      "patho": 8294,
      "pronunci": 8295,
      "surrogate": 8296,
      "duties": 8297,
      "church": 8298,
      "technically": 8299,
      "Drive": 8300,
      "theoretical": 8301,
      "extensive": 8302,
      "fruits": 8303,
      "surprising": 8304,
      "waste": 8305,
      "Serialize": 8306,
      "Introdu": 8307,
      "Charleston": 8308,
      "barely": 8309,
      "blankets": 8310,
      "numerous": 8311,
      "detect": 8312,
      "contribute": 8313,
      "administr": 8314,
      "civil": 8315,
      "Small": 8316,
      "pixels": 8317,
      "pirates": 8318,
      "absorb": 8319,
      "revealed": 8320,
      "ImageView": 8321,
      "InputStream": 8322,
      "destroyed": 8323,
      "delicious": 8324,
      "Guideline": 8325,
      "accidentally": 8326,
      "NullPointer": 8327,
      "orthodon": 8328,
      "staple": 8329,
      "pursue": 8330,
      "alphabet": 8331,
      "crochet": 8332,
      "garden": 8333,
      "thighs": 8334,
      "episodes": 8335,
      "disposable": 8336,
      "puzzle": 8337,
      "antibiotics": 8338,
      "migration": 8339,
      "territory": 8340,
      "genetic": 8341,
      "Safe": 8342,
      "spider": 8343,
      "lightenment": 8344,
      "Constitution": 8345,
      "receipt": 8346,
      "inspiration": 8347,
      "beverages": 8348,
      "Furthermore": 8349,
      "Slide": 8350,
      "feminine": 8351,
      "discipl": 8352,
      "Autumn": 8353,
      "Sectumsem": 8354,
      "sampling": 8355,
      "arbitr": 8356,
      "trousers": 8357,
      "legitimate": 8358,
      "sleepover": 8359,
      "polynomial": 8360,
      "INSERT": 8361,
      "_EMAIL": 8362,
      "unsolicited": 8363,
      "emissions": 8364,
      "NullPointerException": 8365,
      "Sectumsempra": 8366,
      "!)": 8367,
      "!”": 8368,
      "$)": 8369,
      "%.": 8370,
      "+\\": 8371,
      ".).": 8372,
      "/*": 8373,
      "/\\": 8374,
      "1x": 8375,
      "44": 8376,
      "Av": 8377,
      "Ama": 8378,
      "Aug": 8379,
      "Again": 8380,
      "Bob": 8381,
      "Come": 8382,
      "Cast": 8383,
      "Couch": 8384,
      "Cla": 8385,
      "Clip": 8386,
      "Cali": 8387,
      "Dif": 8388,
      "Due": 8389,
      "Dish": 8390,
      "Dumble": 8391,
      "Est": 8392,
      "FI": 8393,
      "Fact": 8394,
      "Fig": 8395,
      "GM": 8396,
      "Gal": 8397,
      "Git": 8398,
      "GFC": 8399,
      "IG": 8400,
      "Jam": 8401,
      "Komb": 8402,
      "Kotlin": 8403,
      "LR": 8404,
      "Lad": 8405,
      "Locate": 8406,
      "MP": 8407,
      "Mas": 8408,
      "Mach": 8409,
      "Match": 8410,
      "Mortal": 8411,
      "Non": 8412,
      "N63": 8413,
      "Photo": 8414,
      "Rome": 8415,
      "Rain": 8416,
      "Rest": 8417,
      "SD": 8418,
      "Sam": 8419,
      "Sty": 8420,
      "SAT": 8421,
      "Twist": 8422,
      "UIT": 8423,
      "VAL": 8424,
      "]);": 8425,
      "aque": 8426,
      "aign": 8427,
      "bp": 8428,
      "bould": 8429,
      "batch": 8430,
      "bridge": 8431,
      "dp": 8432,
      "een": 8433,
      "fault": 8434,
      "gall": 8435,
      "gust": 8436,
      "hack": 8437,
      "hig": 8438,
      "hits": 8439,
      "hats": 8440,
      "lor": 8441,
      "mé": 8442,
      "mble": 8443,
      "mph": 8444,
      "mult": 8445,
      "o1": 8446,
      "ov": 8447,
      "ost": 8448,
      "osk": 8449,
      "pig": 8450,
      "pill": 8451,
      "phas": 8452,
      "pins": 8453,
      "rail": 8454,
      "scar": 8455,
      "stood": 8456,
      "sderivable": 8457,
      "tou": 8458,
      "tro": 8459,
      "tut": 8460,
      "ugs": 8461,
      "vin": 8462,
      "ya": 8463,
      "thy": 8464,
      "inhale": 8465,
      "outer": 8466,
      "recall": 8467,
      "recept": 8468,
      "repet": 8469,
      "ann": 8470,
      "ativity": 8471,
      "orney": 8472,
      "toes": 8473,
      "todo": 8474,
      "todos": 8475,
      "envelo": 8476,
      "encounter": 8477,
      "youth": 8478,
      "stro": 8479,
      "stressed": 8480,
      "leap": 8481,
      "leash": 8482,
      "itter": 8483,
      "itate": 8484,
      "iters": 8485,
      "itize": 8486,
      "isso": 8487,
      "arrest": 8488,
      "seeds": 8489,
      "ications": 8490,
      "iconic": 8491,
      "asc": 8492,
      "lymp": 8493,
      "herent": 8494,
      "fornia": 8495,
      "delive": 8496,
      "entit": 8497,
      "kest": 8498,
      "liber": 8499,
      "robe": 8500,
      "ador": 8501,
      "adapter": 8502,
      "adrenal": 8503,
      "abbre": 8504,
      "verify": 8505,
      "rier": 8506,
      "ifier": 8507,
      "amic": 8508,
      "shades": 8509,
      "tier": 8510,
      "examine": 8511,
      "concor": 8512,
      "concat": 8513,
      "consume": 8514,
      "ura": 8515,
      "urb": 8516,
      "docs": 8517,
      "tracking": 8518,
      "prospective": 8519,
      "noting": 8520,
      "peror": 8521,
      "peroxide": 8522,
      "useum": 8523,
      "useok": 8524,
      "usepackage": 8525,
      "restore": 8526,
      "idents": 8527,
      "impressive": 8528,
      "articles": 8529,
      "ups": 8530,
      "upcoming": 8531,
      "mentions": 8532,
      "agents": 8533,
      "agging": 8534,
      "aggres": 8535,
      "fol": 8536,
      "---": 8537,
      "dium": 8538,
      "emit": 8539,
      "rental": 8540,
      "indu": 8541,
      "elly": 8542,
      "tast": 8543,
      "gravel": 8544,
      "grasp": 8545,
      "grunge": 8546,
      "gratitude": 8547,
      "astron": 8548,
      "owns": 8549,
      "creen": 8550,
      "preced": 8551,
      "preference": 8552,
      "wrink": 8553,
      "overlap": 8554,
      "herself": 8555,
      "helicop": 8556,
      "obje": 8557,
      "dife": 8558,
      "rypt": 8559,
      "discre": 8560,
      "discour": 8561,
      "braces": 8562,
      "brackets": 8563,
      "selfish": 8564,
      "está": 8565,
      "servers": 8566,
      "readable": 8567,
      "sheer": 8568,
      "sheets": 8569,
      "settle": 8570,
      "settled": 8571,
      "flush": 8572,
      "awards": 8573,
      "handful": 8574,
      "handler": 8575,
      "letic": 8576,
      "desc": 8577,
      "desper": 8578,
      "criter": 8579,
      "closure": 8580,
      "curities": 8581,
      "curved": 8582,
      "tomatoes": 8583,
      "steam": 8584,
      "steep": 8585,
      "steamer": 8586,
      "finds": 8587,
      "dystop": 8588,
      "underwater": 8589,
      "drome": 8590,
      "manic": 8591,
      "Recogn": 8592,
      "preserve": 8593,
      "interaction": 8594,
      "ificial": 8595,
      "quotes": 8596,
      "arr1": 8597,
      "breach": 8598,
      "Token": 8599,
      "central": 8600,
      "subplot": 8601,
      "():": 8602,
      "triple": 8603,
      "trips": 8604,
      "triangle": 8605,
      "tablet": 8606,
      "verses": 8607,
      "monster": 8608,
      "regime": 8609,
      "ulture": 8610,
      "pointed": 8611,
      "typewriter": 8612,
      "Assuming": 8613,
      "attain": 8614,
      "attorney": 8615,
      "expon": 8616,
      "charges": 8617,
      "bottles": 8618,
      "otection": 8619,
      "legisl": 8620,
      "Examine": 8621,
      "heading": 8622,
      "2011": 8623,
      "ordering": 8624,
      "showed": 8625,
      "kiosk": 8626,
      "texture": 8627,
      "passion": 8628,
      "Arr": 8629,
      "grep": 8630,
      "processor": 8631,
      "Democr": 8632,
      "local_time": 8633,
      "distress": 8634,
      "structural": 8635,
      "Mode": 8636,
      "lining": 8637,
      "appealing": 8638,
      "networks": 8639,
      "cardboard": 8640,
      "198": 8641,
      "laundry": 8642,
      "quicker": 8643,
      "programmer": 8644,
      "confusion": 8645,
      "trade": 8646,
      "traits": 8647,
      "bottoms": 8648,
      "businesses": 8649,
      "summar": 8650,
      "equals": 8651,
      "Print": 8652,
      "Protection": 8653,
      "defend": 8654,
      "defense": 8655,
      "taxi": 8656,
      "Clinton": 8657,
      "locker": 8658,
      "practices": 8659,
      "reduction": 8660,
      "compute": 8661,
      "Project": 8662,
      "Sham": 8663,
      "panels": 8664,
      "weekends": 8665,
      "touched": 8666,
      "exercising": 8667,
      "designs": 8668,
      "designated": 8669,
      "fabrics": 8670,
      "similarly": 8671,
      "edule": 8672,
      "warri": 8673,
      "circul": 8674,
      "drawn": 8675,
      "draws": 8676,
      "constipation": 8677,
      "hormon": 8678,
      "ucky": 8679,
      "Organ": 8680,
      "Premier": 8681,
      "goti": 8682,
      "azer": 8683,
      "140": 8684,
      "fluff": 8685,
      "frequencies": 8686,
      "sidential": 8687,
      "respecting": 8688,
      "respectful": 8689,
      "grief": 8690,
      "bandwagon": 8691,
      "trek": 8692,
      "divided": 8693,
      "risks": 8694,
      "Server": 8695,
      "tune": 8696,
      "tufts": 8697,
      "organized": 8698,
      "2001": 8699,
      "breathable": 8700,
      "Drink": 8701,
      "figures": 8702,
      "deeply": 8703,
      "schemes": 8704,
      "spoken": 8705,
      "dresses": 8706,
      "environments": 8707,
      "pushed": 8708,
      "nias": 8709,
      "preferable": 8710,
      "bully": 8711,
      "flysw": 8712,
      "cooler": 8713,
      "initi": 8714,
      "harass": 8715,
      "enjoying": 8716,
      "Control": 8717,
      "fights": 8718,
      "committed": 8719,
      "mapsto": 8720,
      "explaining": 8721,
      "flowing": 8722,
      "emotionally": 8723,
      "primes": 8724,
      "primarily": 8725,
      "filtering": 8726,
      "CO2": 8727,
      "Islamic": 8728,
      "Describe": 8729,
      "Valhall": 8730,
      "channels": 8731,
      "attacker": 8732,
      "meaningful": 8733,
      "introduction": 8734,
      "rotation": 8735,
      "rotary": 8736,
      "declare": 8737,
      "discussion": 8738,
      "banco": 8739,
      "investment": 8740,
      "planted": 8741,
      "screwdriver": 8742,
      "optimization": 8743,
      "Road": 8744,
      "massage": 8745,
      "conductor": 8746,
      "alias": 8747,
      "removal": 8748,
      "removes": 8749,
      "resident": 8750,
      "BASH": 8751,
      "Everyone": 8752,
      "Perform": 8753,
      "Perhaps": 8754,
      "television": 8755,
      "Space": 8756,
      "climbing": 8757,
      "randomly": 8758,
      "assistant": 8759,
      "scrollTo": 8760,
      "hung": 8761,
      "}}{": 8762,
      "Feed": 8763,
      "campaign": 8764,
      "brownies": 8765,
      "dynamics": 8766,
      "translated": 8767,
      "Element": 8768,
      "north": 8769,
      "France": 8770,
      "cheesecloth": 8771,
      "husks": 8772,
      "fundamentalism": 8773,
      "nuclear": 8774,
      "obviously": 8775,
      "hobbies": 8776,
      "surrogates": 8777,
      "instantly": 8778,
      "Transfer": 8779,
      "modify": 8780,
      "Regular": 8781,
      "lessons": 8782,
      "surprise": 8783,
      "medicine": 8784,
      "warnings": 8785,
      "appreciated": 8786,
      "dramatically": 8787,
      "battery": 8788,
      "batteries": 8789,
      "reincar": 8790,
      "abytes": 8791,
      "frustrated": 8792,
      "Arabic": 8793,
      "Moreover": 8794,
      "motivation": 8795,
      "Titans": 8796,
      "interpretation": 8797,
      "electricity": 8798,
      "Schedule": 8799,
      "crossing": 8800,
      "concepts": 8801,
      "guarantee": 8802,
      "Business": 8803,
      "Famili": 8804,
      "Number": 8805,
      "orientation": 8806,
      "carriage": 8807,
      "crowd": 8808,
      "complimentary": 8809,
      "hundreds": 8810,
      "MVC": 8811,
      "Toronto": 8812,
      "pixel": 8813,
      "gravity": 8814,
      "sacrament": 8815,
      "intentions": 8816,
      "authentication": 8817,
      "HTML": 8818,
      "galax": 8819,
      "retrieve": 8820,
      "Singleton": 8821,
      "repeatedly": 8822,
      "cabin": 8823,
      "scheme": 8824,
      "terrible": 8825,
      "polite": 8826,
      "History": 8827,
      "Jobs": 8828,
      "rapid": 8829,
      "cherry": 8830,
      "apologize": 8831,
      "layout": 8832,
      "substitute": 8833,
      "invented": 8834,
      "intuitive": 8835,
      "Exercise": 8836,
      "babysitters": 8837,
      "Linux": 8838,
      "domestic": 8839,
      "permits": 8840,
      "Profess": 8841,
      "Meanwhile": 8842,
      "British": 8843,
      "Daniel": 8844,
      "Error": 8845,
      "pyramid": 8846,
      "Article": 8847,
      "slackline": 8848,
      "announce": 8849,
      "MYSQL_": 8850,
      "diameter": 8851,
      "cuisine": 8852,
      "Kohn": 8853,
      "itinerary": 8854,
      "abandon": 8855,
      "flexibility": 8856,
      "pronunciation": 8857,
      "Couchsurfing": 8858,
      "California": 8859,
      "Dumbledore": 8860,
      "Kombat": 8861,
      "N63Y": 8862,
      "UITableView": 8863,
      "VALUE": 8864,
      "highest": 8865,
      "delivered": 8866,
      "concordance": 8867,
      "Valhalla": 8868,
      "BASH_": 8869,
      "\"/": 8870,
      ")\"": 8871,
      ")^": 8872,
      "*)": 8873,
      ",\\": 8874,
      "-\\": 8875,
      ".'": 8876,
      "01": 8877,
      "250": 8878,
      "59": 8879,
      "512": 8880,
      "68": 8881,
      ";:": 8882,
      "Aim": 8883,
      "Action": 8884,
      "Amar": 8885,
      "Alex": 8886,
      "Asia": 8887,
      "BO": 8888,
      "Br": 8889,
      "Based": 8890,
      "Cit": 8891,
      "Db": 8892,
      "Ef": 8893,
      "Edu": 8894,
      "Email": 8895,
      "Especially": 8896,
      "F_": 8897,
      "Fu": 8898,
      "Fil": 8899,
      "Gou": 8900,
      "GIT": 8901,
      "Ham": 8902,
      "Ice": 8903,
      "Iter": 8904,
      "Jan": 8905,
      "Ku": 8906,
      "MD": 8907,
      "Mex": 8908,
      "Mass": 8909,
      "Mary": 8910,
      "Math": 8911,
      "Miss": 8912,
      "MHz": 8913,
      "Nat": 8914,
      "OST": 8915,
      "Pair": 8916,
      "Pix": 8917,
      "Person": 8918,
      "Quran": 8919,
      "RF": 8920,
      "RT": 8921,
      "Right": 8922,
      "Sk": 8923,
      "Son": 8924,
      "Spl": 8925,
      "Sum": 8926,
      "Sil": 8927,
      "Sort": 8928,
      "Sleep": 8929,
      "T1": 8930,
      "Tur": 8931,
      "Tie": 8932,
      "UV": 8933,
      "Us": 8934,
      "Ubun": 8935,
      "Ven": 8936,
      "Wars": 8937,
      "Year": 8938,
      "]```": 8939,
      "bis": 8940,
      "bli": 8941,
      "bird": 8942,
      "cous": 8943,
      "citing": 8944,
      "das": 8945,
      "dow": 8946,
      "ek": 8947,
      "eigen": 8948,
      "fu": 8949,
      "font": 8950,
      "fires": 8951,
      "hers": 8952,
      "honey": 8953,
      "iam": 8954,
      "iers": 8955,
      "jumping": 8956,
      "lan": 8957,
      "lens": 8958,
      "latter": 8959,
      "lmos": 8960,
      "mt": 8961,
      "ocean": 8962,
      "pier": 8963,
      "pads": 8964,
      "san": 8965,
      "slo": 8966,
      "sack": 8967,
      "snow": 8968,
      "sits": 8969,
      "tin": 8970,
      "tion": 8971,
      "tam": 8972,
      "twee": 8973,
      "tuck": 8974,
      "tanks": 8975,
      "uous": 8976,
      "vital": 8977,
      "vState": 8978,
      "wage": 8979,
      "wrest": 8980,
      "warr": 8981,
      "ype": 8982,
      "zip": 8983,
      "{'": 8984,
      "}{\\": 8985,
      "ºC": 8986,
      "ºF": 8987,
      "ça": 8988,
      "ções": 8989,
      "élmos": 8990,
      "”,": 8991,
      "thro": 8992,
      "ini": 8993,
      "inqu": 8994,
      "inction": 8995,
      "insist": 8996,
      "insight": 8997,
      "inhabit": 8998,
      "resh": 8999,
      "reuse": 9000,
      "remin": 9001,
      "era": 9002,
      "orian": 9003,
      "toll": 9004,
      "stones": 9005,
      "alous": 9006,
      "lef": 9007,
      "isher": 9008,
      "sees": 9009,
      "selling": 9010,
      "icial": 9011,
      "ician": 9012,
      "editing": 9013,
      "asm": 9014,
      "assuming": 9015,
      "chun": 9016,
      "beast": 9017,
      "healing": 9018,
      "wipers": 9019,
      "acry": 9020,
      "debt": 9021,
      "delete": 9022,
      "mester": 9023,
      "merely": 9024,
      "keh": 9025,
      "liélmos": 9026,
      "rogen": 9027,
      "ceiling": 9028,
      "adays": 9029,
      "uten": 9030,
      "ctures": 9031,
      "abusive": 9032,
      "versus": 9033,
      "logo": 9034,
      "rif": 9035,
      "rists": 9036,
      "api": 9037,
      "ama": 9038,
      "cancer": 9039,
      "negoti": 9040,
      "```;": 9041,
      "sibility": 9042,
      "union": 9043,
      "unity": 9044,
      "unsure": 9045,
      "unix": 9046,
      "unwanted": 9047,
      "terrain": 9048,
      "sha": 9049,
      "shin": 9050,
      "shif": 9051,
      "pel": 9052,
      "soil": 9053,
      "fest": 9054,
      "outlet": 9055,
      "excus": 9056,
      "exemp": 9057,
      "consequence": 9058,
      "convention": 9059,
      "compe": 9060,
      "comma": 9061,
      "urge": 9062,
      "cock": 9063,
      "plasty": 9064,
      "quit": 9065,
      "pocket": 9066,
      "trum": 9067,
      "traps": 9068,
      "usable": 9069,
      "propos": 9070,
      "ula": 9071,
      "teles": 9072,
      "teasing": 9073,
      "useless": 9074,
      "resin": 9075,
      "resort": 9076,
      "reserve": 9077,
      "ida": 9078,
      "idal": 9079,
      "ummy": 9080,
      "immer": 9081,
      "artic": 9082,
      "Thor": 9083,
      "essay": 9084,
      "division": 9085,
      "rende": 9086,
      "dern": 9087,
      "amel": 9088,
      "clue": 9089,
      "clues": 9090,
      "cloud": 9091,
      "classe": 9092,
      "boat": 9093,
      "bored": 9094,
      "arding": 9095,
      "eping": 9096,
      "epsil": 9097,
      "cipher": 9098,
      "ief": 9099,
      "bleed": 9100,
      "formatted": 9101,
      "White": 9102,
      "prevState": 9103,
      "anges": 9104,
      "worker": 9105,
      "overly": 9106,
      "overcome": 9107,
      "portable": 9108,
      "hasn": 9109,
      "observe": 9110,
      "myster": 9111,
      "wanting": 9112,
      "disable": 9113,
      "disgust": 9114,
      "appy": 9115,
      "airline": 9116,
      "ancest": 9117,
      "izable": 9118,
      "cord": 9119,
      "correspond": 9120,
      "earrings": 9121,
      "calloc": 9122,
      "newArray": 9123,
      "foreach": 9124,
      "addiction": 9125,
      "commission": 9126,
      "orses": 9127,
      "blur": 9128,
      "itional": 9129,
      "backend": 9130,
      "backpack": 9131,
      "set_": 9132,
      "flare": 9133,
      "parse": 9134,
      "deser": 9135,
      "00s": 9136,
      "craw": 9137,
      "closet": 9138,
      "currency": 9139,
      "clever": 9140,
      "counting": 9141,
      "inkle": 9142,
      "valves": 9143,
      "lightweight": 9144,
      "buff": 9145,
      "duct": 9146,
      "Chic": 9147,
      "Chapter": 9148,
      "Chuseok": 9149,
      "ski": 9150,
      "steel": 9151,
      "stered": 9152,
      "mush": 9153,
      "compil": 9154,
      "compile": 9155,
      "aka": 9156,
      "hike": 9157,
      "requiring": 9158,
      "Real": 9159,
      "pressures": 9160,
      "interface": 9161,
      "arr2": 9162,
      "breast": 9163,
      "signature": 9164,
      "classroom": 9165,
      "cuss": 9166,
      "memor": 9167,
      "Consult": 9168,
      "visa": 9169,
      "visited": 9170,
      "subpo": 9171,
      "submission": 9172,
      "()```.": 9173,
      "trial": 9174,
      "triangles": 9175,
      "suppor": 9176,
      "monitor": 9177,
      "monsters": 9178,
      "proven": 9179,
      "caring": 9180,
      "alloween": 9181,
      "homework": 9182,
      "planes": 9183,
      "charity": 9184,
      "logging": 9185,
      "runtime": 9186,
      "integr": 9187,
      "Soci": 9188,
      "variants": 9189,
      "queens": 9190,
      "ponents": 9191,
      "kien": 9192,
      "directories": 9193,
      "tonight": 9194,
      "approval": 9195,
      "reality": 9196,
      "passage": 9197,
      "greens": 9198,
      "hotels": 9199,
      "structured": 9200,
      "baggy": 9201,
      "lined": 9202,
      "screens": 9203,
      "appeared": 9204,
      "bowls": 9205,
      "damp": 9206,
      "confusing": 9207,
      "fitting": 9208,
      "fitness": 9209,
      "colorful": 9210,
      "salad": 9211,
      "Prince": 9212,
      "buildings": 9213,
      "beginners": 9214,
      "reaches": 9215,
      "Attack": 9216,
      "Travel": 9217,
      "continues": 9218,
      "folding": 9219,
      "lengths": 9220,
      "sleeve": 9221,
      "issued": 9222,
      "posting": 9223,
      "Shoujo": 9224,
      "weekly": 9225,
      "warmer": 9226,
      "positioned": 9227,
      "physics": 9228,
      "circles": 9229,
      "halfway": 9230,
      "Canada": 9231,
      "picks": 9232,
      "meetings": 9233,
      "mploy": 9234,
      "weighted": 9235,
      "broiler": 9236,
      "romag": 9237,
      "measures": 9238,
      "viate": 9239,
      "vibr": 9240,
      "alongside": 9241,
      "casts": 9242,
      "bandage": 9243,
      "involving": 9244,
      "2005": 9245,
      "reliable": 9246,
      "oxid": 9247,
      "sprain": 9248,
      "viously": 9249,
      "USA": 9250,
      "washed": 9251,
      "washcloth": 9252,
      "Allah": 9253,
      "indexPath": 9254,
      "patience": 9255,
      "scrape": 9256,
      "expressions": 9257,
      "CoV": 9258,
      "patterned": 9259,
      "privile": 9260,
      "strongly": 9261,
      "lawful": 9262,
      "sunglasses": 9263,
      "Controller": 9264,
      "Adjust": 9265,
      "html": 9266,
      "counterbalance": 9267,
      "briquet": 9268,
      "Justice": 9269,
      "boundary": 9270,
      "requested": 9271,
      "pale": 9272,
      "insects": 9273,
      "insecurities": 9274,
      "displays": 9275,
      "agonist": 9276,
      "Discuss": 9277,
      "torso": 9278,
      "hurting": 9279,
      "introducing": 9280,
      "rotating": 9281,
      "builtin": 9282,
      "throwing": 9283,
      "billion": 9284,
      "copes": 9285,
      "audio": 9286,
      "exception": 9287,
      "ClassName": 9288,
      "technological": 9289,
      "Roy": 9290,
      "thicker": 9291,
      "massive": 9292,
      "Simple": 9293,
      "agreements": 9294,
      "predic": 9295,
      "obj1": 9296,
      "unemploy": 9297,
      "adjusted": 9298,
      "priority": 9299,
      "Manage": 9300,
      "desktop": 9301,
      "supplier": 9302,
      "column_1": 9303,
      "inoplasty": 9304,
      "tracked": 9305,
      "Resist": 9306,
      "Research": 9307,
      "migrate": 9308,
      "crux": 9309,
      "eligible": 9310,
      "accuracy": 9311,
      "Carry": 9312,
      "consistency": 9313,
      "engineering": 9314,
      "Report": 9315,
      "Submit": 9316,
      "burlap": 9317,
      "deadline": 9318,
      "established": 9319,
      "Quick": 9320,
      "dialogue": 9321,
      "attraction": 9322,
      "tubes": 9323,
      "infected": 9324,
      "chairs": 9325,
      "continued": 9326,
      "candle": 9327,
      "male": 9328,
      "IME": 9329,
      "IMDb": 9330,
      "winning": 9331,
      "XXX": 9332,
      "nucle": 9333,
      "independently": 9334,
      "delays": 9335,
      "toothbrush": 9336,
      "sadness": 9337,
      "explanations": 9338,
      "electronic": 9339,
      "Humans": 9340,
      "Serializer": 9341,
      "virtually": 9342,
      "Arabica": 9343,
      "responsibilities": 9344,
      "precisely": 9345,
      "MetroBus": 9346,
      "preparing": 9347,
      "spinach": 9348,
      "occasionally": 9349,
      "Defense": 9350,
      "weapons": 9351,
      "occupation": 9352,
      "ordinary": 9353,
      "Below": 9354,
      "Curse": 9355,
      "Handler": 9356,
      "Support": 9357,
      "Install": 9358,
      "microchip": 9359,
      "analyze": 9360,
      "Basically": 9361,
      "Direct": 9362,
      "Directed": 9363,
      "Baltal": 9364,
      "trend": 9365,
      "believing": 9366,
      "belonging": 9367,
      "interpreted": 9368,
      "Else": 9369,
      "reptiles": 9370,
      "muffins": 9371,
      "villain": 9372,
      "ruler": 9373,
      "comprehensive": 9374,
      "urinate": 9375,
      "corporate": 9376,
      "crisp": 9377,
      "Eventually": 9378,
      "calipers": 9379,
      "Green": 9380,
      "ifiable": 9381,
      "vaginoplasty": 9382,
      "inherit": 9383,
      "reversed": 9384,
      "influenced": 9385,
      "Terminal": 9386,
      "absence": 9387,
      "gossip": 9388,
      "discrimination": 9389,
      "compatible": 9390,
      "Square": 9391,
      "doubt": 9392,
      "opponent": 9393,
      "Combine": 9394,
      "Committee": 9395,
      "Crystal": 9396,
      "jewelry": 9397,
      "Fundamentalism": 9398,
      "School": 9399,
      "Virtual": 9400,
      "victory": 9401,
      "attributes": 9402,
      "megabytes": 9403,
      "diagrams": 9404,
      "curious": 9405,
      "Advanced": 9406,
      "Machine": 9407,
      "phases": 9408,
      "envelope": 9409,
      "entitled": 9410,
      "flyswatter": 9411,
      "galaxy": 9412,
      "Gouliélmos": 9413,
      "GIT_": 9414,
      "Pixel": 9415,
      "Ubuntu": 9416,
      "acrylic": 9417,
      "epsilon": 9418,
      "disgusting": 9419,
      "briquettes": 9420,
      "supplierNames": 9421,
      "\"?": 9422,
      ")+": 9423,
      "){": 9424,
      "04": 9425,
      "211": 9426,
      "3rd": 9427,
      "5th": 9428,
      "74": 9429,
      "76": 9430,
      ":-": 9431,
      "<<": 9432,
      "?)": 9433,
      "AC": 9434,
      "Ak": 9435,
      "Ali": 9436,
      "Ack": 9437,
      "Apri": 9438,
      "Adam": 9439,
      "Asian": 9440,
      "BE": 9441,
      "Bes": 9442,
      "Budd": 9443,
      "Cats": 9444,
      "DD": 9445,
      "DI": 9446,
      "DS": 9447,
      "Dup": 9448,
      "Dial": 9449,
      "Eg": 9450,
      "Equ": 9451,
      "Fish": 9452,
      "False": 9453,
      "Gates": 9454,
      "Giving": 9455,
      "Hon": 9456,
      "Hal": 9457,
      "Hit": 9458,
      "Hill": 9459,
      "Ide": 9460,
      "Imag": 9461,
      "Jud": 9462,
      "LA": 9463,
      "LO": 9464,
      "Len": 9465,
      "Lun": 9466,
      "Loo": 9467,
      "Later": 9468,
      "Mc": 9469,
      "Mid": 9470,
      "March": 9471,
      "Mail": 9472,
      "Maz": 9473,
      "Nove": 9474,
      "Olymp": 9475,
      "Pac": 9476,
      "Pia": 9477,
      "Rus": 9478,
      "RGB": 9479,
      "Random": 9480,
      "SV": 9481,
      "Spr": 9482,
      "Sci": 9483,
      "Sig": 9484,
      "Scr": 9485,
      "TE": 9486,
      "TP": 9487,
      "Tot": 9488,
      "Tol": 9489,
      "VP": 9490,
      "VER": 9491,
      "WN": 9492,
      "XP": 9493,
      "Yet": 9494,
      "]}": 9495,
      "_car": 9496,
      "_thread": 9497,
      "aos": 9498,
      "bom": 9499,
      "bish": 9500,
      "bake": 9501,
      "cite": 9502,
      "cough": 9503,
      "cass": 9504,
[...]
