{
  "version": "1.0",
  "truncation": {
    "direction": "Right",
    "max_length": 128,
    "strategy": "LongestFirst",
    "stride": 0
  },
  "padding": {
    "strategy": {
      "Fixed": 128
    },
    "direction": "Right",
    "pad_to_multiple_of": null,
    "pad_id": 0,
    "pad_type_id": 0,
    "pad_token": "[PAD]"
  },
  "added_tokens": [
    {
      "id": 0,
      "content": "[PAD]",
      "single_word": false,
      "lstrip": false,
      "rstrip": false,
      "normalized": false,
      "special": true
    },
    {
      "id": 1,
      "content": "[UNK]",
      "single_word": false,
      "lstrip": false,
      "rstrip": false,
      "normalized": false,
      "special": true
    },
    {
      "id": 2,
      "content": "<|endoftext|>",
      "single_word": false,
      "lstrip": false,
      "rstrip": false,
      "normalized": false,
      "special": true
    }
  ],
  "normalizer": null,
  "pre_tokenizer": {
    "type": "Whitespace"
  },
  "post_processor": null,
  "decoder": null,
  "model": {
    "type": "BPE",
    "dropout": null,
    "unk_token": "[UNK]",
    "continuing_subword_prefix": null,
    "end_of_word_suffix": null,
    "fuse_unk": false,
    "byte_fallback": false,
    "vocab": {
      "[PAD]": 0,
      "[UNK]": 1,
      "<|endoftext|>": 2,
      "!": 3,
      "\"": 4,
      "#": 5,
      "$": 6,
      "&": 7,
      "'": 8,
      "*": 9,
      ",": 10,
      "-": 11,
      ".": 12,
      "/": 13,
      "0": 14,
      "1": 15,
      "2": 16,
      "3": 17,
      "4": 18,
      "5": 19,
      "6": 20,
      "7": 21,
      "8": 22,
      "9": 23,
      ":": 24,
      ";": 25,
      "<": 26,
      ">": 27,
      "?": 28,
      "A": 29,
      "B": 30,
      "C": 31,
      "D": 32,
      "E": 33,
      "F": 34,
      "G": 35,
      "H": 36,
      "I": 37,
      "J": 38,
      "K": 39,
      "L": 40,
      "M": 41,
      "N": 42,
      "O": 43,
      "P": 44,
      "Q": 45,
      "R": 46,
      "S": 47,
      "T": 48,
      "U": 49,
      "V": 50,
      "W": 51,
      "X": 52,
      "Y": 53,
      "Z": 54,
      "a": 55,
      "b": 56,
      "c": 57,
      "d": 58,
      "e": 59,
      "f": 60,
      "g": 61,
      "h": 62,
      "i": 63,
      "j": 64,
      "k": 65,
      "l": 66,
      "m": 67,
      "n": 68,
      "o": 69,
      "p": 70,
      "q": 71,
      "r": 72,
      "s": 73,
      "t": 74,
      "u": 75,
      "v": 76,
      "w": 77,
      "x": 78,
      "y": 79,
      "z": 80,
      "|": 81,
      "é": 82,
      "ñ": 83,
      "–": 84,
      "—": 85,
      "‘": 86,
      "’": 87,
      "“": 88,
      "”": 89,
      "…": 90,
      "🎓": 91,
      "he": 92,
      "an": 93,
      "the": 94,
      "ed": 95,
      "and": 96,
      "to": 97,
      "in": 98,
      "wa": 99,
      "re": 100,
      "it": 101,
      "ou": 102,
      "ha": 103,
      "en": 104,
      "er": 105,
      "was": 106,
      "on": 107,
      "om": 108,
      "ar": 109,
      "ing": 110,
      "is": 111,
      "The": 112,
      "id": 113,
      "il": 114,
      "sa": 115,
      "le": 116,
      "im": 117,
      "ay": 118,
      "lo": 119,
      "al": 120,
      "st": 121,
      "of": 122,
      "or": 123,
      "her": 124,
      "ir": 125,
      "th": 126,
      "ne": 127,
      "He": 128,
      "end": 129,
      "ver": 130,
      "She": 131,
      "be": 132,
      "hat": 133,
      "ut": 134,
      "ld": 135,
      "at": 136,
      "ce": 137,
      "se": 138,
      "ck": 139,
      "am": 140,
      "she": 141,
      "ex": 142,
      "ig": 143,
      "said": 144,
      "ke": 145,
      "They": 146,
      "so": 147,
      "pp": 148,
      "his": 149,
      "ow": 150,
      "ly": 151,
      "ve": 152,
      "ily": 153,
      "pl": 154,
      "day": 155,
      "ith": 156,
      "ot": 157,
      "ri": 158,
      "with": 159,
      "ked": 160,
      "un": 161,
      "ad": 162,
      "my": 163,
      "very": 164,
      "up": 165,
      "that": 166,
      "Lily": 167,
      "ome": 168,
      "we": 169,
      "as": 170,
      "ted": 171,
      "li": 172,
      "you": 173,
      "had": 174,
      "ch": 175,
      "for": 176,
      "fe": 177,
      "oft": 178,
      "mom": 179,
      "ould": 180,
      "they": 181,
      "nd": 182,
      "play": 183,
      "itt": 184,
      "ext": 185,
      "<|": 186,
      "|>": 187,
      "endoft": 188,
      "endoftext": 189,
      "es": 190,
      "all": 191,
      "tim": 192,
      "ent": 193,
      "ittle": 194,
      "happ": 195,
      "ge": 196,
      "little": 197,
      "time": 198,
      "there": 199,
      "ound": 200,
      "bo": 201,
      "go": 202,
      "wan": 203,
      "out": 204,
      "ra": 205,
      "ok": 206,
      "ther": 207,
      "ht": 208,
      "It": 209,
      "happy": 210,
      "but": 211,
      "On": 212,
      "sm": 213,
      "sh": 214,
      "do": 215,
      "big": 216,
      "ack": 217,
      "Once": 218,
      "saw": 219,
      "One": 220,
      "ry": 221,
      "ved": 222,
      "Tim": 223,
      "ro": 224,
      "ul": 225,
      "ter": 226,
      "ide": 227,
      "thing": 228,
      "riend": 229,
      "friend": 230,
      "ake": 231,
      "some": 232,
      "one": 233,
      "are": 234,
      "way": 235,
      "not": 236,
      "irl": 237,
      "upon": 238,
      "were": 239,
      "girl": 240,
      "ug": 241,
      "him": 242,
      ".\"": 243,
      "pe": 244,
      "!\"": 245,
      "ful": 246,
      "wanted": 247,
      "ho": 248,
      "od": 249,
      "could": 250,
      "el": 251,
      "car": 252,
      "hen": 253,
      "ind": 254,
      "ur": 255,
      "ag": 256,
      "smil": 257,
      "went": 258,
      "co": 259,
      "hel": 260,
      "rom": 261,
      "nam": 262,
      "et": 263,
      "Timmy": 264,
      "mo": 265,
      "de": 266,
      "did": 267,
      "ill": 268,
      "them": 269,
      "new": 270,
      "um": 271,
      "help": 272,
      "ight": 273,
      "fel": 274,
      "hed": 275,
      "But": 276,
      "named": 277,
      "side": 278,
      "me": 279,
      "their": 280,
      "Tom": 281,
      "ab": 282,
      "friends": 283,
      "par": 284,
      "loved": 285,
      "have": 286,
      "back": 287,
      "ain": 288,
      "fo": 289,
      "ic": 290,
      "ran": 291,
      "can": 292,
      "star": 293,
      "smiled": 294,
      "oug": 295,
      "?\"": 296,
      "asked": 297,
      "around": 298,
      "fun": 299,
      "felt": 300,
      "man": 301,
      "own": 302,
      "loo": 303,
      "la": 304,
      "ure": 305,
      "ame": 306,
      "ys": 307,
      "would": 308,
      "too": 309,
      "ard": 310,
      "pr": 311,
      "boy": 312,
      "looked": 313,
      "sto": 314,
      "Ben": 315,
      "ick": 316,
      "low": 317,
      "wor": 318,
      "like": 319,
      "bir": 320,
      "no": 321,
      "ong": 322,
      "tre": 323,
      "ca": 324,
      "park": 325,
      "fa": 326,
      "bird": 327,
      "started": 328,
      "gr": 329,
      "Mom": 330,
      "ited": 331,
      "op": 332,
      "see": 333,
      "make": 334,
      "gether": 335,
      "wal": 336,
      "exc": 337,
      "came": 338,
      "what": 339,
      "You": 340,
      "away": 341,
      "ade": 342,
      "ss": 343,
      "ice": 344,
      "something": 345,
      "together": 346,
      "got": 347,
      "put": 348,
      "other": 349,
      "ts": 350,
      "ud": 351,
      "oud": 352,
      "ci": 353,
      "made": 354,
      "then": 355,
      "home": 356,
      "get": 357,
      "sad": 358,
      "now": 359,
      "ally": 360,
      "found": 361,
      "dec": 362,
      "mu": 363,
      "ll": 364,
      "again": 365,
      "from": 366,
      "excited": 367,
      "qu": 368,
      "if": 369,
      "pped": 370,
      "when": 371,
      "who": 372,
      "sp": 373,
      "look": 374,
      "king": 375,
      "br": 376,
      "ie": 377,
      "scar": 378,
      "playing": 379,
      ",\"": 380,
      "ep": 381,
      "ried": 382,
      "by": 383,
      "ought": 384,
      "ny": 385,
      "good": 386,
      "ided": 387,
      "decided": 388,
      "udd": 389,
      "ous": 390,
      "spe": 391,
      "ach": 392,
      "every": 393,
      "want": 394,
      "use": 395,
      "mommy": 396,
      "down": 397,
      "ways": 398,
      "ave": 399,
      "more": 400,
      "things": 401,
      "na": 402,
      "ust": 403,
      "jo": 404,
      "uck": 405,
      "ac": 406,
      "didn": 407,
      "always": 408,
      "wo": 409,
      "hug": 410,
      "than": 411,
      "har": 412,
      "der": 413,
      "ate": 414,
      "ouse": 415,
      "scared": 416,
      "outside": 417,
      "old": 418,
      "When": 419,
      "So": 420,
      "ax": 421,
      "Jo": 422,
      "bb": 423,
      "care": 424,
      "find": 425,
      "feel": 426,
      "ant": 427,
      "take": 428,
      "udden": 429,
      "Sam": 430,
      "us": 431,
      "ol": 432,
      "about": 433,
      "fore": 434,
      "cial": 435,
      "special": 436,
      "tree": 437,
      "liked": 438,
      "Max": 439,
      "wh": 440,
      "uddenly": 441,
      "ara": 442,
      "clo": 443,
      "ite": 444,
      "knew": 445,
      "took": 446,
      "arn": 447,
      "our": 448,
      "dad": 449,
      "here": 450,
      "ue": 451,
      "thought": 452,
      "Every": 453,
      "ened": 454,
      "Her": 455,
      "ret": 456,
      "ang": 457,
      "ma": 458,
      "ise": 459,
      "Jack": 460,
      "fter": 461,
      "never": 462,
      "your": 463,
      "much": 464,
      "says": 465,
      "toys": 466,
      "couldn": 467,
      "Sara": 468,
      "ty": 469,
      "learn": 470,
      "laug": 471,
      "dog": 472,
      "how": 473,
      "cause": 474,
      "cat": 475,
      "ear": 476,
      "Suddenly": 477,
      "ish": 478,
      "eat": 479,
      "over": 480,
      "because": 481,
      "An": 482,
      "ers": 483,
      "lf": 484,
      "any": 485,
      "sk": 486,
      "know": 487,
      "From": 488,
      "led": 489,
      "ive": 490,
      "into": 491,
      "unt": 492,
      "room": 493,
      "sun": 494,
      "house": 495,
      "ged": 496,
      "ven": 497,
      "show": 498,
      "ist": 499,
      "tried": 500,
      "come": 501,
      "We": 502,
      "uc": 503,
      "toy": 504,
      "cle": 505,
      "sw": 506,
      "long": 507,
      "inside": 508,
      "dre": 509,
      "run": 510,
      "ion": 511,
      "able": 512,
      "this": 513,
      "told": 514,
      "hand": 515,
      "heard": 516,
      "Then": 517,
      "ink": 518,
      "careful": 519,
      "gave": 520,
      "ump": 521,
      "proud": 522,
      "dy": 523,
      "will": 524,
      "just": 525,
      "exp": 526,
      "Anna": 527,
      "gre": 528,
      "te": 529,
      "until": 530,
      "water": 531,
      "off": 532,
      "tr": 533,
      "Let": 534,
      "His": 535,
      "com": 536,
      "cl": 537,
      "bu": 538,
      "war": 539,
      "ile": 540,
      "tter": 541,
      "read": 542,
      "che": 543,
      "ough": 544,
      "cre": 545,
      "fly": 546,
      "played": 547,
      "po": 548,
      "pa": 549,
      "ta": 550,
      "pt": 551,
      "rabb": 552,
      "iz": 553,
      "try": 554,
      "pick": 555,
      "ball": 556,
      "bear": 557,
      "small": 558,
      "wat": 559,
      "kind": 560,
      "Joh": 561,
      "sor": 562,
      "ct": 563,
      "John": 564,
      "rain": 565,
      "self": 566,
      "explo": 567,
      "need": 568,
      "hugged": 569,
      "box": 570,
      "bl": 571,
      "ine": 572,
      "vent": 573,
      "sha": 574,
      "each": 575,
      "red": 576,
      "bea": 577,
      "ber": 578,
      "safe": 579,
      "call": 580,
      "And": 581,
      "ace": 582,
      "Mommy": 583,
      "ving": 584,
      "better": 585,
      "ia": 586,
      "ning": 587,
      "pret": 588,
      "bed": 589,
      "That": 590,
      "flow": 591,
      "ass": 592,
      "nt": 593,
      "thanked": 594,
      "even": 595,
      "lots": 596,
      "learned": 597,
      "anim": 598,
      "animal": 599,
      "where": 600,
      "bra": 601,
      "sky": 602,
      "beaut": 603,
      "jump": 604,
      "What": 605,
      "fam": 606,
      "sur": 607,
      "joy": 608,
      "nice": 609,
      "laughed": 610,
      "ched": 611,
      "ane": 612,
      "ama": 613,
      "lad": 614,
      "gard": 615,
      "garden": 616,
      "stay": 617,
      "its": 618,
      "love": 619,
      "fi": 620,
      "yes": 621,
      "per": 622,
      "rong": 623,
      "fin": 624,
      "best": 625,
      "kept": 626,
      "iful": 627,
      "fast": 628,
      "beautiful": 629,
      "As": 630,
      "ree": 631,
      "imp": 632,
      "fle": 633,
      "igh": 634,
      "many": 635,
      "under": 636,
      "sorry": 637,
      "Luc": 638,
      "Mia": 639,
      "both": 640,
      "two": 641,
      "Lucy": 642,
      "ort": 643,
      "family": 644,
      "urn": 645,
      "After": 646,
      "ble": 647,
      "urt": 648,
      "brave": 649,
      "app": 650,
      "Yes": 651,
      "loud": 652,
      "Bo": 653,
      "iny": 654,
      "let": 655,
      "list": 656,
      "don": 657,
      "lived": 658,
      "ground": 659,
      "ste": 660,
      "still": 661,
      "ied": 662,
      "won": 663,
      "going": 664,
      "walked": 665,
      "called": 666,
      "pot": 667,
      "feeling": 668,
      "con": 669,
      "animals": 670,
      "illy": 671,
      "surpr": 672,
      "soon": 673,
      "ank": 674,
      "keep": 675,
      "Th": 676,
      "clos": 677,
      "ell": 678,
      "hard": 679,
      "explore": 680,
      "ished": 681,
      "repl": 682,
      "advent": 683,
      "ised": 684,
      "ople": 685,
      "Can": 686,
      "mor": 687,
      "real": 688,
      "give": 689,
      "flew": 690,
      "walking": 691,
      "pu": 692,
      "Jane": 693,
      "clean": 694,
      "cu": 695,
      "lie": 696,
      "Bob": 697,
      "fr": 698,
      "while": 699,
      "people": 700,
      "before": 701,
      "idea": 702,
      "ummy": 703,
      "Sarah": 704,
      "bro": 705,
      "pic": 706,
      "ting": 707,
      "say": 708,
      "Thank": 709,
      "bad": 710,
      "should": 711,
      "ded": 712,
      "work": 713,
      "ark": 714,
      "lea": 715,
      "opened": 716,
      "thr": 717,
      "cry": 718,
      "replied": 719,
      "No": 720,
      "adventure": 721,
      "nod": 722,
      "ild": 723,
      "door": 724,
      "place": 725,
      "set": 726,
      "ever": 727,
      "iced": 728,
      "looking": 729,
      "share": 730,
      "fish": 731,
      "sl": 732,
      "far": 733,
      "hurt": 734,
      "wind": 735,
      "nex": 736,
      "quick": 737,
      "sho": 738,
      "les": 739,
      "dif": 740,
      "year": 741,
      "pretty": 742,
      "great": 743,
      "mber": 744,
      "next": 745,
      "forest": 746,
      "noise": 747,
      "being": 748,
      "face": 749,
      "ak": 750,
      "night": 751,
      "doll": 752,
      "dis": 753,
      "gan": 754,
      "vo": 755,
      "import": 756,
      "squ": 757,
      "lot": 758,
      "picked": 759,
      "colo": 760,
      "quickly": 761,
      "also": 762,
      "weet": 763,
      "lock": 764,
      "noticed": 765,
      "color": 766,
      "shiny": 767,
      "ught": 768,
      "smile": 769,
      "clim": 770,
      "enjoy": 771,
      "eyes": 772,
      "important": 773,
      "stopped": 774,
      "Dad": 775,
      "uch": 776,
      "hair": 777,
      "isy": 778,
      "ies": 779,
      "sure": 780,
      "walk": 781,
      "wait": 782,
      "near": 783,
      "raw": 784,
      "rock": 785,
      "member": 786,
      "ner": 787,
      "tal": 788,
      "sing": 789,
      "ized": 790,
      "bye": 791,
      "head": 792,
      "less": 793,
      "book": 794,
      "after": 795,
      "right": 796,
      "ess": 797,
      "turn": 798,
      "ture": 799,
      "wonder": 800,
      "fere": 801,
      "differe": 802,
      "voice": 803,
      "food": 804,
      "used": 805,
      "nodded": 806,
      "showed": 807,
      "angry": 808,
      "been": 809,
      "remember": 810,
      "goodbye": 811,
      "picture": 812,
      "ask": 813,
      "amaz": 814,
      "ph": 815,
      "hear": 816,
      "shar": 817,
      "tor": 818,
      "hands": 819,
      "different": 820,
      "became": 821,
      "listen": 822,
      "rel": 823,
      "rest": 824,
      "everyone": 825,
      "Spot": 826,
      "bright": 827,
      "This": 828,
      "strong": 829,
      "ready": 830,
      "watched": 831,
      "mon": 832,
      "aisy": 833,
      "irst": 834,
      "ip": 835,
      "store": 836,
      "deli": 837,
      "Sue": 838,
      "Lo": 839,
      "mag": 840,
      "three": 841,
      "cou": 842,
      "sound": 843,
      "rabbit": 844,
      "closer": 845,
      "swing": 846,
      "grabb": 847,
      "ff": 848,
      "Everyone": 849,
      "ired": 850,
      "has": 851,
      "grabbed": 852,
      "dress": 853,
      "In": 854,
      "air": 855,
      "ds": 856,
      "slide": 857,
      "leave": 858,
      "warm": 859,
      "ru": 860,
      "top": 861,
      "Joe": 862,
      "cont": 863,
      "fav": 864,
      "jumped": 865,
      "watch": 866,
      "butter": 867,
      "ung": 868,
      "ster": 869,
      "unny": 870,
      "stand": 871,
      "high": 872,
      "ached": 873,
      "cream": 874,
      "ries": 875,
      "cho": 876,
      "sn": 877,
      "rious": 878,
      "blue": 879,
      "ond": 880,
      "tell": 881,
      "cook": 882,
      "boat": 883,
      "bit": 884,
      "ered": 885,
      "leep": 886,
      "began": 887,
      "flower": 888,
      "Daisy": 889,
      "through": 890,
      "cake": 891,
      "pare": 892,
      "really": 893,
      "ft": 894,
      "llow": 895,
      "Fin": 896,
      "brother": 897,
      "think": 898,
      "helped": 899,
      "fell": 900,
      "curious": 901,
      "ance": 902,
      "lease": 903,
      "bow": 904,
      "table": 905,
      "having": 906,
      "Benny": 907,
      "flowers": 908,
      "okay": 909,
      "din": 910,
      "dro": 911,
      "med": 912,
      "world": 913,
      "follow": 914,
      "cut": 915,
      "reached": 916,
      "mis": 917,
      "mer": 918,
      "realized": 919,
      "pul": 920,
      "truck": 921,
      "yel": 922,
      "grass": 923,
      "yummy": 924,
      "Do": 925,
      "ket": 926,
      "tw": 927,
      "birds": 928,
      "light": 929,
      "first": 930,
      "andma": 931,
      "bal": 932,
      "\".": 933,
      "bre": 934,
      "fill": 935,
      "favor": 936,
      "mum": 937,
      "Tommy": 938,
      "pie": 939,
      "col": 940,
      "done": 941,
      "dark": 942,
      "zy": 943,
      "why": 944,
      "bunny": 945,
      "favorite": 946,
      "Billy": 947,
      "cool": 948,
      "olly": 949,
      "tired": 950,
      "happened": 951,
      "age": 952,
      "rot": 953,
      "hopped": 954,
      "flo": 955,
      "Don": 956,
      "duck": 957,
      "waved": 958,
      "fl": 959,
      "kit": 960,
      "story": 961,
      "coming": 962,
      "years": 963,
      "mouse": 964,
      "nts": 965,
      "aybe": 966,
      "arri": 967,
      "Sally": 968,
      "Look": 969,
      "Em": 970,
      "outed": 971,
      "stick": 972,
      "sand": 973,
      "mean": 974,
      "anymore": 975,
      "seen": 976,
      "himself": 977,
      "parents": 978,
      "game": 979,
      "ppy": 980,
      "bor": 981,
      "magic": 982,
      "Jen": 983,
      "plan": 984,
      "move": 985,
      "stop": 986,
      "laugh": 987,
      "soft": 988,
      "prin": 989,
      "ple": 990,
      "Wh": 991,
      "There": 992,
      "shouted": 993,
      "running": 994,
      "kid": 995,
      "cious": 996,
      "spot": 997,
      "times": 998,
      "trees": 999,
      "chen": 1000,
      "kitchen": 1001,
      "worry": 1002,
      "block": 1003,
      "ring": 1004,
      "ike": 1005,
      "worked": 1006,
      "mar": 1007,
      "sat": 1008,
      "ation": 1009,
      "surprise": 1010,
      "fix": 1011,
      "sweet": 1012,
      "anc": 1013,
      "making": 1014,
      "draw": 1015,
      "cold": 1016,
      "Now": 1017,
      "uff": 1018,
      "ila": 1019,
      "wood": 1020,
      "carefully": 1021,
      "only": 1022,
      "Finally": 1023,
      "open": 1024,
      "!”": 1025,
      "fro": 1026,
      "pond": 1027,
      "shed": 1028,
      "delicious": 1029,
      "Lila": 1030,
      "cr": 1031,
      "close": 1032,
      "swim": 1033,
      "Molly": 1034,
      "ath": 1035,
      "pain": 1036,
      "tight": 1037,
      "thank": 1038,
      "catch": 1039,
      "At": 1040,
      "butterfly": 1041,
      "ash": 1042,
      "aby": 1043,
      "ater": 1044,
      ".”": 1045,
      "herself": 1046,
      "arrived": 1047,
      "gu": 1048,
      "fire": 1049,
      "irrel": 1050,
      "glad": 1051,
      "tow": 1052,
      "happily": 1053,
      "river": 1054,
      "hill": 1055,
      "full": 1056,
      "piece": 1057,
      "yard": 1058,
      "lady": 1059,
      "contin": 1060,
      "bar": 1061,
      "held": 1062,
      "To": 1063,
      "tri": 1064,
      "mother": 1065,
      "wel": 1066,
      "finished": 1067,
      "ary": 1068,
      "enjoyed": 1069,
      "yellow": 1070,
      "slow": 1071,
      "doing": 1072,
      "pet": 1073,
      "Hel": 1074,
      "wear": 1075,
      "surprised": 1076,
      "Maybe": 1077,
      "prom": 1078,
      "tall": 1079,
      "orn": 1080,
      "asure": 1081,
      "daddy": 1082,
      "andy": 1083,
      "hind": 1084,
      "ued": 1085,
      "chil": 1086,
      "ross": 1087,
      "oney": 1088,
      "dren": 1089,
      "wrong": 1090,
      "hole": 1091,
      "squirrel": 1092,
      "children": 1093,
      "ger": 1094,
      "remembered": 1095,
      "reed": 1096,
      "lion": 1097,
      "wonderful": 1098,
      "kids": 1099,
      "Jim": 1100,
      "min": 1101,
      "friendly": 1102,
      "needed": 1103,
      "filled": 1104,
      "behind": 1105,
      "Wow": 1106,
      "train": 1107,
      "ield": 1108,
      "frog": 1109,
      "sleep": 1110,
      "climb": 1111,
      "ather": 1112,
      "mess": 1113,
      "lost": 1114,
      "av": 1115,
      "gone": 1116,
      "puppy": 1117,
      "key": 1118,
      "race": 1119,
      "most": 1120,
      "finally": 1121,
      "bot": 1122,
      "cess": 1123,
      "ped": 1124,
      "name": 1125,
      "anything": 1126,
      "stayed": 1127,
      "continued": 1128,
      "tra": 1129,
      "stran": 1130,
      "does": 1131,
      "dinner": 1132,
      "green": 1133,
      "left": 1134,
      "agreed": 1135,
      "spo": 1136,
      "buy": 1137,
      "cla": 1138,
      "dr": 1139,
      "hot": 1140,
      "pat": 1141,
      "funny": 1142,
      "touch": 1143,
      "forgot": 1144,
      "getting": 1145,
      "hung": 1146,
      "enough": 1147,
      "rag": 1148,
      "fair": 1149,
      "morning": 1150,
      "ient": 1151,
      "res": 1152,
      "ign": 1153,
      "ens": 1154,
      "moment": 1155,
      "lesson": 1156,
      "Amy": 1157,
      "ins": 1158,
      "another": 1159,
      "hold": 1160,
      "vis": 1161,
      "erous": 1162,
      "looks": 1163,
      "land": 1164,
      "trying": 1165,
      "gent": 1166,
      "bag": 1167,
      "ated": 1168,
      "que": 1169,
      "fect": 1170,
      "others": 1171,
      "ling": 1172,
      "cover": 1173,
      "Mama": 1174,
      "met": 1175,
      "mat": 1176,
      "oken": 1177,
      "understand": 1178,
      "else": 1179,
      "pretend": 1180,
      "pack": 1181,
      "perfect": 1182,
      "window": 1183,
      "mou": 1184,
      "few": 1185,
      "tast": 1186,
      "might": 1187,
      "join": 1188,
      "blocks": 1189,
      "spark": 1190,
      "broken": 1191,
      "wished": 1192,
      "baby": 1193,
      "mus": 1194,
      "brought": 1195,
      "followed": 1196,
      "floor": 1197,
      "cookies": 1198,
      "beach": 1199,
      "pping": 1200,
      "deep": 1201,
      "pink": 1202,
      "stre": 1203,
      "everything": 1204,
      "hid": 1205,
      "ves": 1206,
      "plain": 1207,
      "build": 1208,
      "paper": 1209,
      "Why": 1210,
      "ious": 1211,
      "ons": 1212,
      "bug": 1213,
      "dir": 1214,
      "oo": 1215,
      "cars": 1216,
      "wards": 1217,
      "magical": 1218,
      "wasn": 1219,
      "arm": 1220,
      "appear": 1221,
      "em": 1222,
      "Hello": 1223,
      "nap": 1224,
      "music": 1225,
      "ju": 1226,
      "someone": 1227,
      "strange": 1228,
      "Gr": 1229,
      "ings": 1230,
      "creat": 1231,
      "dream": 1232,
      "cried": 1233,
      "sit": 1234,
      "sometimes": 1235,
      "fall": 1236,
      "pro": 1237,
      "ange": 1238,
      "thy": 1239,
      "woods": 1240,
      "fur": 1241,
      "whe": 1242,
      "treat": 1243,
      "colors": 1244,
      "sear": 1245,
      "song": 1246,
      "break": 1247,
      "please": 1248,
      "ze": 1249,
      "cast": 1250,
      "ateful": 1251,
      "row": 1252,
      "grateful": 1253,
      "climbed": 1254,
      "amazing": 1255,
      "fight": 1256,
      "wet": 1257,
      "ride": 1258,
      "listened": 1259,
      "Daddy": 1260,
      "amazed": 1261,
      "ele": 1262,
      "wall": 1263,
      "turned": 1264,
      "ucky": 1265,
      "hungry": 1266,
      "must": 1267,
      "flying": 1268,
      "ballo": 1269,
      "cha": 1270,
      "such": 1271,
      "oup": 1272,
      "sees": 1273,
      "cked": 1274,
      "Emma": 1275,
      "treasure": 1276,
      "leaves": 1277,
      "Oh": 1278,
      "belie": 1279,
      "Soon": 1280,
      "umb": 1281,
      "field": 1282,
      "stepped": 1283,
      "moral": 1284,
      "spl": 1285,
      "hig": 1286,
      "art": 1287,
      "grandma": 1288,
      "pulled": 1289,
      "ually": 1290,
      "job": 1291,
      "pictures": 1292,
      "Just": 1293,
      "dry": 1294,
      "tle": 1295,
      "icy": 1296,
      "bus": 1297,
      "cra": 1298,
      "sy": 1299,
      "colorful": 1300,
      "dang": 1301,
      "danc": 1302,
      "gl": 1303,
      "roll": 1304,
      "grow": 1305,
      "shared": 1306,
      "promised": 1307,
      "pen": 1308,
      "pur": 1309,
      "heav": 1310,
      "ident": 1311,
      "All": 1312,
      "bran": 1313,
      "ose": 1314,
      "clothe": 1315,
      "uffy": 1316,
      "owner": 1317,
      "clothes": 1318,
      "Go": 1319,
      "af": 1320,
      "bike": 1321,
      "pass": 1322,
      "answ": 1323,
      "slowly": 1324,
      "teddy": 1325,
      "cor": 1326,
      "ng": 1327,
      "pers": 1328,
      "sail": 1329,
      "je": 1330,
      "explain": 1331,
      "across": 1332,
      "iet": 1333,
      "miss": 1334,
      "kne": 1335,
      "ames": 1336,
      "helping": 1337,
      "lice": 1338,
      "likes": 1339,
      "white": 1340,
      "waited": 1341,
      "bigger": 1342,
      "eating": 1343,
      "visit": 1344,
      "heavy": 1345,
      "igg": 1346,
      "talk": 1347,
      "cup": 1348,
      "lake": 1349,
      "board": 1350,
      "quiet": 1351,
      "higher": 1352,
      "alone": 1353,
      "closed": 1354,
      "monster": 1355,
      "scary": 1356,
      "blan": 1357,
      "ich": 1358,
      "party": 1359,
      "fox": 1360,
      "wouldn": 1361,
      "poin": 1362,
      "hide": 1363,
      "ister": 1364,
      "stead": 1365,
      "neigh": 1366,
      "zz": 1367,
      "Sammy": 1368,
      "Jenny": 1369,
      "cident": 1370,
      "da": 1371,
      "ming": 1372,
      "cloud": 1373,
      "?”": 1374,
      "gi": 1375,
      "hes": 1376,
      "castle": 1377,
      "Mum": 1378,
      "snow": 1379,
      "suddenly": 1380,
      "silly": 1381,
      "ence": 1382,
      "shine": 1383,
      "accident": 1384,
      "towards": 1385,
      "appeared": 1386,
      "chair": 1387,
      "whis": 1388,
      "snack": 1389,
      "Come": 1390,
      "Tweet": 1391,
      "heal": 1392,
      "eleph": 1393,
      "candy": 1394,
      "su": 1395,
      "pes": 1396,
      "sister": 1397,
      "ire": 1398,
      "money": 1399,
      "makes": 1400,
      "Jill": 1401,
      "everywhere": 1402,
      "nearby": 1403,
      "kay": 1404,
      "ton": 1405,
      "farmer": 1406,
      "Be": 1407,
      "pol": 1408,
      "Sure": 1409,
      "believe": 1410,
      "smel": 1411,
      "stood": 1412,
      "worried": 1413,
      "stuck": 1414,
      "buck": 1415,
      "gra": 1416,
      "mind": 1417,
      "comfor": 1418,
      "juice": 1419,
      "Hi": 1420,
      "free": 1421,
      "longer": 1422,
      "crying": 1423,
      "Mr": 1424,
      "broke": 1425,
      "child": 1426,
      "bowl": 1427,
      "elephant": 1428,
      "Pe": 1429,
      "exploring": 1430,
      "dangerous": 1431,
      "bath": 1432,
      "swa": 1433,
      "wag": 1434,
      "tail": 1435,
      "pieces": 1436,
      "drink": 1437,
      "books": 1438,
      "drag": 1439,
      "ourse": 1440,
      "ment": 1441,
      "iting": 1442,
      "ventually": 1443,
      "daught": 1444,
      "faster": 1445,
      "princess": 1446,
      "explained": 1447,
      "same": 1448,
      "backyard": 1449,
      "ctor": 1450,
      "jour": 1451,
      "tiny": 1452,
      "win": 1453,
      "moved": 1454,
      "daughter": 1455,
      "gif": 1456,
      "plane": 1457,
      "town": 1458,
      "bas": 1459,
      "ix": 1460,
      "sug": 1461,
      "sang": 1462,
      "thre": 1463,
      "happen": 1464,
      "singing": 1465,
      "swam": 1466,
      "seemed": 1467,
      "ours": 1468,
      "fairy": 1469,
      "carrot": 1470,
      "blanket": 1471,
      "OK": 1472,
      "Some": 1473,
      "dance": 1474,
      "reach": 1475,
      "phone": 1476,
      "Inside": 1477,
      "ps": 1478,
      "soup": 1479,
      "along": 1480,
      "upset": 1481,
      "pop": 1482,
      "threw": 1483,
      "kno": 1484,
      "lone": 1485,
      "caught": 1486,
      "balloon": 1487,
      "tu": 1488,
      "Jimmy": 1489,
      "ee": 1490,
      "ier": 1491,
      "ney": 1492,
      "basket": 1493,
      "bring": 1494,
      "lonely": 1495,
      "jar": 1496,
      "doctor": 1497,
      "woke": 1498,
      "chee": 1499,
      "gentle": 1500,
      "scream": 1501,
      "ses": 1502,
      "unch": 1503,
      "brown": 1504,
      "ntain": 1505,
      "swings": 1506,
      "course": 1507,
      "bee": 1508,
      "fit": 1509,
      "sign": 1510,
      "words": 1511,
      "Grandma": 1512,
      "wr": 1513,
      "trou": 1514,
      "dist": 1515,
      "ible": 1516,
      "spr": 1517,
      "today": 1518,
      "young": 1519,
      "taking": 1520,
      "drove": 1521,
      "Please": 1522,
      "late": 1523,
      "sea": 1524,
      "shin": 1525,
      "accidentally": 1526,
      "body": 1527,
      "ches": 1528,
      "fru": 1529,
      "shoes": 1530,
      "erful": 1531,
      "though": 1532,
      "dri": 1533,
      "cheered": 1534,
      "kite": 1535,
      "onto": 1536,
      "sec": 1537,
      "jog": 1538,
      "black": 1539,
      "games": 1540,
      "ises": 1541,
      "ase": 1542,
      "wom": 1543,
      "oun": 1544,
      "iss": 1545,
      "well": 1546,
      "ugg": 1547,
      "part": 1548,
      "pull": 1549,
      "mouth": 1550,
      "Later": 1551,
      "Okay": 1552,
      "del": 1553,
      "hello": 1554,
      "woman": 1555,
      "El": 1556,
      "wise": 1557,
      "cket": 1558,
      "without": 1559,
      "ions": 1560,
      "Fl": 1561,
      "Jake": 1562,
      "Mary": 1563,
      "kn": 1564,
      "mix": 1565,
      "stories": 1566,
      "dragon": 1567,
      "living": 1568,
      "shook": 1569,
      "bite": 1570,
      "pow": 1571,
      "uni": 1572,
      "ittens": 1573,
      "smiles": 1574,
      "teac": 1575,
      "With": 1576,
      "oom": 1577,
      "dolls": 1578,
      "rocks": 1579,
      "dropped": 1580,
      "clapped": 1581,
      "Fluffy": 1582,
      "itch": 1583,
      "itting": 1584,
      "sunshine": 1585,
      "bubb": 1586,
      "relie": 1587,
      "apples": 1588,
      "creature": 1589,
      "hu": 1590,
      "forget": 1591,
      "shop": 1592,
      "peace": 1593,
      "street": 1594,
      "dirty": 1595,
      "bul": 1596,
      "wra": 1597,
      "instead": 1598,
      "att": 1599,
      "ward": 1600,
      "paint": 1601,
      "welcome": 1602,
      "quest": 1603,
      "neighbor": 1604,
      "huge": 1605,
      "round": 1606,
      "bucket": 1607,
      "ship": 1608,
      "wand": 1609,
      "ness": 1610,
      "gest": 1611,
      "act": 1612,
      "asks": 1613,
      "colle": 1614,
      "suc": 1615,
      "vie": 1616,
      "net": 1617,
      "throw": 1618,
      "chool": 1619,
      "covered": 1620,
      "wings": 1621,
      "cave": 1622,
      "pocket": 1623,
      "How": 1624,
      "cir": 1625,
      "val": 1626,
      "cray": 1627,
      "Ted": 1628,
      "ben": 1629,
      "stone": 1630,
      "count": 1631,
      "knee": 1632,
      "eas": 1633,
      "fused": 1634,
      "hur": 1635,
      "belong": 1636,
      "adventures": 1637,
      "bought": 1638,
      "cow": 1639,
      "ress": 1640,
      "idge": 1641,
      "nothing": 1642,
      "return": 1643,
      "purple": 1644,
      "Mittens": 1645,
      "mil": 1646,
      "bush": 1647,
      "sitting": 1648,
      "touc": 1649,
      "nest": 1650,
      "heart": 1651,
      "owl": 1652,
      "swimming": 1653,
      "ser": 1654,
      "school": 1655,
      "pper": 1656,
      "days": 1657,
      "spin": 1658,
      "cheese": 1659,
      "My": 1660,
      "pan": 1661,
      "pig": 1662,
      "sco": 1663,
      "inv": 1664,
      "wants": 1665,
      "start": 1666,
      "searched": 1667,
      "ider": 1668,
      "ular": 1669,
      "patient": 1670,
      "journey": 1671,
      "gen": 1672,
      "oce": 1673,
      "ocean": 1674,
      "boun": 1675,
      "leg": 1676,
      "smart": 1677,
      "carry": 1678,
      "forever": 1679,
      "sunny": 1680,
      "Emily": 1681,
      "spoon": 1682,
      "healthy": 1683,
      "secret": 1684,
      "touched": 1685,
      "vill": 1686,
      "stor": 1687,
      "cute": 1688,
      "spotted": 1689,
      "teacher": 1690,
      "gather": 1691,
      "zoom": 1692,
      "shining": 1693,
      "nic": 1694,
      "apple": 1695,
      "talked": 1696,
      "ek": 1697,
      "lunch": 1698,
      "wish": 1699,
      "seat": 1700,
      "comfortable": 1701,
      "busy": 1702,
      "relieved": 1703,
      "ced": 1704,
      "fing": 1705,
      "mine": 1706,
      "pudd": 1707,
      "organ": 1708,
      "watching": 1709,
      "branch": 1710,
      "storm": 1711,
      "ap": 1712,
      "milk": 1713,
      "ian": 1714,
      "pra": 1715,
      "sli": 1716,
      "cozy": 1717,
      "decor": 1718,
      "runs": 1719,
      "past": 1720,
      "laughing": 1721,
      "minut": 1722,
      "matter": 1723,
      "band": 1724,
      "ife": 1725,
      "ert": 1726,
      "irt": 1727,
      "blem": 1728,
      "tasted": 1729,
      "danced": 1730,
      "pres": 1731,
      "neck": 1732,
      "pushed": 1733,
      "monkey": 1734,
      "problem": 1735,
      "ator": 1736,
      "pil": 1737,
      "thday": 1738,
      "feather": 1739,
      "meet": 1740,
      "word": 1741,
      "asleep": 1742,
      "smiling": 1743,
      "tower": 1744,
      "di": 1745,
      "eag": 1746,
      "lar": 1747,
      "thin": 1748,
      "wondered": 1749,
      "holding": 1750,
      "gigg": 1751,
      "live": 1752,
      "exciting": 1753,
      "which": 1754,
      "resting": 1755,
      "twins": 1756,
      "peaceful": 1757,
      "circle": 1758,
      "cam": 1759,
      "orange": 1760,
      "life": 1761,
      "hoped": 1762,
      "arms": 1763,
      "gift": 1764,
      "trouble": 1765,
      "cal": 1766,
      "str": 1767,
      "tool": 1768,
      "spider": 1769,
      "turns": 1770,
      "Of": 1771,
      "takes": 1772,
      "coun": 1773,
      "craw": 1774,
      "tid": 1775,
      "wash": 1776,
      "vel": 1777,
      "ote": 1778,
      "button": 1779,
      "coat": 1780,
      "hugs": 1781,
      "hit": 1782,
      "lucky": 1783,
      "swe": 1784,
      "ined": 1785,
      "tightly": 1786,
      "Good": 1787,
      "nose": 1788,
      "picnic": 1789,
      "smell": 1790,
      "places": 1791,
      "trip": 1792,
      "wearing": 1793,
      "fruit": 1794,
      "kiss": 1795,
      "letter": 1796,
      "birthday": 1797,
      "ears": 1798,
      "anyone": 1799,
      "collect": 1800,
      "village": 1801,
      "hor": 1802,
      "hum": 1803,
      "raid": 1804,
      "tea": 1805,
      "rainbow": 1806,
      "sounds": 1807,
      "afraid": 1808,
      "Mummy": 1809,
      "des": 1810,
      "fence": 1811,
      "gg": 1812,
      "jam": 1813,
      "ned": 1814,
      "Their": 1815,
      "shelf": 1816,
      "chick": 1817,
      "prote": 1818,
      "noises": 1819,
      "tasty": 1820,
      "ipped": 1821,
      "ina": 1822,
      "adm": 1823,
      "fron": 1824,
      "tidy": 1825,
      "ast": 1826,
      "ban": 1827,
      "wide": 1828,
      "loom": 1829,
      "hop": 1830,
      "sharp": 1831,
      "sandw": 1832,
      "front": 1833,
      "lay": 1834,
      "imag": 1835,
      "stud": 1836,
      "ased": 1837,
      "ching": 1838,
      "Everywhere": 1839,
      "answer": 1840,
      "eventually": 1841,
      "inte": 1842,
      "sol": 1843,
      "robot": 1844,
      "stars": 1845,
      "whole": 1846,
      "mail": 1847,
      "Together": 1848,
      "large": 1849,
      "roar": 1850,
      "last": 1851,
      "ducks": 1852,
      "log": 1853,
      "cks": 1854,
      "ize": 1855,
      "berries": 1856,
      "banan": 1857,
      "Alice": 1858,
      "vous": 1859,
      "spent": 1860,
      "path": 1861,
      "gently": 1862,
      "furry": 1863,
      "fear": 1864,
      "grand": 1865,
      "naught": 1866,
      "talking": 1867,
      "mountain": 1868,
      "present": 1869,
      "sick": 1870,
      "orm": 1871,
      "shell": 1872,
      "clever": 1873,
      "teach": 1874,
      "prince": 1875,
      "sparkly": 1876,
      "Peter": 1877,
      "naughty": 1878,
      "mad": 1879,
      "cele": 1880,
      "gold": 1881,
      "fold": 1882,
      "cape": 1883,
      "spread": 1884,
      "blew": 1885,
      "farm": 1886,
      "iger": 1887,
      "lovely": 1888,
      "person": 1889,
      "cy": 1890,
      "dle": 1891,
      "shy": 1892,
      "foot": 1893,
      "rank": 1894,
      "bottle": 1895,
      "fig": 1896,
      "mod": 1897,
      "shapes": 1898,
      "nervous": 1899,
      "corner": 1900,
      "smelled": 1901,
      "interesting": 1902,
      "celebr": 1903,
      "ail": 1904,
      "sc": 1905,
      "shirt": 1906,
      "rubb": 1907,
      "bench": 1908,
      "pract": 1909,
      "driver": 1910,
      "fli": 1911,
      "honey": 1912,
      "pre": 1913,
      "ye": 1914,
      "wave": 1915,
      "ighed": 1916,
      "cop": 1917,
      "worm": 1918,
      "splash": 1919,
      "clouds": 1920,
      "If": 1921,
      "feet": 1922,
      "whenever": 1923,
      "blow": 1924,
      "itten": 1925,
      "confused": 1926,
      "sharing": 1927,
      "colour": 1928,
      "building": 1929,
      "embar": 1930,
      "treats": 1931,
      "rass": 1932,
      "erly": 1933,
      "stret": 1934,
      "ull": 1935,
      "rude": 1936,
      "thinks": 1937,
      "embarrass": 1938,
      "lt": 1939,
      "mel": 1940,
      "wild": 1941,
      "soar": 1942,
      "rope": 1943,
      "dirt": 1944,
      "giant": 1945,
      "returned": 1946,
      "Ch": 1947,
      "ones": 1948,
      "step": 1949,
      "myster": 1950,
      "messy": 1951,
      "pointed": 1952,
      "corn": 1953,
      "hours": 1954,
      "ten": 1955,
      "tun": 1956,
      "often": 1957,
      "bedroom": 1958,
      "snake": 1959,
      "grab": 1960,
      "screamed": 1961,
      "protect": 1962,
      "bread": 1963,
      "pin": 1964,
      "pour": 1965,
      "scre": 1966,
      "adow": 1967,
      "meadow": 1968,
      "jumping": 1969,
      "jung": 1970,
      "jungle": 1971,
      "reg": 1972,
      "sheep": 1973,
      "dol": 1974,
      "hope": 1975,
      "thankful": 1976,
      "success": 1977,
      "easy": 1978,
      "embarrassed": 1979,
      "hone": 1980,
      "mach": 1981,
      "sne": 1982,
      "tory": 1983,
      "itty": 1984,
      "bru": 1985,
      "impress": 1986,
      "push": 1987,
      "passed": 1988,
      "chas": 1989,
      "cross": 1990,
      "hang": 1991,
      "nut": 1992,
      "zoo": 1993,
      "shes": 1994,
      "espe": 1995,
      "helpful": 1996,
      "cially": 1997,
      "spit": 1998,
      "waiting": 1999,
      "While": 2000,
      "rolled": 2001,
      "chased": 2002,
      "wha": 2003,
      "comes": 2004,
      "pretended": 2005,
      "generous": 2006,
      "especially": 2007,
      "Mark": 2008,
      "Where": 2009,
      "ham": 2010,
      "iddle": 2011,
      "elly": 2012,
      "fixed": 2013,
      "minutes": 2014,
      "den": 2015,
      "Hey": 2016,
      "puts": 2017,
      "spect": 2018,
      "poor": 2019,
      "Johnny": 2020,
      "breath": 2021,
      "fighting": 2022,
      "supp": 2023,
      "horse": 2024,
      "line": 2025,
      "oven": 2026,
      "uce": 2027,
      "remind": 2028,
      "coin": 2029,
      "umber": 2030,
      "faces": 2031,
      "puddle": 2032,
      "kick": 2033,
      "shout": 2034,
      "ete": 2035,
      "knowing": 2036,
      "grew": 2037,
      "ancy": 2038,
      "hiding": 2039,
      "write": 2040,
      "eld": 2041,
      "middle": 2042,
      "oy": 2043,
      "stir": 2044,
      "seek": 2045,
      "chest": 2046,
      "answered": 2047,
      "wagon": 2048,
      "Are": 2049,
      "fla": 2050,
      "later": 2051,
      "pill": 2052,
      "ony": 2053,
      "ult": 2054,
      "slid": 2055,
      "couch": 2056,
      "landed": 2057,
      "polite": 2058,
      "gathered": 2059,
      "hero": 2060,
      "plant": 2061,
      "rich": 2062,
      "ella": 2063,
      "meant": 2064,
      "ustr": 2065,
      "chew": 2066,
      "taste": 2067,
      "taught": 2068,
      "lit": 2069,
      "tomor": 2070,
      "respect": 2071,
      "hamed": 2072,
      "add": 2073,
      "ashamed": 2074,
      "lowed": 2075,
      "wore": 2076,
      "feels": 2077,
      "trust": 2078,
      "izz": 2079,
      "Lola": 2080,
      "promise": 2081,
      "sugar": 2082,
      "figure": 2083,
      "dolph": 2084,
      "tomorrow": 2085,
      "ity": 2086,
      "ugly": 2087,
      "motor": 2088,
      "?\".": 2089,
      "clear": 2090,
      "End": 2091,
      "Le": 2092,
      "bat": 2093,
      "vase": 2094,
      "inted": 2095,
      "ero": 2096,
      "skipped": 2097,
      "cheerful": 2098,
      "chicken": 2099,
      "egg": 2100,
      "mic": 2101,
      "mud": 2102,
      "pile": 2103,
      "rad": 2104,
      "hospit": 2105,
      "nail": 2106,
      "selfish": 2107,
      "loves": 2108,
      "finish": 2109,
      "appo": 2110,
      "frustr": 2111,
      "whale": 2112,
      "micro": 2113,
      "hospital": 2114,
      "Little": 2115,
      "tick": 2116,
      "sold": 2117,
      "forward": 2118,
      "plants": 2119,
      "missed": 2120,
      "Even": 2121,
      "fancy": 2122,
      "ob": 2123,
      "weak": 2124,
      "carried": 2125,
      "barked": 2126,
      "carrots": 2127,
      "Pete": 2128,
      "ird": 2129,
      "smoo": 2130,
      "deter": 2131,
      "father": 2132,
      "cookie": 2133,
      "spoil": 2134,
      "bugs": 2135,
      "knocked": 2136,
      "smooth": 2137,
      "gas": 2138,
      "almost": 2139,
      "seed": 2140,
      "disappo": 2141,
      "chocol": 2142,
      "wheel": 2143,
      "calm": 2144,
      "frustrated": 2145,
      "determin": 2146,
      "pir": 2147,
      "sword": 2148,
      "stair": 2149,
      "wolf": 2150,
      "umpy": 2151,
      "coura": 2152,
      "drum": 2153,
      "crayons": 2154,
      "pillow": 2155,
      "hammer": 2156,
      "aking": 2157,
      "est": 2158,
      "lves": 2159,
      "sack": 2160,
      "spend": 2161,
      "ladder": 2162,
      "understood": 2163,
      "gives": 2164,
      "fright": 2165,
      "packed": 2166,
      "emp": 2167,
      "spla": 2168,
      "branches": 2169,
      "whistle": 2170,
      "suggest": 2171,
      "port": 2172,
      "these": 2173,
      "eng": 2174,
      "ates": 2175,
      "pair": 2176,
      "Today": 2177,
      "hidden": 2178,
      "Bella": 2179,
      "Mandy": 2180,
      "mark": 2181,
      "shad": 2182,
      "wrot": 2183,
      "parrot": 2184,
      "bridge": 2185,
      "leaf": 2186,
      "flies": 2187,
      "disappointed": 2188,
      "wrote": 2189,
      "cted": 2190,
      "boss": 2191,
      "hopping": 2192,
      "lace": 2193,
      "rella": 2194,
      "Teddy": 2195,
      "feathers": 2196,
      "fake": 2197,
      "string": 2198,
      "stuff": 2199,
      "extra": 2200,
      "shr": 2201,
      "spicy": 2202,
      "test": 2203,
      "pool": 2204,
      "shore": 2205,
      "pleased": 2206,
      "umbrella": 2207,
      "snowman": 2208,
      "spray": 2209,
      "honest": 2210,
      "Dave": 2211,
      "Re": 2212,
      "Who": 2213,
      "ual": 2214,
      "waves": 2215,
      "era": 2216,
      "Here": 2217,
      "ating": 2218,
      "veget": 2219,
      "change": 2220,
      "snacks": 2221,
      "knife": 2222,
      "oyster": 2223,
      "empty": 2224,
      "vegetable": 2225,
      "Fred": 2226,
      "jelly": 2227,
      "mir": 2228,
      "toes": 2229,
      "save": 2230,
      "itter": 2231,
      "road": 2232,
      "cient": 2233,
      "usual": 2234,
      "runk": 2235,
      "Ella": 2236,
      "wrap": 2237,
      "stones": 2238,
      "Pa": 2239,
      "Ro": 2240,
      "swan": 2241,
      "sour": 2242,
      "movie": 2243,
      "tee": 2244,
      "shake": 2245,
      "calling": 2246,
      "creative": 2247,
      "smelly": 2248,
      "Br": 2249,
      "bs": 2250,
      "jack": 2251,
      "excite": 2252,
      "acorn": 2253,
      "tak": 2254,
      "songs": 2255,
      "mysterious": 2256,
      "teeth": 2257,
      "bake": 2258,
      "clow": 2259,
      "tiger": 2260,
      "ubb": 2261,
      "iness": 2262,
      "paw": 2263,
      "discovered": 2264,
      "twig": 2265,
      "drive": 2266,
      "study": 2267,
      "excitement": 2268,
      "taken": 2269,
      "sighed": 2270,
      "ancient": 2271,
      "moon": 2272,
      "steal": 2273,
      "puzz": 2274,
      "frightened": 2275,
      "clown": 2276,
      "saved": 2277,
      "already": 2278,
      "forgive": 2279,
      "cage": 2280,
      "Ann": 2281,
      "locked": 2282,
      "happening": 2283,
      "unique": 2284,
      "questions": 2285,
      "eager": 2286,
      "sandwich": 2287,
      "chocolate": 2288,
      "Hen": 2289,
      "Well": 2290,
      "bloom": 2291,
      "cand": 2292,
      "gust": 2293,
      "ipe": 2294,
      "kin": 2295,
      "ror": 2296,
      "inc": 2297,
      "chang": 2298,
      "escape": 2299,
      "cannot": 2300,
      "pray": 2301,
      "true": 2302,
      "standing": 2303,
      "yelled": 2304,
      "whisper": 2305,
      "Sometimes": 2306,
      "elderly": 2307,
      "batter": 2308,
      "splashed": 2309,
      "mirror": 2310,
      "jacket": 2311,
      "Henry": 2312,
      "TV": 2313,
      "fted": 2314,
      "gy": 2315,
      "trunk": 2316,
      "illi": 2317,
      "note": 2318,
      "joke": 2319,
      "izzy": 2320,
      "bored": 2321,
      "powerful": 2322,
      "bubbles": 2323,
      "diam": 2324,
      "determined": 2325,
      "stairs": 2326,
      "Char": 2327,
      "dom": 2328,
      "fil": 2329,
      "tent": 2330,
      "vol": 2331,
      "zed": 2332,
      "erry": 2333,
      "thick": 2334,
      "week": 2335,
      "goes": 2336,
      "hose": 2337,
      "stream": 2338,
      "dancing": 2339,
      "sailed": 2340,
      "distance": 2341,
      "Mike": 2342,
      "barn": 2343,
      "frag": 2344,
      "pri": 2345,
      "once": 2346,
      "ishes": 2347,
      "lying": 2348,
      "fork": 2349,
      "playground": 2350,
      "cano": 2351,
      "law": 2352,
      "harm": 2353,
      "colourful": 2354,
      "successful": 2355,
      "bossy": 2356,
      "Baby": 2357,
      "fre": 2358,
      "sight": 2359,
      "toug": 2360,
      "terri": 2361,
      "indep": 2362,
      "measure": 2363,
      "ately": 2364,
      "enjoying": 2365,
      "known": 2366,
      "banana": 2367,
      "suggested": 2368,
      "volcano": 2369,
      "independ": 2370,
      "Ale": 2371,
      "Bill": 2372,
      "Whe": 2373,
      "oke": 2374,
      "ub": 2375,
      "van": 2376,
      "vide": 2377,
      "ery": 2378,
      "island": 2379,
      "goat": 2380,
      "roc": 2381,
      "against": 2382,
      "kinds": 2383,
      "realised": 2384,
      "ignor": 2385,
      "organized": 2386,
      "Brown": 2387,
      "incred": 2388,
      "tough": 2389,
      "Alex": 2390,
      "tie": 2391,
      "rela": 2392,
      "libr": 2393,
      "form": 2394,
      "harder": 2395,
      "team": 2396,
      "trum": 2397,
      "disappeared": 2398,
      "twirl": 2399,
      "flag": 2400,
      "jewel": 2401,
      "bubble": 2402,
      "finger": 2403,
      "fragile": 2404,
      "independent": 2405,
      "relax": 2406,
      "Bet": 2407,
      "Su": 2408,
      "amp": 2409,
      "case": 2410,
      "skin": 2411,
      "drew": 2412,
      "handle": 2413,
      "offered": 2414,
      "smaller": 2415,
      "content": 2416,
      "flut": 2417,
      "march": 2418,
      "brush": 2419,
      "incredible": 2420,
      "Lis": 2421,
      "Me": 2422,
      "See": 2423,
      "fic": 2424,
      "gate": 2425,
      "gara": 2426,
      "knight": 2427,
      "pup": 2428,
      "son": 2429,
      "erpill": 2430,
      "lean": 2431,
      "lose": 2432,
      "straw": 2433,
      "feed": 2434,
      "rode": 2435,
      "dest": 2436,
      "working": 2437,
      "grumpy": 2438,
      "caterpill": 2439,
      "check": 2440,
      "Joey": 2441,
      "balance": 2442,
      "Tweety": 2443,
      "spinning": 2444,
      "trumpet": 2445,
      "Lisa": 2446,
      "garage": 2447,
      "caterpillar": 2448,
      "fan": 2449,
      "pay": 2450,
      "tears": 2451,
      "wip": 2452,
      "arry": 2453,
      "salad": 2454,
      "raft": 2455,
      "moving": 2456,
      "noon": 2457,
      "safely": 2458,
      "view": 2459,
      "invited": 2460,
      "diamond": 2461,
      "Eventually": 2462,
      "Mar": 2463,
      "aunt": 2464,
      "og": 2465,
      "load": 2466,
      "unusual": 2467,
      "manag": 2468,
      "noisy": 2469,
      "class": 2470,
      "louder": 2471,
      "guard": 2472,
      "Tweetie": 2473,
      "necklace": 2474,
      "giggled": 2475,
      "regular": 2476,
      "Bl": 2477,
      "aw": 2478,
      "drank": 2479,
      "osa": 2480,
      "licked": 2481,
      "illed": 2482,
      "police": 2483,
      "cleaned": 2484,
      "diffic": 2485,
      "legs": 2486,
      "humble": 2487,
      "machine": 2488,
      "osaur": 2489,
      ",”": 2490,
      "Rose": 2491,
      "cate": 2492,
      "ffin": 2493,
      "ging": 2494,
      "pizz": 2495,
      "turt": 2496,
      "edge": 2497,
      "ern": 2498,
      "lead": 2499,
      "lemon": 2500,
      "lives": 2501,
      "owned": 2502,
      "gray": 2503,
      "adventur": 2504,
      "saying": 2505,
      "dinosaur": 2506,
      "marry": 2507,
      "cord": 2508,
      "vegetables": 2509,
      "difficult": 2510,
      "Sus": 2511,
      "exam": 2512,
      "smoke": 2513,
      "rose": 2514,
      "Your": 2515,
      "brilli": 2516,
      "scarf": 2517,
      "learning": 2518,
      "tem": 2519,
      "tele": 2520,
      "tray": 2521,
      "kindness": 2522,
      "delicate": 2523,
      "brothers": 2524,
      "drawing": 2525,
      "Help": 2526,
      "glass": 2527,
      "courage": 2528,
      "adventurous": 2529,
      "brilliant": 2530,
      "Pat": 2531,
      "St": 2532,
      "eye": 2533,
      "ris": 2534,
      "towel": 2535,
      "meal": 2536,
      "lazy": 2537,
      "expens": 2538,
      "brightly": 2539,
      "fluffy": 2540,
      "joined": 2541,
      "search": 2542,
      "balloons": 2543,
      "cycle": 2544,
      "pizza": 2545,
      "expensive": 2546,
      "norm": 2547,
      "inal": 2548,
      "become": 2549,
      "igator": 2550,
      "iginal": 2551,
      "plate": 2552,
      "alligator": 2553,
      "bove": 2554,
      "uring": 2555,
      "laun": 2556,
      "spun": 2557,
      "rushed": 2558,
      "favour": 2559,
      "Mrs": 2560,
      "delight": 2561,
      "engine": 2562,
      "Cl": 2563,
      "above": 2564,
      "cing": 2565,
      "mummy": 2566,
      "original": 2567,
      "weird": 2568,
      "rod": 2569,
      "pear": 2570,
      "dep": 2571,
      "uddy": 2572,
      "Andy": 2573,
      "pota": 2574,
      "painting": 2575,
      "walls": 2576,
      "umbled": 2577,
      "crayon": 2578,
      "changed": 2579,
      "Charlie": 2580,
      "normal": 2581,
      "favourite": 2582,
      "Ne": 2583,
      "dish": 2584,
      "four": 2585,
      "rid": 2586,
      "tom": 2587,
      "card": 2588,
      "famous": 2589,
      "bottom": 2590,
      "patch": 2591,
      "persist": 2592,
      "slipped": 2593,
      "tools": 2594,
      "solve": 2595,
      "Lilly": 2596,
      "bled": 2597,
      "nat": 2598,
      "number": 2599,
      "yog": 2600,
      "reli": 2601,
      "added": 2602,
      "yourself": 2603,
      "ations": 2604,
      "breakfast": 2605,
      "polish": 2606,
      "popular": 2607,
      "reliable": 2608,
      "Will": 2609,
      "azz": 2610,
      "kitten": 2611,
      "lli": 2612,
      "isted": 2613,
      "imed": 2614,
      "stat": 2615,
      "beet": 2616,
      "gets": 2617,
      "goal": 2618,
      "ured": 2619,
      "agree": 2620,
      "birdie": 2621,
      "group": 2622,
      "sadly": 2623,
      "office": 2624,
      "ighted": 2625,
      "mistake": 2626,
      "admired": 2627,
      "snee": 2628,
      "managed": 2629,
      "Blue": 2630,
      "Clara": 2631,
      "persistent": 2632,
      "gum": 2633,
      "ping": 2634,
      "pal": 2635,
      "sil": 2636,
      "ti": 2637,
      "flash": 2638,
      "bags": 2639,
      "penny": 2640,
      "wagged": 2641,
      "uggled": 2642,
      "delighted": 2643,
      "belonged": 2644,
      "depend": 2645,
      "Nemo": 2646,
      "Give": 2647,
      "bitter": 2648,
      "cher": 2649,
      "glow": 2650,
      "horn": 2651,
      "lly": 2652,
      "oc": 2653,
      "uth": 2654,
      "anda": 2655,
      "order": 2656,
      "ado": 2657,
      "lifted": 2658,
      "shone": 2659,
      "cloth": 2660,
      "handed": 2661,
      "loudly": 2662,
      "keeper": 2663,
      "cakes": 2664,
      "mighty": 2665,
      "Grand": 2666,
      "carrying": 2667,
      "thinking": 2668,
      "camera": 2669,
      "screen": 2670,
      "soldier": 2671,
      "terrible": 2672,
      "turtle": 2673,
      "laundry": 2674,
      "beetle": 2675,
      "Tony": 2676,
      "cone": 2677,
      "gun": 2678,
      "tur": 2679,
      "lolli": 2680,
      "stubb": 2681,
      "orry": 2682,
      "asking": 2683,
      "happiness": 2684,
      "shi": 2685,
      "pee": 2686,
      "excla": 2687,
      "closet": 2688,
      "fridge": 2689,
      "squee": 2690,
      "walks": 2691,
      "juicy": 2692,
      "counted": 2693,
      "harmless": 2694,
      "lollipop": 2695,
      "Kim": 2696,
      "Kitty": 2697,
      "Mil": 2698,
      "Stop": 2699,
      "Would": 2700,
      "men": 2701,
      "sup": 2702,
      "tied": 2703,
      "anx": 2704,
      "ountain": 2705,
      "stack": 2706,
      "nel": 2707,
      "ots": 2708,
      "weal": 2709,
      "gem": 2710,
      "coa": 2711,
      "using": 2712,
      "cube": 2713,
      "disgust": 2714,
      "sleepy": 2715,
      "glue": 2716,
      "giving": 2717,
      "circles": 2718,
      "tunnel": 2719,
      "Leo": 2720,
      "eggs": 2721,
      "ticket": 2722,
      "Whenever": 2723,
      "cries": 2724,
      "fountain": 2725,
      "grace": 2726,
      "maybe": 2727,
      "pump": 2728,
      "tries": 2729,
      "ingred": 2730,
      "sauce": 2731,
      "stumbled": 2732,
      "vet": 2733,
      "lift": 2734,
      "rare": 2735,
      "carpet": 2736,
      "cob": 2737,
      "fool": 2738,
      "iest": 2739,
      "aced": 2740,
      "angle": 2741,
      "proudly": 2742,
      "Bobby": 2743,
      "deliver": 2744,
      "sounded": 2745,
      "choose": 2746,
      "boring": 2747,
      "guess": 2748,
      "crab": 2749,
      "hurts": 2750,
      "dolphin": 2751,
      "library": 2752,
      "exclaimed": 2753,
      "super": 2754,
      "anxious": 2755,
      "disgusting": 2756,
      "ingredient": 2757,
      "Bear": 2758,
      "az": 2759,
      "lid": 2760,
      "sudden": 2761,
      "tag": 2762,
      "vice": 2763,
      "wake": 2764,
      "sage": 2765,
      "liz": 2766,
      "!\".": 2767,
      "mosqu": 2768,
      "illa": 2769,
      "excitedly": 2770,
      "showing": 2771,
      "comple": 2772,
      "clum": 2773,
      "picking": 2774,
      "explored": 2775,
      "discover": 2776,
      "stronger": 2777,
      "butterflies": 2778,
      "borrow": 2779,
      "drawer": 2780,
      "power": 2781,
      "poured": 2782,
      "nuts": 2783,
      "dependable": 2784,
      "stubborn": 2785,
      "foolish": 2786,
      "mosqui": 2787,
      "Harry": 2788,
      "opar": 2789,
      "rat": 2790,
      "itar": 2791,
      "leopar": 2792,
      "stri": 2793,
      "ending": 2794,
      "raced": 2795,
      "stove": 2796,
      "muffin": 2797,
      "acce": 2798,
      "needs": 2799,
      "beauty": 2800,
      "replace": 2801,
      "airplane": 2802,
      "sweetie": 2803,
      "guitar": 2804,
      "growing": 2805,
      "wrapped": 2806,
      "modern": 2807,
      "filthy": 2808,
      "wiped": 2809,
      "graceful": 2810,
      "mosquito": 2811,
      "leopard": 2812,
      "cur": 2813,
      "dizzy": 2814,
      "fat": 2815,
      "mask": 2816,
      "toast": 2817,
      "erce": 2818,
      "thirst": 2819,
      "neat": 2820,
      "vest": 2821,
      "chir": 2822,
      "tern": 2823,
      "spell": 2824,
      "earth": 2825,
      "fierce": 2826,
      "afternoon": 2827,
      "dinary": 2828,
      "bald": 2829,
      "suit": 2830,
      "spoiled": 2831,
      "nature": 2832,
      "shiver": 2833,
      "Ducky": 2834,
      "Next": 2835,
      "Sorry": 2836,
      "apo": 2837,
      "bone": 2838,
      "sink": 2839,
      "scr": 2840,
      "tire": 2841,
      "lope": 2842,
      "allowed": 2843,
      "ordinary": 2844,
      "bell": 2845,
      "notice": 2846,
      "petal": 2847,
      "speed": 2848,
      "comput": 2849,
      "berry": 2850,
      "shark": 2851,
      "airport": 2852,
      "means": 2853,
      "guil": 2854,
      "triangle": 2855,
      "counting": 2856,
      "serious": 2857,
      "buttons": 2858,
      "rubbed": 2859,
      "clumsy": 2860,
      "apolog": 2861,
      "Rex": 2862,
      "dig": 2863,
      "gor": 2864,
      "ience": 2865,
      "nur": 2866,
      "pho": 2867,
      "rough": 2868,
      "ribb": 2869,
      "moms": 2870,
      "cart": 2871,
      "nosy": 2872,
      "grown": 2873,
      "seem": 2874,
      "udge": 2875,
      "finding": 2876,
      "warned": 2877,
      "nicely": 2878,
      "hears": 2879,
      "dreamed": 2880,
      "cupboard": 2881,
      "bathroom": 2882,
      "celebrate": 2883,
      "whispered": 2884,
      "fresh": 2885,
      "wealthy": 2886,
      "computer": 2887,
      "guilty": 2888,
      "photo": 2889,
      "aid": 2890,
      "bur": 2891,
      "dough": 2892,
      "fant": 2893,
      "tti": 2894,
      "hetti": 2895,
      "repe": 2896,
      "enve": 2897,
      "issor": 2898,
      "alous": 2899,
      "ceed": 2900,
      "advice": 2901,
      "aghetti": 2902,
      "news": 2903,
      "helps": 2904,
      "spaghetti": 2905,
      "ucked": 2906,
      "cheer": 2907,
      "balls": 2908,
      "boxes": 2909,
      "ruined": 2910,
      "sticks": 2911,
      "clap": 2912,
      "falling": 2913,
      "jealous": 2914,
      "tub": 2915,
      "mixed": 2916,
      "crawled": 2917,
      "shells": 2918,
      "scissor": 2919,
      "motorcycle": 2920,
      "prize": 2921,
      "ingredients": 2922,
      "thirsty": 2923,
      "envelope": 2924,
      "scissors": 2925,
      "aked": 2926,
      "cil": 2927,
      "cudd": 2928,
      "vi": 2929,
      "stup": 2930,
      "goose": 2931,
      "shut": 2932,
      "cost": 2933,
      "mole": 2934,
      "memor": 2935,
      "parade": 2936,
      "Everything": 2937,
      "cleaning": 2938,
      "cooler": 2939,
      "Toby": 2940,
      "wheat": 2941,
      "crazy": 2942,
      "pencil": 2943,
      "passion": 2944,
      "twirled": 2945,
      "Grandpa": 2946,
      "stupid": 2947,
      "burn": 2948,
      "task": 2949,
      "ination": 2950,
      "enny": 2951,
      "thunder": 2952,
      "forth": 2953,
      "older": 2954,
      "yours": 2955,
      "compet": 2956,
      "cheap": 2957,
      "raining": 2958,
      "cush": 2959,
      "haircut": 2960,
      "match": 2961,
      "chase": 2962,
      "knob": 2963,
      "tube": 2964,
      "Ellie": 2965,
      "univer": 2966,
      "bulb": 2967,
      "valu": 2968,
      "decorate": 2969,
      "impressed": 2970,
      "rocod": 2971,
      "Brownie": 2972,
      "yogurt": 2973,
      "Millie": 2974,
      "bi": 2975,
      "bump": 2976,
      "bark": 2977,
      "crocod": 2978,
      "fis": 2979,
      "five": 2980,
      "obed": 2981,
      "ince": 2982,
      "loy": 2983,
      "sell": 2984,
      "inde": 2985,
      "fac": 2986,
      "bble": 2987,
      "beak": 2988,
      "Bobo": 2989,
      "swinging": 2990,
      "chose": 2991,
      "lights": 2992,
      "spoke": 2993,
      "pattern": 2994,
      "package": 2995,
      "neighb": 2996,
      "succeed": 2997,
      "Paul": 2998,
      "petals": 2999,
      "competit": 3000,
      "obedient": 3001,
      "Buddy": 3002,
      "Ju": 3003,
      "may": 3004,
      "mes": 3005,
      "por": 3006,
      "sca": 3007,
      "scare": 3008,
      "repair": 3009,
      "bet": 3010,
      "hook": 3011,
      "hood": 3012,
      "cocoa": 3013,
      "decide": 3014,
      "comb": 3015,
      "tape": 3016,
      "badly": 3017,
      "square": 3018,
      "tells": 3019,
      "medic": 3020,
      "missing": 3021,
      "laughs": 3022,
      "trap": 3023,
      "sity": 3024,
      "crack": 3025,
      "grapes": 3026,
      "lively": 3027,
      "melon": 3028,
      "seeds": 3029,
      "puzzle": 3030,
      "Maria": 3031,
      "statue": 3032,
      "gorilla": 3033,
      "valuable": 3034,
      "Al": 3035,
      "Je": 3036,
      "avo": 3037,
      "cue": 3038,
      "mild": 3039,
      "sle": 3040,
      "wing": 3041,
      "witch": 3042,
      "wife": 3043,
      "yarn": 3044,
      "enorm": 3045,
      "those": 3046,
      "placed": 3047,
      "ween": 3048,
      "ugged": 3049,
      "ache": 3050,
      "magaz": 3051,
      "painted": 3052,
      "fireman": 3053,
      "doesn": 3054,
      "rescue": 3055,
      "metal": 3056,
      "distant": 3057,
      "kissed": 3058,
      "fisher": 3059,
      "enormous": 3060,
      "ahead": 3061,
      "fine": 3062,
      "panda": 3063,
      "yell": 3064,
      "eral": 3065,
      "washed": 3066,
      "omas": 3067,
      "bel": 3068,
      "shield": 3069,
      "sport": 3070,
      "skip": 3071,
      "knows": 3072,
      "compassion": 3073,
      "bushes": 3074,
      "pale": 3075,
      "flex": 3076,
      "Thomas": 3077,
      "pointing": 3078,
      "serve": 3079,
      "sweater": 3080,
      "design": 3081,
      "factory": 3082,
      "Ow": 3083,
      "char": 3084,
      "hun": 3085,
      "scold": 3086,
      "anut": 3087,
      "rece": 3088,
      "leton": 3089,
      "alert": 3090,
      "bean": 3091,
      "bees": 3092,
      "keys": 3093,
      "keleton": 3094,
      "soap": 3095,
      "asses": 3096,
      "biggest": 3097,
      "peanut": 3098,
      "space": 3099,
      "axi": 3100,
      "careless": 3101,
      "dogs": 3102,
      "early": 3103,
      "shape": 3104,
      "hairy": 3105,
      "restless": 3106,
      "marched": 3107,
      "market": 3108,
      "mineral": 3109,
      "sparkled": 3110,
      "popcorn": 3111,
      "hurry": 3112,
      "bounce": 3113,
      "imagined": 3114,
      "pirate": 3115,
      "Susie": 3116,
      "scrat": 3117,
      "cushion": 3118,
      "crocodile": 3119,
      "medicine": 3120,
      "fisherman": 3121,
      "flexible": 3122,
      "Dan": 3123,
      "athe": 3124,
      "eor": 3125,
      "numb": 3126,
      "pipe": 3127,
      "skeleton": 3128,
      "uncomfortable": 3129,
      "chan": 3130,
      "deaf": 3131,
      "useful": 3132,
      "axe": 3133,
      "shows": 3134,
      "leaving": 3135,
      "magnet": 3136,
      "firework": 3137,
      "dreams": 3138,
      "falls": 3139,
      "further": 3140,
      "fields": 3141,
      "Before": 3142,
      "spring": 3143,
      "meeting": 3144,
      "golden": 3145,
      "blowing": 3146,
      "impressive": 3147,
      "stirred": 3148,
      "Betsy": 3149,
      "temple": 3150,
      "flashlight": 3151,
      "peeked": 3152,
      "loyal": 3153,
      "Geor": 3154,
      "drain": 3155,
      "jet": 3156,
      "pun": 3157,
      "pine": 3158,
      "tled": 3159,
      "tank": 3160,
      "intell": 3161,
      "salt": 3162,
      "selves": 3163,
      "owed": 3164,
      "raz": 3165,
      "ummer": 3166,
      "tooth": 3167,
      "ief": 3168,
      "thoughtful": 3169,
      "create": 3170,
      "sorts": 3171,
      "shaking": 3172,
      "shoot": 3173,
      "twist": 3174,
      "married": 3175,
      "crown": 3176,
      "mission": 3177,
      "fearful": 3178,
      "practice": 3179,
      "microphone": 3180,
      "obje": 3181,
      "scale": 3182,
      "numbers": 3183,
      "George": 3184,
      "intellig": 3185,
      "Bunny": 3186,
      "Un": 3187,
      "rh": 3188,
      "taxi": 3189,
      "heli": 3190,
      "ants": 3191,
      "itself": 3192,
      "unknown": 3193,
      "happier": 3194,
      "coins": 3195,
      "ume": 3196,
      "cane": 3197,
      "stared": 3198,
      "quite": 3199,
      "spilled": 3200,
      "exper": 3201,
      "paid": 3202,
      "Instead": 3203,
      "boats": 3204,
      "trucks": 3205,
      "barber": 3206,
      "sleeping": 3207,
      "track": 3208,
      "chasing": 3209,
      "fruits": 3210,
      "driving": 3211,
      "wander": 3212,
      "organize": 3213,
      "grandpa": 3214,
      "copter": 3215,
      "kicked": 3216,
      "flute": 3217,
      "razor": 3218,
      "helicopter": 3219,
      "Jerry": 3220,
      "city": 3221,
      "tummy": 3222,
      "yet": 3223,
      "infant": 3224,
      "rem": 3225,
      "resp": 3226,
      "ended": 3227,
      "hats": 3228,
      "shroom": 3229,
      "coo": 3230,
      "deer": 3231,
      "backpack": 3232,
      "worth": 3233,
      "trem": 3234,
      "Thanks": 3235,
      "telling": 3236,
      "colours": 3237,
      "mint": 3238,
      "musician": 3239,
      "glasses": 3240,
      "purse": 3241,
      "given": 3242,
      "basketball": 3243,
      "zoomed": 3244,
      "reminded": 3245,
      "candle": 3246,
      "video": 3247,
      "lizard": 3248,
      "neighbour": 3249,
      "compassionate": 3250,
      "intelligent": 3251,
      "Jess": 3252,
      "Red": 3253,
      "gloom": 3254,
      "ray": 3255,
      "ener": 3256,
      "stal": 3257,
      "station": 3258,
      "playful": 3259,
      "friendship": 3260,
      "mechan": 3261,
      "mushroom": 3262,
      "snuggled": 3263,
      "crow": 3264,
      "perfectly": 3265,
      "pengu": 3266,
      "question": 3267,
      "scope": 3268,
      "scoop": 3269,
      "fingers": 3270,
      "bananas": 3271,
      "microscope": 3272,
      "battery": 3273,
      "Suzy": 3274,
      "mechanic": 3275,
      "ffle": 3276,
      "gir": 3277,
      "kitty": 3278,
      "rise": 3279,
      "ines": 3280,
      "ilt": 3281,
      "aled": 3282,
      "thus": 3283,
      "bol": 3284,
      "host": 3285,
      "hoop": 3286,
      "helpless": 3287,
      "iches": 3288,
      "capt": 3289,
      "wallet": 3290,
      "anyway": 3291,
      "post": 3292,
      "popped": 3293,
      "headed": 3294,
      "marble": 3295,
      "trick": 3296,
      "clapping": 3297,
      "angel": 3298,
      "searching": 3299,
      "sym": 3300,
      "affe": 3301,
      "winter": 3302,
      "troubled": 3303,
      "bull": 3304,
      "pige": 3305,
      "bounced": 3306,
      "crawl": 3307,
      "sandwiches": 3308,
      "football": 3309,
      "stretched": 3310,
      "steps": 3311,
      "respectful": 3312,
      "gasped": 3313,
      "wheels": 3314,
      "ignorant": 3315,
      "pumpkin": 3316,
      "nurse": 3317,
      "slept": 3318,
      "giraffe": 3319,
      "Frank": 3320,
      "Is": 3321,
      "Penny": 3322,
      "mill": 3323,
      "pian": 3324,
      "ues": 3325,
      "waffle": 3326,
      "reward": 3327,
      "enthus": 3328,
      "stic": 3329,
      "iron": 3330,
      "nes": 3331,
      "ambul": 3332,
      "weather": 3333,
      "chub": 3334,
      "nowhere": 3335,
      "map": 3336,
      "teas": 3337,
      "truth": 3338,
      "clay": 3339,
      "print": 3340,
      "climbing": 3341,
      "trail": 3342,
      "travel": 3343,
      "shadow": 3344,
      "superhero": 3345,
      "charming": 3346,
      "hunter": 3347,
      "symbol": 3348,
      "piano": 3349,
      "ambulance": 3350,
      "chubby": 3351,
      "James": 3352,
      "Sop": 3353,
      "ghost": 3354,
      "ipp": 3355,
      "luck": 3356,
      "ost": 3357,
      "summer": 3358,
      "vine": 3359,
      "vious": 3360,
      "toma": 3361,
      "incl": 3362,
      "reci": 3363,
      "atient": 3364,
      "dove": 3365,
      "putting": 3366,
      "jolly": 3367,
      "impatient": 3368,
      "brighter": 3369,
      "closely": 3370,
      "trave": 3371,
      "hotel": 3372,
      "icycle": 3373,
      "rolling": 3374,
      "distur": 3375,
      "attic": 3376,
      "scoot": 3377,
      "complete": 3378,
      "porch": 3379,
      "magazine": 3380,
      "gloomy": 3381,
      "Soph": 3382,
      "dug": 3383,
      "oak": 3384,
      "uli": 3385,
      "refused": 3386,
      "record": 3387,
      "isdom": 3388,
      "separ": 3389,
      "rice": 3390,
      "fort": 3391,
      "dear": 3392,
      "dead": 3393,
      "ained": 3394,
      "cap": 3395,
      "cauli": 3396,
      "wool": 3397,
      "anywhere": 3398,
      "uct": 3399,
      "steak": 3400,
      "dishes": 3401,
      "listening": 3402,
      "resist": 3403,
      "mustache": 3404,
      "practiced": 3405,
      "radish": 3406,
      "pirates": 3407,
      "silver": 3408,
      "between": 3409,
      "Sad": 3410,
      "Ste": 3411,
      "ither": 3412,
      "mand": 3413,
      "nal": 3414,
      "sed": 3415,
      "sof": 3416,
      "send": 3417,
      "yach": 3418,
      "reinde": 3419,
      "hay": 3420,
      "ley": 3421,
      "stra": 3422,
      "behave": 3423,
      "cel": 3424,
      "seum": 3425,
      "roof": 3426,
      "carto": 3427,
      "coll": 3428,
      "themselves": 3429,
      "nobody": 3430,
      "museum": 3431,
      "picks": 3432,
      "crystal": 3433,
      "nods": 3434,
      "flood": 3435,
      "planes": 3436,
      "softly": 3437,
      "chamber": 3438,
      "journal": 3439,
      "decorations": 3440,
      "giggle": 3441,
      "roared": 3442,
      "pearl": 3443,
      "cauliflower": 3444,
      "sofa": 3445,
      "collar": 3446,
      "ethe": 3447,
      "fed": 3448,
      "sie": 3449,
      "yaw": 3450,
      "envious": 3451,
      "arian": 3452,
      "ison": 3453,
      "stamp": 3454,
      "sock": 3455,
      "chance": 3456,
      "roy": 3457,
      "tered": 3458,
      "cact": 3459,
      "harsh": 3460,
      "sunflower": 3461,
      "complain": 3462,
      "brace": 3463,
      "snif": 3464,
      "barking": 3465,
      "dreaming": 3466,
      "delay": 3467,
      "puddles": 3468,
      "human": 3469,
      "pushing": 3470,
      "competitive": 3471,
      "scolded": 3472,
      "yacht": 3473,
      "straight": 3474,
      "etheart": 3475,
      "Bun": 3476,
      "May": 3477,
      "Ru": 3478,
      "Yay": 3479,
      "cab": 3480,
      "curt": 3481,
      "press": 3482,
      "scat": 3483,
      "tucked": 3484,
      "vac": 3485,
      "ws": 3486,
      "onion": 3487,
      "arrow": 3488,
      "seal": 3489,
      "otter": 3490,
      "web": 3491,
      "weigh": 3492,
      "aser": 3493,
      "boys": 3494,
      "somewhere": 3495,
      "ranch": 3496,
      "tress": 3497,
      "switch": 3498,
      "pole": 3499,
      "iastic": 3500,
      "evening": 3501,
      "hardly": 3502,
      "torn": 3503,
      "monkeys": 3504,
      "lightning": 3505,
      "flour": 3506,
      "avail": 3507,
      "danger": 3508,
      "quietly": 3509,
      "writing": 3510,
      "creatures": 3511,
      "country": 3512,
      "sweetheart": 3513,
      "stretch": 3514,
      "shouting": 3515,
      "shade": 3516,
      "telephone": 3517,
      "turkey": 3518,
      "enthusiastic": 3519,
      "scooter": 3520,
      "cactus": 3521,
      "curtain": 3522,
      "Bu": 3523,
      "Cla": 3524,
      "Tina": 3525,
      "bent": 3526,
      "bree": 3527,
      "cli": 3528,
      "cado": 3529,
      "dar": 3530,
      "dive": 3531,
      "furn": 3532,
      "ga": 3533,
      "size": 3534,
      "since": 3535,
      "wiz": 3536,
      "int": 3537,
      "iture": 3538,
      "beg": 3539,
      "cereal": 3540,
      "pepper": 3541,
      "coal": 3542,
      "helmet": 3543,
      "houses": 3544,
      "sort": 3545,
      "ctive": 3546,
      "frame": 3547,
      "shouldn": 3548,
      "shoe": 3549,
      "twink": 3550,
      "flame": 3551,
      "visited": 3552,
      "mattress": 3553,
      "point": 3554,
      "sub": 3555,
      "throwing": 3556,
      "bandage": 3557,
      "strugg": 3558,
      "folded": 3559,
      "leaned": 3560,
      "destroy": 3561,
      "avocado": 3562,
      "cooked": 3563,
      "pigeon": 3564,
      "Sophie": 3565,
      "celery": 3566,
      "cabin": 3567,
      "Claire": 3568,
      "breeze": 3569,
      "furniture": 3570,
      "wizard": 3571,
      "Bon": 3572,
      "Nut": 3573,
      "Sm": 3574,
      "Sp": 3575,
      "dust": 3576,
      "ges": 3577,
      "hut": 3578,
      "mama": 3579,
      "toe": 3580,
      "belt": 3581,
      "unlock": 3582,
      "hadn": 3583,
      "pebble": 3584,
      "demand": 3585,
      "antly": 3586,
      "cats": 3587,
      "buzz": 3588,
      "surround": 3589,
      "choice": 3590,
      "drawings": 3591,
      "queen": 3592,
      "kneel": 3593,
      "pants": 3594,
      "bouncing": 3595,
      "hoping": 3596,
      "slides": 3597,
      "acorns": 3598,
      "notebook": 3599,
      "riding": 3600,
      "viol": 3601,
      "captain": 3602,
      "ostrich": 3603,
      "bracelet": 3604,
      "vacation": 3605,
      "available": 3606,
      "Nutty": 3607,
      "First": 3608,
      "Grace": 3609,
      "cco": 3610,
      "dess": 3611,
      "dull": 3612,
      "kang": 3613,
      "lk": 3614,
      "nie": 3615,
      "inking": 3616,
      "invest": 3617,
      "aroo": 3618,
      "sta": 3619,
      "igloo": 3620,
      "kets": 3621,
      "chip": 3622,
      "fortun": 3623,
      "boo": 3624,
      "peek": 3625,
      "makeup": 3626,
      "kingdom": 3627,
      "built": 3628,
      "papers": 3629,
      "cooking": 3630,
      "tripped": 3631,
      "kayak": 3632,
      "comfort": 3633,
      "bene": 3634,
      "minute": 3635,
      "palace": 3636,
      "energy": 3637,
      "penguin": 3638,
      "violin": 3639,
      "kangaroo": 3640,
      "investig": 3641,
      "awe": 3642,
      "baking": 3643,
      "daisy": 3644,
      "jazz": 3645,
      "lter": 3646,
      "mas": 3647,
      "xy": 3648,
      "reve": 3649,
      "hall": 3650,
      "herbs": 3651,
      "thread": 3652,
      "thief": 3653,
      "veil": 3654,
      "ador": 3655,
      "forgave": 3656,
      "angu": 3657,
      "eaten": 3658,
      "sunglasses": 3659,
      "wardro": 3660,
      "poked": 3661,
      "cond": 3662,
      "cuss": 3663,
      "frowned": 3664,
      "discuss": 3665,
      "rocket": 3666,
      "duckling": 3667,
      "tricks": 3668,
      "forgotten": 3669,
      "napkin": 3670,
      "chalk": 3671,
      "gifted": 3672,
      "attent": 3673,
      "value": 3674,
      "apologized": 3675,
      "fortunately": 3676,
      "wardrobe": 3677,
      "Did": 3678,
      "Happ": 3679,
      "ah": 3680,
      "bicycle": 3681,
      "either": 3682,
      "lab": 3683,
      "langu": 3684,
      "suff": 3685,
      "slice": 3686,
      "tear": 3687,
      "wisdom": 3688,
      "rend": 3689,
      "stage": 3690,
      "shelter": 3691,
      "unk": 3692,
      "spir": 3693,
      "comed": 3694,
      "impro": 3695,
      "steam": 3696,
      "doors": 3697,
      "balanc": 3698,
      "welcomed": 3699,
      "understanding": 3700,
      "pretending": 3701,
      "treasures": 3702,
      "jogging": 3703,
      "wandered": 3704,
      "invite": 3705,
      "celebrated": 3706,
      "rubber": 3707,
      "jellyfish": 3708,
      "Steve": 3709,
      "reindeer": 3710,
      "subway": 3711,
      "Smith": 3712,
      "dessert": 3713,
      "beneath": 3714,
      "investigate": 3715,
      "attention": 3716,
      "Mim": 3717,
      "during": 3718,
      "judge": 3719,
      "lim": 3720,
      "mm": 3721,
      "oat": 3722,
      "pted": 3723,
      "rust": 3724,
      "sent": 3725,
      "vend": 3726,
      "wine": 3727,
      "anna": 3728,
      "toil": 3729,
      "rever": 3730,
      "refr": 3731,
      "saving": 3732,
      "holid": 3733,
      "covery": 3734,
      "meat": 3735,
      "meas": 3736,
      "grin": 3737,
      "speak": 3738,
      "harbor": 3739,
      "trash": 3740,
      "surf": 3741,
      "surrend": 3742,
      "appreci": 3743,
      "discovery": 3744,
      "lotion": 3745,
      "rested": 3746,
      "Jenna": 3747,
      "barrel": 3748,
      "sailor": 3749,
      "blankets": 3750,
      "tutor": 3751,
      "shopkeeper": 3752,
      "imagine": 3753,
      "igerator": 3754,
      "screw": 3755,
      "trusted": 3756,
      "potato": 3757,
      "memories": 3758,
      "Mimi": 3759,
      "toilet": 3760,
      "refrigerator": 3761,
      "holiday": 3762,
      "Car": 3763,
      "Cat": 3764,
      "Milly": 3765,
      "Po": 3766,
      "aur": 3767,
      "ival": 3768,
      "jail": 3769,
      "mitten": 3770,
      "pas": 3771,
      "tip": 3772,
      "ages": 3773,
      "llen": 3774,
      "maze": 3775,
      "skull": 3776,
      "offer": 3777,
      "warning": 3778,
      "reading": 3779,
      "perform": 3780,
      "shoulder": 3781,
      "shocked": 3782,
      "restaur": 3783,
      "floated": 3784,
      "sticky": 3785,
      "squirrels": 3786,
      "holds": 3787,
      "streng": 3788,
      "split": 3789,
      "grape": 3790,
      "bathtub": 3791,
      "knock": 3792,
      "sprink": 3793,
      "uniform": 3794,
      "pasta": 3795,
      "Freddy": 3796,
      "tomato": 3797,
      "separate": 3798,
      "Ruby": 3799,
      "staff": 3800,
      "adorable": 3801,
      "Happy": 3802,
      "restaurant": 3803,
      "!'": 3804,
      "Ok": 3805,
      "Ol": 3806,
      "Qu": 3807,
      "ait": 3808,
      "apr": 3809,
      "cran": 3810,
      "fu": 3811,
      "nies": 3812,
      "vator": 3813,
      "wigg": 3814,
      "remove": 3815,
      "erable": 3816,
      "image": 3817,
      "attra": 3818,
      "starting": 3819,
      "quack": 3820,
      "created": 3821,
      "poke": 3822,
      "poss": 3823,
      "bears": 3824,
      "flea": 3825,
      "stickers": 3826,
      "avid": 3827,
      "stranger": 3828,
      "claws": 3829,
      "sparkle": 3830,
      "zebra": 3831,
      "elevator": 3832,
      "believed": 3833,
      "bikes": 3834,
      "cups": 3835,
      "uggage": 3836,
      "ppery": 3837,
      "slippery": 3838,
      "crawling": 3839,
      "admire": 3840,
      "prepare": 3841,
      "chewed": 3842,
      "potatoes": 3843,
      "costume": 3844,
      "object": 3845,
      "experience": 3846,
      "spirit": 3847,
      "vendor": 3848,
      "strength": 3849,
      "Ollie": 3850,
      "David": 3851,
      "Lou": 3852,
      "Squ": 3853,
      "aero": 3854,
      "ding": 3855,
      "gue": 3856,
      "ium": 3857,
      "knot": 3858,
      "nce": 3859,
      "pony": 3860,
      "wipe": 3861,
      "yucky": 3862,
      "zi": 3863,
      "zip": 3864,
      "waving": 3865,
      "sty": 3866,
      "uncle": 3867,
      "aches": 3868,
      "club": 3869,
      "appro": 3870,
      "explorer": 3871,
      "shovel": 3872,
      "bookshelf": 3873,
      "warmth": 3874,
      "rub": 3875,
      "rush": 3876,
      "miserable": 3877,
      "planet": 3878,
      "stops": 3879,
      "ringing": 3880,
      "matches": 3881,
      "windows": 3882,
      "castles": 3883,
      "missile": 3884,
      "Because": 3885,
      "freez": 3886,
      "drinks": 3887,
      "However": 3888,
      "patiently": 3889,
      "pilot": 3890,
      "splashing": 3891,
      "pinch": 3892,
      "regret": 3893,
      "dolphins": 3894,
      "Remember": 3895,
      "relaxed": 3896,
      "chirping": 3897,
      "repeat": 3898,
      "Jeff": 3899,
      "Spike": 3900,
      "Bye": 3901,
      "Flo": 3902,
      "God": 3903,
      "Luck": 3904,
      "Nina": 3905,
      "Sun": 3906,
      "olives": 3907,
      "sses": 3908,
      "yield": 3909,
      "zzy": 3910,
      "heat": 3911,
      "tol": 3912,
      "request": 3913,
      "erc": 3914,
      "sters": 3915,
      "offe": 3916,
      "cell": 3917,
      "amed": 3918,
      "exerc": 3919,
      "weighed": 3920,
      "short": 3921,
      "icing": 3922,
      "starts": 3923,
      "mule": 3924,
      "learnt": 3925,
      "swung": 3926,
      "comm": 3927,
      "compl": 3928,
      "safety": 3929,
      "fireplace": 3930,
      "sque": 3931,
      "drop": 3932,
      "buckle": 3933,
      "eagerly": 3934,
      "smells": 3935,
      "astic": 3936,
      "modest": 3937,
      "flapped": 3938,
      "radishes": 3939,
      "sprayed": 3940,
      "classroom": 3941,
      "accepted": 3942,
      "ribbon": 3943,
      "rhin": 3944,
      "respons": 3945,
      "includ": 3946,
      "language": 3947,
      "suffer": 3948,
      "lime": 3949,
      "attractive": 3950,
      "possible": 3951,
      "Luckily": 3952,
      "offee": 3953,
      "Gina": 3954,
      "Jan": 3955,
      "Kate": 3956,
      "Matt": 3957,
      "Polly": 3958,
      "Rab": 3959,
      "apart": 3960,
      "bun": 3961,
      "bby": 3962,
      "coffee": 3963,
      "ey": 3964,
      "gn": 3965,
      "hive": 3966,
      "iv": 3967,
      "iately": 3968,
      "mug": 3969,
      "pis": 3970,
      "rug": 3971,
      "sla": 3972,
      "reco": 3973,
      "leash": 3974,
      "immed": 3975,
      "beside": 3976,
      "secre": 3977,
      "weep": 3978,
      "youn": 3979,
      "enter": 3980,
      "rake": 3981,
      "hter": 3982,
      "peach": 3983,
      "oper": 3984,
      "quake": 3985,
      "quiz": 3986,
      "math": 3987,
      "laughter": 3988,
      "comet": 3989,
      "bury": 3990,
      "bling": 3991,
      "fied": 3992,
      "bravely": 3993,
      "frown": 3994,
      "leak": 3995,
      "opens": 3996,
      "continue": 3997,
      "trains": 3998,
      "frogs": 3999,
      "vision": 4000,
      "provide": 4001,
      "growled": 4002,
      "cheek": 4003,
      "collecting": 4004,
      "desk": 4005,
      "television": 4006,
      "curled": 4007,
      "bumped": 4008,
      "recei": 4009,
      "struggling": 4010,
      "apron": 4011,
      "crane": 4012,
      "bunnies": 4013,
      "pistol": 4014,
      "recogn": 4015,
      "Co": 4016,
      "Each": 4017,
      "For": 4018,
      "Ho": 4019,
      "Miss": 4020,
      "Rac": 4021,
      "aa": 4022,
      "fought": 4023,
      "padd": 4024,
      "sip": 4025,
      "wishes": 4026,
      "zie": 4027,
      "isn": 4028,
      "sau": 4029,
      "alright": 4030,
      "sting": 4031,
      "bey": 4032,
      "igno": 4033,
      "history": 4034,
      "adium": 4035,
      "chim": 4036,
      "ents": 4037,
      "entered": 4038,
      "Its": 4039,
      "!\",": 4040,
      "cared": 4041,
      "pru": 4042,
      "Joy": 4043,
      "item": 4044,
      "Everyday": 4045,
      "skill": 4046,
      "greed": 4047,
      "poem": 4048,
      "workers": 4049,
      "fishing": 4050,
      "display": 4051,
      "difference": 4052,
      "sandbox": 4053,
      "sailing": 4054,
      "jeep": 4055,
      "People": 4056,
      "easily": 4057,
      "camp": 4058,
      "counter": 4059,
      "solved": 4060,
      "Suzie": 4061,
      "cherries": 4062,
      "earthquake": 4063,
      "scooped": 4064,
      "Buzz": 4065,
      "secrets": 4066,
      "Abig": 4067,
      "Abi": 4068,
      "Jazz": 4069,
      "Lucky": 4070,
      "Wed": 4071,
      "Wait": 4072,
      "Zo": 4073,
      "event": 4074,
      "glowed": 4075,
      "lend": 4076,
      "lamp": 4077,
      "stadium": 4078,
      "exact": 4079,
      "unhappy": 4080,
      "fest": 4081,
      "holes": 4082,
      "names": 4083,
      "mop": 4084,
      "fog": 4085,
      "loop": 4086,
      "label": 4087,
      "quar": 4088,
      "whip": 4089,
      "creek": 4090,
      "rabbits": 4091,
      "ction": 4092,
      "letting": 4093,
      "disagreed": 4094,
      "contain": 4095,
      "parent": 4096,
      "moves": 4097,
      "fixing": 4098,
      "crash": 4099,
      "thanks": 4100,
      "towers": 4101,
      "breaks": 4102,
      "neighborhood": 4103,
      "served": 4104,
      "Chris": 4105,
      "stuffed": 4106,
      "gym": 4107,
      "weeks": 4108,
      "strawberry": 4109,
      "loaded": 4110,
      "sneezed": 4111,
      "squeezed": 4112,
      "cobweb": 4113,
      "nesday": 4114,
      "surrender": 4115,
      "zipper": 4116,
      "Rabbit": 4117,
      "immediately": 4118,
      "ignore": 4119,
      "chimney": 4120,
      "Abigail": 4121,
      "Wednesday": 4122,
      "Zoe": 4123,
      "Kat": 4124,
      "cri": 4125,
      "fut": 4126,
      "ipping": 4127,
      "tug": 4128,
      "theater": 4129,
      "ense": 4130,
      "loe": 4131,
      "alive": 4132,
      "below": 4133,
      "expe": 4134,
      "myself": 4135,
      "lier": 4136,
      "chor": 4137,
      "root": 4138,
      "caut": 4139,
      "opin": 4140,
      "spade": 4141,
      "Josh": 4142,
      "sunset": 4143,
      "appla": 4144,
      "disappear": 4145,
      "squash": 4146,
      "breathe": 4147,
      "lands": 4148,
      "deeper": 4149,
      "fallen": 4150,
      "Someone": 4151,
      "slip": 4152,
      "pastry": 4153,
      "diary": 4154,
      "Chloe": 4155,
      "flav": 4156,
      "paws": 4157,
      "jokes": 4158,
      "examine": 4159,
      "accept": 4160,
      "message": 4161,
      "Jessie": 4162,
      "cabinet": 4163,
      "passport": 4164,
      "approached": 4165,
      "greedy": 4166,
      "future": 4167,
      "Ame": 4168,
      "Have": 4169,
      "bang": 4170,
      "fy": 4171,
      "snail": 4172,
      "tro": 4173,
      "va": 4174,
      "instr": 4175,
      "argue": 4176,
      "iling": 4177,
      "una": 4178,
      "unite": 4179,
      "boots": 4180,
      "rail": 4181,
      "ideas": 4182,
      "meowed": 4183,
      "fauce": 4184,
      "birdcage": 4185,
      "clock": 4186,
      "tease": 4187,
      "offic": 4188,
      "trade": 4189,
      "checked": 4190,
      "perfor": 4191,
      "reef": 4192,
      "keeping": 4193,
      "cub": 4194,
      "medal": 4195,
      "following": 4196,
      "taller": 4197,
      "moments": 4198,
      "challen": 4199,
      "collection": 4200,
      "admir": 4201,
      "presents": 4202,
      "prevent": 4203,
      "stretching": 4204,
      "support": 4205,
      "vanished": 4206,
      "strawberries": 4207,
      "destination": 4208,
      "universe": 4209,
      "university": 4210,
      "cartoon": 4211,
      "surrounded": 4212,
      "received": 4213,
      "exactly": 4214,
      "festival": 4215,
      "Ameli": 4216,
      "faucet": 4217,
      "Jam": 4218,
      "Mmm": 4219,
      "Not": 4220,
      "hic": 4221,
      "lily": 4222,
      "laser": 4223,
      "sigh": 4224,
      "snap": 4225,
      "yum": 4226,
      "anchor": 4227,
      "ining": 4228,
      "inked": 4229,
      "These": 4230,
      "stam": 4231,
      "seag": 4232,
      "second": 4233,
      "vehic": 4234,
      "ason": 4235,
      "player": 4236,
      "helper": 4237,
      "achie": 4238,
      "finds": 4239,
      "skipping": 4240,
      "blinked": 4241,
      "jumps": 4242,
      "phy": 4243,
      "dressed": 4244,
      "topus": 4245,
      "chores": 4246,
      "mistakes": 4247,
      "twisted": 4248,
      "pedal": 4249,
      "sparkles": 4250,
      "chairs": 4251,
      "bringing": 4252,
      "blackboard": 4253,
      "invit": 4254,
      "worms": 4255,
      "soaring": 4256,
      "sneak": 4257,
      "shakes": 4258,
      "cherry": 4259,
      "octopus": 4260,
      "squeeze": 4261,
      "Unfortunately": 4262,
      "Bongo": 4263,
      "buzzing": 4264,
      "freezer": 4265,
      "operation": 4266,
      "quarrel": 4267,
      "trophy": 4268,
      "seagull": 4269,
      "..": 4270,
      "bin": 4271,
      "base": 4272,
      "cer": 4273,
      "cus": 4274,
      "hipp": 4275,
      "jug": 4276,
      "lumber": 4277,
      "luggage": 4278,
      "inarian": 4279,
      "washer": 4280,
      "argu": 4281,
      "veter": 4282,
      "weap": 4283,
      "chy": 4284,
      "happens": 4285,
      "oking": 4286,
      "seeing": 4287,
      "grey": 4288,
      "comp": 4289,
      "crept": 4290,
      "paused": 4291,
      "steel": 4292,
      "settled": 4293,
      "floating": 4294,
      "lions": 4295,
      "umbs": 4296,
      "mention": 4297,
      "collected": 4298,
      "belongs": 4299,
      "letters": 4300,
      "imagination": 4301,
      "grandmother": 4302,
      "model": 4303,
      "soared": 4304,
      "eros": 4305,
      "ignored": 4306,
      "dishwasher": 4307,
      "oceros": 4308,
      "strike": 4309,
      "Julie": 4310,
      "remained": 4311,
      "teasing": 4312,
      "begged": 4313,
      "reverse": 4314,
      "Poppy": 4315,
      "rhinoceros": 4316,
      "Rachel": 4317,
      "cautious": 4318,
      "hippo": 4319,
      "veterinarian": 4320,
      "\",": 4321,
      "Moo": 4322,
      "Sandy": 4323,
      "crun": 4324,
      "dire": 4325,
      "fer": 4326,
      "kis": 4327,
      "nation": 4328,
      "wed": 4329,
      "ides": 4330,
      "stable": 4331,
      "ceiling": 4332,
      "weight": 4333,
      "shot": 4334,
      "weren": 4335,
      "caring": 4336,
      "novel": 4337,
      "brings": 4338,
      "accompl": 4339,
      "earlier": 4340,
      "comfy": 4341,
      "wherever": 4342,
      "setting": 4343,
      "heads": 4344,
      "float": 4345,
      "planned": 4346,
      "satis": 4347,
      "wooden": 4348,
      "ement": 4349,
      "jogged": 4350,
      "valley": 4351,
      "hurried": 4352,
      "zooming": 4353,
      "eagle": 4354,
      "camping": 4355,
      "solut": 4356,
      "supply": 4357,
      "reminder": 4358,
      "spending": 4359,
      "shrugged": 4360,
      "twigs": 4361,
      "sneeze": 4362,
      "aeroplane": 4363,
      "Jamie": 4364,
      "kisses": 4365,
      "Liz": 4366,
      "Nick": 4367,
      "bill": 4368,
      "ccer": 4369,
      "gloves": 4370,
      "hits": 4371,
      "hesit": 4372,
      "half": 4373,
      "safer": 4374,
      "hated": 4375,
      "ambi": 4376,
      "soccer": 4377,
      "unpack": 4378,
      "fet": 4379,
      "bother": 4380,
      "raven": 4381,
      "hedge": 4382,
      "pride": 4383,
      "opera": 4384,
      "decis": 4385,
      "spear": 4386,
      "poppy": 4387,
      "izing": 4388,
      "permission": 4389,
      "feelings": 4390,
      "pushes": 4391,
      "worker": 4392,
      "settle": 4393,
      "hurting": 4394,
      "amazement": 4395,
      "rules": 4396,
      "tracks": 4397,
      "touching": 4398,
      "insisted": 4399,
      "knelt": 4400,
      "whist": 4401,
      "praised": 4402,
      "velvet": 4403,
      "coats": 4404,
      "chickens": 4405,
      "mailbox": 4406,
      "folder": 4407,
      "mystery": 4408,
      "crossed": 4409,
      "hanging": 4410,
      "clearing": 4411,
      "shrimp": 4412,
      "Papa": 4413,
      "lawn": 4414,
      "glowing": 4415,
      "succeeded": 4416,
      "beans": 4417,
      "fireworks": 4418,
      "punish": 4419,
      "marbles": 4420,
      "Sadie": 4421,
      "tornado": 4422,
      "introd": 4423,
      "Quack": 4424,
      "opinion": 4425,
      "flavor": 4426,
      "'.": 4427,
      "Ja": 4428,
      "Mir": 4429,
      "Ouch": 4430,
      "Pr": 4431,
      "Ye": 4432,
      "brain": 4433,
      "cts": 4434,
      "dd": 4435,
      "digg": 4436,
      "emer": 4437,
      "groc": 4438,
      "mare": 4439,
      "osed": 4440,
      "pit": 4441,
      "ude": 4442,
      "vies": 4443,
      "ana": 4444,
      "rele": 4445,
      "lest": 4446,
      "beep": 4447,
      "beamed": 4448,
      "sheet": 4449,
      "happiest": 4450,
      "raise": 4451,
      "racing": 4452,
      "movies": 4453,
      "sadness": 4454,
      "skirt": 4455,
      "inky": 4456,
      "watered": 4457,
      "buried": 4458,
      "tap": 4459,
      "fastest": 4460,
      "surprises": 4461,
      "Janey": 4462,
      "thrilled": 4463,
      "nightmare": 4464,
      "ffic": 4465,
      "flat": 4466,
      "arriage": 4467,
      "crashed": 4468,
      "problems": 4469,
      "teaching": 4470,
      "prepar": 4471,
      "Remy": 4472,
      "pupil": 4473,
      "agreement": 4474,
      "discovering": 4475,
      "Maya": 4476,
      "cliff": 4477,
      "revealed": 4478,
      "grinned": 4479,
      "applaud": 4480,
      "challenge": 4481,
      "company": 4482,
      "cautiously": 4483,
      "billboard": 4484,
      "Jacob": 4485,
      "Mel": 4486,
      "Pip": 4487,
      "bunch": 4488,
      "cin": 4489,
      "file": 4490,
      "len": 4491,
      "vic": 4492,
      "zing": 4493,
      "hers": 4494,
      "exit": 4495,
      "soil": 4496,
      "soak": 4497,
      "soaked": 4498,
      "plates": 4499,
      "plastic": 4500,
      "boot": 4501,
      "rops": 4502,
      "peered": 4503,
      "manage": 4504,
      "stolen": 4505,
      "worse": 4506,
      "homes": 4507,
      "quit": 4508,
      "watermelon": 4509,
      "perm": 4510,
      "conf": 4511,
      "shopping": 4512,
      "hearts": 4513,
      "petted": 4514,
      "proper": 4515,
      "gifts": 4516,
      "shined": 4517,
      "relief": 4518,
      "attach": 4519,
      "actually": 4520,
      "pancakes": 4521,
      "washing": 4522,
      "studied": 4523,
      "sliding": 4524,
      "couraged": 4525,
      "shrink": 4526,
      "Annie": 4527,
      "muffins": 4528,
      "Danny": 4529,
      "disturb": 4530,
      "yawned": 4531,
      "sniffed": 4532,
      "destroyed": 4533,
      "balanced": 4534,
      "Squirrel": 4535,
      "skills": 4536,
      "weapon": 4537,
      "digging": 4538,
      "King": 4539,
      "Mu": 4540,
      "Sunny": 4541,
      "Tues": 4542,
      "bathe": 4543,
      "dried": 4544,
      "died": 4545,
      "fas": 4546,
      "fash": 4547,
      "gie": 4548,
      "io": 4549,
      "mist": 4550,
      "wire": 4551,
      "tore": 4552,
      "inse": 4553,
      "recor": 4554,
      "recomm": 4555,
      "safar": 4556,
      "unic": 4557,
      "unlocked": 4558,
      "lip": 4559,
      "gear": 4560,
      "girls": 4561,
      "staring": 4562,
      "grill": 4563,
      "everyday": 4564,
      "wanting": 4565,
      "overjoy": 4566,
      "shower": 4567,
      "poison": 4568,
      "kindly": 4569,
      "sorting": 4570,
      "needle": 4571,
      "famil": 4572,
      "brocco": 4573,
      "sterday": 4574,
      "Finn": 4575,
      "bowed": 4576,
      "pulling": 4577,
      "firemen": 4578,
      "activ": 4579,
      "cows": 4580,
      "pastel": 4581,
      "mailman": 4582,
      "practicing": 4583,
      "precious": 4584,
      "pinched": 4585,
      "supposed": 4586,
      "marks": 4587,
      "Rosie": 4588,
      "Roxy": 4589,
      "bloomed": 4590,
      "candles": 4591,
      "palm": 4592,
      "cuddle": 4593,
      "punished": 4594,
      "tremble": 4595,
      "disturbed": 4596,
      "scattered": 4597,
      "responsible": 4598,
      "decision": 4599,
      "released": 4600,
      "permit": 4601,
      "fascin": 4602,
      "fashion": 4603,
      "overjoyed": 4604,
      "broccoli": 4605,
      "Bubb": 4606,
      "Baa": 4607,
      "Che": 4608,
      "Fe": 4609,
      "Sn": 4610,
      "Those": 4611,
      "Zoom": 4612,
      "glove": 4613,
      "ib": 4614,
      "ien": 4615,
      "marriage": 4616,
      "olive": 4617,
      "pad": 4618,
      "rum": 4619,
      "simp": 4620,
      "scra": 4621,
      "text": 4622,
      "tion": 4623,
      "yan": 4624,
      "zig": 4625,
      "zag": 4626,
      "tong": 4627,
      "beat": 4628,
      "shelves": 4629,
      "ric": 4630,
      "ups": 4631,
      "lick": 4632,
      "golf": 4633,
      "urge": 4634,
      "aggie": 4635,
      "parts": 4636,
      "stole": 4637,
      "stomach": 4638,
      "bbled": 4639,
      "anytime": 4640,
      "perched": 4641,
      "bookcase": 4642,
      "choo": 4643,
      "drops": 4644,
      "sandcastle": 4645,
      "planted": 4646,
      "marching": 4647,
      "sparkling": 4648,
      "chain": 4649,
      "points": 4650,
      "comforted": 4651,
      "winning": 4652,
      "signs": 4653,
      "network": 4654,
      "circus": 4655,
      "hurri": 4656,
      "gency": 4657,
      "decorated": 4658,
      "jamas": 4659,
      "scur": 4660,
      "grabs": 4661,
      "hanger": 4662,
      "suppli": 4663,
      "radio": 4664,
      "observe": 4665,
      "puzzles": 4666,
      "lemonade": 4667,
      "cardboard": 4668,
      "lollipops": 4669,
      "barks": 4670,
      "uctantly": 4671,
      "pressed": 4672,
      "improve": 4673,
      "measured": 4674,
      "fuel": 4675,
      "Sunday": 4676,
      "prune": 4677,
      "stamps": 4678,
      "invitation": 4679,
      "mentioned": 4680,
      "fetch": 4681,
      "Mira": 4682,
      "emergency": 4683,
      "safari": 4684,
      "texture": 4685,
      "tongue": 4686,
      "Hop": 4687,
      "Ruth": 4688,
      "Ryan": 4689,
      "Tr": 4690,
      "Terry": 4691,
      "Wel": 4692,
      "au": 4693,
      "cot": 4694,
      "dic": 4695,
      "gle": 4696,
      "gain": 4697,
      "ky": 4698,
      "pitch": 4699,
      "pages": 4700,
      "poking": 4701,
      "sway": 4702,
      "tugged": 4703,
      "vowed": 4704,
      "inst": 4705,
      "refre": 4706,
      "ities": 4707,
      "waste": 4708,
      "alarm": 4709,
      "herb": 4710,
      "irts": 4711,
      "hate": 4712,
      "socks": 4713,
      "lic": 4714,
      "lips": 4715,
      "esca": 4716,
      "cards": 4717,
      "whatever": 4718,
      "gotten": 4719,
      "everybody": 4720,
      "izes": 4721,
      "wondering": 4722,
      "dresser": 4723,
      "proje": 4724,
      "sailboat": 4725,
      "Beth": 4726,
      "panic": 4727,
      "film": 4728,
      "flutter": 4729,
      "turning": 4730,
      "cuddled": 4731,
      "memory": 4732,
      "peanuts": 4733,
      "scratched": 4734,
      "travell": 4735,
      "traveled": 4736,
      "appreciate": 4737,
      "admiring": 4738,
      "crunchy": 4739,
      "wedding": 4740,
      "satisfied": 4741,
      "whistling": 4742,
      "confident": 4743,
      "insect": 4744,
      "tionary": 4745,
      "True": 4746,
      "Welcome": 4747,
      "dictionary": 4748,
      "refreshed": 4749,
      "escaped": 4750,
      "--": 4751,
      "Any": 4752,
      "By": 4753,
      "Dee": 4754,
      "Lizzy": 4755,
      "Mick": 4756,
      "Yum": 4757,
      "bare": 4758,
      "chat": 4759,
      "dare": 4760,
      "lu": 4761,
      "mome": 4762,
      "ni": 4763,
      "none": 4764,
      "oh": 4765,
      "obey": 4766,
      "swo": 4767,
      "sizes": 4768,
      "zero": 4769,
      "hest": 4770,
      "tour": 4771,
      "sages": 4772,
      "allo": 4773,
      "orang": 4774,
      "endar": 4775,
      "cky": 4776,
      "igger": 4777,
      "asht": 4778,
      "entire": 4779,
      "raind": 4780,
      "thermome": 4781,
      "spill": 4782,
      "spike": 4783,
      "napped": 4784,
      "usually": 4785,
      "dresses": 4786,
      "poon": 4787,
      "Both": 4788,
      "wonders": 4789,
      "bites": 4790,
      "darkness": 4791,
      "sweets": 4792,
      "highest": 4793,
      "accidents": 4794,
      "beef": 4795,
      "mixer": 4796,
      "easier": 4797,
      "calendar": 4798,
      "ggy": 4799,
      "folding": 4800,
      "melt": 4801,
      "melted": 4802,
      "pouring": 4803,
      "shouts": 4804,
      "studying": 4805,
      "jewels": 4806,
      "Star": 4807,
      "ordered": 4808,
      "menu": 4809,
      "chirped": 4810,
      "neighbourhood": 4811,
      "teaspoon": 4812,
      "scatter": 4813,
      "demanded": 4814,
      "rustling": 4815,
      "sprinkles": 4816,
      "recognized": 4817,
      "paddled": 4818,
      "vehicle": 4819,
      "solution": 4820,
      "victory": 4821,
      "Tuesday": 4822,
      "oranges": 4823,
      "ashtray": 4824,
      "thermometer": 4825,
      "Ex": 4826,
      "Fu": 4827,
      "Jones": 4828,
      "Or": 4829,
      "Sant": 4830,
      "Tuna": 4831,
      "cable": 4832,
      "eight": 4833,
      "fab": 4834,
      "gers": 4835,
      "ki": 4836,
      "kins": 4837,
      "mall": 4838,
      "rist": 4839,
      "som": 4840,
      "tang": 4841,
      "wre": 4842,
      "heel": 4843,
      "incre": 4844,
      "encouraged": 4845,
      "ornam": 4846,
      "exha": 4847,
      "sore": 4848,
      "downstairs": 4849,
      "bbie": 4850,
      "ledge": 4851,
      "rooms": 4852,
      "trad": 4853,
      "page": 4854,
      "surface": 4855,
      "voices": 4856,
      "reluctantly": 4857,
      "Dog": 4858,
      "breaking": 4859,
      "plans": 4860,
      "pleasure": 4861,
      "catching": 4862,
      "drinking": 4863,
      "patience": 4864,
      "prov": 4865,
      "purred": 4866,
      "freeze": 4867,
      "tune": 4868,
      "uggles": 4869,
      "score": 4870,
      "bouncy": 4871,
      "seats": 4872,
      "organizing": 4873,
      "decorating": 4874,
      "struggled": 4875,
      "Christ": 4876,
      "brushes": 4877,
      "blooming": 4878,
      "Betty": 4879,
      "rides": 4880,
      "burned": 4881,
      "shooting": 4882,
      "waffles": 4883,
      "shadows": 4884,
      "annah": 4885,
      "younger": 4886,
      "Hoot": 4887,
      "baseball": 4888,
      "prepared": 4889,
      "Snuggles": 4890,
      "zigzag": 4891,
      "raindrops": 4892,
      "Fuzzy": 4893,
      "Santa": 4894,
      "fabric": 4895,
      "Christmas": 4896,
      "Am": 4897,
      "Gre": 4898,
      "Ha": 4899,
      "Honey": 4900,
      "Jon": 4901,
      "Jay": 4902,
      "Len": 4903,
      "Like": 4904,
      "Lizz": 4905,
      "Maisy": 4906,
      "Maggie": 4907,
      "aper": 4908,
      "blo": 4909,
      "bri": 4910,
      "bank": 4911,
      "budge": 4912,
      "iers": 4913,
      "mice": 4914,
      "sen": 4915,
      "tles": 4916,
      "xu": 4917,
      "tonight": 4918,
      "ented": 4919,
      "onions": 4920,
      "ising": 4921,
      "sal": 4922,
      "lets": 4923,
      "imy": 4924,
      "beha": 4925,
      "outdoors": 4926,
      "raised": 4927,
      "smar": 4928,
      "shirts": 4929,
      "rol": 4930,
      "roots": 4931,
      "parked": 4932,
      "laid": 4933,
      "usted": 4934,
      "acy": 4935,
      "knowledge": 4936,
      "sunrise": 4937,
      "cture": 4938,
      "calls": 4939,
      "underground": 4940,
      "Afterwards": 4941,
      "steep": 4942,
      "conne": 4943,
      "custo": 4944,
      "slimy": 4945,
      "importance": 4946,
      "control": 4947,
      "snat": 4948,
      "blueberries": 4949,
      "filling": 4950,
      "crumbs": 4951,
      "hills": 4952,
      "bottles": 4953,
      "traffic": 4954,
      "strangers": 4955,
      "glitter": 4956,
      "whistled": 4957,
      "health": 4958,
      "wags": 4959,
      "winner": 4960,
      "drifted": 4961,
      "secure": 4962,
      "pulls": 4963,
      "powers": 4964,
      "actions": 4965,
      "sweat": 4966,
      "mountains": 4967,
      "flapping": 4968,
      "figures": 4969,
      "soldiers": 4970,
      "spraying": 4971,
      "Mikey": 4972,
      "leaning": 4973,
      "polishing": 4974,
      "completed": 4975,
      "shivering": 4976,
      "photos": 4977,
      "repeated": 4978,
      "cheering": 4979,
      "selling": 4980,
      "receive": 4981,
      "massage": 4982,
      "oats": 4983,
      "exercise": 4984,
      "items": 4985,
      "barely": 4986,
      "luxu": 4987,
      "exhausted": 4988,
      "Lena": 4989,
      "En": 4990,
      "Mam": 4991,
      "Mart": 4992,
      "Put": 4993,
      "Snow": 4994,
      "Shar": 4995,
      "bab": 4996,
      "bak": 4997,
      "bones": 4998,
      "cash": 4999,
      "kers": 5000,
      "lung": 5001,
      "oas": 5002,
      "osity": 5003,
      "vy": 5004,
      "vin": 5005,
      "wink": 5006,
      "eday": 5007,
      "release": 5008,
      "encourage": 5009,
      "onwards": 5010,
      "lecture": 5011,
      "loving": 5012,
      "allow": 5013,
      "thumb": 5014,
      "neath": 5015,
      "ripped": 5016,
      "riosity": 5017,
      "racco": 5018,
      "Time": 5019,
      "robe": 5020,
      "somebody": 5021,
      "sidewalk": 5022,
      "ranger": 5023,
      "worries": 5024,
      "caused": 5025,
      "bbles": 5026,
      "pause": 5027,
      "staying": 5028,
      "realize": 5029,
      "shoulders": 5030,
      "rocked": 5031,
      "printer": 5032,
      "sweeties": 5033,
      "climbs": 5034,
      "packing": 5035,
      "armchair": 5036,
      "ourselves": 5037,
      "swamp": 5038,
      "ounce": 5039,
      "villag": 5040,
      "struck": 5041,
      "figured": 5042,
      "celebration": 5043,
      "coloured": 5044,
      "nails": 5045,
      "jewelry": 5046,
      "Susan": 5047,
      "shivered": 5048,
      "ribbons": 5049,
      "burning": 5050,
      "yelling": 5051,
      "rhy": 5052,
      "remain": 5053,
      "trembling": 5054,
      "completely": 5055,
      "uctions": 5056,
      "Sadly": 5057,
      "gazed": 5058,
      "Carl": 5059,
      "wiggled": 5060,
      "quacked": 5061,
      "regretted": 5062,
      "including": 5063,
      "expected": 5064,
      "instructions": 5065,
      "officer": 5066,
      "Yeah": 5067,
      "scurried": 5068,
      "glee": 5069,
      "license": 5070,
      "someday": 5071,
      "Great": 5072,
      "blood": 5073,
      "Mamma": 5074,
      "Martha": 5075,
      "oasis": 5076,
      "?'": 5077,
      "Ash": 5078,
      "Cra": 5079,
      "Friend": 5080,
      "Fol": 5081,
      "Mor": 5082,
      "Oli": 5083,
      "Spark": 5084,
      "Two": 5085,
      "Whis": 5086,
      "bison": 5087,
      "ef": 5088,
      "equ": 5089,
      "flight": 5090,
      "gran": 5091,
      "hunt": 5092,
      "sled": 5093,
      "snapped": 5094,
      "zipped": 5095,
      "”.": 5096,
      "inch": 5097,
      "reason": 5098,
      "immer": 5099,
      "ths": 5100,
      "thorn": 5101,
      "ckey": 5102,
      "otion": 5103,
      "fully": 5104,
      "hockey": 5105,
      "copper": 5106,
      "newsp": 5107,
      "faced": 5108,
      "brand": 5109,
      "Jacky": 5110,
      "Anne": 5111,
      "sunlight": 5112,
      "pajamas": 5113,
      "surfing": 5114,
      "underneath": 5115,
      "waiter": 5116,
      "cutting": 5117,
      "Doggy": 5118,
      "spots": 5119,
      "frosting": 5120,
      "spoons": 5121,
      "rescu": 5122,
      "naps": 5123,
      "growling": 5124,
      "visiting": 5125,
      "elephants": 5126,
      "polar": 5127,
      "teaches": 5128,
      "inviting": 5129,
      "nicer": 5130,
      "protected": 5131,
      "rubbing": 5132,
      "melting": 5133,
      "machines": 5134,
      "flap": 5135,
      "pillows": 5136,
      "Davey": 5137,
      "stealing": 5138,
      "librarian": 5139,
      "dinosaurs": 5140,
      "tickets": 5141,
      "guessed": 5142,
      "stripes": 5143,
      "Always": 5144,
      "objects": 5145,
      "twinkling": 5146,
      "kneeled": 5147,
      "xygen": 5148,
      "squealed": 5149,
      "included": 5150,
      "suffering": 5151,
      "sausages": 5152,
      "recorded": 5153,
      "unicorn": 5154,
      "swoop": 5155,
      "Exc": 5156,
      "luxury": 5157,
      "cashier": 5158,
      "Follow": 5159,
      "Moral": 5160,
      "Big": 5161,
      "Dolly": 5162,
      "Eva": 5163,
      "Ki": 5164,
      "Mo": 5165,
      "Sque": 5166,
      "Tuck": 5167,
      "Yuck": 5168,
      "ago": 5169,
      "bend": 5170,
      "freed": 5171,
      "hh": 5172,
      "mpo": 5173,
      "munk": 5174,
      "oil": 5175,
      "oxygen": 5176,
      "rul": 5177,
      "swal": 5178,
      "sides": 5179,
      "tiss": 5180,
      "restore": 5181,
      "isies": 5182,
      "ility": 5183,
      "irm": 5184,
      "becoming": 5185,
      "chur": 5186,
      "area": 5187,
      "peel": 5188,
      "rang": 5189,
      "Momo": 5190,
      "acted": 5191,
      "doggy": 5192,
      "creation": 5193,
      "shaped": 5194,
      "shampo": 5195,
      "keeps": 5196,
      "curiosity": 5197,
      "works": 5198,
      "disagree": 5199,
      "storekeeper": 5200,
      "follows": 5201,
      "mister": 5202,
      "patted": 5203,
      "matched": 5204,
      "dancer": 5205,
      "daisies": 5206,
      "Becky": 5207,
      "polished": 5208,
      "winked": 5209,
      "Something": 5210,
      "doctors": 5211,
      "attached": 5212,
      "pockets": 5213,
      "swept": 5214,
      "Goodbye": 5215,
      "yesterday": 5216,
      "oysters": 5217,
      "chewing": 5218,
      "Leave": 5219,
      "horns": 5220,
      "scratch": 5221,
      "giraffes": 5222,
      "cartoons": 5223,
      "yawn": 5224,
      "gaze": 5225,
      "chips": 5226,
      "chipmunk": 5227,
      "measuring": 5228,
      "slap": 5229,
      "sausage": 5230,
      "crib": 5231,
      "argued": 5232,
      "Bubbles": 5233,
      "hurricane": 5234,
      "Mickey": 5235,
      "wreck": 5236,
      "ornament": 5237,
      "Sharing": 5238,
      "villagers": 5239,
      "Whiskers": 5240,
      "Kiki": 5241,
      "Squeak": 5242,
      "Tucker": 5243,
      "tissue": 5244,
      "shampoo": 5245,
      "Ali": 5246,
      "De": 5247,
      "Eliz": 5248,
      "Far": 5249,
      "Fro": 5250,
      "Gab": 5251,
      "Mat": 5252,
      "Mina": 5253,
      "Nana": 5254,
      "Tia": 5255,
      "abe": 5256,
      "athing": 5257,
      "bers": 5258,
      "broom": 5259,
      "bumpy": 5260,
      "ech": 5261,
      "east": 5262,
      "fits": 5263,
      "fume": 5264,
      "firm": 5265,
      "hon": 5266,
      "rout": 5267,
      "sir": 5268,
      "sits": 5269,
      "six": 5270,
      "tig": 5271,
      "vroom": 5272,
      "xop": 5273,
      "reaches": 5274,
      "oni": 5275,
      "saxop": 5276,
      "third": 5277,
      "seven": 5278,
      "plent": 5279,
      "upstairs": 5280,
      "licks": 5281,
      "chop": 5282,
      "ults": 5283,
      "aren": 5284,
      "peas": 5285,
      "inda": 5286,
      "meow": 5287,
      "acting": 5288,
      "forehead": 5289,
      "however": 5290,
      "rained": 5291,
      "ventured": 5292,
      "perfume": 5293,
      "pupp": 5294,
      "Nothing": 5295,
      "tallest": 5296,
      "monsters": 5297,
      "delivery": 5298,
      "snuck": 5299,
      "darker": 5300,
      "flames": 5301,
      "kites": 5302,
      "paints": 5303,
      "ladybug": 5304,
      "muscle": 5305,
      "mouths": 5306,
      "neighbors": 5307,
      "startled": 5308,
      "gathering": 5309,
      "giggling": 5310,
      "horiz": 5311,
      "mailed": 5312,
      "Read": 5313,
      "Really": 5314,
      "clowns": 5315,
      "candies": 5316,
      "sights": 5317,
      "curly": 5318,
      "pencils": 5319,
      "June": 5320,
      "mesmer": 5321,
      "sniff": 5322,
      "darling": 5323,
      "improved": 5324,
      "direction": 5325,
      "accomplish": 5326,
      "recommend": 5327,
      "tangled": 5328,
      "brick": 5329,
      "raccoon": 5330,
      "Crabby": 5331,
      "newspaper": 5332,
      "church": 5333,
      "Elizabe": 5334,
      "Gabby": 5335,
      "tigers": 5336,
      "saxophone": 5337,
      "plenty": 5338,
      "Elizabeth": 5339,
      "Bad": 5340,
      "Bert": 5341,
      "Bird": 5342,
      "Bambi": 5343,
      "Cu": 5344,
      "During": 5345,
      "Fo": 5346,
      "Hannah": 5347,
      "Lul": 5348,
      "Mon": 5349,
      "Mic": 5350,
      "Ot": 5351,
      "Sat": 5352,
      "Slow": 5353,
      "Take": 5354,
      "Tigger": 5355,
      "Up": 5356,
      "Zara": 5357,
      "Zero": 5358,
      "awake": 5359,
      "dent": 5360,
      "fishes": 5361,
      "ial": 5362,
      "ker": 5363,
      "motion": 5364,
      "tide": 5365,
      "zen": 5366,
      "toed": 5367,
      "waist": 5368,
      "removed": 5369,
      "report": 5370,
      "itched": 5371,
      "hael": 5372,
      "encou": 5373,
      "iding": 5374,
      "thm": 5375,
      "atch": 5376,
      "atty": 5377,
      "ppers": 5378,
      "rip": 5379,
      "boom": 5380,
      "pebbles": 5381,
      "hoo": 5382,
      "umble": 5383,
      "mane": 5384,
      "ongrat": 5385,
      "uses": 5386,
      "navy": 5387,
      "hugging": 5388,
      "ucture": 5389,
      "willing": 5390,
      "tram": 5391,
      "sorted": 5392,
      "bravery": 5393,
      "bleed": 5394,
      "squish": 5395,
      "rocking": 5396,
      "arrive": 5397,
      "Jennie": 5398,
      "froze": 5399,
      "painter": 5400,
      "guy": 5401,
      "guys": 5402,
      "tricycle": 5403,
      "trapped": 5404,
      "cupcakes": 5405,
      "Bee": 5406,
      "bathrobe": 5407,
      "screaming": 5408,
      "mixing": 5409,
      "powder": 5410,
      "Without": 5411,
      "attack": 5412,
      "buckets": 5413,
      "pastries": 5414,
      "structure": 5415,
      "students": 5416,
      "roaring": 5417,
      "Chick": 5418,
      "brushed": 5419,
      "kicking": 5420,
      "determination": 5421,
      "markers": 5422,
      "laces": 5423,
      "leader": 5424,
      "rising": 5425,
      "suitcase": 5426,
      "apologize": 5427,
      "competition": 5428,
      "Uncle": 5429,
      "begin": 5430,
      "reveal": 5431,
      "balancing": 5432,
      "style": 5433,
      "youngest": 5434,
      "Katy": 5435,
      "Amelia": 5436,
      "sighs": 5437,
      "introduce": 5438,
      "fascinated": 5439,
      "scraped": 5440,
      "supplies": 5441,
      "auto": 5442,
      "smarter": 5443,
      "customer": 5444,
      "snatched": 5445,
      "Enjoy": 5446,
      "rhythm": 5447,
      "Friends": 5448,
      "Sparky": 5449,
      "swallowed": 5450,
      "Farmer": 5451,
      "horizon": 5452,
      "Lulu": 5453,
      "Michael": 5454,
      "Otto": 5455,
      "encourag": 5456,
      "ongratul": 5457,
      ".'": 5458,
      "Bern": 5459,
      "Cind": 5460,
      "Day": 5461,
      "Ke": 5462,
      "Kelly": 5463,
      "Unt": 5464,
      "baked": 5465,
      "earn": 5466,
      "junk": 5467,
      "ler": 5468,
      "lines": 5469,
      "mbers": 5470,
      "py": 5471,
      "stool": 5472,
      "uly": 5473,
      "via": 5474,
      "wow": 5475,
      "toss": 5476,
      "remy": 5477,
      "reme": 5478,
      "repa": 5479,
      "eries": 5480,
      "stro": 5481,
      "ory": 5482,
      "ripe": 5483,
      "united": 5484,
      "west": 5485,
      "lix": 5486,
      "hadow": 5487,
      "chief": 5488,
      "feast": 5489,
      "entran": 5490,
      "outfit": 5491,
      "notes": 5492,
      "ody": 5493,
      "mob": 5494,
      "newfound": 5495,
      "backed": 5496,
      "stom": 5497,
      "homework": 5498,
      "sped": 5499,
      "scaring": 5500,
      "speaking": 5501,
      "eats": 5502,
      "truly": 5503,
      "tage": 5504,
      "bedtime": 5505,
      "Bobb": 5506,
      "shock": 5507,
      "talent": 5508,
      "singer": 5509,
      "ruin": 5510,
      "rule": 5511,
      "cuts": 5512,
      "sticker": 5513,
      "sticking": 5514,
      "printed": 5515,
      "frozen": 5516,
      "athy": 5517,
      "bars": 5518,
      "fairies": 5519,
      "covering": 5520,
      "matching": 5521,
      "creating": 5522,
      "crabs": 5523,
      "poline": 5524,
      "Peep": 5525,
      "wagging": 5526,
      "dragged": 5527,
      "written": 5528,
      "partic": 5529,
      "wrapping": 5530,
      "throws": 5531,
      "observed": 5532,
      "streamers": 5533,
      "Marie": 5534,
      "paintings": 5535,
      "silence": 5536,
      "burrow": 5537,
      "Jeremy": 5538,
      "respon": 5539,
      "crowd": 5540,
      "Frankie": 5541,
      "recording": 5542,
      "humans": 5543,
      "countryside": 5544,
      "Flora": 5545,
      "slapped": 5546,
      "cheeks": 5547,
      "Katie": 5548,
      "expect": 5549,
      "landscape": 5550,
      "performed": 5551,
      "achieve": 5552,
      "achieved": 5553,
      "grocery": 5554,
      "properly": 5555,
      "Muffin": 5556,
      "activities": 5557,
      "Felix": 5558,
      "cottage": 5559,
      "travelled": 5560,
      "Starla": 5561,
      "provided": 5562,
      "Jonny": 5563,
      "bakery": 5564,
      "Olivia": 5565,
      "rescued": 5566,
      "swooped": 5567,
      "routine": 5568,
      "accomplishment": 5569,
      "Slowly": 5570,
      "dentist": 5571,
      "trampoline": 5572,
      "Chickie": 5573,
      "automob": 5574,
      "Bernie": 5575,
      "Keep": 5576,
      "Until": 5577,
      "repaired": 5578,
      "Lu": 5579,
      "List": 5580,
      "Lee": 5581,
      "Ma": 5582,
      "Madd": 5583,
      "Macy": 5584,
      "Ray": 5585,
      "Try": 5586,
      "Tilly": 5587,
      "Uh": 5588,
      "Yv": 5589,
      "echo": 5590,
      "gained": 5591,
      "iar": 5592,
      "muddy": 5593,
      "ners": 5594,
      "nine": 5595,
      "pies": 5596,
      "rr": 5597,
      "sire": 5598,
      "toward": 5599,
      "waits": 5600,
      "wadd": 5601,
      "rep": 5602,
      "rect": 5603,
      "ount": 5604,
      "onne": 5605,
      "onna": 5606,
      "argum": 5607,
      "alien": 5608,
      "orted": 5609,
      "plucked": 5610,
      "unpacked": 5611,
      "weed": 5612,
      "webs": 5613,
      "players": 5614,
      "hopes": 5615,
      "cope": 5616,
      "cosy": 5617,
      "deal": 5618,
      "theirs": 5619,
      "backwards": 5620,
      "ica": 5621,
      "loops": 5622,
      "lap": 5623,
      "icky": 5624,
      "lower": 5625,
      "fault": 5626,
      "speech": 5627,
      "bbed": 5628,
      "Everybody": 5629,
      "Jackie": 5630,
      "overcome": 5631,
      "Ant": 5632,
      "Ange": 5633,
      "handsome": 5634,
      "teles": 5635,
      "warded": 5636,
      "rainy": 5637,
      "raincoat": 5638,
      "slam": 5639,
      "hairdresser": 5640,
      "single": 5641,
      "Dove": 5642,
      "rotten": 5643,
      "sandcastles": 5644,
      "sation": 5645,
      "buying": 5646,
      "tastes": 5647,
      "buildings": 5648,
      "passing": 5649,
      "Pepper": 5650,
      "Pebby": 5651,
      "reaching": 5652,
      "signed": 5653,
      "paintbrush": 5654,
      "piles": 5655,
      "sweep": 5656,
      "smelling": 5657,
      "desert": 5658,
      "princesses": 5659,
      "spreading": 5660,
      "tuna": 5661,
      "stirring": 5662,
      "tickle": 5663,
      "chocolates": 5664,
      "Rosy": 5665,
      "changing": 5666,
      "prayed": 5667,
      "prayer": 5668,
      "examined": 5669,
      "Patty": 5670,
      "peeking": 5671,
      "neatly": 5672,
      "tubes": 5673,
      "Owl": 5674,
      "minerals": 5675,
      "tricky": 5676,
      "include": 5677,
      "dared": 5678,
      "twinkle": 5679,
      "Bonnie": 5680,
      "slices": 5681,
      "exercises": 5682,
      "Janet": 5683,
      "beyond": 5684,
      "breathed": 5685,
      "arguing": 5686,
      "accomplished": 5687,
      "Liza": 5688,
      "introduc": 5689,
      "Quackers": 5690,
      "groceries": 5691,
      "applauded": 5692,
      "familiar": 5693,
      "paddle": 5694,
      "simple": 5695,
      "Deal": 5696,
      "Ready": 5697,
      "mesmerized": 5698,
      "Curious": 5699,
      "encouraging": 5700,
      "entrance": 5701,
      "automobile": 5702,
      "Listen": 5703,
      "Maddie": 5704,
      "Yvonne": 5705,
      "siren": 5706,
      "telescope": 5707,
      "00": 5708,
      "Bri": 5709,
      "Bounce": 5710,
      "Dr": 5711,
      "Dull": 5712,
      "Gra": 5713,
      "Kris": 5714,
      "Lenny": 5715,
      "Many": 5716,
      "Olive": 5717,
      "Pi": 5718,
      "Per": 5719,
      "Ricky": 5720,
      "Sir": 5721,
      "Stu": 5722,
      "Tam": 5723,
      "Watch": 5724,
      "congratul": 5725,
      "dama": 5726,
      "ease": 5727,
      "hi": 5728,
      "ks": 5729,
      "lined": 5730,
      "munch": 5731,
      "sense": 5732,
      "wound": 5733,
      "insp": 5734,
      "rewarded": 5735,
      "ition": 5736,
      "wasted": 5737,
      "iders": 5738,
      "losing": 5739,
      "ord": 5740,
      "beard": 5741,
      "sever": 5742,
      "sequ": 5743,
      "amount": 5744,
      "unfortunately": 5745,
      "aside": 5746,
      "chilly": 5747,
      "ford": 5748,
      "pets": 5749,
      "peaches": 5750,
      "peppers": 5751,
      "carts": 5752,
      "urged": 5753,
      "umes": 5754,
      "?\",": 5755,
      "stored": 5756,
      "icked": 5757,
      "spiders": 5758,
      "brid": 5759,
      "goodnight": 5760,
      "goodies": 5761,
      "Joan": 5762,
      "JoJo": 5763,
      "treehouse": 5764,
      "ourt": 5765,
      "master": 5766,
      "sunflowers": 5767,
      "handful": 5768,
      "chef": 5769,
      "crew": 5770,
      "prettie": 5771,
      "ortun": 5772,
      "stem": 5773,
      "conver": 5774,
      "leapt": 5775,
      "afterwards": 5776,
      "hearing": 5777,
      "ruining": 5778,
      "lighter": 5779,
      "planning": 5780,
      "blocked": 5781,
      "opening": 5782,
      "rivers": 5783,
      "trips": 5784,
      "claps": 5785,
      "chases": 5786,
      "glimmer": 5787,
      "afford": 5788,
      "correct": 5789,
      "knees": 5790,
      "screams": 5791,
      "writ": 5792,
      "Elsie": 5793,
      "bully": 5794,
      "pigs": 5795,
      "dipped": 5796,
      "peacefully": 5797,
      "horses": 5798,
      "robots": 5799,
      "logs": 5800,
      "granddaughter": 5801,
      "blows": 5802,
      "Chip": 5803,
      "sneaked": 5804,
      "crossing": 5805,
      "elder": 5806,
      "splashes": 5807,
      "strings": 5808,
      "Robbie": 5809,
      "puzzled": 5810,
      "forks": 5811,
      "Whee": 5812,
      "vanish": 5813,
      "Meg": 5814,
      "Stella": 5815,
      "meals": 5816,
      "yoga": 5817,
      "statues": 5818,
      "delivered": 5819,
      "costumes": 5820,
      "indeed": 5821,
      "patterns": 5822,
      "crackers": 5823,
      "mushrooms": 5824,
      "superheroes": 5825,
      "complaining": 5826,
      "twinkled": 5827,
      "avocados": 5828,
      "surroundings": 5829,
      "hallway": 5830,
      "oatmeal": 5831,
      "rusty": 5832,
      "wiggle": 5833,
      "Floppy": 5834,
      "responsib": 5835,
      "paddling": 5836,
      "cricket": 5837,
      "...": 5838,
      "direct": 5839,
      "hesitated": 5840,
      "pupils": 5841,
      "families": 5842,
      "pastels": 5843,
      "project": 5844,
      "fluttering": 5845,
      "behavi": 5846,
      "freedom": 5847,
      "ruler": 5848,
      "Fox": 5849,
      "Days": 5850,
      "particular": 5851,
      "reply": 5852,
      "argument": 5853,
      "Pippy": 5854,
      "Stuart": 5855,
      "damage": 5856,
      "inspired": 5857,
      "prettiest": 5858,
      "Bir": 5859,
      "Eli": 5860,
      "Fis": 5861,
      "Hallo": 5862,
      "Jud": 5863,
      "Jump": 5864,
      "Lion": 5865,
      "Luna": 5866,
      "Never": 5867,
      "Oak": 5868,
      "Pipp": 5869,
      "Pinky": 5870,
      "Que": 5871,
      "Rain": 5872,
      "Stri": 5873,
      "Shadow": 5874,
      "Wend": 5875,
      "Yummy": 5876,
      "aster": 5877,
      "bond": 5878,
      "cro": 5879,
      "dam": 5880,
      "gonna": 5881,
      "pant": 5882,
      "pite": 5883,
      "pouted": 5884,
      "psy": 5885,
      "pigg": 5886,
      "scut": 5887,
      "tasks": 5888,
      "wid": 5889,
      "yer": 5890,
      "anwhile": 5891,
      "toise": 5892,
      "incess": 5893,
      "refresh": 5894,
      "arran": 5895,
      "sewing": 5896,
      "aded": 5897,
      "adult": 5898,
      "lif": 5899,
      "lied": 5900,
      "liqu": 5901,
      "youth": 5902,
      "chuck": 5903,
      "forgetting": 5904,
      "plays": 5905,
      "timer": 5906,
      "ters": 5907,
      "peck": 5908,
      "urday": 5909,
      "Butter": 5910,
      "cans": 5911,
      "mance": 5912,
      "owners": 5913,
      "fact": 5914,
      "spice": 5915,
      "scarves": 5916,
      "nasty": 5917,
      "actor": 5918,
      "bbling": 5919,
      "antha": 5920,
      "Samantha": 5921,
      "anger": 5922,
      "maker": 5923,
      "swirl": 5924,
      "express": 5925,
      "stays": 5926,
      "bravest": 5927,
      "cones": 5928,
      "consequ": 5929,
      "puff": 5930,
      "cleaner": 5931,
      "least": 5932,
      "doorway": 5933,
      "slug": 5934,
      "farther": 5935,
      "faraway": 5936,
      "lotte": 5937,
      "sings": 5938,
      "foods": 5939,
      "tortoise": 5940,
      "ipment": 5941,
      "chosen": 5942,
      "snugg": 5943,
      "throughout": 5944,
      "misses": 5945,
      "gues": 5946,
      "resisted": 5947,
      "situ": 5948,
      "fighter": 5949,
      "business": 5950,
      "growl": 5951,
      "answers": 5952,
      "iggled": 5953,
      "Elle": 5954,
      "action": 5955,
      "bushy": 5956,
      "dived": 5957,
      "giggles": 5958,
      "stron": 5959,
      "humming": 5960,
      "nervously": 5961,
      "corners": 5962,
      "finishing": 5963,
      "tickled": 5964,
      "drums": 5965,
      "shrinking": 5966,
      "prayers": 5967,
      "Charlotte": 5968,
      "weekend": 5969,
      "price": 5970,
      "lawyer": 5971,
      "flags": 5972,
      "Meanwhile": 5973,
      "wipes": 5974,
      "Stay": 5975,
      "sneezing": 5976,
      "pumpkins": 5977,
      "cobwebs": 5978,
      "sharks": 5979,
      "burst": 5980,
      "fantastic": 5981,
      "Paula": 5982,
      "scarecrow": 5983,
      "Alan": 5984,
      "Allie": 5985,
      "belle": 5986,
      "scratching": 5987,
      "experien": 5988,
      "trembled": 5989,
      "travels": 5990,
      "tomatoes": 5991,
      "click": 5992,
      "daring": 5993,
      "choices": 5994,
      "appreciation": 5995,
      "Flopsy": 5996,
      "requested": 5997,
      "weeping": 5998,
      "Copper": 5999,
      "Cocoa": 6000,
      "prunes": 6001,
      "instrum": 6002,
      "rails": 6003,
      "officers": 6004,
      "performance": 6005,
      "sneaky": 6006,
      "Princess": 6007,
      "activity": 6008,
      "instantly": 6009,
      "Lizzie": 6010,
      "salty": 6011,
      "effort": 6012,
      "equipment": 6013,
      "Squeaky": 6014,
      "Saturday": 6015,
      "bleeding": 6016,
      "squishy": 6017,
      "remembers": 6018,
      "waddled": 6019,
      "slammed": 6020,
      "introduced": 6021,
      "congratulated": 6022,
      "bridges": 6023,
      "directions": 6024,
      "Birthday": 6025,
      "Halloween": 6026,
      "Judy": 6027,
      "Pippin": 6028,
      "Queen": 6029,
      "Wendy": 6030,
      "piggy": 6031,
      "liquid": 6032,
      "chuckled": 6033,
      "consequence": 6034,
      "Ah": 6035,
      "Aunt": 6036,
      "Achoo": 6037,
      "Cathy": 6038,
      "Da": 6039,
      "Ew": 6040,
      "Ear": 6041,
      "Eat": 6042,
      "Fid": 6043,
      "Flip": 6044,
      "Isa": 6045,
      "Linda": 6046,
      "Out": 6047,
      "Pow": 6048,
      "Pigg": 6049,
      "Ran": 6050,
      "Ral": 6051,
      "Rup": 6052,
      "bits": 6053,
      "cas": 6054,
      "cent": 6055,
      "date": 6056,
      "dip": 6057,
      "dete": 6058,
      "gap": 6059,
      "hike": 6060,
      "mate": 6061,
      "pens": 6062,
      "spar": 6063,
      "scam": 6064,
      "tipped": 6065,
      "unex": 6066,
      "wins": 6067,
      "zes": 6068,
      "height": 6069,
      "ref": 6070,
      "reass": 6071,
      "itches": 6072,
      "itude": 6073,
      "erve": 6074,
      "ars": 6075,
      "iled": 6076,
      "iles": 6077,
      "thumbs": 6078,
      "neare": 6079,
      "secon": 6080,
      "aming": 6081,
      "among": 6082,
      "ambled": 6083,
      "ades": 6084,
      "playtime": 6085,
      "gobbled": 6086,
      "roses": 6087,
      "pecked": 6088,
      "pected": 6089,
      "hops": 6090,
      "eling": 6091,
      "urry": 6092,
      "coach": 6093,
      "mood": 6094,
      "loose": 6095,
      "ops": 6096,
      "bride": 6097,
      "catches": 6098,
      "waters": 6099,
      "chess": 6100,
      "creations": 6101,
      "blu": 6102,
      "blouse": 6103,
      "blink": 6104,
      "pered": 6105,
      "contest": 6106,
      "replaced": 6107,
      "badge": 6108,
      "badger": 6109,
      "ilda": 6110,
      "windy": 6111,
      "colored": 6112,
      "climber": 6113,
      "heading": 6114,
      "couple": 6115,
      "dressing": 6116,
      "creamy": 6117,
      "Finny": 6118,
      "dropping": 6119,
      "sweetest": 6120,
      "!”.": 6121,
      "wears": 6122,
      "tasting": 6123,
      "sparks": 6124,
      "Gray": 6125,
      "dreamt": 6126,
      "prove": 6127,
      "Justine": 6128,
      "dancers": 6129,
      "purr": 6130,
      "steady": 6131,
      "sisters": 6132,
      "tons": 6133,
      "Being": 6134,
      "dragons": 6135,
      "itchy": 6136,
      "streets": 6137,
      "bulbs": 6138,
      "heartbroken": 6139,
      "sery": 6140,
      "decoration": 6141,
      "laying": 6142,
      "imagining": 6143,
      "celebrating": 6144,
      "Chuck": 6145,
      "politely": 6146,
      "Rosa": 6147,
      "terrified": 6148,
      "Betsie": 6149,
      "towels": 6150,
      "guns": 6151,
      "delivering": 6152,
      "gracefully": 6153,
      "spells": 6154,
      "nursery": 6155,
      "seems": 6156,
      "burnt": 6157,
      "magazines": 6158,
      "belts": 6159,
      "videos": 6160,
      "penguins": 6161,
      "ghosts": 6162,
      "gaps": 6163,
      "struggle": 6164,
      "discussing": 6165,
      "surfboard": 6166,
      "Carly": 6167,
      "Carrot": 6168,
      "warnings": 6169,
      "knocking": 6170,
      "sprinkled": 6171,
      "yielded": 6172,
      "recognize": 6173,
      "punishment": 6174,
      "flavors": 6175,
      "Print": 6176,
      "Musa": 6177,
      "fascinating": 6178,
      "Ruthie": 6179,
      "swaying": 6180,
      "Anytime": 6181,
      "increased": 6182,
      "Hootie": 6183,
      "Amanda": 6184,
      "connected": 6185,
      "sweaters": 6186,
      "granted": 6187,
      "Excuse": 6188,
      "Matilda": 6189,
      "Monica": 6190,
      "attacked": 6191,
      "echoed": 6192,
      "several": 6193,
      "correctly": 6194,
      "Fisky": 6195,
      "widened": 6196,
      "refreshing": 6197,
      "situation": 6198,
      "consequences": 6199,
      "Dale": 6200,
      "Fido": 6201,
      "Piggie": 6202,
      "Rani": 6203,
      "Ralph": 6204,
      "Rupert": 6205,
      "unexpected": 6206,
      "seconds": 6207,
      "10": 6208,
      "Abbie": 6209,
      "Bucky": 6210,
      "Cow": 6211,
      "Fire": 6212,
      "Gu": 6213,
      "Giz": 6214,
      "Jin": 6215,
      "Kay": 6216,
      "La": 6217,
      "Larry": 6218,
      "Luggage": 6219,
      "Man": 6220,
      "Min": 6221,
      "Merry": 6222,
      "Nice": 6223,
      "Nell": 6224,
      "Our": 6225,
      "Oops": 6226,
      "Rory": 6227,
      "Sand": 6228,
      "Sid": 6229,
      "Wigg": 6230,
      "aut": 6231,
      "center": 6232,
      "dies": 6233,
      "dots": 6234,
      "ese": 6235,
      "fri": 6236,
      "gates": 6237,
      "gaz": 6238,
      "hour": 6239,
      "hitting": 6240,
      "mater": 6241,
      "nif": 6242,
      "oed": 6243,
      "ogre": 6244,
      "pins": 6245,
      "shave": 6246,
      "tou": 6247,
      "toad": 6248,
      "ware": 6249,
      "eraser": 6250,
      "onward": 6251,
      "isie": 6252,
      "sale": 6253,
      "impossible": 6254,
      "stare": 6255,
      "stroll": 6256,
      "orts": 6257,
      "ature": 6258,
      "sew": 6259,
      "seas": 6260,
      "season": 6261,
      "igued": 6262,
      "hissed": 6263,
      "vegg": 6264,
      "within": 6265,
      "unicycle": 6266,
      "adually": 6267,
      "aston": 6268,
      "forgiven": 6269,
      "bodies": 6270,
      "rac": 6271,
      "oky": 6272,
      "ropes": 6273,
      "akes": 6274,
      "ugs": 6275,
      "pey": 6276,
      "hover": 6277,
      "hollow": 6278,
      "caroni": 6279,
      "coon": 6280,
      "opy": 6281,
      "decides": 6282,
      "byes": 6283,
      "goodbyes": 6284,
      "acles": 6285,
      "wobbled": 6286,
      "thanking": 6287,
      "Joanna": 6288,
      "learns": 6289,
      "untied": 6290,
      "greet": 6291,
      "teased": 6292,
      "watering": 6293,
      "trot": 6294,
      "trigued": 6295,
      "tapped": 6296,
      "watches": 6297,
      "needles": 6298,
      "blinking": 6299,
      "beast": 6300,
      "flown": 6301,
      "final": 6302,
      "lettu": 6303,
      "confli": 6304,
      "closing": 6305,
      "leaking": 6306,
      "Nobody": 6307,
      "nearly": 6308,
      "mony": 6309,
      "months": 6310,
      "stern": 6311,
      "bowing": 6312,
      "twin": 6313,
      "twice": 6314,
      "softer": 6315,
      "mary": 6316,
      "closes": 6317,
      "tighter": 6318,
      "Toot": 6319,
      "rows": 6320,
      "charac": 6321,
      "cracked": 6322,
      "foxes": 6323,
      "beehive": 6324,
      "parties": 6325,
      "valued": 6326,
      "genero": 6327,
      "spoonful": 6328,
      "wishing": 6329,
      "troubles": 6330,
      "despite": 6331,
      "tidying": 6332,
      "grandparents": 6333,
      "snakes": 6334,
      "dolly": 6335,
      "whales": 6336,
      "supported": 6337,
      "seeker": 6338,
      "adding": 6339,
      "cleared": 6340,
      "Leah": 6341,
      "calmly": 6342,
      "marker": 6343,
      "Paw": 6344,
      "swans": 6345,
      "source": 6346,
      "laws": 6347,
      "fluttered": 6348,
      "Meow": 6349,
      "loading": 6350,
      "policeman": 6351,
      "turtles": 6352,
      "leading": 6353,
      "tempt": 6354,
      "Patch": 6355,
      "Patches": 6356,
      "occas": 6357,
      "Milo": 6358,
      "discoveries": 6359,
      "burger": 6360,
      "motorcycles": 6361,
      "cuddly": 6362,
      "hooks": 6363,
      "Jean": 6364,
      "designed": 6365,
      "spaceship": 6366,
      "postman": 6367,
      "luckily": 6368,
      "recipe": 6369,
      "complained": 6370,
      "discussed": 6371,
      "sailors": 6372,
      "Louise": 6373,
      "aeroplanes": 6374,
      "explorers": 6375,
      "Sunshine": 6376,
      "frowning": 6377,
      "admiration": 6378,
      "vehicles": 6379,
      "Melvin": 6380,
      "Feeling": 6381,
      "rumbling": 6382,
      "simply": 6383,
      "supplied": 6384,
      "textures": 6385,
      "Anya": 6386,
      "nibble": 6387,
      "increase": 6388,
      "Lizzi": 6389,
      "Frog": 6390,
      "puppet": 6391,
      "Bertha": 6392,
      "beginning": 6393,
      "Maisie": 6394,
      "Percy": 6395,
      "conversation": 6396,
      "writer": 6397,
      "responsibility": 6398,
      "behavior": 6399,
      "Stripey": 6400,
      "pantry": 6401,
      "experienced": 6402,
      "Power": 6403,
      "detective": 6404,
      "sparrow": 6405,
      "scampered": 6406,
      "Gizmo": 6407,
      "material": 6408,
      "veggies": 6409,
      "lettuce": 6410,
      "conflict": 6411,
      "generosity": 6412,
      "Ally": 6413,
      "Afri": 6414,
      "Back": 6415,
      "Bop": 6416,
      "Barry": 6417,
      "Binky": 6418,
      "Cody": 6419,
      "Dina": 6420,
      "Fli": 6421,
      "Fion": 6422,
      "Get": 6423,
      "Gran": 6424,
      "Gail": 6425,
      "HE": 6426,
      "Hold": 6427,
      "Harri": 6428,
      "Hatty": 6429,
      "Hurry": 6430,
      "Jelly": 6431,
      "Jord": 6432,
      "Lex": 6433,
      "Lung": 6434,
      "Lau": 6435,
      "Mop": 6436,
      "Mara": 6437,
      "Other": 6438,
      "Pur": 6439,
      "Pret": 6440,
      "Ra": 6441,
      "Sal": 6442,
      "Since": 6443,
      "Te": 6444,
      "Ty": 6445,
      "Tess": 6446,
      "Taking": 6447,
      "Very": 6448,
      "Wo": 6449,
      "Wisdom": 6450,
      "awoke": 6451,
      "bum": 6452,
      "bathing": 6453,
      "cous": 6454,
      "cough": 6455,
      "cused": 6456,
      "cert": 6457,
      "dia": 6458,
      "faded": 6459,
      "gar": 6460,
      "gross": 6461,
      "hus": 6462,
      "itor": 6463,
      "ka": 6464,
      "mittens": 6465,
      "nival": 6466,
      "opp": 6467,
      "pound": 6468,
      "si": 6469,
      "scor": 6470,
      "tuck": 6471,
      "vive": 6472,
      "vast": 6473,
      "wk": 6474,
      "ann": 6475,
      "edges": 6476,
      "insec": 6477,
      "intrigued": 6478,
      "rees": 6479,
      "restored": 6480,
      "hawk": 6481,
      "ening": 6482,
      "onds": 6483,
      "ilted": 6484,
      "ilder": 6485,
      "album": 6486,
      "stain": 6487,
      "stung": 6488,
      "stitch": 6489,
      "oring": 6490,
      "vers": 6491,
      "beloved": 6492,
      "belly": 6493,
      "ats": 6494,
      "cept": 6495,
      "sess": 6496,
      "plumber": 6497,
      "wept": 6498,
      "lia": 6499,
      "forts": 6500,
      "forgiving": 6501,
      "ittered": 6502,
      "shor": 6503,
      "carnival": 6504,
      "Buttons": 6505,
      "ssy": 6506,
      "declar": 6507,
      "wobb": 6508,
      "wolves": 6509,
      "wobble": 6510,
      "thoughts": 6511,
      "macaroni": 6512,
      "yourselves": 6513,
      "type": 6514,
      "skunk": 6515,
      "sunscreen": 6516,
      "uctor": 6517,
      "expert": 6518,
      "Johnson": 6519,
      "exploded": 6520,
      "reds": 6521,
      "beds": 6522,
      "survive": 6523,
      "joyful": 6524,
      "donkey": 6525,
      "pots": 6526,
      "cons": 6527,
      "leather": 6528,
      "nodding": 6529,
      "squir": 6530,
      "coloring": 6531,
      "smiley": 6532,
      "ips": 6533,
      "chopped": 6534,
      "grassy": 6535,
      "breathing": 6536,
      "rotting": 6537,
      "flakes": 6538,
      "printing": 6539,
      "White": 6540,
      "Which": 6541,
      "rings": 6542,
      "marve": 6543,
      "marking": 6544,
      "slower": 6545,
      "promises": 6546,
      "pedaled": 6547,
      "spooky": 6548,
      "result": 6549,
      "lessons": 6550,
      "covers": 6551,
      "creativ": 6552,
      "rowed": 6553,
      "artist": 6554,
      "glued": 6555,
      "passeng": 6556,
      "healed": 6557,
      "smelt": 6558,
      "buckled": 6559,
      "wriggled": 6560,
      "ounced": 6561,
      "Elsa": 6562,
      "dragonfly": 6563,
      "panicked": 6564,
      "seatbelt": 6565,
      "matters": 6566,
      "presses": 6567,
      "calmed": 6568,
      "toolbox": 6569,
      "imagin": 6570,
      "fears": 6571,
      "scrubbed": 6572,
      "scribb": 6573,
      "flip": 6574,
      "copy": 6575,
      "hopeful": 6576,
      "spoiling": 6577,
      "testing": 6578,
      "Brandy": 6579,
      "praying": 6580,
      "diamonds": 6581,
      "ignoring": 6582,
      "knights": 6583,
      "feeding": 6584,
      "Black": 6585,
      "awk": 6586,
      "awful": 6587,
      "Rosemary": 6588,
      "Patri": 6589,
      "Still": 6590,
      "gumball": 6591,
      "silent": 6592,
      "tunnels": 6593,
      "scrambled": 6594,
      "repeating": 6595,
      "thunderstorm": 6596,
      "neighbours": 6597,
      "Julia": 6598,
      "messes": 6599,
      "repairman": 6600,
      "Alright": 6601,
      "wandering": 6602,
      "backpacks": 6603,
      "curtains": 6604,
      "Buzzy": 6605,
      "buzzed": 6606,
      "threads": 6607,
      "conductor": 6608,
      "tiptoed": 6609,
      "Quick": 6610,
      "fuzzy": 6611,
      "rushing": 6612,
      "Missile": 6613,
      "campfire": 6614,
      "container": 6615,
      "seagulls": 6616,
      "hesitant": 6617,
      "Yesterday": 6618,
      "travelling": 6619,
      "confidently": 6620,
      "obeyed": 6621,
      "behaved": 6622,
      "Ashley": 6623,
      "Excited": 6624,
      "peasant": 6625,
      "Cindi": 6626,
      "stroked": 6627,
      "weeds": 6628,
      "munching": 6629,
      "Joanne": 6630,
      "glimmering": 6631,
      "arranged": 6632,
      "spices": 6633,
      "snuggle": 6634,
      "strongest": 6635,
      "instrument": 6636,
      "Earth": 6637,
      "matey": 6638,
      "Laure": 6639,
      "gazing": 6640,
      "astonished": 6641,
      "characters": 6642,
      "occasion": 6643,
      "Africa": 6644,
      "Bopus": 6645,
      "Flipper": 6646,
      "Fiona": 6647,
      "Granny": 6648,
      "Harriet": 6649,
      "Jordan": 6650,
      "Laura": 6651,
      "Purple": 6652,
      "Salty": 6653,
      "Tyler": 6654,
      "husband": 6655,
      "scored": 6656,
      "insects": 6657,
      "wobbly": 6658,
      "creativity": 6659,
      "passengers": 6660,
      "Ade": 6661,
      "Ano": 6662,
      "Ava": 6663,
      "Ba": 6664,
      "Bro": 6665,
      "Cor": 6666,
      "Cot": 6667,
      "Chad": 6668,
      "Edd": 6669,
      "Fif": 6670,
      "Gig": 6671,
      "Gerry": 6672,
      "Hair": 6673,
      "Isn": 6674,
      "Jing": 6675,
      "Jem": 6676,
      "Kara": 6677,
      "Laser": 6678,
      "Lambi": 6679,
      "Make": 6680,
      "Pl": 6681,
      "Pru": 6682,
      "Pandy": 6683,
      "Phone": 6684,
      "Rir": 6685,
      "Right": 6686,
      "Rile": 6687,
      "Rob": 6688,
      "Ratty": 6689,
      "Sit": 6690,
      "Sur": 6691,
      "Silly": 6692,
      "Want": 6693,
      "Water": 6694,
      "Willi": 6695,
      "Zac": 6696,
      "aim": 6697,
      "aud": 6698,
      "awhile": 6699,
      "bou": 6700,
      "bound": 6701,
      "bage": 6702,
      "blast": 6703,
      "court": 6704,
      "ev": 6705,
      "kittens": 6706,
      "os": 6707,
      "pon": 6708,
      "plo": 6709,
      "swords": 6710,
      "sending": 6711,
      "tum": 6712,
      "tran": 6713,
      "tier": 6714,
      "tilted": 6715,
      "hey": 6716,
      "anno": 6717,
      "topp": 6718,
      "todd": 6719,
      "ilities": 6720,
      "iment": 6721,
      "alt": 6722,
      "alley": 6723,
      "stumble": 6724,
      "thro": 6725,
      "thud": 6726,
      "nect": 6727,
      "ends": 6728,
      "Shelly": 6729,
      "beaming": 6730,
      "atitude": 6731,
      "sobbed": 6732,
      "ppa": 6733,
      "ows": 6734,
      "adults": 6735,
      "liar": 6736,
      "force": 6737,
      "formed": 6738,
      "raked": 6739,
      "thered": 6740,
      "dod": 6741,
      "robin": 6742,
      "ulpt": 6743,
      "aret": 6744,
      "noticing": 6745,
      "agrees": 6746,
      "etah": 6747,
      "deed": 6748,
      "defe": 6749,
      "ability": 6750,
      "ically": 6751,
      "canes": 6752,
      "stopping": 6753,
      "treated": 6754,
      "birdhouse": 6755,
      "gratitude": 6756,
      "Momma": 6757,
      "seesaw": 6758,
      "cia": 6759,
      "sadder": 6760,
      "quet": 6761,
      "sprang": 6762,
      "sports": 6763,
      "napping": 6764,
      "acle": 6765,
      "dads": 6766,
      "Anth": 6767,
      "untie": 6768,
      "vented": 6769,
      "runner": 6770,
      "handing": 6771,
      "compe": 6772,
      "clut": 6773,
      "clas": 6774,
      "cheetah": 6775,
      "tapping": 6776,
      "Johnnie": 6777,
      "blings": 6778,
      "blades": 6779,
      "venture": 6780,
      "shame": 6781,
      "prettier": 6782,
      "flowing": 6783,
      "conqu": 6784,
      "Though": 6785,
      "dollars": 6786,
      "displayed": 6787,
      "Love": 6788,
      "soundly": 6789,
      "contented": 6790,
      "snoring": 6791,
      "blueberry": 6792,
      "biting": 6793,
      "curiously": 6794,
      "cooled": 6795,
      "sandpit": 6796,
      "softest": 6797,
      "worrying": 6798,
      "marked": 6799,
      "drawn": 6800,
      "drawers": 6801,
      "fireflies": 6802,
      "firefighter": 6803,
      "Toys": 6804,
      "tripping": 6805,
      "tricked": 6806,
      "welcoming": 6807,
      "petting": 6808,
      "Helen": 6809,
      "reeds": 6810,
      "races": 6811,
      "pedall": 6812,
      "results": 6813,
      "insist": 6814,
      "visitor": 6815,
      "prod": 6816,
      "eleven": 6817,
      "jobs": 6818,
      "glittered": 6819,
      "rolls": 6820,
      "heavily": 6821,
      "heavier": 6822,
      "coral": 6823,
      "cloudy": 6824,
      "snowflakes": 6825,
      "suits": 6826,
      "Behind": 6827,
      "bowls": 6828,
      "Peppa": 6829,
      "baths": 6830,
      "ments": 6831,
      "knocks": 6832,
      "distra": 6833,
      "seashell": 6834,
      "seashells": 6835,
      "drift": 6836,
      "dripping": 6837,
      "ugging": 6838,
      "Elly": 6839,
      "teacup": 6840,
      "shops": 6841,
      "collector": 6842,
      "million": 6843,
      "patients": 6844,
      "slipping": 6845,
      "diving": 6846,
      "larger": 6847,
      "calming": 6848,
      "hummed": 6849,
      "rainbows": 6850,
      "desig": 6851,
      "desper": 6852,
      "sculpt": 6853,
      "rubbish": 6854,
      "prevented": 6855,
      "melons": 6856,
      "sneaking": 6857,
      "reminding": 6858,
      "eldest": 6859,
      "heroes": 6860,
      "Lemon": 6861,
      "suggestion": 6862,
      "engines": 6863,
      "whispering": 6864,
      "streams": 6865,
      "prick": 6866,
      "lemons": 6867,
      "pears": 6868,
      "goals": 6869,
      "flashing": 6870,
      "stacked": 6871,
      "strips": 6872,
      "speeding": 6873,
      "repairing": 6874,
      "avoid": 6875,
      "yells": 6876,
      "loyalty": 6877,
      "bulls": 6878,
      "pigeons": 6879,
      "reindeers": 6880,
      "Rudolph": 6881,
      "kneeling": 6882,
      "awesome": 6883,
      "surrendered": 6884,
      "screwdriver": 6885,
      "offering": 6886,
      "!'.": 6887,
      "quacking": 6888,
      "pokes": 6889,
      "Squawk": 6890,
      "planets": 6891,
      "freezing": 6892,
      "communic": 6893,
      "rhino": 6894,
      "maths": 6895,
      "frowns": 6896,
      "Hopper": 6897,
      "crashing": 6898,
      "banging": 6899,
      "performing": 6900,
      "yumm": 6901,
      "stamped": 6902,
      "pedals": 6903,
      "recorder": 6904,
      "gears": 6905,
      "Bubba": 6906,
      "Cheese": 6907,
      "rumble": 6908,
      "scrape": 6909,
      "hurricanes": 6910,
      "instant": 6911,
      "projects": 6912,
      "heels": 6913,
      "trades": 6914,
      "Ami": 6915,
      "connect": 6916,
      "healthier": 6917,
      "sweaty": 6918,
      "babies": 6919,
      "lungs": 6920,
      "grant": 6921,
      "stomped": 6922,
      "response": 6923,
      "responded": 6924,
      "Brianna": 6925,
      "scuttled": 6926,
      "reassured": 6927,
      "nearest": 6928,
      "blushed": 6929,
      "Firecat": 6930,
      "Wiggly": 6931,
      "trotted": 6932,
      "Pretty": 6933,
      "Rae": 6934,
      "diaper": 6935,
      "garbage": 6936,
      "siblings": 6937,
      "declared": 6938,
      "Patricia": 6939,
      "Adele": 6940,
      "Another": 6941,
      "Baloo": 6942,
      "Cora": 6943,
      "Cotton": 6944,
      "Eddie": 6945,
      "Fifi": 6946,
      "Gigi": 6947,
      "Hairy": 6948,
      "Jingle": 6949,
      "Jemma": 6950,
      "Lambikins": 6951,
      "Prune": 6952,
      "Riri": 6953,
      "Riley": 6954,
      "William": 6955,
      "audience": 6956,
      "bouquet": 6957,
      "bounded": 6958,
      "trans": 6959,
      "annoy": 6960,
      "throat": 6961,
      "nectar": 6962,
      "sculpture": 6963,
      "communicate": 6964,
      ",'": 6965,
      "15": 6966,
      "Amo": 6967,
      "Ama": 6968,
      "Ahh": 6969,
      "Arr": 6970,
      "Bust": 6971,
      "Bang": 6972,
      "Burt": 6973,
      "Bib": 6974,
      "Cal": 6975,
      "Cloud": 6976,
      "Du": 6977,
      "Duck": 6978,
      "Digger": 6979,
      "Fat": 6980,
      "Fambi": 6981,
      "Fortun": 6982,
      "Hal": 6983,
      "Jod": 6984,
      "Jax": 6985,
      "Jody": 6986,
      "Lorry": 6987,
      "Lots": 6988,
      "Mad": 6989,
      "Much": 6990,
      "Monce": 6991,
      "Milla": 6992,
      "Mallo": 6993,
      "Nan": 6994,
      "Open": 6995,
      "Pain": 6996,
      "Puff": 6997,
      "Pix": 6998,
      "Sh": 6999,
      "Spl": 7000,
      "Sno": 7001,
      "Sav": 7002,
      "Summer": 7003,
      "Und": 7004,
      "Using": 7005,
      "Wil": 7006,
      "Walt": 7007,
      "Zip": 7008,
      "ashed": 7009,
      "bins": 7010,
      "cled": 7011,
      "det": 7012,
      "dreds": 7013,
      "fway": 7014,
      "fond": 7015,
      "garet": 7016,
      "hil": 7017,
      "iel": 7018,
      "ires": 7019,
      "lam": 7020,
      "lent": 7021,
      "lina": 7022,
      "mun": 7023,
      "masks": 7024,
      "nu": 7025,
      "rup": 7026,
      "ridge": 7027,
      "sill": 7028,
      "sci": 7029,
      "ssess": 7030,
      "vit": 7031,
      "zipp": 7032,
      "”,": 7033,
      "theat": 7034,
      "ands": 7035,
      "inter": 7036,
      "inches": 7037,
      "intent": 7038,
      "refle": 7039,
      "erup": 7040,
      "erase": 7041,
      "onde": 7042,
      "aring": 7043,
      "lever": 7044,
      "level": 7045,
      "ima": 7046,
      "aling": 7047,
      "alas": 7048,
      "necess": 7049,
      "ata": 7050,
      "except": 7051,
      "hissing": 7052,
      "rier": 7053,
      "rips": 7054,
      "chie": 7055,
      "fever": 7056,
      "essa": 7057,
      "boil": 7058,
      "wanna": 7059,
      "rack": 7060,
      "rather": 7061,
      "Only": 7062,
      "smates": 7063,
      "shimmer": 7064,
      "dock": 7065,
      "peep": 7066,
      "peak": 7067,
      "elf": 7068,
      "ural": 7069,
      "urning": 7070,
      "aged": 7071,
      "coop": 7072,
      "backs": 7073,
      "focus": 7074,
      "focused": 7075,
      "iciest": 7076,
      "rant": 7077,
      "manners": 7078,
      "laps": 7079,
      "lava": 7080,
      "ysitter": 7081,
      "caw": 7082,
      "caps": 7083,
      "opt": 7084,
      "Youth": 7085,
      "lleng": 7086,
      "whoo": 7087,
      "acing": 7088,
      "antic": 7089,
      "tying": 7090,
      "ives": 7091,
      "swish": 7092,
      "switched": 7093,
      "inkle": 7094,
      "History": 7095,
      "common": 7096,
      "warn": 7097,
      "reads": 7098,
      "posit": 7099,
      "possess": 7100,
      "Johny": 7101,
      "rainforest": 7102,
      "explor": 7103,
      "blues": 7104,
      "blonde": 7105,
      "shallow": 7106,
      "beavers": 7107,
      "gardener": 7108,
      "Lucila": 7109,
      "ankle": 7110,
      "fishy": 7111,
      "shooed": 7112,
      "dollhouse": 7113,
      "disagreement": 7114,
      "squished": 7115,
      "squinted": 7116,
      "headache": 7117,
      "hearted": 7118,
      "brightened": 7119,
      "magnif": 7120,
      "counts": 7121,
      "airplanes": 7122,
      "warmer": 7123,
      "snug": 7124,
      "mischie": 7125,
      "rotted": 7126,
      "Looking": 7127,
      "Emmy": 7128,
      "pleas": 7129,
      "blocking": 7130,
      "sweetly": 7131,
      "woodworker": 7132,
      "fires": 7133,
      "firefly": 7134,
      "riverbank": 7135,
      "avy": 7136,
      "hotter": 7137,
      "tastiest": 7138,
      "joining": 7139,
      "hider": 7140,
      "Grump": 7141,
      "challeng": 7142,
      "purchase": 7143,
      "cupcake": 7144,
      "?”.": 7145,
      "snowmen": 7146,
      "minded": 7147,
      "Peaches": 7148,
      "swap": 7149,
      "tunes": 7150,
      "jars": 7151,
      "shines": 7152,
      "mixture": 7153,
      "wraps": 7154,
      "active": 7155,
      "benches": 7156,
      "touches": 7157,
      "teachers": 7158,
      "slithered": 7159,
      "preschool": 7160,
      "peacefulness": 7161,
      "camel": 7162,
      "student": 7163,
      "interested": 7164,
      "paths": 7165,
      "grandson": 7166,
      "scen": 7167,
      "scent": 7168,
      "protecting": 7169,
      "kicks": 7170,
      "battle": 7171,
      "cheerfully": 7172,
      "extraordinary": 7173,
      "Whoever": 7174,
      "driveway": 7175,
      "batteries": 7176,
      "jackets": 7177,
      "tentacles": 7178,
      "lawman": 7179,
      "relaxing": 7180,
      "brushing": 7181,
      "Seeing": 7182,
      "paying": 7183,
      "wiping": 7184,
      "Margaret": 7185,
      "guardian": 7186,
      "examining": 7187,
      "temper": 7188,
      "Stitch": 7189,
      "Stacy": 7190,
      "risky": 7191,
      "risks": 7192,
      "launched": 7193,
      "natural": 7194,
      "Bluey": 7195,
      "squeezes": 7196,
      "wealth": 7197,
      "gems": 7198,
      "striped": 7199,
      "chirp": 7200,
      "seriously": 7201,
      "apologised": 7202,
      "cuddles": 7203,
      "Pauline": 7204,
      "mayor": 7205,
      "porridge": 7206,
      "avoided": 7207,
      "Daniel": 7208,
      "jets": 7209,
      "remote": 7210,
      "energet": 7211,
      "hoops": 7212,
      "delayed": 7213,
      "weighs": 7214,
      "helmets": 7215,
      "Spider": 7216,
      "veils": 7217,
      "reversed": 7218,
      "speaker": 7219,
      "appreciated": 7220,
      "Poor": 7221,
      "sprinkle": 7222,
      "uniforms": 7223,
      "guest": 7224,
      "knots": 7225,
      "shovels": 7226,
      "shortcut": 7227,
      "squeaked": 7228,
      "Jana": 7229,
      "Janessa": 7230,
      "Coal": 7231,
      "differences": 7232,
      "labels": 7233,
      "applause": 7234,
      "novels": 7235,
      "hesitation": 7236,
      "Prince": 7237,
      "preparing": 7238,
      "Melinda": 7239,
      "recommended": 7240,
      "Chew": 7241,
      "cotch": 7242,
      "swayed": 7243,
      "chatting": 7244,
      "nibbling": 7245,
      "spilling": 7246,
      "trading": 7247,
      "glittery": 7248,
      "glittering": 7249,
      "babysitter": 7250,
      "winks": 7251,
      "efforts": 7252,
      "hunting": 7253,
      "sleds": 7254,
      "disagreeing": 7255,
      "Frosty": 7256,
      "firmly": 7257,
      "puppies": 7258,
      "revealing": 7259,
      "Cindy": 7260,
      "earned": 7261,
      "pyjamas": 7262,
      "stroke": 7263,
      "Bobbi": 7264,
      "Angelina": 7265,
      "000": 7266,
      "ortunity": 7267,
      "particularly": 7268,
      "Eliana": 7269,
      "lifts": 7270,
      "Isabelle": 7271,
      "refuse": 7272,
      "hopscotch": 7273,
      "Sandra": 7274,
      "forgiveness": 7275,
      "hovered": 7276,
      "Team": 7277,
      "opportunity": 7278,
      "announced": 7279,
      "shorter": 7280,
      "Brooke": 7281,
      "Sita": 7282,
      "Surpr": 7283,
      "evil": 7284,
      "plopped": 7285,
      "Anthony": 7286,
      "classmates": 7287,
      "prickly": 7288,
      "yummiest": 7289,
      "Amos": 7290,
      "Arrr": 7291,
      "Buster": 7292,
      "Biba": 7293,
      "Duke": 7294,
      "Fatima": 7295,
      "Fortunately": 7296,
      "Halfway": 7297,
      "Jodie": 7298,
      "Maddy": 7299,
      "Moncey": 7300,
      "Mallory": 7301,
      "Pixie": 7302,
      "Snoopy": 7303,
      "Savannah": 7304,
      "Under": 7305,
      "Willie": 7306,
      "detail": 7307,
      "munched": 7308,
      "science": 7309,
      "theatre": 7310,
      "intently": 7311,
      "necessary": 7312,
      "mischievous": 7313,
      "?!\"": 7314,
      "Abe": 7315,
      "Apr": 7316,
      "Along": 7317,
      "Amber": 7318,
      "Abby": 7319,
      "Ca": 7320,
      "Could": 7321,
      "Cho": 7322,
      "Choo": 7323,
      "Cory": 7324,
      "Court": 7325,
      "Dis": 7326,
      "Des": 7327,
      "Danger": 7328,
      "Fight": 7329,
      "Fine": 7330,
      "Frisky": 7331,
      "Gold": 7332,
      "Gary": 7333,
      "Gav": 7334,
      "Jun": 7335,
      "Jas": 7336,
      "LA": 7337,
      "Light": 7338,
      "Lilli": 7339,
      "Ms": 7340,
      "Ming": 7341,
      "Mol": 7342,
      "Mister": 7343,
      "NG": 7344,
      "Nancy": 7345,
      "Over": 7346,
      "Ooh": 7347,
      "Playing": 7348,
      "Phil": 7349,
      "Run": 7350,
      "Rover": 7351,
      "Sha": 7352,
      "Sound": 7353,
      "Sweet": 7354,
      "Shh": 7355,
      "Shoo": 7356,
      "Turn": 7357,
      "Tian": 7358,
      "Trust": 7359,
      "Twink": 7360,
      "Toni": 7361,
      "Use": 7362,
      "Vroom": 7363,
      "Wor": 7364,
      "Wavy": 7365,
      "Yol": 7366,
      "Yog": 7367,
      "Ze": 7368,
      "afar": 7369,
      "buddy": 7370,
      "bait": 7371,
      "coug": 7372,
      "dou": 7373,
      "eted": 7374,
      "eking": 7375,
      "fert": 7376,
      "gul": 7377,
      "groom": 7378,
      "gummy": 7379,
      "gripped": 7380,
      "iñ": 7381,
      "ias": 7382,
      "jay": 7383,
      "lan": 7384,
      "lou": 7385,
      "lending": 7386,
      "mp": 7387,
      "mers": 7388,
      "mies": 7389,
      "pours": 7390,
      "piñ": 7391,
      "rine": 7392,
      "rises": 7393,
      "sou": 7394,
      "sis": 7395,
      "sly": 7396,
      "sank": 7397,
      "tin": 7398,
      "ties": 7399,
      "twel": 7400,
      "tumbled": 7401,
      "wis": 7402,
      "wires": 7403,
      "angr": 7404,
      "thew": 7405,
      "edic": 7406,
      "inting": 7407,
      "rely": 7408,
      "reunited": 7409,
      "remony": 7410,
      "erg": 7411,
      "wasting": 7412,
      "ared": 7413,
      "issa": 7414,
      "isbee": 7415,
      "ids": 7416,
      "iliz": 7417,
      "sapl": 7418,
      "sauc": 7419,
      "lody": 7420,
      "local": 7421,
      "allest": 7422,
      "irly": 7423,
      "irpy": 7424,
      "thump": 7425,
      "neither": 7426,
      "bead": 7427,
      "behaving": 7428,
      "ceremony": 7429,
      "exchange": 7430,
      "soaking": 7431,
      "pples": 7432,
      "ppies": 7433,
      "hiss": 7434,
      "rior": 7435,
      "unsure": 7436,
      "unfamiliar": 7437,
      "upside": 7438,
      "asing": 7439,
      "lies": 7440,
      "youths": 7441,
      "playroom": 7442,
      "allerg": 7443,
      "timid": 7444,
      "bold": 7445,
      "goo": 7446,
      "outfits": 7447,
      "oks": 7448,
      "okies": 7449,
      "smallest": 7450,
      "shown": 7451,
      "shrunk": 7452,
      "sometime": 7453,
      "carton": 7454,
      "cocoon": 7455,
      "mold": 7456,
      "defin": 7457,
      "devast": 7458,
      "helpers": 7459,
      "melody": 7460,
      "absolut": 7461,
      "icious": 7462,
      "funn": 7463,
      "owning": 7464,
      "treas": 7465,
      "cases": 7466,
      "facing": 7467,
      "faction": 7468,
      "failed": 7469,
      "gruff": 7470,
      "ssed": 7471,
      "cie": 7472,
      "quie": 7473,
      "quilt": 7474,
      "whose": 7475,
      "spits": 7476,
      "spicious": 7477,
      "ously": 7478,
      "spected": 7479,
      "woo": 7480,
      "woof": 7481,
      "hardest": 7482,
      "itely": 7483,
      "retri": 7484,
      "returning": 7485,
      "anyways": 7486,
      "untang": 7487,
      "switches": 7488,
      "umph": 7489,
      "Annabelle": 7490,
      "greeted": 7491,
      "combed": 7492,
      "compan": 7493,
      "clues": 7494,
      "warrior": 7495,
      "popping": 7496,
      "pace": 7497,
      "rains": 7498,
      "blur": 7499,
      "shall": 7500,
      "bleated": 7501,
      "Boy": 7502,
      "Bossy": 7503,
      "convin": 7504,
      "Through": 7505,
      "reality": 7506,
      "liest": 7507,
      "frisbee": 7508,
      "throne": 7509,
      "adventurer": 7510,
      "winds": 7511,
      "forests": 7512,
      "displaying": 7513,
      "locks": 7514,
      "surely": 7515,
      "talents": 7516,
      "talented": 7517,
      "listens": 7518,
      "brightest": 7519,
      "ipation": 7520,
      "stores": 7521,
      "coupon": 7522,
      "grabbing": 7523,
      "warmly": 7524,
      "ruff": 7525,
      "rubs": 7526,
      "topher": 7527,
      "bows": 7528,
      "lightly": 7529,
      "colate": 7530,
      "fluff": 7531,
      "born": 7532,
      "movements": 7533,
      "softened": 7534,
      "sweetness": 7535,
      "colder": 7536,
      "swims": 7537,
      "triumph": 7538,
      "slowed": 7539,
      "pretends": 7540,
      "floors": 7541,
      "oohed": 7542,
      "juiciest": 7543,
      "Grumpy": 7544,
      "Gradually": 7545,
      "probab": 7546,
      "rowing": 7547,
      "gratefully": 7548,
      "fights": 7549,
      "elect": 7550,
      "champ": 7551,
      "belief": 7552,
      "craf": 7553,
      "glided": 7554,
      "glider": 7555,
      "glared": 7556,
      "brant": 7557,
      "affect": 7558,
      "explains": 7559,
      "explaining": 7560,
      "boarded": 7561,
      "dashed": 7562,
      "snowballs": 7563,
      "suspicious": 7564,
      "juices": 7565,
      "freely": 7566,
      "Peeking": 7567,
      "tails": 7568,
      "threat": 7569,
      "wrist": 7570,
      "sprung": 7571,
      "seaweed": 7572,
      "drives": 7573,
      "knives": 7574,
      "bubbleg": 7575,
      "ships": 7576,
      "pans": 7577,
      "mattered": 7578,
      "presented": 7579,
      "necks": 7580,
      "tidied": 7581,
      "deser": 7582,
      "deserve": 7583,
      "answering": 7584,
      "grandparent": 7585,
      "scrub": 7586,
      "honeybees": 7587,
      "blown": 7588,
      "Chirpy": 7589,
      "scree": 7590,
      "screws": 7591,
      "Wherever": 7592,
      "breaths": 7593,
      "elders": 7594,
      "flashed": 7595,
      "chewy": 7596,
      "motorbike": 7597,
      "Lea": 7598,
      "gasps": 7599,
      "employ": 7600,
      "shrugs": 7601,
      "tested": 7602,
      "miracle": 7603,
      "roads": 7604,
      "trunks": 7605,
      "successfully": 7606,
      "Wheee": 7607,
      "Alexis": 7608,
      "teams": 7609,
      "twirling": 7610,
      "checkout": 7611,
      "caterpillars": 7612,
      "manager": 7613,
      "guards": 7614,
      "leads": 7615,
      "Susy": 7616,
      "example": 7617,
      "temp": 7618,
      "fourth": 7619,
      "orders": 7620,
      "Grandmother": 7621,
      "Grandson": 7622,
      "borrowed": 7623,
      "vibrant": 7624,
      "cushions": 7625,
      "Juice": 7626,
      "scares": 7627,
      "combing": 7628,
      "squares": 7629,
      "Although": 7630,
      "Alvin": 7631,
      "sleigh": 7632,
      "Owen": 7633,
      "hundreds": 7634,
      "skeletons": 7635,
      "crowns": 7636,
      "Unit": 7637,
      "experiment": 7638,
      "rays": 7639,
      "questioned": 7640,
      "capture": 7641,
      "Isla": 7642,
      "enthusias": 7643,
      "trailer": 7644,
      "symbols": 7645,
      "traveling": 7646,
      "Sophia": 7647,
      "separated": 7648,
      "dears": 7649,
      "resisting": 7650,
      "flooded": 7651,
      "yawning": 7652,
      "sniffing": 7653,
      "clip": 7654,
      "dusty": 7655,
      "demanding": 7656,
      "niece": 7657,
      "languages": 7658,
      "suffered": 7659,
      "tearing": 7660,
      "holidays": 7661,
      "tips": 7662,
      "repeats": 7663,
      "burying": 7664,
      "Cookies": 7665,
      "poems": 7666,
      "Christopher": 7667,
      "opinions": 7668,
      "challenged": 7669,
      "pedaling": 7670,
      "quarreling": 7671,
      "basement": 7672,
      "satisfaction": 7673,
      "unpacking": 7674,
      "spears": 7675,
      "Melissa": 7676,
      "lipstick": 7677,
      "Chef": 7678,
      "licking": 7679,
      "choosing": 7680,
      "chatted": 7681,
      "traded": 7682,
      "providing": 7683,
      "customers": 7684,
      "gleefully": 7685,
      "equally": 7686,
      "Move": 7687,
      "bends": 7688,
      "Matthew": 7689,
      "honk": 7690,
      "honked": 7691,
      "meowing": 7692,
      "Beebee": 7693,
      "junkyard": 7694,
      "tossed": 7695,
      "expecting": 7696,
      "Raya": 7697,
      "Brian": 7698,
      "Graham": 7699,
      "Gracie": 7700,
      "wounds": 7701,
      "Elias": 7702,
      "croaked": 7703,
      "lifting": 7704,
      "Butterfly": 7705,
      "guessing": 7706,
      "guesses": 7707,
      "hummingbird": 7708,
      "Guess": 7709,
      "toucans": 7710,
      "Lexi": 7711,
      "Woof": 7712,
      "certain": 7713,
      "squirmed": 7714,
      "marveled": 7715,
      "Quickly": 7716,
      "Plus": 7717,
      "compete": 7718,
      "conquered": 7719,
      "distracted": 7720,
      "designing": 7721,
      "annoyed": 7722,
      "Amazing": 7723,
      "Cloudy": 7724,
      "Splash": 7725,
      "nuzz": 7726,
      "zippers": 7727,
      "reflection": 7728,
      "peeped": 7729,
      "whoosh": 7730,
      "anticipation": 7731,
      "positive": 7732,
      "exploration": 7733,
      "pleasant": 7734,
      "energetic": 7735,
      "April": 7736,
      "Chocolate": 7737,
      "Courtney": 7738,
      "Fighting": 7739,
      "Gavin": 7740,
      "Juno": 7741,
      "Jasper": 7742,
      "Mollie": 7743,
      "Philip": 7744,
      "Tiana": 7745,
      "Twinkle": 7746,
      "Yolanda": 7747,
      "Yogurt": 7748,
      "Zeke": 7749,
      "coughed": 7750,
      "fertiliz": 7751,
      "lantern": 7752,
      "loudest": 7753,
      "piñata": 7754,
      "twelve": 7755,
      "angrily": 7756,
      "sapling": 7757,
      "definitely": 7758,
      "absolute": 7759,
      "quieter": 7760,
      "companion": 7761,
      "convinced": 7762,
      "fluffiest": 7763,
      "probably": 7764,
      "champion": 7765,
      "bubblegum": 7766,
      "employee": 7767,
      "enthusiasm": 7768,
      "fertilizer": 7769,
      "',": 7770,
      "'!\"": 7771,
      "Aw": 7772,
      "Adam": 7773,
      "Bless": 7774,
      "Bizzy": 7775,
      "Cut": 7776,
      "Cass": 7777,
      "Dre": 7778,
      "Dar": 7779,
      "Dear": 7780,
      "Ethan": 7781,
      "Eating": 7782,
      "Fac": 7783,
      "Fancy": 7784,
      "Ger": 7785,
      "Hmm": 7786,
      "IS": 7787,
      "Ice": 7788,
      "Idy": 7789,
      "Judge": 7790,
      "Jason": 7791,
      "Kaa": 7792,
      "Karen": 7793,
      "Kathy": 7794,
      "Kids": 7795,
      "LO": 7796,
      "Lana": 7797,
      "Lord": 7798,
      "Number": 7799,
      "OO": 7800,
      "Oy": 7801,
      "Pam": 7802,
      "Pick": 7803,
      "Rel": 7804,
      "Randy": 7805,
      "Raggie": 7806,
      "Spe": 7807,
      "Sleep": 7808,
      "Serve": 7809,
      "Ti": 7810,
      "Tie": 7811,
      "Tree": 7812,
      "THE": 7813,
      "Wr": 7814,
      "Wol": 7815,
      "Wanna": 7816,
      "Yu": 7817,
      "aven": 7818,
      "aboard": 7819,
      "bom": 7820,
      "bis": 7821,
      "bly": 7822,
      "bud": 7823,
      "bitten": 7824,
      "cit": 7825,
      "cul": 7826,
      "cca": 7827,
      "crops": 7828,
      "die": 7829,
      "fist": 7830,
      "fitting": 7831,
      "glo": 7832,
      "gang": 7833,
      "grip": 7834,
      "hips": 7835,
      "jugg": 7836,
      "joking": 7837,
      "lur": 7838,
      "lish": 7839,
      "lers": 7840,
      "lull": 7841,
      "mend": 7842,
      "nch": 7843,
      "nations": 7844,
      "oster": 7845,
      "pand": 7846,
      "puck": 7847,
      "pounce": 7848,
      "rink": 7849,
      "rash": 7850,
      "riddle": 7851,
      "scient": 7852,
      "tir": 7853,
      "till": 7854,
      "tant": 7855,
      "tling": 7856,
      "tugging": 7857,
      "uing": 7858,
      "uka": 7859,
      "vved": 7860,
      "vows": 7861,
      "wicked": 7862,
      "wilder": 7863,
      "zel": 7864,
      "’.": 7865,
      "heaven": 7866,
      "andon": 7867,
      "torious": 7868,
      "topping": 7869,
      "toaster": 7870,
      "inning": 7871,
      "inched": 7872,
      "indoors": 7873,
      "waking": 7874,
      "waded": 7875,
      "recess": 7876,
      "rebuild": 7877,
      "respected": 7878,
      "revved": 7879,
      "ouch": 7880,
      "habit": 7881,
      "enchan": 7882,
      "err": 7883,
      "ists": 7884,
      "sav": 7885,
      "als": 7886,
      "although": 7887,
      "stur": 7888,
      "stinky": 7889,
      "orrow": 7890,
      "thous": 7891,
      "nell": 7892,
      "neater": 7893,
      "beating": 7894,
      "becca": 7895,
      "attemp": 7896,
      "sets": 7897,
      "sewed": 7898,
      "amused": 7899,
      "existed": 7900,
      "exhi": 7901,
      "soo": 7902,
      "plus": 7903,
      "plugged": 7904,
      "riches": 7905,
      "ripples": 7906,
      "unsafe": 7907,
      "uncovered": 7908,
      "unload": 7909,
      "unzip": 7910,
      "address": 7911,
      "chin": 7912,
      "chill": 7913,
      "chugged": 7914,
      "forwards": 7915,
      "forgives": 7916,
      "playdate": 7917,
      "itters": 7918,
      "geous": 7919,
      "littlest": 7920,
      "outstretched": 7921,
      "racks": 7922,
      "shuff": 7923,
      "rying": 7924,
      "robb": 7925,
      "rods": 7926,
      "rosy": 7927,
      "rooster": 7928,
      "pest": 7929,
      "fulfilled": 7930,
      "hoot": 7931,
      "odd": 7932,
      "elace": 7933,
      "carp": 7934,
      "carve": 7935,
      "carries": 7936,
      "cocon": 7937,
      "moo": 7938,
      "moons": 7939,
      "device": 7940,
      "umn": 7941,
      "umbre": 7942,
      "umbling": 7943,
      "mest": 7944,
      "Tomorrow": 7945,
      "abilities": 7946,
      "abandon": 7947,
      "pared": 7948,
      "paramed": 7949,
      "backward": 7950,
      "ics": 7951,
      "ical": 7952,
      "mangoes": 7953,
      "storing": 7954,
      "Benson": 7955,
      "worn": 7956,
      "nook": 7957,
      "capes": 7958,
      "causing": 7959,
      "cawing": 7960,
      "parks": 7961,
      "faith": 7962,
      "gradually": 7963,
      "cipal": 7964,
      "muster": 7965,
      "llas": 7966,
      "spat": 7967,
      "lookout": 7968,
      "speck": 7969,
      "specks": 7970,
      "achoo": 7971,
      "harmony": 7972,
      "Jojo": 7973,
      "carefree": 7974,
      "whined": 7975,
      "whizz": 7976,
      "cloak": 7977,
      "angles": 7978,
      "maid": 7979,
      "maje": 7980,
      "typed": 7981,
      "doghouse": 7982,
      "overheard": 7983,
      "overhead": 7984,
      "anybody": 7985,
      "venir": 7986,
      "ista": 7987,
      "handy": 7988,
      "handker": 7989,
      "inkled": 7990,
      "umpty": 7991,
      "trud": 7992,
      "trude": 7993,
      "compass": 7994,
      "command": 7995,
      "clue": 7996,
      "clucked": 7997,
      "builder": 7998,
      "warmest": 7999,
      "chees": 8000,
      "cheers": 8001,
      "cheaper": 8002,
      "creak": 8003,
      "pose": 8004,
      "poop": 8005,
      "poster": 8006,
      "pollen": 8007,
      "tapes": 8008,
      "ptain": 8009,
      "kinder": 8010,
      "blinky": 8011,
      "blaring": 8012,
      "pretzel": 8013,
      "ladies": 8014,
      "fived": 8015,
      "Asuka": 8016,
      "Afterward": 8017,
      "Boo": 8018,
      "Books": 8019,
      "stepping": 8020,
      "wondr": 8021,
      "potion": 8022,
      "conv": 8023,
      "concent": 8024,
      "surprising": 8025,
      "realizing": 8026,
      "cleans": 8027,
      "cuff": 8028,
      "cubs": 8029,
      "thrown": 8030,
      "doorstep": 8031,
      "slight": 8032,
      "winding": 8033,
      "shoots": 8034,
      "shoelace": 8035,
      "discouraged": 8036,
      "squaw": 8037,
      "hairstyle": 8038,
      "rocky": 8039,
      "remembering": 8040,
      "phones": 8041,
      "sharpen": 8042,
      "differently": 8043,
      "listener": 8044,
      "month": 8045,
      "warming": 8046,
      "ruby": 8047,
      "contained": 8048,
      "snorted": 8049,
      "tables": 8050,
      "tablet": 8051,
      "tablecloth": 8052,
      "drople": 8053,
      "merry": 8054,
      "mermaid": 8055,
      "yelped": 8056,
      "twitched": 8057,
      "collaps": 8058,
      "sandy": 8059,
      "meaning": 8060,
      "magically": 8061,
      "prints": 8062,
      "principal": 8063,
      "draws": 8064,
      "crou": 8065,
      "guide": 8066,
      "continuing": 8067,
      "yellows": 8068,
      "greens": 8069,
      "drowned": 8070,
      "mornings": 8071,
      "packages": 8072,
      "deeply": 8073,
      "appearance": 8074,
      "proved": 8075,
      "umbly": 8076,
      "splits": 8077,
      "artled": 8078,
      "artwork": 8079,
      "dryer": 8080,
      "craft": 8081,
      "cracks": 8082,
      "sails": 8083,
      "talks": 8084,
      "boards": 8085,
      "whispers": 8086,
      "sushi": 8087,
      "buckles": 8088,
      "grazing": 8089,
      "minding": 8090,
      "dragging": 8091,
      "winking": 8092,
      "sugary": 8093,
      "dances": 8094,
      "psite": 8095,
      "wrinkled": 8096,
      "dripped": 8097,
      "dribbling": 8098,
      "partner": 8099,
      "wisely": 8100,
      "bubbling": 8101,
      "wrapper": 8102,
      "belongings": 8103,
      "miles": 8104,
      "serving": 8105,
      "pancake": 8106,
      "iderate": 8107,
      "ulars": 8108,
      "cutest": 8109,
      "lunchbox": 8110,
      "fingert": 8111,
      "storms": 8112,
      "feathered": 8113,
      "campsite": 8114,
      "picnics": 8115,
      "gging": 8116,
      "widely": 8117,
      "grandchildren": 8118,
      "grandchild": 8119,
      "footsteps": 8120,
      "flipped": 8121,
      "copied": 8122,
      "wildflowers": 8123,
      "mysteries": 8124,
      "pinching": 8125,
      "hangers": 8126,
      "supplying": 8127,
      "flaps": 8128,
      "planting": 8129,
      "ustrated": 8130,
      "trusty": 8131,
      "Learn": 8132,
      "tickling": 8133,
      "obst": 8134,
      "disappoint": 8135,
      "suggesting": 8136,
      "shady": 8137,
      "stuffing": 8138,
      "honesty": 8139,
      "Rebecca": 8140,
      "Whoo": 8141,
      "Roar": 8142,
      "Rocky": 8143,
      "moonlight": 8144,
      "incts": 8145,
      "terribly": 8146,
      "formation": 8147,
      "teamwork": 8148,
      "Megan": 8149,
      "fans": 8150,
      "pays": 8151,
      "Marley": 8152,
      "managing": 8153,
      "tempted": 8154,
      "Stan": 8155,
      "Startled": 8156,
      "risk": 8157,
      "depths": 8158,
      "agreeing": 8159,
      "oculars": 8160,
      "rats": 8161,
      "fiercely": 8162,
      "apology": 8163,
      "nurses": 8164,
      "haircuts": 8165,
      "bumps": 8166,
      "crocodiles": 8167,
      "scales": 8168,
      "repairs": 8169,
      "bella": 8170,
      "designs": 8171,
      "scolds": 8172,
      "beanstal": 8173,
      "bounces": 8174,
      "scratches": 8175,
      "scratchy": 8176,
      "pineapple": 8177,
      "pinecones": 8178,
      "razors": 8179,
      "respond": 8180,
      "cooed": 8181,
      "coolest": 8182,
      "musicians": 8183,
      "energ": 8184,
      "crowded": 8185,
      "ippee": 8186,
      "crystals": 8187,
      "flooding": 8188,
      "delaying": 8189,
      "sincere": 8190,
      "unlocking": 8191,
      "kangaroos": 8192,
      "condition": 8193,
      "ducklings": 8194,
      "reversing": 8195,
      "meatballs": 8196,
      "pastor": 8197,
      "furious": 8198,
      "wiggly": 8199,
      "Square": 8200,
      "zipping": 8201,
      "exercising": 8202,
      "complim": 8203,
      "squeak": 8204,
      "receiving": 8205,
      "Raccoon": 8206,
      "Katrine": 8207,
      "tugboat": 8208,
      "flavours": 8209,
      "banged": 8210,
      "invitations": 8211,
      "binoculars": 8212,
      "weapons": 8213,
      "crunch": 8214,
      "bothering": 8215,
      "whistles": 8216,
      "nightmares": 8217,
      "victorious": 8218,
      "disturbing": 8219,
      "poisoned": 8220,
      "palms": 8221,
      "fashionista": 8222,
      "rummag": 8223,
      "scurrying": 8224,
      "instincts": 8225,
      "chatter": 8226,
      "swollen": 8227,
      "spills": 8228,
      "scattering": 8229,
      "ornaments": 8230,
      "bricks": 8231,
      "sensation": 8232,
      "salon": 8233,
      "baker": 8234,
      "encouragement": 8235,
      "Oliver": 8236,
      "inchworm": 8237,
      "rescuing": 8238,
      "More": 8239,
      "muscles": 8240,
      "sniffled": 8241,
      "darlings": 8242,
      "Monkey": 8243,
      "damaged": 8244,
      "Buttercup": 8245,
      "swirls": 8246,
      "expression": 8247,
      "growls": 8248,
      "Isabella": 8249,
      "refusing": 8250,
      "Guard": 8251,
      "Minty": 8252,
      "Minnie": 8253,
      "autumn": 8254,
      "toucan": 8255,
      "atures": 8256,
      "temptation": 8257,
      "puppets": 8258,
      "cousin": 8259,
      "cousins": 8260,
      "pounds": 8261,
      "considerate": 8262,
      "imaginary": 8263,
      "scribbles": 8264,
      "Excitedly": 8265,
      "toppled": 8266,
      "toddler": 8267,
      "dodged": 8268,
      "defeated": 8269,
      "clutched": 8270,
      "contentedly": 8271,
      "pedalled": 8272,
      "visitors": 8273,
      "product": 8274,
      "connecting": 8275,
      "Cottontail": 8276,
      "transformed": 8277,
      "Painting": 8278,
      "Should": 8279,
      "lamb": 8280,
      "shimmering": 8281,
      "rantically": 8282,
      "options": 8283,
      "Captain": 8284,
      "Lightning": 8285,
      "double": 8286,
      "souvenir": 8287,
      "tiniest": 8288,
      "wiser": 8289,
      "saucers": 8290,
      "beads": 8291,
      "allergic": 8292,
      "moldy": 8293,
      "devastated": 8294,
      "funniest": 8295,
      "treasured": 8296,
      "untangled": 8297,
      "triumphantly": 8298,
      "screeched": 8299,
      "Wheeee": 8300,
      "nuzzled": 8301,
      "absolutely": 8302,
      "Cassie": 8303,
      "Drew": 8304,
      "Darnell": 8305,
      "Factory": 8306,
      "Gertrude": 8307,
      "Kaaaw": 8308,
      "Oysters": 8309,
      "Pammy": 8310,
      "Tiara": 8311,
      "Writing": 8312,
      "Yuki": 8313,
      "biscu": 8314,
      "lullaby": 8315,
      "pandas": 8316,
      "tiring": 8317,
      "tantrum": 8318,
      "toppings": 8319,
      "enchanted": 8320,
      "sturdy": 8321,
      "attempts": 8322,
      "exhibit": 8323,
      "shuffled": 8324,
      "robbers": 8325,
      "coconut": 8326,
      "umbrellas": 8327,
      "paramedics": 8328,
      "mustered": 8329,
      "majestic": 8330,
      "handkerchief": 8331,
      "wondrous": 8332,
      "concentr": 8333,
      "shoelaces": 8334,
      "droplets": 8335,
      "collapsed": 8336,
      "fingertips": 8337,
      "beanstalk": 8338,
      "!,\"": 8339,
      "\"!": 8340,
      "'.\"": 8341,
      "'?\"": 8342,
      "12": 8343,
      "20": 8344,
      "?,\"": 8345,
      "?'.": 8346,
      "AY": 8347,
      "Aho": 8348,
      "Alf": 8349,
      "BI": 8350,
      "Ban": 8351,
      "Bugs": 8352,
      "CH": 8353,
      "Con": 8354,
      "Care": 8355,
      "Cop": 8356,
      "Caw": 8357,
      "Congratul": 8358,
      "Ele": 8359,
      "Ever": 8360,
      "Eve": 8361,
      "Evan": 8362,
      "Fr": 8363,
      "Four": 8364,
      "Greg": 8365,
      "HA": 8366,
      "Hand": 8367,
      "Imag": 8368,
      "Ivan": 8369,
      "Kind": 8370,
      "Land": 8371,
      "Lad": 8372,
      "Lunch": 8373,
      "Law": 8374,
      "Must": 8375,
      "Mite": 8376,
      "Mine": 8377,
      "Mild": 8378,
      "Most": 8379,
      "Marriage": 8380,
      "NO": 8381,
      "Near": 8382,
      "Old": 8383,
      "Olives": 8384,
      "Offic": 8385,
      "RE": 8386,
      "Rest": 8387,
      "Say": 8388,
      "Sour": 8389,
      "Six": 8390,
      "School": 8391,
      "TH": 8392,
      "Turt": 8393,
      "Taxi": 8394,
      "Track": 8395,
      "Todd": 8396,
      "Wise": 8397,
      "Years": 8398,
      "Yippee": 8399,
      "Zap": 8400,
      "Zog": 8401,
      "ahold": 8402,
      "aimed": 8403,
      "aquar": 8404,
      "astron": 8405,
      "aware": 8406,
      "bid": 8407,
      "bam": 8408,
      "bla": 8409,
      "budd": 8410,
      "blic": 8411,
      "buses": 8412,
      "cod": 8413,
      "clicked": 8414,
      "cstat": 8415,
      "cages": 8416,
      "cents": 8417,
      "dot": 8418,
      "dled": 8419,
      "damp": 8420,
      "eer": 8421,
      "eve": 8422,
      "effic": 8423,
      "epest": 8424,
      "ecstat": 8425,
      "fare": 8426,
      "fain": 8427,
      "fable": 8428,
      "flock": 8429,
      "fries": 8430,
      "frantically": 8431,
      "gro": 8432,
      "gallo": 8433,
      "hull": 8434,
      "humbly": 8435,
      "iver": 8436,
      "ione": 8437,
      "iens": 8438,
      "jaw": 8439,
      "jiggled": 8440,
      "ko": 8441,
      "knap": 8442,
      "leng": 8443,
      "liness": 8444,
      "latch": 8445,
      "mut": 8446,
      "mended": 8447,
      "mallow": 8448,
      "mione": 8449,
      "oz": 8450,
      "ocks": 8451,
      "oars": 8452,
      "pout": 8453,
      "ras": 8454,
      "ramp": 8455,
      "shat": 8456,
      "swat": 8457,
      "sens": 8458,
      "sier": 8459,
      "scow": 8460,
      "sipped": 8461,
      "tar": 8462,
      "tam": 8463,
      "tally": 8464,
      "tweet": 8465,
      "uit": 8466,
      "vines": 8467,
      "whim": 8468,
      "woken": 8469,
      "wider": 8470,
      "ying": 8471,
      "yal": 8472,
      "yuck": 8473,
      "yage": 8474,
      "totally": 8475,
      "inspect": 8476,
      "insepar": 8477,
      "wax": 8478,
      "rent": 8479,
      "reappeared": 8480,
      "repay": 8481,
      "rence": 8482,
      "reaction": 8483,
      "itted": 8484,
      "ouchy": 8485,
      "haven": 8486,
      "haps": 8487,
      "enclos": 8488,
      "enem": 8489,
      "encoun": 8490,
      "erk": 8491,
      "washes": 8492,
      "army": 8493,
      "arch": 8494,
      "arrested": 8495,
      "idered": 8496,
      "ils": 8497,
      "ilocks": 8498,
      "lete": 8499,
      "ime": 8500,
      "immon": 8501,
      "aloud": 8502,
      "aliens": 8503,
      "stun": 8504,
      "stump": 8505,
      "stings": 8506,
      "stained": 8507,
      "stantly": 8508,
      "stitches": 8509,
      "oray": 8510,
      "ories": 8511,
      "herd": 8512,
      "thie": 8513,
      "neys": 8514,
      "nets": 8515,
      "endid": 8516,
      "endless": 8517,
      "endings": 8518,
      "belli": 8519,
      "begging": 8520,
      "uted": 8521,
      "ldoz": 8522,
      "ative": 8523,
      "attered": 8524,
      "section": 8525,
      "amins": 8526,
      "explan": 8527,
      "keen": 8528,
      "sooo": 8529,
      "owing": 8530,
      "pled": 8531,
      "pler": 8532,
      "placing": 8533,
      "rible": 8534,
      "unra": 8535,
      "unfair": 8536,
      "ungrateful": 8537,
      "unwrap": 8538,
      "unwrapped": 8539,
      "unloaded": 8540,
      "unnecessary": 8541,
      "adv": 8542,
      "adled": 8543,
      "adds": 8544,
      "wets": 8545,
      "wetter": 8546,
      "chup": 8547,
      "chunk": 8548,
      "chni": 8549,
      "features": 8550,
      "extreme": 8551,
      "boost": 8552,
      "bobbed": 8553,
      "outer": 8554,
      "outcome": 8555,
      "rage": 8556,
      "raking": 8557,
      "raising": 8558,
      "smashed": 8559,
      "shif": 8560,
      "shmallow": 8561,
      "doze": 8562,
      "ulously": 8563,
      "pecu": 8564,
      "pecks": 8565,
      "hobb": 8566,
      "hoses": 8567,
      "odles": 8568,
      "elbow": 8569,
      "elves": 8570,
      "cargo": 8571,
      "cove": 8572,
      "cooper": 8573,
      "mopping": 8574,
      "mooed": 8575,
      "deck": 8576,
      "deepest": 8577,
      "members": 8578,
      "parted": 8579,
      "parades": 8580,
      "background": 8581,
      "foam": 8582,
      "foggy": 8583,
      "icent": 8584,
      "starfish": 8585,
      "loosen": 8586,
      "launch": 8587,
      "prof": 8588,
      "prison": 8589,
      "predic": 8590,
      "icking": 8591,
      "lowered": 8592,
      "noons": 8593,
      "noses": 8594,
      "noodles": 8595,
      "cav": 8596,
      "parking": 8597,
      "grump": 8598,
      "grumbling": 8599,
      "grime": 8600,
      "oping": 8601,
      "putty": 8602,
      "otherwise": 8603,
      "homeless": 8604,
      "quizz": 8605,
      "whoever": 8606,
      "brim": 8607,
      "brows": 8608,
      "uddle": 8609,
      "acon": 8610,
      "access": 8611,
      "aculously": 8612,
      "harvest": 8613,
      "atest": 8614,
      "cares": 8615,
      "antlers": 8616,
      "usion": 8617,
      "whirl": 8618,
      "whipped": 8619,
      "whining": 8620,
      "clothing": 8621,
      "Hermione": 8622,
      "angrier": 8623,
      "types": 8624,
      "overflow": 8625,
      "overcoming": 8626,
      "skies": 8627,
      "skirts": 8628,
      "venge": 8629,
      "swer": 8630,
      "ionist": 8631,
      "handled": 8632,
      "handles": 8633,
      "umped": 8634,
      "gress": 8635,
      "greatest": 8636,
      "techni": 8637,
      "watery": 8638,
      "waterfall": 8639,
      "combs": 8640,
      "compared": 8641,
      "clerk": 8642,
      "buys": 8643,
      "reader": 8644,
      "cheat": 8645,
      "cheating": 8646,
      "creep": 8647,
      "poll": 8648,
      "poses": 8649,
      "tales": 8650,
      "ptied": 8651,
      "ptionist": 8652,
      "izens": 8653,
      "blamed": 8654,
      "braver": 8655,
      "brake": 8656,
      "bracele": 8657,
      "nicest": 8658,
      "gardens": 8659,
      "gardening": 8660,
      "fianc": 8661,
      "perch": 8662,
      "beautifully": 8663,
      "fleas": 8664,
      "underwater": 8665,
      "blessed": 8666,
      "applied": 8667,
      "leting": 8668,
      "donut": 8669,
      "grounds": 8670,
      "steer": 8671,
      "steered": 8672,
      "concert": 8673,
      "Thunder": 8674,
      "public": 8675,
      "pics": 8676,
      "tingling": 8677,
      "Thankfully": 8678,
      "leap": 8679,
      "doorbell": 8680,
      "slur": 8681,
      "shoo": 8682,
      "shoved": 8683,
      "shorel": 8684,
      "greater": 8685,
      "nights": 8686,
      "disobeyed": 8687,
      "disbelief": 8688,
      "voyage": 8689,
      "squashed": 8690,
      "squinting": 8691,
      "enjoyable": 8692,
      "rawberry": 8693,
      "nerves": 8694,
      "afternoons": 8695,
      "rightful": 8696,
      "tures": 8697,
      "phant": 8698,
      "rests": 8699,
      "strongly": 8700,
      "Loyal": 8701,
      "Instantly": 8702,
      "tops": 8703,
      "controlled": 8704,
      "stands": 8705,
      "chopping": 8706,
      "bluebird": 8707,
      "cutters": 8708,
      "misty": 8709,
      "kettle": 8710,
      "ketchup": 8711,
      "twirly": 8712,
      "ballet": 8713,
      "fills": 8714,
      "mums": 8715,
      "flopped": 8716,
      "floppy": 8717,
      "meanie": 8718,
      "Jennif": 8719,
      "softness": 8720,
      "marshmallow": 8721,
      "sations": 8722,
      "fixes": 8723,
      "woodland": 8724,
      "cris": 8725,
      "critters": 8726,
      "cradled": 8727,
      "closest": 8728,
      "athlete": 8729,
      "painful": 8730,
      "guided": 8731,
      "firewood": 8732,
      "hilltop": 8733,
      "barrow": 8734,
      "barracks": 8735,
      "Too": 8736,
      "triangles": 8737,
      "slowing": 8738,
      "mini": 8739,
      "sleeps": 8740,
      "messed": 8741,
      "hunger": 8742,
      "fairly": 8743,
      "iently": 8744,
      "landing": 8745,
      "queens": 8746,
      "streak": 8747,
      "hides": 8748,
      "armour": 8749,
      "emptied": 8750,
      "napkins": 8751,
      "proven": 8752,
      "proceed": 8753,
      "progress": 8754,
      "furrowed": 8755,
      "mustaches": 8756,
      "believing": 8757,
      "splendid": 8758,
      "gliding": 8759,
      "grows": 8760,
      "purpose": 8761,
      "missiles": 8762,
      "steadily": 8763,
      "snowing": 8764,
      "Beep": 8765,
      "polka": 8766,
      "graze": 8767,
      "minds": 8768,
      "mindful": 8769,
      "comforting": 8770,
      "daughters": 8771,
      "basil": 8772,
      "baskets": 8773,
      "alongside": 8774,
      "loneliness": 8775,
      "springs": 8776,
      "latest": 8777,
      "jogs": 8778,
      "mouthpiece": 8779,
      "bubbled": 8780,
      "bulldoz": 8781,
      "attles": 8782,
      "shipwreck": 8783,
      "circled": 8784,
      "nests": 8785,
      "nestled": 8786,
      "owls": 8787,
      "stormy": 8788,
      "milkshake": 8789,
      "slippers": 8790,
      "presence": 8791,
      "piled": 8792,
      "meetings": 8793,
      "towering": 8794,
      "strum": 8795,
      "struct": 8796,
      "Goodnight": 8797,
      "teapot": 8798,
      "desire": 8799,
      "despair": 8800,
      "layer": 8801,
      "studies": 8802,
      "roars": 8803,
      "lasted": 8804,
      "pathway": 8805,
      "sicker": 8806,
      "cycled": 8807,
      "figuring": 8808,
      "scrun": 8809,
      "scrubbing": 8810,
      "practising": 8811,
      "drivers": 8812,
      "flipping": 8813,
      "flips": 8814,
      "cornfield": 8815,
      "protection": 8816,
      "screech": 8817,
      "meadows": 8818,
      "hopeless": 8819,
      "thankfully": 8820,
      "hamster": 8821,
      "reminds": 8822,
      "chews": 8823,
      "addition": 8824,
      "appointed": 8825,
      "frustration": 8826,
      "ticking": 8827,
      "tickly": 8828,
      "observing": 8829,
      "weaker": 8830,
      "gasp": 8831,
      "wheelbarrow": 8832,
      "pairs": 8833,
      "shrug": 8834,
      "tests": 8835,
      "sprays": 8836,
      "Whoa": 8837,
      "Roger": 8838,
      "changes": 8839,
      "thicker": 8840,
      "pricked": 8841,
      "harmful": 8842,
      "volcanoes": 8843,
      "vanilla": 8844,
      "islands": 8845,
      "auntie": 8846,
      "loads": 8847,
      "guarded": 8848,
      "guarding": 8849,
      "necklaces": 8850,
      "regularly": 8851,
      "awoken": 8852,
      "courageous": 8853,
      "Strawberry": 8854,
      "sneezes": 8855,
      "tippy": 8856,
      "tires": 8857,
      "cherished": 8858,
      "ordering": 8859,
      "cloths": 8860,
      "squeezing": 8861,
      "stacks": 8862,
      "cubes": 8863,
      "pumped": 8864,
      "rarely": 8865,
      "supermarket": 8866,
      "wakes": 8867,
      "strip": 8868,
      "curl": 8869,
      "cursed": 8870,
      "vests": 8871,
      "chirps": 8872,
      "spelled": 8873,
      "suitcases": 8874,
      "gorgeous": 8875,
      "ribbit": 8876,
      "costs": 8877,
      "burns": 8878,
      "fives": 8879,
      "sells": 8880,
      "facts": 8881,
      "succeeds": 8882,
      "obediently": 8883,
      "cracking": 8884,
      "finest": 8885,
      "charge": 8886,
      "scolding": 8887,
      "receptionist": 8888,
      "punched": 8889,
      "thoughtfully": 8890,
      "twisting": 8891,
      "neighbouring": 8892,
      "Jessica": 8893,
      "friendships": 8894,
      "scoops": 8895,
      "rewarding": 8896,
      "ironing": 8897,
      "hunters": 8898,
      "luckiest": 8899,
      "scooting": 8900,
      "silverware": 8901,
      "Stevie": 8902,
      "Stealing": 8903,
      "pearls": 8904,
      "pressing": 8905,
      "enthusiastically": 8906,
      "darted": 8907,
      "twinkly": 8908,
      "demands": 8909,
      "kneels": 8910,
      "booth": 8911,
      "adored": 8912,
      "ahhed": 8913,
      "limes": 8914,
      "speakers": 8915,
      "Poppies": 8916,
      "aprons": 8917,
      "wiggling": 8918,
      "Louie": 8919,
      "zips": 8920,
      "windowsill": 8921,
      "squeal": 8922,
      "mugs": 8923,
      "slapping": 8924,
      "desks": 8925,
      "surrendering": 8926,
      "fying": 8927,
      "preventing": 8928,
      "festivals": 8929,
      "Mmmm": 8930,
      "snaps": 8931,
      "achieving": 8932,
      "invites": 8933,
      "...\"": 8934,
      "jugs": 8935,
      "lumberjack": 8936,
      "completing": 8937,
      "fetched": 8938,
      "bothered": 8939,
      "decisions": 8940,
      "Miraculously": 8941,
      "emerged": 8942,
      "applauding": 8943,
      "Tuesdays": 8944,
      "bathed": 8945,
      "recommending": 8946,
      "grilling": 8947,
      "poisonous": 8948,
      "permitted": 8949,
      "ibly": 8950,
      "projector": 8951,
      "nibbled": 8952,
      "spikes": 8953,
      "tangles": 8954,
      "wrench": 8955,
      "tradition": 8956,
      "salsa": 8957,
      "smartest": 8958,
      "snatch": 8959,
      "securely": 8960,
      "allowing": 8961,
      "raccoons": 8962,
      "rhyme": 8963,
      "sledding": 8964,
      "unicorns": 8965,
      "ruled": 8966,
      "peeled": 8967,
      "Reading": 8968,
      "mesmerised": 8969,
      "sniffs": 8970,
      "motioned": 8971,
      "hooves": 8972,
      "attacking": 8973,
      "stomping": 8974,
      "achievement": 8975,
      "Luke": 8976,
      "sirens": 8977,
      "Tammy": 8978,
      "masterpiece": 8979,
      "chefs": 8980,
      "conversations": 8981,
      "writes": 8982,
      "behaviour": 8983,
      "instruments": 8984,
      "heights": 8985,
      "nearer": 8986,
      "amongst": 8987,
      "blush": 8988,
      "auts": 8989,
      "stroller": 8990,
      "hovering": 8991,
      "greeting": 8992,
      "tempting": 8993,
      "detectives": 8994,
      "Jellyfish": 8995,
      "Lexy": 8996,
      "Woolly": 8997,
      "pounding": 8998,
      "considered": 8999,
      "marveling": 9000,
      "scribbled": 9001,
      "tumbling": 9002,
      "tummies": 9003,
      "dodging": 9004,
      "deeds": 9005,
      "pedalling": 9006,
      "insisting": 9007,
      "desperate": 9008,
      "desperately": 9009,
      "recorders": 9010,
      "Cottonball": 9011,
      "sculptures": 9012,
      "Ahhh": 9013,
      "rupt": 9014,
      "vitamins": 9015,
      "erupt": 9016,
      "possessions": 9017,
      "magnifying": 9018,
      "magnificent": 9019,
      "challenging": 9020,
      "challenges": 9021,
      "scene": 9022,
      "scenery": 9023,
      "temperature": 9024,
      "guests": 9025,
      "Surprise": 9026,
      "Goldilocks": 9027,
      "gulped": 9028,
      "retriever": 9029,
      "adventurers": 9030,
      "electric": 9031,
      "crafts": 9032,
      "deserved": 9033,
      "Amazingly": 9034,
      "Reluctantly": 9035,
      "Wolf": 9036,
      "citizens": 9037,
      "juggle": 9038,
      "lurking": 9039,
      "scientist": 9040,
      "wilderness": 9041,
      "thousands": 9042,
      "mooing": 9043,
      "abandoned": 9044,
      "trudged": 9045,
      "cheesy": 9046,
      "convince": 9047,
      "squawked": 9048,
      "Learning": 9049,
      "disappointment": 9050,
      "complimented": 9051,
      "rummaged": 9052,
      "chattering": 9053,
      "biscuit": 9054,
      "Ahoy": 9055,
      "Alfie": 9056,
      "CHOO": 9057,
      "Congratulations": 9058,
      "Elephant": 9059,
      "Frustrated": 9060,
      "Imagine": 9061,
      "Kindness": 9062,
      "Lawrence": 9063,
      "Mustache": 9064,
      "Mitey": 9065,
      "Officer": 9066,
      "Turtle": 9067,
      "aquarium": 9068,
      "astronauts": 9069,
      "buddies": 9070,
      "code": 9071,
      "eerie": 9072,
      "ecstatic": 9073,
      "farewell": 9074,
      "faint": 9075,
      "groan": 9076,
      "galloped": 9077,
      "koalas": 9078,
      "knapsack": 9079,
      "length": 9080,
      "shattered": 9081,
      "tamer": 9082,
      "inseparable": 9083,
      "enclosure": 9084,
      "enemies": 9085,
      "encountered": 9086,
      "thieves": 9087,
      "bellies": 9088,
      "explanation": 9089,
      "wetsuit": 9090,
      "extremely": 9091,
      "peculiar": 9092,
      "hobbies": 9093,
      "cooperate": 9094,
      "prisoner": 9095,
      "accessories": 9096,
      "bracelets": 9097,
      "fiancé": 9098,
      "shoreline": 9099,
      "Jennifer": 9100,
      "marshmallows": 9101,
      "bulldozer": 9102,
      "struction": 9103,
      "!’": 9104,
      "##": 9105,
      ".’": 9106,
      "30": 9107,
      ":\"": 9108,
      "?!": 9109,
      "?!”": 9110,
      "?!\".": 9111,
      "AA": 9112,
      "AN": 9113,
      "Ac": 9114,
      "Abra": 9115,
      "Amen": 9116,
      "ANG": 9117,
      "ACHOO": 9118,
      "Bin": 9119,
      "Bing": 9120,
      "Bal": 9121,
      "Bright": 9122,
      "Com": 9123,
      "Clo": 9124,
      "Candy": 9125,
      "Crad": 9126,
      "Claw": 9127,
      "Clean": 9128,
      "Close": 9129,
      "Caut": 9130,
      "Crash": 9131,
      "Cuddle": 9132,
      "Din": 9133,
      "Dang": 9134,
      "Driver": 9135,
      "ED": 9136,
      "ER": 9137,
      "Easter": 9138,
      "Fer": 9139,
      "Fly": 9140,
      "Fall": 9141,
      "Fake": 9142,
      "Five": 9143,
      "Fru": 9144,
      "Faster": 9145,
      "Girl": 9146,
      "Glad": 9147,
      "Goo": 9148,
      "High": 9149,
      "Hours": 9150,
      "Im": 9151,
      "Know": 9152,
      "Life": 9153,
      "Last": 9154,
      "ME": 9155,
      "Mis": 9156,
      "Mind": 9157,
      "Mag": 9158,
      "Mother": 9159,
      "Math": 9160,
      "Making": 9161,
      "Maa": 9162,
      "Na": 9163,
      "None": 9164,
      "Net": 9165,
      "Nons": 9166,
      "Nature": 9167,
      "ON": 9168,
      "Off": 9169,
      "Oats": 9170,
      "Pu": 9171,
      "Phe": 9172,
      "Ple": 9173,
      "Pir": 9174,
      "Pop": 9175,
      "Pass": 9176,
      "Pizz": 9177,
      "Pray": 9178,
      "PLA": 9179,
      "Rh": 9180,
      "Ri": 9181,
      "Rad": 9182,
      "Race": 9183,
      "Riding": 9184,
      "ST": 9185,
      "Se": 9186,
      "Sw": 9187,
      "Send": 9188,
      "Shad": 9189,
      "Swan": 9190,
      "Sel": 9191,
      "Spr": 9192,
      "Show": 9193,
      "Sort": 9194,
      "Smil": 9195,
      "Sail": 9196,
      "Shall": 9197,
      "Tre": 9198,
      "Ton": 9199,
      "Tra": 9200,
      "Tur": 9201,
      "Tiny": 9202,
      "Tell": 9203,
      "Tears": 9204,
      "TED": 9205,
      "Vo": 9206,
      "Wide": 9207,
      "Wake": 9208,
      "Wear": 9209,
      "Wine": 9210,
      "Woo": 9211,
      "Winning": 9212,
      "Yield": 9213,
      "ais": 9214,
      "apers": 9215,
      "ashes": 9216,
      "afloat": 9217,
      "awaits": 9218,
      "bould": 9219,
      "bour": 9220,
      "bending": 9221,
      "battles": 9222,
      "cad": 9223,
      "cum": 9224,
      "cure": 9225,
      "cru": 9226,
      "charm": 9227,
      "crushed": 9228,
      "cured": 9229,
      "cusing": 9230,
      "du": 9231,
      "dand": 9232,
      "dash": 9233,
      "dart": 9234,
      "diet": 9235,
      "dizz": 9236,
      "dates": 9237,
      "draining": 9238,
      "dumpty": 9239,
      "fto": 9240,
      "fade": 9241,
      "fried": 9242,
      "fting": 9243,
      "fired": 9244,
      "flights": 9245,
      "gal": 9246,
      "gad": 9247,
      "gled": 9248,
      "glistening": 9249,
      "grains": 9250,
      "humpty": 9251,
      "iky": 9252,
      "jig": 9253,
      "jud": 9254,
      "jigg": 9255,
      "jured": 9256,
      "kil": 9257,
      "lun": 9258,
      "las": 9259,
      "lted": 9260,
      "lud": 9261,
      "limp": 9262,
      "ms": 9263,
      "mot": 9264,
      "mitt": 9265,
      "mur": 9266,
      "mered": 9267,
      "mbled": 9268,
      "non": 9269,
      "nied": 9270,
      "nudge": 9271,
      "narrow": 9272,
      "oar": 9273,
      "ole": 9274,
      "oked": 9275,
      "oise": 9276,
      "phed": 9277,
      "pave": 9278,
      "ples": 9279,
      "pier": 9280,
      "pberry": 9281,
      "passes": 9282,
      "pounced": 9283,
      "pouch": 9284,
      "rry": 9285,
      "rind": 9286,
      "roug": 9287,
      "rus": 9288,
      "rider": 9289,
      "rinse": 9290,
      "sim": 9291,
      "sul": 9292,
      "sic": 9293,
      "sno": 9294,
      "suck": 9295,
      "sened": 9296,
      "sion": 9297,
      "sket": 9298,
      "swell": 9299,
      "scal": 9300,
      "sizz": 9301,
      "slope": 9302,
      "sucked": 9303,
      "sinking": 9304,
      "sipping": 9305,
      "sparked": 9306,
      "snapping": 9307,
      "scuff": 9308,
      "tly": 9309,
      "tes": 9310,
      "tax": 9311,
      "trun": 9312,
      "trace": 9313,
      "tart": 9314,
      "tending": 9315,
      "tinkle": 9316,
      "ush": 9317,
      "uum": 9318,
      "uated": 9319,
      "vir": 9320,
      "vig": 9321,
      "vas": 9322,
      "vain": 9323,
      "vable": 9324,
      "vowing": 9325,
      "ww": 9326,
      "whel": 9327,
      "wedge": 9328,
      "heed": 9329,
      "heated": 9330,
      "anas": 9331,
      "anded": 9332,
      "anding": 9333,
      "tone": 9334,
      "tori": 9335,
      "tocked": 9336,
      "topics": 9337,
      "infor": 9338,
      "infe": 9339,
      "inno": 9340,
      "inju": 9341,
      "information": 9342,
      "injured": 9343,
      "innied": 9344,
      "reel": 9345,
      "rejo": 9346,
      "rewards": 9347,
      "reappear": 9348,
      "recovered": 9349,
      "remark": 9350,
      "rebuilt": 9351,
      "refuel": 9352,
      "reacted": 9353,
[...]
