{
  "version": "1.0",
  "truncation": {
    "direction": "Right",
    "max_length": 256,
    "strategy": "LongestFirst",
    "stride": 0
  },
  "padding": {
    "strategy": {
      "Fixed": 256
    },
    "direction": "Right",
    "pad_to_multiple_of": null,
    "pad_id": 0,
    "pad_type_id": 0,
    "pad_token": "[PAD]"
  },
  "added_tokens": [
    {
      "id": 0,
      "content": "[PAD]",
      "single_word": false,
      "lstrip": false,
      "rstrip": false,
      "normalized": false,
      "special": true
    },
    {
      "id": 1,
      "content": "[UNK]",
      "single_word": false,
      "lstrip": false,
      "rstrip": false,
      "normalized": false,
      "special": true
    },
    {
      "id": 2,
      "content": "<|endoftext|>",
      "single_word": false,
      "lstrip": false,
      "rstrip": false,
      "normalized": false,
      "special": true
    }
  ],
  "normalizer": null,
  "pre_tokenizer": {
    "type": "Whitespace"
  },
  "post_processor": null,
  "decoder": null,
  "model": {
    "type": "BPE",
    "dropout": null,
    "unk_token": "[UNK]",
    "continuing_subword_prefix": null,
    "end_of_word_suffix": null,
    "fuse_unk": false,
    "byte_fallback": false,
    "vocab": {
      "[PAD]": 0,
      "[UNK]": 1,
      "<|endoftext|>": 2,
      "!": 3,
      "\"": 4,
      "#": 5,
      "$": 6,
      "&": 7,
      "'": 8,
      "(": 9,
      ")": 10,
      "*": 11,
      "+": 12,
      ",": 13,
      "-": 14,
      ".": 15,
      "/": 16,
      "0": 17,
      "1": 18,
      "2": 19,
      "3": 20,
      "4": 21,
      "5": 22,
      "6": 23,
      "7": 24,
      "8": 25,
      "9": 26,
      ":": 27,
      ";": 28,
      "<": 29,
      ">": 30,
      "?": 31,
      "A": 32,
      "B": 33,
      "C": 34,
      "D": 35,
      "E": 36,
      "F": 37,
      "G": 38,
      "H": 39,
      "I": 40,
      "J": 41,
      "K": 42,
      "L": 43,
      "M": 44,
      "N": 45,
      "O": 46,
      "P": 47,
      "Q": 48,
      "R": 49,
      "S": 50,
      "T": 51,
      "U": 52,
      "V": 53,
      "W": 54,
      "X": 55,
      "Y": 56,
      "Z": 57,
      "a": 58,
      "b": 59,
      "c": 60,
      "d": 61,
      "e": 62,
      "f": 63,
      "g": 64,
      "h": 65,
      "i": 66,
      "j": 67,
      "k": 68,
      "l": 69,
      "m": 70,
      "n": 71,
      "o": 72,
      "p": 73,
      "q": 74,
      "r": 75,
      "s": 76,
      "t": 77,
      "u": 78,
      "v": 79,
      "w": 80,
      "x": 81,
      "y": 82,
      "z": 83,
      "|": 84,
      "­": 85,
      "´": 86,
      "é": 87,
      "ñ": 88,
      "​": 89,
      "–": 90,
      "—": 91,
      "‘": 92,
      "’": 93,
      "“": 94,
      "”": 95,
      "…": 96,
      "🎓": 97,
      "he": 98,
      "an": 99,
      "the": 100,
      "ed": 101,
      "and": 102,
      "to": 103,
      "in": 104,
      "re": 105,
      "wa": 106,
      "ou": 107,
      "it": 108,
      "ha": 109,
      "en": 110,
      "er": 111,
      "was": 112,
      "om": 113,
      "on": 114,
      "ar": 115,
      "The": 116,
      "ing": 117,
      "is": 118,
      "il": 119,
      "id": 120,
      "sa": 121,
      "le": 122,
      "ay": 123,
      "im": 124,
      "lo": 125,
      "al": 126,
      "st": 127,
      "or": 128,
      "of": 129,
      "her": 130,
      "He": 131,
      "She": 132,
      "ir": 133,
      "th": 134,
      "end": 135,
      "ne": 136,
      "be": 137,
      "ver": 138,
      "hat": 139,
      "ut": 140,
      "They": 141,
      "se": 142,
      "ck": 143,
      "at": 144,
      "ld": 145,
      "ce": 146,
      "am": 147,
      "ke": 148,
      "ig": 149,
      "no": 150,
      "she": 151,
      "said": 152,
      "ily": 153,
      "ve": 154,
      "ex": 155,
      "pl": 156,
      "his": 157,
      "pp": 158,
      "ith": 159,
      "with": 160,
      "ri": 161,
      "so": 162,
      "ad": 163,
      "Lily": 164,
      "un": 165,
      "ly": 166,
      "ked": 167,
      "day": 168,
      "very": 169,
      "you": 170,
      "my": 171,
      "we": 172,
      "ome": 173,
      "up": 174,
      "that": 175,
      "li": 176,
      "go": 177,
      "ow": 178,
      "ted": 179,
      "as": 180,
      "had": 181,
      "ch": 182,
      "play": 183,
      "they": 184,
      "for": 185,
      "es": 186,
      "fe": 187,
      "mom": 188,
      "oft": 189,
      "ould": 190,
      "nd": 191,
      "ext": 192,
      "all": 193,
      "<|": 194,
      "|>": 195,
      "endoft": 196,
      "endoftext": 197,
      "itt": 198,
      "ent": 199,
      "bo": 200,
      "happ": 201,
      "tim": 202,
      "wan": 203,
      "ge": 204,
      "ok": 205,
      "time": 206,
      "ittle": 207,
      "ound": 208,
      "do": 209,
      "little": 210,
      "It": 211,
      "there": 212,
      "ro": 213,
      "are": 214,
      "out": 215,
      "ther": 216,
      "ra": 217,
      "ht": 218,
      "not": 219,
      "happy": 220,
      "sh": 221,
      "ry": 222,
      "big": 223,
      "but": 224,
      "sm": 225,
      "saw": 226,
      "ack": 227,
      "Tim": 228,
      "ake": 229,
      "riend": 230,
      "friend": 231,
      "ter": 232,
      "ul": 233,
      "ide": 234,
      "One": 235,
      "ys": 236,
      "thing": 237,
      "On": 238,
      "some": 239,
      "one": 240,
      "ved": 241,
      "Once": 242,
      ".\"": 243,
      "were": 244,
      "ug": 245,
      "him": 246,
      "!\"": 247,
      "ho": 248,
      "upon": 249,
      "pe": 250,
      "car": 251,
      "irl": 252,
      "wanted": 253,
      "girl": 254,
      "ll": 255,
      "ful": 256,
      "ind": 257,
      "them": 258,
      "could": 259,
      "ur": 260,
      "co": 261,
      "me": 262,
      "Tom": 263,
      "ag": 264,
      "did": 265,
      "hen": 266,
      "smil": 267,
      "their": 268,
      "ill": 269,
      "mo": 270,
      "went": 271,
      "de": 272,
      "rom": 273,
      "hel": 274,
      "new": 275,
      "have": 276,
      "Ben": 277,
      "nam": 278,
      "But": 279,
      "od": 280,
      "Timmy": 281,
      "help": 282,
      "et": 283,
      "way": 284,
      "ight": 285,
      "can": 286,
      "um": 287,
      "friends": 288,
      "hed": 289,
      "back": 290,
      "ab": 291,
      "side": 292,
      "ark": 293,
      "named": 294,
      "ran": 295,
      "ic": 296,
      "ain": 297,
      "fo": 298,
      "?\"": 299,
      "fun": 300,
      "lt": 301,
      "loved": 302,
      "man": 303,
      "star": 304,
      "too": 305,
      "po": 306,
      "like": 307,
      "felt": 308,
      "oug": 309,
      "smiled": 310,
      "loo": 311,
      "asked": 312,
      "You": 313,
      "el": 314,
      "ick": 315,
      "own": 316,
      "sto": 317,
      "around": 318,
      "low": 319,
      "ame": 320,
      "ard": 321,
      "looked": 322,
      "ure": 323,
      "boy": 324,
      "pr": 325,
      "would": 326,
      "bir": 327,
      "see": 328,
      "wor": 329,
      "la": 330,
      "Mom": 331,
      "make": 332,
      "ong": 333,
      "fa": 334,
      "ts": 335,
      "bird": 336,
      "gr": 337,
      "park": 338,
      "ca": 339,
      "tre": 340,
      "now": 341,
      "op": 342,
      "other": 343,
      "ade": 344,
      "away": 345,
      "what": 346,
      "ice": 347,
      "started": 348,
      "gether": 349,
      "dd": 350,
      "came": 351,
      "ited": 352,
      "ss": 353,
      "made": 354,
      "together": 355,
      "oud": 356,
      "something": 357,
      "put": 358,
      "exc": 359,
      "got": 360,
      "sad": 361,
      ",\"": 362,
      "want": 363,
      "from": 364,
      "get": 365,
      "look": 366,
      "home": 367,
      "mu": 368,
      "ie": 369,
      "then": 370,
      "found": 371,
      "again": 372,
      "if": 373,
      "wal": 374,
      "scar": 375,
      "na": 376,
      "dec": 377,
      "te": 378,
      "ci": 379,
      "who": 380,
      "ried": 381,
      "br": 382,
      "good": 383,
      "ue": 384,
      "pped": 385,
      "when": 386,
      "ach": 387,
      "ally": 388,
      "says": 389,
      "excited": 390,
      "ought": 391,
      "playing": 392,
      "more": 393,
      "by": 394,
      "ep": 395,
      "king": 396,
      "hug": 397,
      "ave": 398,
      "ny": 399,
      "ided": 400,
      "uck": 401,
      "things": 402,
      "every": 403,
      "ous": 404,
      "decided": 405,
      "use": 406,
      "spe": 407,
      "liked": 408,
      "down": 409,
      "der": 410,
      "ax": 411,
      "Sam": 412,
      "dog": 413,
      "scared": 414,
      "ways": 415,
      "ouse": 416,
      "us": 417,
      "care": 418,
      "udd": 419,
      "find": 420,
      "than": 421,
      "ust": 422,
      "har": 423,
      "jo": 424,
      "bb": 425,
      "ara": 426,
      "pre": 427,
      "didn": 428,
      "mommy": 429,
      "Max": 430,
      "ate": 431,
      "always": 432,
      "take": 433,
      "ac": 434,
      "arn": 435,
      "dad": 436,
      "wo": 437,
      "feel": 438,
      "your": 439,
      "outside": 440,
      "We": 441,
      "An": 442,
      "took": 443,
      "clo": 444,
      "So": 445,
      "qu": 446,
      "about": 447,
      "tree": 448,
      "ant": 449,
      "ang": 450,
      "ite": 451,
      "Sara": 452,
      "old": 453,
      "here": 454,
      "our": 455,
      "toys": 456,
      "wh": 457,
      "When": 458,
      "learn": 459,
      "ma": 460,
      "knew": 461,
      "know": 462,
      "fore": 463,
      "thought": 464,
      "ened": 465,
      "Jo": 466,
      "ise": 467,
      "Anna": 468,
      "ive": 469,
      "udden": 470,
      "speci": 471,
      "special": 472,
      "room": 473,
      "cat": 474,
      "will": 475,
      "ty": 476,
      "ers": 477,
      "laug": 478,
      "Her": 479,
      "uddenly": 480,
      "fter": 481,
      "ged": 482,
      "never": 483,
      "sor": 484,
      "any": 485,
      "toy": 486,
      "Every": 487,
      "how": 488,
      "ish": 489,
      "house": 490,
      "come": 491,
      "much": 492,
      "run": 493,
      "lf": 494,
      "ol": 495,
      "cre": 496,
      "sp": 497,
      "ball": 498,
      "ink": 499,
      "Jack": 500,
      "ven": 501,
      "cle": 502,
      "dre": 503,
      "show": 504,
      "couldn": 505,
      "over": 506,
      "ist": 507,
      "into": 508,
      "tried": 509,
      "cause": 510,
      "eat": 511,
      "long": 512,
      "sk": 513,
      "careful": 514,
      "sun": 515,
      "gave": 516,
      "hand": 517,
      "inside": 518,
      "sw": 519,
      "able": 520,
      "bu": 521,
      "dy": 522,
      "told": 523,
      "tr": 524,
      "because": 525,
      "ion": 526,
      "proud": 527,
      "bl": 528,
      "ump": 529,
      "Suddenly": 530,
      "ta": 531,
      "From": 532,
      "played": 533,
      "tter": 534,
      "cl": 535,
      "sorry": 536,
      "unt": 537,
      "this": 538,
      "pa": 539,
      "ear": 540,
      "heard": 541,
      "box": 542,
      "ia": 543,
      "water": 544,
      "gre": 545,
      "Then": 546,
      "pick": 547,
      "uc": 548,
      "sha": 549,
      "just": 550,
      "hugged": 551,
      "fly": 552,
      "che": 553,
      "off": 554,
      "Let": 555,
      "war": 556,
      "pret": 557,
      "each": 558,
      "pot": 559,
      "ile": 560,
      "com": 561,
      "exp": 562,
      "His": 563,
      "try": 564,
      "wat": 565,
      "red": 566,
      "ct": 567,
      "need": 568,
      "rabb": 569,
      "iz": 570,
      "shin": 571,
      "ber": 572,
      "bear": 573,
      "small": 574,
      "nice": 575,
      "until": 576,
      "love": 577,
      "Mia": 578,
      "ving": 579,
      "flow": 580,
      "read": 581,
      "ough": 582,
      "self": 583,
      "kind": 584,
      "learned": 585,
      "And": 586,
      "bea": 587,
      "bed": 588,
      "many": 589,
      "better": 590,
      "imal": 591,
      "animal": 592,
      "ass": 593,
      "rain": 594,
      "fast": 595,
      "its": 596,
      "That": 597,
      "vent": 598,
      "lad": 599,
      "safe": 600,
      "ace": 601,
      "per": 602,
      "explo": 603,
      "where": 604,
      "beaut": 605,
      "pt": 606,
      "jump": 607,
      "bra": 608,
      "thanked": 609,
      "even": 610,
      "best": 611,
      "call": 612,
      "tur": 613,
      "lots": 614,
      "laughed": 615,
      "hur": 616,
      "fle": 617,
      "Mommy": 618,
      "nt": 619,
      "led": 620,
      "fam": 621,
      "fi": 622,
      "under": 623,
      "sur": 624,
      "What": 625,
      "iful": 626,
      "arden": 627,
      "garden": 628,
      "beautiful": 629,
      "Joh": 630,
      "yes": 631,
      "ning": 632,
      "John": 633,
      "loud": 634,
      "sky": 635,
      "ched": 636,
      "joy": 637,
      "don": 638,
      "rong": 639,
      "let": 640,
      "igh": 641,
      "ama": 642,
      "fin": 643,
      "ble": 644,
      "Yes": 645,
      "say": 646,
      "list": 647,
      "stay": 648,
      "ank": 649,
      "ople": 650,
      "ree": 651,
      "still": 652,
      "As": 653,
      "ort": 654,
      "After": 655,
      "family": 656,
      "give": 657,
      "both": 658,
      "lived": 659,
      "brave": 660,
      "pu": 661,
      "ob": 662,
      "people": 663,
      "ground": 664,
      "animals": 665,
      "walked": 666,
      "Th": 667,
      "app": 668,
      "Can": 669,
      "ine": 670,
      "hard": 671,
      "turn": 672,
      "two": 673,
      "surpr": 674,
      "No": 675,
      "should": 676,
      "ished": 677,
      "won": 678,
      "bad": 679,
      "kept": 680,
      "con": 681,
      "flew": 682,
      "hurt": 683,
      "ised": 684,
      "real": 685,
      "ru": 686,
      "ste": 687,
      "ane": 688,
      "Thank": 689,
      "imp": 690,
      "Luc": 691,
      "book": 692,
      "Lucy": 693,
      "pic": 694,
      "going": 695,
      "keep": 696,
      "clean": 697,
      "soon": 698,
      "called": 699,
      "clos": 700,
      "sl": 701,
      "share": 702,
      "angry": 703,
      "rock": 704,
      "lea": 705,
      "pretty": 706,
      "has": 707,
      "illy": 708,
      "Dad": 709,
      "cu": 710,
      "feeling": 711,
      "explore": 712,
      "cry": 713,
      "place": 714,
      "advent": 715,
      "wind": 716,
      "les": 717,
      "shiny": 718,
      "while": 719,
      "door": 720,
      "sho": 721,
      "also": 722,
      "bro": 723,
      "ied": 724,
      "idea": 725,
      "mor": 726,
      "doll": 727,
      "before": 728,
      "lot": 729,
      "opened": 730,
      "Bob": 731,
      "far": 732,
      "work": 733,
      "ummy": 734,
      "par": 735,
      "ting": 736,
      "lie": 737,
      "set": 738,
      "walking": 739,
      "noise": 740,
      "ild": 741,
      "colo": 742,
      "right": 743,
      "lock": 744,
      "uch": 745,
      "ies": 746,
      "color": 747,
      "tal": 748,
      "fish": 749,
      "mber": 750,
      "picked": 751,
      "face": 752,
      "clim": 753,
      "looking": 754,
      "being": 755,
      "nex": 756,
      "food": 757,
      "ds": 758,
      "ture": 759,
      "hair": 760,
      "adventure": 761,
      "smile": 762,
      "dif": 763,
      "thr": 764,
      "ak": 765,
      "ught": 766,
      "nodd": 767,
      "ever": 768,
      "iced": 769,
      "next": 770,
      "dra": 771,
      "nodded": 772,
      "ess": 773,
      "hear": 774,
      "quick": 775,
      "ask": 776,
      "dis": 777,
      "night": 778,
      "member": 779,
      "ph": 780,
      "forest": 781,
      "less": 782,
      "used": 783,
      "ized": 784,
      "eyes": 785,
      "weet": 786,
      "head": 787,
      "import": 788,
      "great": 789,
      "picture": 790,
      "wait": 791,
      "Sue": 792,
      "stopped": 793,
      "Lo": 794,
      "repl": 795,
      "Sarah": 796,
      "enjoy": 797,
      "important": 798,
      "walk": 799,
      "vo": 800,
      "year": 801,
      "remember": 802,
      "near": 803,
      "gan": 804,
      "Spot": 805,
      "after": 806,
      "listen": 807,
      "quickly": 808,
      "cook": 809,
      "ries": 810,
      "replied": 811,
      "bye": 812,
      "noticed": 813,
      "slide": 814,
      "truck": 815,
      "think": 816,
      "hands": 817,
      "cream": 818,
      "ner": 819,
      "showed": 820,
      "This": 821,
      "tor": 822,
      "everyone": 823,
      "sure": 824,
      "wonder": 825,
      "shar": 826,
      "swing": 827,
      "strong": 828,
      "fere": 829,
      "differe": 830,
      "irst": 831,
      "store": 832,
      "tell": 833,
      "been": 834,
      "became": 835,
      "sound": 836,
      "Jane": 837,
      "mon": 838,
      "amaz": 839,
      "leave": 840,
      "rabbit": 841,
      "cake": 842,
      "ff": 843,
      "bright": 844,
      "rest": 845,
      "ell": 846,
      "watched": 847,
      "voice": 848,
      "mean": 849,
      "high": 850,
      "sing": 851,
      "ip": 852,
      "top": 853,
      "Do": 854,
      "light": 855,
      "boat": 856,
      "aybe": 857,
      "watch": 858,
      "blue": 859,
      "different": 860,
      "goodbye": 861,
      "bow": 862,
      "pul": 863,
      "cho": 864,
      "tin": 865,
      "okay": 866,
      "llow": 867,
      "isy": 868,
      "flowers": 869,
      "ung": 870,
      "bre": 871,
      "lease": 872,
      "sn": 873,
      "stand": 874,
      "dress": 875,
      "follow": 876,
      "ready": 877,
      "closer": 878,
      "unny": 879,
      "grabb": 880,
      "flower": 881,
      "cou": 882,
      "leep": 883,
      "ired": 884,
      "fav": 885,
      "grabbed": 886,
      "ond": 887,
      "ster": 888,
      "Everyone": 889,
      "Look": 890,
      "stick": 891,
      "mag": 892,
      "curi": 893,
      "warm": 894,
      "deli": 895,
      "In": 896,
      "jumped": 897,
      "squ": 898,
      "anymore": 899,
      "bit": 900,
      "butter": 901,
      "andma": 902,
      "dro": 903,
      "three": 904,
      "dan": 905,
      "curious": 906,
      "ket": 907,
      "fell": 908,
      "mis": 909,
      "Joe": 910,
      "ached": 911,
      "med": 912,
      "pie": 913,
      "cut": 914,
      "birds": 915,
      "ft": 916,
      "ered": 917,
      "din": 918,
      "laugh": 919,
      "flo": 920,
      "helped": 921,
      "tw": 922,
      "first": 923,
      "block": 924,
      "kit": 925,
      "kid": 926,
      "realized": 927,
      "ila": 928,
      "air": 929,
      "brother": 930,
      "Don": 931,
      "pare": 932,
      "stop": 933,
      "does": 934,
      "happened": 935,
      "yummy": 936,
      "zy": 937,
      "Lila": 938,
      "favor": 939,
      "chen": 940,
      "kitchen": 941,
      "really": 942,
      "aisy": 943,
      "Maybe": 944,
      "favorite": 945,
      "began": 946,
      "grass": 947,
      "Fin": 948,
      "times": 949,
      "table": 950,
      "reached": 951,
      "story": 952,
      "bunny": 953,
      "pain": 954,
      "fire": 955,
      "bal": 956,
      "tow": 957,
      "Benny": 958,
      "fl": 959,
      "only": 960,
      "cr": 961,
      "sand": 962,
      "prin": 963,
      "glad": 964,
      "world": 965,
      "open": 966,
      "having": 967,
      "ash": 968,
      "soft": 969,
      "done": 970,
      "through": 971,
      "cra": 972,
      "himself": 973,
      "tired": 974,
      "fro": 975,
      "Hel": 976,
      "outed": 977,
      "coming": 978,
      "shed": 979,
      "why": 980,
      "fr": 981,
      "piece": 982,
      "bor": 983,
      "worry": 984,
      "pro": 985,
      "ring": 986,
      "mer": 987,
      "move": 988,
      "Tommy": 989,
      "magic": 990,
      "key": 991,
      "cold": 992,
      "Now": 993,
      "waved": 994,
      "river": 995,
      "shouted": 996,
      "Wh": 997,
      "kids": 998,
      "Daisy": 999,
      "pond": 1000,
      "fill": 1001,
      "sweet": 1002,
      "ater": 1003,
      "olly": 1004,
      "que": 1005,
      "thank": 1006,
      "duck": 1007,
      "game": 1008,
      "making": 1009,
      "rel": 1010,
      "cor": 1011,
      "uff": 1012,
      "catch": 1013,
      "ath": 1014,
      "stre": 1015,
      "sees": 1016,
      "seen": 1017,
      "col": 1018,
      "cool": 1019,
      "wel": 1020,
      "Sally": 1021,
      "age": 1022,
      "fix": 1023,
      "dark": 1024,
      "Billy": 1025,
      "prom": 1026,
      "draw": 1027,
      "lady": 1028,
      "ary": 1029,
      "nts": 1030,
      "hopped": 1031,
      "cious": 1032,
      "\".": 1033,
      "There": 1034,
      "plan": 1035,
      "ple": 1036,
      "surprise": 1037,
      "close": 1038,
      "mum": 1039,
      "mouse": 1040,
      "funny": 1041,
      "parents": 1042,
      "sat": 1043,
      "ation": 1044,
      "touch": 1045,
      "full": 1046,
      "gu": 1047,
      "ppy": 1048,
      "mar": 1049,
      "ike": 1050,
      "worked": 1051,
      "ped": 1052,
      "oney": 1053,
      "At": 1054,
      "surprised": 1055,
      "frog": 1056,
      "carefully": 1057,
      "trees": 1058,
      "turned": 1059,
      "tra": 1060,
      "doing": 1061,
      "Finally": 1062,
      "Wow": 1063,
      "ons": 1064,
      "held": 1065,
      "wear": 1066,
      "mess": 1067,
      "running": 1068,
      "hind": 1069,
      "pretend": 1070,
      "years": 1071,
      "swim": 1072,
      "Em": 1073,
      "ins": 1074,
      "needed": 1075,
      "delicious": 1076,
      "slow": 1077,
      "tight": 1078,
      "wood": 1079,
      "remembered": 1080,
      "lost": 1081,
      "happily": 1082,
      "yel": 1083,
      "yard": 1084,
      "behind": 1085,
      "looks": 1086,
      "herself": 1087,
      "hole": 1088,
      "aby": 1089,
      "cried": 1090,
      "name": 1091,
      "enjoyed": 1092,
      "ign": 1093,
      "spot": 1094,
      "blocks": 1095,
      "climb": 1096,
      "cla": 1097,
      "yellow": 1098,
      "buy": 1099,
      "butterfly": 1100,
      "sleep": 1101,
      "wished": 1102,
      "another": 1103,
      "green": 1104,
      "arri": 1105,
      "dren": 1106,
      "ildren": 1107,
      "To": 1108,
      "bag": 1109,
      "floor": 1110,
      "Jim": 1111,
      "cars": 1112,
      "children": 1113,
      "pet": 1114,
      "window": 1115,
      "andy": 1116,
      "hill": 1117,
      "finished": 1118,
      "cess": 1119,
      "lesson": 1120,
      "spo": 1121,
      "Molly": 1122,
      "hold": 1123,
      "paper": 1124,
      "likes": 1125,
      "cast": 1126,
      "tall": 1127,
      "reed": 1128,
      "gl": 1129,
      "tri": 1130,
      "wrong": 1131,
      "understand": 1132,
      "ens": 1133,
      "contin": 1134,
      "gent": 1135,
      "bar": 1136,
      "tle": 1137,
      "anything": 1138,
      "asure": 1139,
      "arrived": 1140,
      "hung": 1141,
      "min": 1142,
      "ger": 1143,
      "left": 1144,
      "arm": 1145,
      "oken": 1146,
      "friendly": 1147,
      "ross": 1148,
      "mou": 1149,
      "ued": 1150,
      "stran": 1151,
      "forgot": 1152,
      "filled": 1153,
      "gone": 1154,
      "vis": 1155,
      "broken": 1156,
      "creat": 1157,
      "Hello": 1158,
      "dream": 1159,
      "agreed": 1160,
      "oo": 1161,
      "pat": 1162,
      "wet": 1163,
      "ient": 1164,
      "av": 1165,
      "dir": 1166,
      "Jen": 1167,
      "ield": 1168,
      "cookies": 1169,
      ".”": 1170,
      "train": 1171,
      "hot": 1172,
      "most": 1173,
      "dinner": 1174,
      "else": 1175,
      "hid": 1176,
      "erous": 1177,
      "ced": 1178,
      "pink": 1179,
      "sit": 1180,
      "followed": 1181,
      "ather": 1182,
      "ings": 1183,
      "ves": 1184,
      "Amy": 1185,
      "colors": 1186,
      "moment": 1187,
      "race": 1188,
      "wards": 1189,
      "wonderful": 1190,
      "continued": 1191,
      "dr": 1192,
      "bug": 1193,
      "mother": 1194,
      "irrel": 1195,
      "ange": 1196,
      "build": 1197,
      "finally": 1198,
      "fect": 1199,
      "might": 1200,
      "fair": 1201,
      "morning": 1202,
      "getting": 1203,
      "enough": 1204,
      "land": 1205,
      "pack": 1206,
      "someone": 1207,
      "perfect": 1208,
      "stayed": 1209,
      "ju": 1210,
      "cover": 1211,
      "tast": 1212,
      "puppy": 1213,
      "oup": 1214,
      "bot": 1215,
      "daddy": 1216,
      "trying": 1217,
      "!”": 1218,
      "cked": 1219,
      "others": 1220,
      "fall": 1221,
      "lion": 1222,
      "mat": 1223,
      "snow": 1224,
      "mus": 1225,
      "squirrel": 1226,
      "grandma": 1227,
      "please": 1228,
      "leaves": 1229,
      "few": 1230,
      "nap": 1231,
      "icy": 1232,
      "baby": 1233,
      "castle": 1234,
      "break": 1235,
      "Mama": 1236,
      "fur": 1237,
      "climbed": 1238,
      "beach": 1239,
      "Why": 1240,
      "row": 1241,
      "brought": 1242,
      "gon": 1243,
      "wall": 1244,
      "join": 1245,
      "fight": 1246,
      "art": 1247,
      "ated": 1248,
      "sometimes": 1249,
      "wasn": 1250,
      "everything": 1251,
      "ious": 1252,
      "music": 1253,
      "deep": 1254,
      "met": 1255,
      "ride": 1256,
      "song": 1257,
      "plain": 1258,
      "spark": 1259,
      "pping": 1260,
      "ton": 1261,
      "hungry": 1262,
      "Gr": 1263,
      "pictures": 1264,
      "pes": 1265,
      "smell": 1266,
      "appear": 1267,
      "makes": 1268,
      "Go": 1269,
      "whe": 1270,
      "em": 1271,
      "sear": 1272,
      "listened": 1273,
      "ucky": 1274,
      "bus": 1275,
      "sail": 1276,
      "books": 1277,
      "ze": 1278,
      "ance": 1279,
      "wants": 1280,
      "poin": 1281,
      "clothe": 1282,
      "strange": 1283,
      "clothes": 1284,
      "zz": 1285,
      "ballo": 1286,
      "grow": 1287,
      "flying": 1288,
      "Daddy": 1289,
      "scary": 1290,
      "treat": 1291,
      "waited": 1292,
      "ot": 1293,
      "amazed": 1294,
      "teddy": 1295,
      "dang": 1296,
      "ele": 1297,
      "spl": 1298,
      "amazing": 1299,
      "owner": 1300,
      "Oh": 1301,
      "promised": 1302,
      "gi": 1303,
      "OK": 1304,
      "ence": 1305,
      "white": 1306,
      "such": 1307,
      "talk": 1308,
      "Soon": 1309,
      "tail": 1310,
      "ose": 1311,
      "pen": 1312,
      "whis": 1313,
      "roll": 1314,
      "uffy": 1315,
      "Come": 1316,
      "pulled": 1317,
      "Jill": 1318,
      "cha": 1319,
      "sy": 1320,
      "bike": 1321,
      "woods": 1322,
      "pers": 1323,
      "shared": 1324,
      "sis": 1325,
      "rot": 1326,
      "towards": 1327,
      "alone": 1328,
      "thy": 1329,
      "colorful": 1330,
      "pass": 1331,
      "belie": 1332,
      "Mr": 1333,
      "ateful": 1334,
      "magical": 1335,
      "hig": 1336,
      "je": 1337,
      "grateful": 1338,
      "All": 1339,
      "Be": 1340,
      "hes": 1341,
      "Some": 1342,
      "chair": 1343,
      "ually": 1344,
      "hide": 1345,
      "kay": 1346,
      "silly": 1347,
      "smiles": 1348,
      "pur": 1349,
      "faster": 1350,
      "ire": 1351,
      "treasure": 1352,
      "bran": 1353,
      "snack": 1354,
      "phone": 1355,
      "field": 1356,
      "moral": 1357,
      "miss": 1358,
      "sister": 1359,
      "slowly": 1360,
      "heav": 1361,
      "bath": 1362,
      "af": 1363,
      "helping": 1364,
      "worried": 1365,
      "fox": 1366,
      "job": 1367,
      "ses": 1368,
      "money": 1369,
      "iss": 1370,
      "asks": 1371,
      "visit": 1372,
      "orn": 1373,
      "gra": 1374,
      "lice": 1375,
      "living": 1376,
      "party": 1377,
      "monster": 1378,
      "must": 1379,
      "dry": 1380,
      "iet": 1381,
      "sign": 1382,
      "igg": 1383,
      "bas": 1384,
      "cloud": 1385,
      "candy": 1386,
      "town": 1387,
      "higher": 1388,
      "lake": 1389,
      "ident": 1390,
      "explain": 1391,
      "board": 1392,
      "quiet": 1393,
      "cup": 1394,
      "runs": 1395,
      "ling": 1396,
      "everywhere": 1397,
      "stepped": 1398,
      "ps": 1399,
      "shine": 1400,
      "Sure": 1401,
      "Emma": 1402,
      "Just": 1403,
      "mind": 1404,
      "scream": 1405,
      "chee": 1406,
      "buck": 1407,
      "bigger": 1408,
      "heavy": 1409,
      "closed": 1410,
      "basket": 1411,
      "answ": 1412,
      "ises": 1413,
      "cket": 1414,
      "ming": 1415,
      "blan": 1416,
      "eating": 1417,
      "mouth": 1418,
      "ames": 1419,
      "pieces": 1420,
      "dangerous": 1421,
      "reach": 1422,
      "wouldn": 1423,
      "broke": 1424,
      "ment": 1425,
      "thre": 1426,
      "stood": 1427,
      "dance": 1428,
      "appeared": 1429,
      "stu": 1430,
      "dolls": 1431,
      "wr": 1432,
      "ng": 1433,
      "thinks": 1434,
      "Jimmy": 1435,
      "Hi": 1436,
      "nee": 1437,
      "neigh": 1438,
      "across": 1439,
      "Okay": 1440,
      "teac": 1441,
      "gg": 1442,
      "princess": 1443,
      "cy": 1444,
      "stuck": 1445,
      "believe": 1446,
      "ctor": 1447,
      "free": 1448,
      "cident": 1449,
      "fru": 1450,
      "gif": 1451,
      "iting": 1452,
      "Please": 1453,
      "swa": 1454,
      "stead": 1455,
      "crying": 1456,
      "suddenly": 1457,
      "soup": 1458,
      "bee": 1459,
      "da": 1460,
      "press": 1461,
      "threw": 1462,
      "accident": 1463,
      "farmer": 1464,
      "dri": 1465,
      "paint": 1466,
      "dirty": 1467,
      "eleph": 1468,
      "heal": 1469,
      "plane": 1470,
      "dragon": 1471,
      "ap": 1472,
      "unch": 1473,
      "ich": 1474,
      "same": 1475,
      "well": 1476,
      "ventually": 1477,
      "words": 1478,
      "sc": 1479,
      "sea": 1480,
      "ourse": 1481,
      "gentle": 1482,
      "swam": 1483,
      "child": 1484,
      "Mum": 1485,
      "ase": 1486,
      "brown": 1487,
      "win": 1488,
      "ben": 1489,
      "Grandma": 1490,
      "black": 1491,
      "along": 1492,
      "longer": 1493,
      "Mary": 1494,
      "ible": 1495,
      "start": 1496,
      "clapped": 1497,
      "ix": 1498,
      "teacher": 1499,
      "tent": 1500,
      "upset": 1501,
      "chool": 1502,
      "kno": 1503,
      "val": 1504,
      "cheered": 1505,
      "sang": 1506,
      "pol": 1507,
      "elly": 1508,
      "school": 1509,
      "bowl": 1510,
      "Tweet": 1511,
      "sug": 1512,
      "tu": 1513,
      "bite": 1514,
      "doctor": 1515,
      "pray": 1516,
      "pull": 1517,
      "bucket": 1518,
      "Fl": 1519,
      "caught": 1520,
      "button": 1521,
      "dropped": 1522,
      "juice": 1523,
      "blanket": 1524,
      "wings": 1525,
      "Sammy": 1526,
      "swings": 1527,
      "explained": 1528,
      "jour": 1529,
      "ull": 1530,
      "woke": 1531,
      "bring": 1532,
      "street": 1533,
      "drink": 1534,
      "?”": 1535,
      "Inside": 1536,
      "nearby": 1537,
      "balloon": 1538,
      "round": 1539,
      "stories": 1540,
      "pushed": 1541,
      "mine": 1542,
      "ours": 1543,
      "drove": 1544,
      "course": 1545,
      "tiny": 1546,
      "fit": 1547,
      "today": 1548,
      "comfor": 1549,
      "Later": 1550,
      "secre": 1551,
      "pocket": 1552,
      "welcome": 1553,
      "moved": 1554,
      "young": 1555,
      "smart": 1556,
      "ughter": 1557,
      "ier": 1558,
      "jar": 1559,
      "su": 1560,
      "without": 1561,
      "singing": 1562,
      "happen": 1563,
      "daughter": 1564,
      "part": 1565,
      "body": 1566,
      "Fluffy": 1567,
      "cheese": 1568,
      "pow": 1569,
      "ches": 1570,
      "turns": 1571,
      "cray": 1572,
      "fairy": 1573,
      "bush": 1574,
      "though": 1575,
      "elephant": 1576,
      "exploring": 1577,
      "wish": 1578,
      "itting": 1579,
      "seemed": 1580,
      "lone": 1581,
      "ney": 1582,
      "games": 1583,
      "hello": 1584,
      "hoped": 1585,
      "trou": 1586,
      "twins": 1587,
      "lonely": 1588,
      "sent": 1589,
      "noises": 1590,
      "forget": 1591,
      "hugs": 1592,
      "ntain": 1593,
      "shell": 1594,
      "rocks": 1595,
      "lunch": 1596,
      "sco": 1597,
      "apple": 1598,
      "oun": 1599,
      "bubb": 1600,
      "suc": 1601,
      "wise": 1602,
      "backyard": 1603,
      "ship": 1604,
      "cow": 1605,
      "mil": 1606,
      "mix": 1607,
      "itch": 1608,
      "shoes": 1609,
      "stars": 1610,
      "shook": 1611,
      "ittens": 1612,
      "leg": 1613,
      "chas": 1614,
      "fused": 1615,
      "relie": 1616,
      "takes": 1617,
      "shapes": 1618,
      "kiss": 1619,
      "Their": 1620,
      "tower": 1621,
      "covered": 1622,
      "ser": 1623,
      "pan": 1624,
      "taking": 1625,
      "cir": 1626,
      "ward": 1627,
      "late": 1628,
      "add": 1629,
      "throw": 1630,
      "lay": 1631,
      "rainbow": 1632,
      "stone": 1633,
      "bench": 1634,
      "neck": 1635,
      "creature": 1636,
      "hit": 1637,
      "oom": 1638,
      "adventures": 1639,
      "Pe": 1640,
      "driver": 1641,
      "ions": 1642,
      "owl": 1643,
      "fence": 1644,
      "kite": 1645,
      "pper": 1646,
      "coat": 1647,
      "cute": 1648,
      "pil": 1649,
      "shop": 1650,
      "My": 1651,
      "onto": 1652,
      "spin": 1653,
      "accidentally": 1654,
      "erful": 1655,
      "purple": 1656,
      "lla": 1657,
      "heart": 1658,
      "sitting": 1659,
      "quest": 1660,
      "idge": 1661,
      "sunshine": 1662,
      "With": 1663,
      "dist": 1664,
      "ned": 1665,
      "orange": 1666,
      "pra": 1667,
      "touc": 1668,
      "nest": 1669,
      "naught": 1670,
      "secret": 1671,
      "ness": 1672,
      "naughty": 1673,
      "comes": 1674,
      "fing": 1675,
      "boun": 1676,
      "arms": 1677,
      "milk": 1678,
      "vel": 1679,
      "eas": 1680,
      "spoon": 1681,
      "Le": 1682,
      "carry": 1683,
      "Jenny": 1684,
      "Mittens": 1685,
      "ast": 1686,
      "bought": 1687,
      "instead": 1688,
      "searched": 1689,
      "gen": 1690,
      "talked": 1691,
      "monkey": 1692,
      "pig": 1693,
      "days": 1694,
      "cozy": 1695,
      "sunny": 1696,
      "band": 1697,
      "lucky": 1698,
      "itty": 1699,
      "feels": 1700,
      "fan": 1701,
      "wondered": 1702,
      "swimming": 1703,
      "gged": 1704,
      "hu": 1705,
      "num": 1706,
      "touched": 1707,
      "laughing": 1708,
      "belong": 1709,
      "uni": 1710,
      "wom": 1711,
      "sounds": 1712,
      "nic": 1713,
      "cave": 1714,
      "count": 1715,
      "woman": 1716,
      "nothing": 1717,
      "push": 1718,
      "relieved": 1719,
      "ator": 1720,
      "cal": 1721,
      "wand": 1722,
      "gest": 1723,
      "peace": 1724,
      "sli": 1725,
      "cks": 1726,
      "nose": 1727,
      "busy": 1728,
      "neighbor": 1729,
      "loves": 1730,
      "sick": 1731,
      "apples": 1732,
      "patient": 1733,
      "amp": 1734,
      "rope": 1735,
      "stor": 1736,
      "pudd": 1737,
      "raid": 1738,
      "Jake": 1739,
      "wra": 1740,
      "past": 1741,
      "watching": 1742,
      "branch": 1743,
      "afraid": 1744,
      "yell": 1745,
      "ider": 1746,
      "journey": 1747,
      "cing": 1748,
      "live": 1749,
      "life": 1750,
      "farm": 1751,
      "Ted": 1752,
      "cer": 1753,
      "zoom": 1754,
      "huge": 1755,
      "exciting": 1756,
      "danced": 1757,
      "bs": 1758,
      "ek": 1759,
      "ars": 1760,
      "str": 1761,
      "storm": 1762,
      "colle": 1763,
      "blem": 1764,
      "mad": 1765,
      "vill": 1766,
      "thday": 1767,
      "shelf": 1768,
      "act": 1769,
      "forever": 1770,
      "problem": 1771,
      "irt": 1772,
      "minut": 1773,
      "knee": 1774,
      "mach": 1775,
      "vie": 1776,
      "craw": 1777,
      "Emily": 1778,
      "circle": 1779,
      "asleep": 1780,
      "ian": 1781,
      "healthy": 1782,
      "Of": 1783,
      "holding": 1784,
      "organ": 1785,
      "hor": 1786,
      "prote": 1787,
      "ined": 1788,
      "meet": 1789,
      "mail": 1790,
      "clever": 1791,
      "spotted": 1792,
      "gather": 1793,
      "letter": 1794,
      "net": 1795,
      "sharp": 1796,
      "Good": 1797,
      "gift": 1798,
      "berries": 1799,
      "resting": 1800,
      "coun": 1801,
      "inv": 1802,
      "birthday": 1803,
      "shout": 1804,
      "os": 1805,
      "gently": 1806,
      "person": 1807,
      "smiling": 1808,
      "pointed": 1809,
      "tasty": 1810,
      "How": 1811,
      "di": 1812,
      "tool": 1813,
      "ey": 1814,
      "honey": 1815,
      "wash": 1816,
      "orm": 1817,
      "itten": 1818,
      "respe": 1819,
      "adm": 1820,
      "tasted": 1821,
      "matter": 1822,
      "smelled": 1823,
      "eag": 1824,
      "Hey": 1825,
      "shining": 1826,
      "places": 1827,
      "lar": 1828,
      "ugg": 1829,
      "hope": 1830,
      "kick": 1831,
      "pop": 1832,
      "picnic": 1833,
      "bottle": 1834,
      "fli": 1835,
      "blew": 1836,
      "ones": 1837,
      "wide": 1838,
      "inte": 1839,
      "spider": 1840,
      "corn": 1841,
      "rubb": 1842,
      "snake": 1843,
      "wearing": 1844,
      "ize": 1845,
      "trouble": 1846,
      "gigg": 1847,
      "pract": 1848,
      "shes": 1849,
      "tightly": 1850,
      "pread": 1851,
      "spread": 1852,
      "log": 1853,
      "des": 1854,
      "roar": 1855,
      "respect": 1856,
      "feather": 1857,
      "present": 1858,
      "word": 1859,
      "bread": 1860,
      "later": 1861,
      "road": 1862,
      "whole": 1863,
      "anyone": 1864,
      "oce": 1865,
      "ert": 1866,
      "ocean": 1867,
      "last": 1868,
      "path": 1869,
      "puzz": 1870,
      "cookie": 1871,
      "hop": 1872,
      "confused": 1873,
      "giant": 1874,
      "clouds": 1875,
      "screamed": 1876,
      "seat": 1877,
      "fron": 1878,
      "Are": 1879,
      "impress": 1880,
      "prince": 1881,
      "protect": 1882,
      "front": 1883,
      "mark": 1884,
      "splash": 1885,
      "comfortable": 1886,
      "ten": 1887,
      "dol": 1888,
      "sol": 1889,
      "bled": 1890,
      "cele": 1891,
      "which": 1892,
      "promise": 1893,
      "step": 1894,
      "thin": 1895,
      "teach": 1896,
      "ungle": 1897,
      "answer": 1898,
      "bark": 1899,
      "bru": 1900,
      "large": 1901,
      "jungle": 1902,
      "gives": 1903,
      "wave": 1904,
      "andpa": 1905,
      "fruit": 1906,
      "myster": 1907,
      "cop": 1908,
      "cord": 1909,
      "Together": 1910,
      "village": 1911,
      "trip": 1912,
      "imag": 1913,
      "carrot": 1914,
      "puts": 1915,
      "dolph": 1916,
      "Everywhere": 1917,
      "bul": 1918,
      "eventually": 1919,
      "tid": 1920,
      "slid": 1921,
      "chased": 1922,
      "Where": 1923,
      "ipped": 1924,
      "crayons": 1925,
      "celebr": 1926,
      "wild": 1927,
      "ased": 1928,
      "ching": 1929,
      "decor": 1930,
      "spent": 1931,
      "write": 1932,
      "peaceful": 1933,
      "bur": 1934,
      "rolled": 1935,
      "waiting": 1936,
      "sandw": 1937,
      "dirt": 1938,
      "foot": 1939,
      "talking": 1940,
      "treats": 1941,
      "interesting": 1942,
      "ife": 1943,
      "dest": 1944,
      "spit": 1945,
      "hiding": 1946,
      "snowman": 1947,
      "goes": 1948,
      "shy": 1949,
      "taste": 1950,
      "stret": 1951,
      "swe": 1952,
      "shirt": 1953,
      "worm": 1954,
      "Kitty": 1955,
      "eth": 1956,
      "att": 1957,
      "feet": 1958,
      "helpful": 1959,
      "ity": 1960,
      "cur": 1961,
      "tun": 1962,
      "building": 1963,
      "fla": 1964,
      "oven": 1965,
      "lovely": 1966,
      "ducks": 1967,
      "corner": 1968,
      "calm": 1969,
      "blow": 1970,
      "rude": 1971,
      "pretended": 1972,
      "ban": 1973,
      "ina": 1974,
      "bugs": 1975,
      "If": 1976,
      "pile": 1977,
      "zoo": 1978,
      "teeth": 1979,
      "jumping": 1980,
      "puddle": 1981,
      "tidy": 1982,
      "hamed": 1983,
      "iger": 1984,
      "ashamed": 1985,
      "ella": 1986,
      "banan": 1987,
      "egg": 1988,
      "uce": 1989,
      "whistle": 1990,
      "collect": 1991,
      "Little": 1992,
      "Mummy": 1993,
      "ony": 1994,
      "forgive": 1995,
      "fold": 1996,
      "loom": 1997,
      "seek": 1998,
      "Bella": 1999,
      "bell": 2000,
      "plant": 2001,
      "embar": 2002,
      "remind": 2003,
      "umpy": 2004,
      "sparkly": 2005,
      "eager": 2006,
      "stra": 2007,
      "cannot": 2008,
      "wore": 2009,
      "sharing": 2010,
      "While": 2011,
      "success": 2012,
      "embarr": 2013,
      "mountain": 2014,
      "wheel": 2015,
      "embarrass": 2016,
      "Alice": 2017,
      "Bo": 2018,
      "Sus": 2019,
      "bat": 2020,
      "furry": 2021,
      "cross": 2022,
      "grab": 2023,
      "shr": 2024,
      "ult": 2025,
      "whenever": 2026,
      "pour": 2027,
      "sup": 2028,
      "breath": 2029,
      "Sometimes": 2030,
      "hum": 2031,
      "llie": 2032,
      "van": 2033,
      "vous": 2034,
      "sugar": 2035,
      "machine": 2036,
      "chick": 2037,
      "creative": 2038,
      "tries": 2039,
      "stir": 2040,
      "spray": 2041,
      "pool": 2042,
      "selfish": 2043,
      "jam": 2044,
      "faces": 2045,
      "Lis": 2046,
      "Lisa": 2047,
      "string": 2048,
      "finish": 2049,
      "messy": 2050,
      "gold": 2051,
      "chocol": 2052,
      "coura": 2053,
      "rots": 2054,
      "fixed": 2055,
      "fighting": 2056,
      "pillow": 2057,
      "minutes": 2058,
      "hone": 2059,
      "oin": 2060,
      "ighed": 2061,
      "missed": 2062,
      "fig": 2063,
      "ugly": 2064,
      "horse": 2065,
      "embarrassed": 2066,
      "tomor": 2067,
      "meant": 2068,
      "rank": 2069,
      "knowing": 2070,
      "ladder": 2071,
      "drive": 2072,
      "tomorrow": 2073,
      "hours": 2074,
      "spicy": 2075,
      "Teddy": 2076,
      "Mark": 2077,
      "ail": 2078,
      "lace": 2079,
      "appoin": 2080,
      "thankful": 2081,
      "hang": 2082,
      "trust": 2083,
      "stri": 2084,
      "hospit": 2085,
      "cape": 2086,
      "shake": 2087,
      "colour": 2088,
      "hospital": 2089,
      "Re": 2090,
      "lves": 2091,
      "tea": 2092,
      "bedroom": 2093,
      "nervous": 2094,
      "easy": 2095,
      "Even": 2096,
      "carrots": 2097,
      "chew": 2098,
      "Peter": 2099,
      "den": 2100,
      "nut": 2101,
      "Here": 2102,
      "grew": 2103,
      "understood": 2104,
      "couch": 2105,
      "barked": 2106,
      "adow": 2107,
      "meadow": 2108,
      "taught": 2109,
      "disappoin": 2110,
      "res": 2111,
      "fear": 2112,
      "often": 2113,
      "landed": 2114,
      "passed": 2115,
      "mic": 2116,
      "Ann": 2117,
      "knocked": 2118,
      "polite": 2119,
      "coin": 2120,
      "deter": 2121,
      "mud": 2122,
      "micro": 2123,
      "stair": 2124,
      "returned": 2125,
      "smoo": 2126,
      "determin": 2127,
      "pill": 2128,
      "soar": 2129,
      "izz": 2130,
      "smooth": 2131,
      "Ch": 2132,
      "ba": 2133,
      "stuff": 2134,
      "seed": 2135,
      "generous": 2136,
      "osa": 2137,
      "tie": 2138,
      "ending": 2139,
      "these": 2140,
      "change": 2141,
      "drum": 2142,
      "bubbles": 2143,
      "flies": 2144,
      "Stop": 2145,
      "scre": 2146,
      "card": 2147,
      "test": 2148,
      "spla": 2149,
      "disappointed": 2150,
      "moon": 2151,
      "leaf": 2152,
      "carried": 2153,
      "hears": 2154,
      "packed": 2155,
      "chocolate": 2156,
      "Br": 2157,
      "Ella": 2158,
      "espe": 2159,
      "bridge": 2160,
      "snacks": 2161,
      "fancy": 2162,
      "Give": 2163,
      "ustr": 2164,
      "clear": 2165,
      "class": 2166,
      "crab": 2167,
      "songs": 2168,
      "cted": 2169,
      "pir": 2170,
      "mir": 2171,
      "sold": 2172,
      "Johnny": 2173,
      "sleepy": 2174,
      "honest": 2175,
      "tory": 2176,
      "paw": 2177,
      "Leo": 2178,
      "osaur": 2179,
      "Who": 2180,
      "gas": 2181,
      "sour": 2182,
      "rag": 2183,
      "cially": 2184,
      "wolf": 2185,
      "chest": 2186,
      "izzy": 2187,
      "dinosaur": 2188,
      "number": 2189,
      "especially": 2190,
      "lown": 2191,
      "gathered": 2192,
      "poor": 2193,
      "group": 2194,
      "ror": 2195,
      "rad": 2196,
      "waves": 2197,
      "forward": 2198,
      "frustr": 2199,
      "mysterious": 2200,
      "clown": 2201,
      "fake": 2202,
      "ird": 2203,
      "smelly": 2204,
      "twirl": 2205,
      "cand": 2206,
      "gate": 2207,
      "sack": 2208,
      "hero": 2209,
      "map": 2210,
      "Help": 2211,
      "necklace": 2212,
      "pin": 2213,
      "shad": 2214,
      "sque": 2215,
      "motor": 2216,
      "kn": 2217,
      "weak": 2218,
      "cloth": 2219,
      "emp": 2220,
      "tro": 2221,
      "grumpy": 2222,
      "jewel": 2223,
      "finger": 2224,
      "gy": 2225,
      "kitten": 2226,
      "eng": 2227,
      "lif": 2228,
      "robot": 2229,
      "ipe": 2230,
      "case": 2231,
      "shore": 2232,
      "glue": 2233,
      "mirror": 2234,
      "vase": 2235,
      "sheep": 2236,
      "hose": 2237,
      "mel": 2238,
      "lowed": 2239,
      "plants": 2240,
      "jelly": 2241,
      "exam": 2242,
      "joke": 2243,
      "berry": 2244,
      "line": 2245,
      "itter": 2246,
      "gray": 2247,
      "puzzle": 2248,
      "Brown": 2249,
      "frustrated": 2250,
      "empty": 2251,
      "cran": 2252,
      "maybe": 2253,
      "almost": 2254,
      "plate": 2255,
      "Susie": 2256,
      "ee": 2257,
      "thick": 2258,
      "del": 2259,
      "skipped": 2260,
      "expens": 2261,
      "sticks": 2262,
      "expensive": 2263,
      "lit": 2264,
      "hopping": 2265,
      "drew": 2266,
      "hidden": 2267,
      "determined": 2268,
      "Me": 2269,
      "bored": 2270,
      "legs": 2271,
      "jack": 2272,
      "ken": 2273,
      "pay": 2274,
      "tick": 2275,
      "moving": 2276,
      "dogs": 2277,
      "closet": 2278,
      "bake": 2279,
      "dle": 2280,
      "toes": 2281,
      "orry": 2282,
      "police": 2283,
      "birdie": 2284,
      "fruits": 2285,
      "aunt": 2286,
      "oke": 2287,
      "ates": 2288,
      "figure": 2289,
      "cries": 2290,
      "oy": 2291,
      "sight": 2292,
      "saved": 2293,
      "jog": 2294,
      "known": 2295,
      "spoil": 2296,
      "towel": 2297,
      "inc": 2298,
      "sage": 2299,
      "?\".": 2300,
      "Today": 2301,
      "branches": 2302,
      "supp": 2303,
      "powerful": 2304,
      "splashed": 2305,
      "Pa": 2306,
      "feed": 2307,
      "pair": 2308,
      "yelled": 2309,
      "kin": 2310,
      "tiger": 2311,
      "iddle": 2312,
      "taken": 2313,
      "glass": 2314,
      "stairs": 2315,
      "crane": 2316,
      "Sorry": 2317,
      "cage": 2318,
      "discovered": 2319,
      "flag": 2320,
      "answered": 2321,
      "save": 2322,
      "excite": 2323,
      "standing": 2324,
      "dolphin": 2325,
      "wha": 2326,
      "aged": 2327,
      "tain": 2328,
      "ham": 2329,
      "era": 2330,
      "flut": 2331,
      "ub": 2332,
      "Your": 2333,
      "getable": 2334,
      "incred": 2335,
      "boring": 2336,
      "organized": 2337,
      "excitement": 2338,
      "eld": 2339,
      "fre": 2340,
      "sighed": 2341,
      "wip": 2342,
      "soap": 2343,
      "boo": 2344,
      "gets": 2345,
      "rote": 2346,
      "cient": 2347,
      "pleased": 2348,
      "jacket": 2349,
      "Mandy": 2350,
      "middle": 2351,
      "spr": 2352,
      "wrote": 2353,
      "lose": 2354,
      "form": 2355,
      "Lola": 2356,
      "ignor": 2357,
      "balloons": 2358,
      "suggest": 2359,
      "content": 2360,
      "sailed": 2361,
      "Eventually": 2362,
      "tells": 2363,
      "Rex": 2364,
      "vegetable": 2365,
      "licked": 2366,
      "measure": 2367,
      "spun": 2368,
      "Bobby": 2369,
      "stones": 2370,
      "Ne": 2371,
      "bers": 2372,
      "fright": 2373,
      "iness": 2374,
      "smoke": 2375,
      "working": 2376,
      "whisper": 2377,
      "scarf": 2378,
      "wagged": 2379,
      "tears": 2380,
      "brush": 2381,
      "incredible": 2382,
      "Bu": 2383,
      "swan": 2384,
      "lying": 2385,
      "true": 2386,
      "feathers": 2387,
      "rid": 2388,
      "ual": 2389,
      "illed": 2390,
      "movie": 2391,
      "og": 2392,
      "pri": 2393,
      "locked": 2394,
      "shells": 2395,
      "TV": 2396,
      "fil": 2397,
      "fic": 2398,
      "record": 2399,
      "lemon": 2400,
      "team": 2401,
      "usual": 2402,
      "disappeared": 2403,
      "eggs": 2404,
      "rare": 2405,
      "zed": 2406,
      "giggled": 2407,
      "Bl": 2408,
      "yourself": 2409,
      "runk": 2410,
      "port": 2411,
      "ular": 2412,
      "giving": 2413,
      "knife": 2414,
      "whale": 2415,
      "elder": 2416,
      "bone": 2417,
      "dizzy": 2418,
      "ero": 2419,
      "libr": 2420,
      "note": 2421,
      "law": 2422,
      "harm": 2423,
      "cheerful": 2424,
      "parrot": 2425,
      "balance": 2426,
      "questions": 2427,
      "noisy": 2428,
      "grown": 2429,
      "kindness": 2430,
      "rocket": 2431,
      "diffic": 2432,
      "drawing": 2433,
      "Tweety": 2434,
      "straw": 2435,
      "End": 2436,
      "Whe": 2437,
      "once": 2438,
      "chang": 2439,
      "popcorn": 2440,
      "Rose": 2441,
      "sword": 2442,
      "wake": 2443,
      "become": 2444,
      "extra": 2445,
      "happening": 2446,
      "batter": 2447,
      "lifted": 2448,
      "Mar": 2449,
      "fat": 2450,
      "week": 2451,
      "balls": 2452,
      "smaller": 2453,
      "mistake": 2454,
      "match": 2455,
      "tub": 2456,
      "rh": 2457,
      "wagon": 2458,
      "managed": 2459,
      "ately": 2460,
      "flash": 2461,
      "bathroom": 2462,
      "difficult": 2463,
      "lly": 2464,
      "ancient": 2465,
      "ishes": 2466,
      "offered": 2467,
      "ruined": 2468,
      "Bear": 2469,
      "Fred": 2470,
      "distance": 2471,
      "frightened": 2472,
      "gust": 2473,
      "norm": 2474,
      "playground": 2475,
      "lazy": 2476,
      "check": 2477,
      "adventur": 2478,
      "dancing": 2479,
      "illi": 2480,
      "ating": 2481,
      "calling": 2482,
      "cleaned": 2483,
      "walks": 2484,
      "crown": 2485,
      "normal": 2486,
      "frag": 2487,
      "sell": 2488,
      "eye": 2489,
      "boss": 2490,
      "fluffy": 2491,
      "Nemo": 2492,
      "drank": 2493,
      "gum": 2494,
      "ud": 2495,
      "vide": 2496,
      "yog": 2497,
      "igator": 2498,
      "vest": 2499,
      "picks": 2500,
      "steal": 2501,
      "elderly": 2502,
      "adventurous": 2503,
      "trunk": 2504,
      "issor": 2505,
      "stum": 2506,
      "lift": 2507,
      "terri": 2508,
      "enjoying": 2509,
      "scissor": 2510,
      "kissed": 2511,
      "scissors": 2512,
      "toug": 2513,
      "coll": 2514,
      "Mrs": 2515,
      "study": 2516,
      "Dave": 2517,
      "horn": 2518,
      "already": 2519,
      "lives": 2520,
      "father": 2521,
      "juicy": 2522,
      "pizz": 2523,
      "lead": 2524,
      "alligator": 2525,
      "famous": 2526,
      "louder": 2527,
      "circles": 2528,
      "Ellie": 2529,
      "son": 2530,
      "rose": 2531,
      "dep": 2532,
      "tele": 2533,
      "Well": 2534,
      "boxes": 2535,
      "slipped": 2536,
      "successful": 2537,
      "fragile": 2538,
      "tough": 2539,
      "barn": 2540,
      "dig": 2541,
      "dish": 2542,
      "load": 2543,
      "stal": 2544,
      "boys": 2545,
      "tern": 2546,
      "deer": 2547,
      "fool": 2548,
      "against": 2549,
      "sweetie": 2550,
      "engine": 2551,
      "Blue": 2552,
      "aw": 2553,
      "epend": 2554,
      "yours": 2555,
      "needs": 2556,
      "bags": 2557,
      "spinning": 2558,
      "Ow": 2559,
      "men": 2560,
      "yarn": 2561,
      "reg": 2562,
      "independ": 2563,
      "meal": 2564,
      "wrap": 2565,
      "diam": 2566,
      "sandwich": 2567,
      "nosy": 2568,
      "hurts": 2569,
      "twig": 2570,
      "chase": 2571,
      "stubb": 2572,
      "suggested": 2573,
      "Bill": 2574,
      "bloom": 2575,
      "scr": 2576,
      "rela": 2577,
      "orge": 2578,
      "nod": 2579,
      "spend": 2580,
      "realised": 2581,
      "frown": 2582,
      "hammer": 2583,
      "relax": 2584,
      "Baby": 2585,
      "Ho": 2586,
      "Sop": 2587,
      "weird": 2588,
      "added": 2589,
      "Soph": 2590,
      "learning": 2591,
      "space": 2592,
      "lights": 2593,
      "vegetables": 2594,
      "Ge": 2595,
      "Pet": 2596,
      "Ru": 2597,
      "courage": 2598,
      "collar": 2599,
      "Pete": 2600,
      "See": 2601,
      "pump": 2602,
      "tem": 2603,
      "brilli": 2604,
      "loudly": 2605,
      "borrow": 2606,
      "search": 2607,
      "chicken": 2608,
      "colourful": 2609,
      "pizza": 2610,
      "independent": 2611,
      "stubborn": 2612,
      "snee": 2613,
      "erpill": 2614,
      "rich": 2615,
      "asking": 2616,
      "decide": 2617,
      "caterpill": 2618,
      "ears": 2619,
      "queen": 2620,
      "invited": 2621,
      "foolish": 2622,
      "brilliant": 2623,
      "knight": 2624,
      "escape": 2625,
      "rode": 2626,
      "pee": 2627,
      "guit": 2628,
      "buttons": 2629,
      "unique": 2630,
      "depend": 2631,
      "gara": 2632,
      "skin": 2633,
      "saying": 2634,
      "guard": 2635,
      "garage": 2636,
      "dom": 2637,
      "mummy": 2638,
      "beak": 2639,
      "market": 2640,
      "bubble": 2641,
      "fou": 2642,
      "ffle": 2643,
      "obed": 2644,
      "Toby": 2645,
      "counted": 2646,
      "oyster": 2647,
      "George": 2648,
      "Char": 2649,
      "toast": 2650,
      "unusual": 2651,
      "fork": 2652,
      "notice": 2653,
      "banana": 2654,
      "wiped": 2655,
      "regular": 2656,
      "guitar": 2657,
      "fountain": 2658,
      "obedient": 2659,
      "ray": 2660,
      "bove": 2661,
      "umbre": 2662,
      "shows": 2663,
      "stream": 2664,
      "dreamed": 2665,
      "pattern": 2666,
      "walls": 2667,
      "cil": 2668,
      "gun": 2669,
      "rough": 2670,
      "order": 2671,
      "tape": 2672,
      "safely": 2673,
      "crystal": 2674,
      "trap": 2675,
      "pencil": 2676,
      "tools": 2677,
      "above": 2678,
      "cro": 2679,
      "edge": 2680,
      "tom": 2681,
      "imed": 2682,
      "ceed": 2683,
      "igin": 2684,
      "using": 2685,
      "harder": 2686,
      "turkey": 2687,
      "patch": 2688,
      "bottom": 2689,
      "impressed": 2690,
      "solve": 2691,
      "glow": 2692,
      "anut": 2693,
      "waffle": 2694,
      "lean": 2695,
      "origin": 2696,
      "nods": 2697,
      "peanut": 2698,
      "illa": 2699,
      "aced": 2700,
      "clap": 2701,
      "crawled": 2702,
      "diamond": 2703,
      "caterpillar": 2704,
      "Ale": 2705,
      "apo": 2706,
      "bitter": 2707,
      "gue": 2708,
      "pal": 2709,
      "sca": 2710,
      "tank": 2711,
      "tire": 2712,
      "ured": 2713,
      "guess": 2714,
      "dependable": 2715,
      "original": 2716,
      "Alex": 2717,
      "apolog": 2718,
      "cri": 2719,
      "shone": 2720,
      "comb": 2721,
      "fier": 2722,
      "breakfast": 2723,
      "admired": 2724,
      "Will": 2725,
      "kne": 2726,
      "delight": 2727,
      "clay": 2728,
      "stronger": 2729,
      "rubbed": 2730,
      "bossy": 2731,
      "Ju": 2732,
      "cudd": 2733,
      "lid": 2734,
      "yal": 2735,
      "aser": 2736,
      "playful": 2737,
      "cart": 2738,
      "grandpa": 2739,
      "knows": 2740,
      "picking": 2741,
      "keeper": 2742,
      "boats": 2743,
      "medic": 2744,
      "bald": 2745,
      "Bobo": 2746,
      "changed": 2747,
      "scrat": 2748,
      "fierce": 2749,
      "Bet": 2750,
      "cone": 2751,
      "raft": 2752,
      "tray": 2753,
      "painting": 2754,
      "penny": 2755,
      "succeed": 2756,
      "uggled": 2757,
      "humble": 2758,
      "Brownie": 2759,
      "library": 2760,
      "terrible": 2761,
      "sauce": 2762,
      "goal": 2763,
      "handed": 2764,
      "tru": 2765,
      "proudly": 2766,
      "sounded": 2767,
      "square": 2768,
      "Whenever": 2769,
      "city": 2770,
      "tag": 2771,
      "witch": 2772,
      "keys": 2773,
      "happiness": 2774,
      "agree": 2775,
      "nail": 2776,
      "fridge": 2777,
      "raven": 2778,
      "finding": 2779,
      "acce": 2780,
      "chose": 2781,
      "firework": 2782,
      "mighty": 2783,
      "joined": 2784,
      "squee": 2785,
      "umbrella": 2786,
      "Ducky": 2787,
      "cam": 2788,
      "lli": 2789,
      "mask": 2790,
      "sil": 2791,
      "helps": 2792,
      "cleaning": 2793,
      "medicine": 2794,
      "ants": 2795,
      "arry": 2796,
      "goat": 2797,
      "compet": 2798,
      "compass": 2799,
      "choose": 2800,
      "valu": 2801,
      "Next": 2802,
      "beet": 2803,
      "chir": 2804,
      "uring": 2805,
      "parade": 2806,
      "discover": 2807,
      "butterflies": 2808,
      "crayon": 2809,
      "mixed": 2810,
      "vol": 2811,
      "island": 2812,
      "ature": 2813,
      "raced": 2814,
      "pear": 2815,
      "mole": 2816,
      "stove": 2817,
      "nicely": 2818,
      "kinds": 2819,
      "Andy": 2820,
      "laughs": 2821,
      "march": 2822,
      "falls": 2823,
      "Sophie": 2824,
      "azz": 2825,
      "seal": 2826,
      "goose": 2827,
      "coins": 2828,
      "mosqu": 2829,
      "brea": 2830,
      "serious": 2831,
      "competit": 2832,
      "mosqui": 2833,
      "mes": 2834,
      "stat": 2835,
      "excla": 2836,
      "trum": 2837,
      "explored": 2838,
      "flex": 2839,
      "brothers": 2840,
      "guil": 2841,
      "persist": 2842,
      "numbers": 2843,
      "practice": 2844,
      "pipe": 2845,
      "ris": 2846,
      "enorm": 2847,
      "selves": 2848,
      "moms": 2849,
      "fireman": 2850,
      "view": 2851,
      "melon": 2852,
      "valuable": 2853,
      "enormous": 2854,
      "Dan": 2855,
      "iver": 2856,
      "bees": 2857,
      "vet": 2858,
      "fort": 2859,
      "cano": 2860,
      "means": 2861,
      "pointing": 2862,
      "Tweetie": 2863,
      "bounce": 2864,
      "exclaimed": 2865,
      "flexible": 2866,
      "guilty": 2867,
      "Mike": 2868,
      "pho": 2869,
      "scare": 2870,
      "noon": 2871,
      "popul": 2872,
      "useful": 2873,
      "fine": 2874,
      "favour": 2875,
      "dinary": 2876,
      "crazy": 2877,
      "ations": 2878,
      "suit": 2879,
      "wrapped": 2880,
      "volcano": 2881,
      "photo": 2882,
      "popular": 2883,
      "Would": 2884,
      "lolli": 2885,
      "allowed": 2886,
      "ordinary": 2887,
      "unknown": 2888,
      "forth": 2889,
      "brightly": 2890,
      "delic": 2891,
      "marble": 2892,
      "Grandpa": 2893,
      "cycle": 2894,
      "power": 2895,
      "compassion": 2896,
      "dull": 2897,
      "arrow": 2898,
      "ingred": 2899,
      "hats": 2900,
      "!\".": 2901,
      "rushed": 2902,
      "cube": 2903,
      "belonged": 2904,
      "super": 2905,
      "favourite": 2906,
      "ingredient": 2907,
      "sof": 2908,
      "loyal": 2909,
      "dreams": 2910,
      "neighb": 2911,
      "kicked": 2912,
      "seeds": 2913,
      "twirled": 2914,
      "fresh": 2915,
      "trumpet": 2916,
      "anx": 2917,
      "repe": 2918,
      "sadly": 2919,
      "bble": 2920,
      "showing": 2921,
      "shape": 2922,
      "trucks": 2923,
      "shark": 2924,
      "impressive": 2925,
      "poured": 2926,
      "pirate": 2927,
      "whispered": 2928,
      "harmless": 2929,
      "delicate": 2930,
      "sofa": 2931,
      "gor": 2932,
      "grace": 2933,
      "tied": 2934,
      "task": 2935,
      "aroo": 2936,
      "ado": 2937,
      "coal": 2938,
      "ages": 2939,
      "spell": 2940,
      "angaroo": 2941,
      "sport": 2942,
      "handle": 2943,
      "bushes": 2944,
      "deliver": 2945,
      "persistent": 2946,
      ",”": 2947,
      "kangaroo": 2948,
      "wing": 2949,
      "ye": 2950,
      "asses": 2951,
      "office": 2952,
      "icycle": 2953,
      "polish": 2954,
      "steps": 2955,
      "flashlight": 2956,
      "anxious": 2957,
      "cher": 2958,
      "rat": 2959,
      "reli": 2960,
      "alous": 2961,
      "pota": 2962,
      "grand": 2963,
      "iest": 2964,
      "aches": 2965,
      "jealous": 2966,
      "reliable": 2967,
      "four": 2968,
      "metal": 2969,
      "painted": 2970,
      "print": 2971,
      "curtain": 2972,
      "fu": 2973,
      "ls": 2974,
      "mbo": 2975,
      "nur": 2976,
      "sudden": 2977,
      "ighted": 2978,
      "crack": 2979,
      "mosquito": 2980,
      "est": 2981,
      "tummy": 2982,
      "ination": 2983,
      "thie": 2984,
      "those": 2985,
      "coo": 2986,
      "uddy": 2987,
      "cheer": 2988,
      "Joey": 2989,
      "symbo": 2990,
      "camera": 2991,
      "beetle": 2992,
      "aff": 2993,
      "reward": 2994,
      "isted": 2995,
      "ilt": 2996,
      "houses": 2997,
      "brace": 2998,
      "cush": 2999,
      "celebrate": 3000,
      "delighted": 3001,
      "gorilla": 3002,
      "rise": 3003,
      "ley": 3004,
      "thirst": 3005,
      "shiver": 3006,
      "helmet": 3007,
      "warned": 3008,
      "marry": 3009,
      "travel": 3010,
      "driving": 3011,
      "soldier": 3012,
      "Tony": 3013,
      "fed": 3014,
      "vine": 3015,
      "reci": 3016,
      "hay": 3017,
      "upid": 3018,
      "coa": 3019,
      "cod": 3020,
      "excitedly": 3021,
      "comple": 3022,
      "growing": 3023,
      "thinking": 3024,
      "tunne": 3025,
      "spoiled": 3026,
      "Charlie": 3027,
      "Mil": 3028,
      "char": 3029,
      "yet": 3030,
      "ino": 3031,
      "stamp": 3032,
      "stupid": 3033,
      "tooth": 3034,
      "acorn": 3035,
      "sity": 3036,
      "given": 3037,
      "reminded": 3038,
      "gasped": 3039,
      "flute": 3040,
      "crocod": 3041,
      "bicycle": 3042,
      "five": 3043,
      "pup": 3044,
      "hurry": 3045,
      "creatures": 3046,
      "Kim": 3047,
      "ti": 3048,
      "tion": 3049,
      "rice": 3050,
      "ribb": 3051,
      "ugged": 3052,
      "cob": 3053,
      "moder": 3054,
      "skull": 3055,
      "missing": 3056,
      "wheat": 3057,
      "ingredients": 3058,
      "graceful": 3059,
      "Hen": 3060,
      "Red": 3061,
      "washed": 3062,
      "cereal": 3063,
      "weal": 3064,
      "dove": 3065,
      "mule": 3066,
      "spilled": 3067,
      "hairy": 3068,
      "glasses": 3069,
      "trick": 3070,
      "filthy": 3071,
      "base": 3072,
      "ener": 3073,
      "salt": 3074,
      "hoop": 3075,
      "carpet": 3076,
      "seem": 3077,
      "wool": 3078,
      "Everything": 3079,
      "early": 3080,
      "badly": 3081,
      "scoo": 3082,
      "lively": 3083,
      "nuts": 3084,
      "stumbled": 3085,
      "bracelet": 3086,
      "thirsty": 3087,
      "aid": 3088,
      "lk": 3089,
      "placed": 3090,
      "backpack": 3091,
      "thoughtful": 3092,
      "track": 3093,
      "gging": 3094,
      "decorate": 3095,
      "truth": 3096,
      "bump": 3097,
      "ience": 3098,
      "scat": 3099,
      "env": 3100,
      "themselves": 3101,
      "news": 3102,
      "helpless": 3103,
      "clum": 3104,
      "disgust": 3105,
      "swinging": 3106,
      "telling": 3107,
      "gling": 3108,
      "sparkled": 3109,
      "carrying": 3110,
      "scale": 3111,
      "scatter": 3112,
      "sne": 3113,
      "stage": 3114,
      "friendship": 3115,
      "careless": 3116,
      "pale": 3117,
      "cheap": 3118,
      "comput": 3119,
      "doesn": 3120,
      "falling": 3121,
      "peeked": 3122,
      "compassionate": 3123,
      "Miss": 3124,
      "Pat": 3125,
      "hi": 3126,
      "vice": 3127,
      "ended": 3128,
      "memor": 3129,
      "turtle": 3130,
      "chalk": 3131,
      "chasing": 3132,
      "fingers": 3133,
      "pige": 3134,
      "modern": 3135,
      "Un": 3136,
      "sink": 3137,
      "dead": 3138,
      "shaking": 3139,
      "sleeping": 3140,
      "cupboard": 3141,
      "neighbour": 3142,
      "scooter": 3143,
      "clumsy": 3144,
      "disgusting": 3145,
      "dough": 3146,
      "ambul": 3147,
      "liz": 3148,
      "biggest": 3149,
      "hook": 3150,
      "spoke": 3151,
      "triang": 3152,
      "serve": 3153,
      "practiced": 3154,
      "motorcycle": 3155,
      "computer": 3156,
      "ambulance": 3157,
      "station": 3158,
      "cane": 3159,
      "package": 3160,
      "pengu": 3161,
      "mission": 3162,
      "microphone": 3163,
      "cushion": 3164,
      "crocodile": 3165,
      "wine": 3166,
      "hood": 3167,
      "meow": 3168,
      "wallet": 3169,
      "jolly": 3170,
      "dreaming": 3171,
      "pumpkin": 3172,
      "Mim": 3173,
      "Ro": 3174,
      "pony": 3175,
      "sle": 3176,
      "rece": 3177,
      "stack": 3178,
      "belt": 3179,
      "verse": 3180,
      "urt": 3181,
      "cakes": 3182,
      "brighter": 3183,
      "opens": 3184,
      "question": 3185,
      "bounced": 3186,
      "statue": 3187,
      "wealthy": 3188,
      "Mimi": 3189,
      "Harry": 3190,
      "vator": 3191,
      "intell": 3192,
      "erry": 3193,
      "pepper": 3194,
      "cocoa": 3195,
      "harsh": 3196,
      "beauty": 3197,
      "shoe": 3198,
      "drop": 3199,
      "elevator": 3200,
      "respectful": 3201,
      "suppl": 3202,
      "intellig": 3203,
      "dge": 3204,
      "nature": 3205,
      "tled": 3206,
      "happier": 3207,
      "starts": 3208,
      "ucked": 3209,
      "speed": 3210,
      "clock": 3211,
      "impat": 3212,
      "torn": 3213,
      "barber": 3214,
      "scope": 3215,
      "Maria": 3216,
      "Buddy": 3217,
      "jet": 3218,
      "lamp": 3219,
      "neat": 3220,
      "bean": 3221,
      "reading": 3222,
      "searching": 3223,
      "stretched": 3224,
      "ignorant": 3225,
      "Betsy": 3226,
      "symbol": 3227,
      "may": 3228,
      "mild": 3229,
      "uli": 3230,
      "behave": 3231,
      "iches": 3232,
      "leaving": 3233,
      "sailor": 3234,
      "tube": 3235,
      "slides": 3236,
      "sandwiches": 3237,
      "candle": 3238,
      "riding": 3239,
      "pas": 3240,
      "tti": 3241,
      "ery": 3242,
      "separ": 3243,
      "create": 3244,
      "shocked": 3245,
      "haircut": 3246,
      "afternoon": 3247,
      "cooking": 3248,
      "avail": 3249,
      "basketball": 3250,
      "value": 3251,
      "ticket": 3252,
      "tunnel": 3253,
      "impatient": 3254,
      "uliflower": 3255,
      "St": 3256,
      "yaw": 3257,
      "repair": 3258,
      "alert": 3259,
      "roy": 3260,
      "roof": 3261,
      "sorts": 3262,
      "built": 3263,
      "jumps": 3264,
      "design": 3265,
      "wheels": 3266,
      "prize": 3267,
      "thief": 3268,
      "Bunny": 3269,
      "bent": 3270,
      "ince": 3271,
      "ines": 3272,
      "resc": 3273,
      "itself": 3274,
      "isher": 3275,
      "salad": 3276,
      "lope": 3277,
      "iron": 3278,
      "ween": 3279,
      "gem": 3280,
      "inde": 3281,
      "cauliflower": 3282,
      "paid": 3283,
      "monkeys": 3284,
      "destroy": 3285,
      "intelligent": 3286,
      "available": 3287,
      "rescue": 3288,
      "dug": 3289,
      "hun": 3290,
      "scold": 3291,
      "hetti": 3292,
      "ador": 3293,
      "shroom": 3294,
      "aghetti": 3295,
      "exper": 3296,
      "Before": 3297,
      "wander": 3298,
      "crawl": 3299,
      "barking": 3300,
      "bananas": 3301,
      "rhino": 3302,
      "Cl": 3303,
      "avo": 3304,
      "vi": 3305,
      "wever": 3306,
      "ummer": 3307,
      "anywhere": 3308,
      "comet": 3309,
      "spaghetti": 3310,
      "earth": 3311,
      "fearful": 3312,
      "microscope": 3313,
      "screen": 3314,
      "boots": 3315,
      "Bun": 3316,
      "May": 3317,
      "Su": 3318,
      "ffin": 3319,
      "pun": 3320,
      "sses": 3321,
      "advice": 3322,
      "chan": 3323,
      "mushroom": 3324,
      "teas": 3325,
      "older": 3326,
      "Thanks": 3327,
      "snif": 3328,
      "stops": 3329,
      "further": 3330,
      "notebook": 3331,
      "envious": 3332,
      "pigeon": 3333,
      "az": 3334,
      "fant": 3335,
      "por": 3336,
      "anda": 3337,
      "toma": 3338,
      "iling": 3339,
      "thunder": 3340,
      "uncomfortable": 3341,
      "host": 3342,
      "oped": 3343,
      "switch": 3344,
      "obje": 3345,
      "drawer": 3346,
      "clapping": 3347,
      "meeting": 3348,
      "shouting": 3349,
      "temple": 3350,
      "lollipop": 3351,
      "nurse": 3352,
      "cooked": 3353,
      "web": 3354,
      "chub": 3355,
      "parent": 3356,
      "counting": 3357,
      "giggle": 3358,
      "blowing": 3359,
      "yogurt": 3360,
      "adorable": 3361,
      "chubby": 3362,
      "cab": 3363,
      "fisher": 3364,
      "ges": 3365,
      "pit": 3366,
      "pis": 3367,
      "heli": 3368,
      "arian": 3369,
      "shut": 3370,
      "stared": 3371,
      "quite": 3372,
      "skip": 3373,
      "snuggled": 3374,
      "troubled": 3375,
      "copter": 3376,
      "Henry": 3377,
      "pisto": 3378,
      "helicopter": 3379,
      "gir": 3380,
      "forgave": 3381,
      "nowhere": 3382,
      "opard": 3383,
      "marched": 3384,
      "rolling": 3385,
      "treasures": 3386,
      "pushing": 3387,
      "stirred": 3388,
      "competitive": 3389,
      "Yay": 3390,
      "camp": 3391,
      "ghost": 3392,
      "enve": 3393,
      "leton": 3394,
      "keleton": 3395,
      "complain": 3396,
      "reef": 3397,
      "angel": 3398,
      "bathtub": 3399,
      "rubber": 3400,
      "bulb": 3401,
      "support": 3402,
      "triangle": 3403,
      "aked": 3404,
      "ither": 3405,
      "zi": 3406,
      "zip": 3407,
      "leopard": 3408,
      "nobody": 3409,
      "shield": 3410,
      "names": 3411,
      "cact": 3412,
      "speak": 3413,
      "anyway": 3414,
      "raining": 3415,
      "shouldn": 3416,
      "holds": 3417,
      "barrel": 3418,
      "bandage": 3419,
      "screw": 3420,
      "chanic": 3421,
      "God": 3422,
      "otter": 3423,
      "bet": 3424,
      "mechanic": 3425,
      "musician": 3426,
      "shadow": 3427,
      "ahead": 3428,
      "send": 3429,
      "summer": 3430,
      "skeleton": 3431,
      "resp": 3432,
      "thus": 3433,
      "carto": 3434,
      "laun": 3435,
      "ache": 3436,
      "colours": 3437,
      "windows": 3438,
      "purse": 3439,
      "gifted": 3440,
      "ceros": 3441,
      "resist": 3442,
      "penguin": 3443,
      "rhinoceros": 3444,
      "cactus": 3445,
      "Is": 3446,
      "size": 3447,
      "enthus": 3448,
      "melt": 3449,
      "fac": 3450,
      "blin": 3451,
      "doors": 3452,
      "shovel": 3453,
      "dishes": 3454,
      "phy": 3455,
      "medal": 3456,
      "flour": 3457,
      "mint": 3458,
      "writing": 3459,
      "knob": 3460,
      "hoping": 3461,
      "football": 3462,
      "sweater": 3463,
      "jellyfish": 3464,
      "Millie": 3465,
      "charming": 3466,
      "cabin": 3467,
      "envelope": 3468,
      "staff": 3469,
      "thread": 3470,
      "bbles": 3471,
      "trash": 3472,
      "organize": 3473,
      "lizard": 3474,
      "pistol": 3475,
      "cli": 3476,
      "gloom": 3477,
      "io": 3478,
      "oc": 3479,
      "pian": 3480,
      "xy": 3481,
      "erable": 3482,
      "beep": 3483,
      "ceiling": 3484,
      "sheet": 3485,
      "weigh": 3486,
      "trem": 3487,
      "grapes": 3488,
      "roared": 3489,
      "stretch": 3490,
      "attic": 3491,
      "mas": 3492,
      "return": 3493,
      "post": 3494,
      "ctive": 3495,
      "sticky": 3496,
      "miserable": 3497,
      "airport": 3498,
      "crash": 3499,
      "pedal": 3500,
      "piano": 3501,
      "Jess": 3502,
      "Kat": 3503,
      "Sp": 3504,
      "Ste": 3505,
      "bull": 3506,
      "dess": 3507,
      "vend": 3508,
      "inse": 3509,
      "refused": 3510,
      "petal": 3511,
      "needle": 3512,
      "bears": 3513,
      "rub": 3514,
      "headed": 3515,
      "twist": 3516,
      "danger": 3517,
      "freez": 3518,
      "pilot": 3519,
      "zoomed": 3520,
      "imagined": 3521,
      "hunter": 3522,
      "dar": 3523,
      "nie": 3524,
      "ues": 3525,
      "chance": 3526,
      "muffin": 3527,
      "appreci": 3528,
      "shoot": 3529,
      "listening": 3530,
      "Instead": 3531,
      "zebra": 3532,
      "minute": 3533,
      "swee": 3534,
      "slept": 3535,
      "fisherman": 3536,
      "luck": 3537,
      "hall": 3538,
      "deaf": 3539,
      "poke": 3540,
      "sunglasses": 3541,
      "rules": 3542,
      "crow": 3543,
      "frogs": 3544,
      "vision": 3545,
      "cheek": 3546,
      "strawberry": 3547,
      "message": 3548,
      "ping": 3549,
      "attra": 3550,
      "unk": 3551,
      "rod": 3552,
      "cards": 3553,
      "meas": 3554,
      "restless": 3555,
      "sandbox": 3556,
      "knock": 3557,
      "golden": 3558,
      "spring": 3559,
      "complete": 3560,
      "porch": 3561,
      "Al": 3562,
      "panda": 3563,
      "wire": 3564,
      "theart": 3565,
      "enny": 3566,
      "somewhere": 3567,
      "impro": 3568,
      "choice": 3569,
      "stickers": 3570,
      "stranger": 3571,
      "perfectly": 3572,
      "bikes": 3573,
      "admire": 3574,
      "shade": 3575,
      "battery": 3576,
      "silver": 3577,
      "laundry": 3578,
      "vendor": 3579,
      "Bye": 3580,
      "wishes": 3581,
      "reinde": 3582,
      "bel": 3583,
      "putting": 3584,
      "quar": 3585,
      "cats": 3586,
      "buzz": 3587,
      "rested": 3588,
      "trave": 3589,
      "Papa": 3590,
      "television": 3591,
      "gloomy": 3592,
      "Did": 3593,
      "Grace": 3594,
      "hut": 3595,
      "oat": 3596,
      "incl": 3597,
      "pole": 3598,
      "steak": 3599,
      "towers": 3600,
      "pretending": 3601,
      "pressed": 3602,
      "struc": 3603,
      "trophy": 3604,
      "Paul": 3605,
      "energy": 3606,
      "sweetheart": 3607,
      "dive": 3608,
      "tax": 3609,
      "edy": 3610,
      "cell": 3611,
      "ained": 3612,
      "cap": 3613,
      "spa": 3614,
      "evening": 3615,
      "planet": 3616,
      "tricks": 3617,
      "distur": 3618,
      "pasta": 3619,
      "letters": 3620,
      "apologized": 3621,
      "passport": 3622,
      "dessert": 3623,
      "petals": 3624,
      "gn": 3625,
      "kitty": 3626,
      "lter": 3627,
      "mill": 3628,
      "ison": 3629,
      "uncle": 3630,
      "asht": 3631,
      "meat": 3632,
      "magaz": 3633,
      "softly": 3634,
      "lands": 3635,
      "Because": 3636,
      "ashtray": 3637,
      "Polly": 3638,
      "dust": 3639,
      "pine": 3640,
      "pages": 3641,
      "wife": 3642,
      "half": 3643,
      "sty": 3644,
      "stic": 3645,
      "shelter": 3646,
      "holes": 3647,
      "peek": 3648,
      "newspa": 3649,
      "umber": 3650,
      "axe": 3651,
      "sort": 3652,
      "eaten": 3653,
      "forgotten": 3654,
      "leaned": 3655,
      "Lilly": 3656,
      "aero": 3657,
      "hive": 3658,
      "zzy": 3659,
      "wag": 3660,
      "ilet": 3661,
      "peach": 3662,
      "loop": 3663,
      "sunset": 3664,
      "married": 3665,
      "castles": 3666,
      "miner": 3667,
      "cups": 3668,
      "Car": 3669,
      "lim": 3670,
      "rug": 3671,
      "snap": 3672,
      "toilet": 3673,
      "reco": 3674,
      "hadn": 3675,
      "pebble": 3676,
      "worth": 3677,
      "tear": 3678,
      "distant": 3679,
      "baking": 3680,
      "pirates": 3681,
      "kneel": 3682,
      "superhero": 3683,
      "taxi": 3684,
      "recogn": 3685,
      "First": 3686,
      "unhappy": 3687,
      "ills": 3688,
      "reeze": 3689,
      "cuss": 3690,
      "airplane": 3691,
      "closely": 3692,
      "grabs": 3693,
      "ggy": 3694,
      "radish": 3695,
      "video": 3696,
      "Ruby": 3697,
      "factory": 3698,
      "freezer": 3699,
      "attractive": 3700,
      "aking": 3701,
      "dent": 3702,
      "ival": 3703,
      "infant": 3704,
      "finds": 3705,
      "trail": 3706,
      "fields": 3707,
      "counter": 3708,
      "shouts": 3709,
      "celebrated": 3710,
      "sprayed": 3711,
      "breathe": 3712,
      "marbles": 3713,
      "Mag": 3714,
      "Nina": 3715,
      "au": 3716,
      "knot": 3717,
      "ws": 3718,
      "yach": 3719,
      "rem": 3720,
      "attent": 3721,
      "weather": 3722,
      "lions": 3723,
      "popped": 3724,
      "comm": 3725,
      "surround": 3726,
      "discuss": 3727,
      "lightning": 3728,
      "climbing": 3729,
      "grape": 3730,
      "Clara": 3731,
      "mm": 3732,
      "mama": 3733,
      "offe": 3734,
      "seum": 3735,
      "llen": 3736,
      "modest": 3737,
      "museum": 3738,
      "spir": 3739,
      "rush": 3740,
      "drawings": 3741,
      "appl": 3742,
      "astic": 3743,
      "uniform": 3744,
      "country": 3745,
      "hipp": 3746,
      "scolded": 3747,
      "blinked": 3748,
      "octop": 3749,
      "mineral": 3750,
      "yacht": 3751,
      "offee": 3752,
      "Sm": 3753,
      "breeze": 3754,
      "died": 3755,
      "oak": 3756,
      "yield": 3757,
      "invest": 3758,
      "igloo": 3759,
      "chor": 3760,
      "delay": 3761,
      "capt": 3762,
      "iastic": 3763,
      "steam": 3764,
      "cooler": 3765,
      "visited": 3766,
      "experience": 3767,
      "enthusiastic": 3768,
      "attention": 3769,
      "Cat": 3770,
      "Or": 3771,
      "Qu": 3772,
      "Ros": 3773,
      "coffee": 3774,
      "slice": 3775,
      "entered": 3776,
      "kingdom": 3777,
      "checked": 3778,
      "warning": 3779,
      "Not": 3780,
      "throwing": 3781,
      "puddles": 3782,
      "paws": 3783,
      "reindeer": 3784,
      "Rosie": 3785,
      "Tr": 3786,
      "erc": 3787,
      "secon": 3788,
      "una": 3789,
      "raz": 3790,
      "dear": 3791,
      "flame": 3792,
      "frame": 3793,
      "napkin": 3794,
      "quarrel": 3795,
      "hippo": 3796,
      "octopus": 3797,
      "investig": 3798,
      "bby": 3799,
      "nal": 3800,
      "wigg": 3801,
      "anchor": 3802,
      "bey": 3803,
      "costu": 3804,
      "pushes": 3805,
      "squash": 3806,
      "planes": 3807,
      "chamber": 3808,
      "valley": 3809,
      "comfort": 3810,
      "desk": 3811,
      "radio": 3812,
      "zipper": 3813,
      "razor": 3814,
      "costume": 3815,
      "Rob": 3816,
      "Sad": 3817,
      "aur": 3818,
      "either": 3819,
      "exerc": 3820,
      "unlock": 3821,
      "ups": 3822,
      "chur": 3823,
      "poss": 3824,
      "math": 3825,
      "club": 3826,
      "papers": 3827,
      "greedy": 3828,
      "claws": 3829,
      "chain": 3830,
      "journal": 3831,
      "burn": 3832,
      "sprink": 3833,
      "appla": 3834,
      "suff": 3835,
      "tucked": 3836,
      "wis": 3837,
      "omas": 3838,
      "argue": 3839,
      "ction": 3840,
      "Thomas": 3841,
      "restaur": 3842,
      "dancer": 3843,
      "winter": 3844,
      "tutor": 3845,
      "bouncing": 3846,
      "baseball": 3847,
      "cts": 3848,
      "hic": 3849,
      "kis": 3850,
      "mug": 3851,
      "ostri": 3852,
      "aled": 3853,
      "sting": 3854,
      "ckey": 3855,
      "kets": 3856,
      "vehic": 3857,
      "enter": 3858,
      "starting": 3859,
      "served": 3860,
      "pants": 3861,
      "stuffed": 3862,
      "cricket": 3863,
      "avoc": 3864,
      "between": 3865,
      "Steve": 3866,
      "investigate": 3867,
      "restaurant": 3868,
      "Happ": 3869,
      "Kate": 3870,
      "bin": 3871,
      "dic": 3872,
      "ga": 3873,
      "gie": 3874,
      "since": 3875,
      "waving": 3876,
      "leash": 3877,
      "fest": 3878,
      "oking": 3879,
      "short": 3880,
      "hedge": 3881,
      "ranch": 3882,
      "olin": 3883,
      "shoulder": 3884,
      "signs": 3885,
      "pulls": 3886,
      "flapped": 3887,
      "accept": 3888,
      "Smith": 3889,
      "church": 3890,
      "Jerry": 3891,
      "Luck": 3892,
      "nit": 3893,
      "reve": 3894,
      "sau": 3895,
      "bother": 3896,
      "model": 3897,
      "seeing": 3898,
      "grin": 3899,
      "maze": 3900,
      "bury": 3901,
      "perform": 3902,
      "display": 3903,
      "magnet": 3904,
      "flood": 3905,
      "furnit": 3906,
      "split": 3907,
      "jeep": 3908,
      "cows": 3909,
      "ppery": 3910,
      "slippery": 3911,
      "frowned": 3912,
      "However": 3913,
      "palace": 3914,
      "newspaper": 3915,
      "spirit": 3916,
      "furniture": 3917,
      "Ollie": 3918,
      "Rac": 3919,
      "kers": 3920,
      "These": 3921,
      "ides": 3922,
      "cared": 3923,
      "creek": 3924,
      "sunflower": 3925,
      "comed": 3926,
      "surf": 3927,
      "medi": 3928,
      "twink": 3929,
      "thanks": 3930,
      "welcomed": 3931,
      "tripped": 3932,
      "beef": 3933,
      "belongs": 3934,
      "imagine": 3935,
      "classroom": 3936,
      "pinch": 3937,
      "repeat": 3938,
      "potatoes": 3939,
      "tionary": 3940,
      "tomato": 3941,
      "kisses": 3942,
      "dictionary": 3943,
      "Luckily": 3944,
      "mand": 3945,
      "alive": 3946,
      "fortun": 3947,
      "demand": 3948,
      "spear": 3949,
      "Josh": 3950,
      "understanding": 3951,
      "trains": 3952,
      "mustache": 3953,
      "People": 3954,
      "hanging": 3955,
      "festival": 3956,
      "mediately": 3957,
      "laser": 3958,
      "pted": 3959,
      "sla": 3960,
      "regre": 3961,
      "unpack": 3962,
      "golf": 3963,
      "uggling": 3964,
      "hockey": 3965,
      "oper": 3966,
      "antly": 3967,
      "sailing": 3968,
      "point": 3969,
      "splashing": 3970,
      "barks": 3971,
      "straight": 3972,
      "Annie": 3973,
      "candles": 3974,
      "sneak": 3975,
      "memories": 3976,
      "magazine": 3977,
      "possible": 3978,
      "Je": 3979,
      "Penny": 3980,
      "Tina": 3981,
      "awe": 3982,
      "cco": 3983,
      "emer": 3984,
      "fought": 3985,
      "inking": 3986,
      "intro": 3987,
      "cel": 3988,
      "veter": 3989,
      "sock": 3990,
      "rake": 3991,
      "caring": 3992,
      "trade": 3993,
      "mistakes": 3994,
      "armchair": 3995,
      "squirrels": 3996,
      "breaks": 3997,
      "smells": 3998,
      "whist": 3999,
      "coats": 4000,
      "Freddy": 4001,
      "telephone": 4002,
      "glowing": 4003,
      "object": 4004,
      "fortunately": 4005,
      "introd": 4006,
      "veterin": 4007,
      "Wa": 4008,
      "nation": 4009,
      "yucky": 4010,
      "encoura": 4011,
      "saving": 4012,
      "nes": 4013,
      "swung": 4014,
      "offer": 4015,
      "compl": 4016,
      "dressed": 4017,
      "fireplace": 4018,
      "quietly": 4019,
      "easily": 4020,
      "osed": 4021,
      "eagerly": 4022,
      "supposed": 4023,
      "cobweb": 4024,
      "separate": 4025,
      "Maggie": 4026,
      "regret": 4027,
      "veterinarian": 4028,
      "James": 4029,
      "Po": 4030,
      "Whis": 4031,
      "brain": 4032,
      "jazz": 4033,
      "ms": 4034,
      "sip": 4035,
      "novel": 4036,
      "hardly": 4037,
      "drops": 4038,
      "hotel": 4039,
      "judge": 4040,
      "blankets": 4041,
      "Lee": 4042,
      "puzzles": 4043,
      "shrimp": 4044,
      "Suzy": 4045,
      "Rachel": 4046,
      "Mmm": 4047,
      "blo": 4048,
      "sigh": 4049,
      "request": 4050,
      "soil": 4051,
      "weep": 4052,
      "player": 4053,
      "poked": 4054,
      "prevent": 4055,
      "learnt": 4056,
      "tap": 4057,
      "feelings": 4058,
      "points": 4059,
      "affe": 4060,
      "collected": 4061,
      "invite": 4062,
      "shrink": 4063,
      "chewed": 4064,
      "giraffe": 4065,
      "applaud": 4066,
      "ostrich": 4067,
      "Happy": 4068,
      "Wait": 4069,
      "Have": 4070,
      "bri": 4071,
      "lend": 4072,
      "oxy": 4073,
      "wiz": 4074,
      "remove": 4075,
      "rabbits": 4076,
      "warmth": 4077,
      "float": 4078,
      "created": 4079,
      "believed": 4080,
      "patiently": 4081,
      "pastel": 4082,
      "solved": 4083,
      "imagination": 4084,
      "decorations": 4085,
      "flav": 4086,
      "folded": 4087,
      "shakes": 4088,
      "Remy": 4089,
      "aeroplane": 4090,
      "wizard": 4091,
      "Sandy": 4092,
      "gro": 4093,
      "jug": 4094,
      "lab": 4095,
      "olives": 4096,
      "immediately": 4097,
      "covery": 4098,
      "grill": 4099,
      "jogged": 4100,
      "parts": 4101,
      "discovery": 4102,
      "floated": 4103,
      "moves": 4104,
      "streng": 4105,
      "mailbox": 4106,
      "curled": 4107,
      "jewelry": 4108,
      "acorns": 4109,
      "respons": 4110,
      "Cla": 4111,
      "Ok": 4112,
      "apr": 4113,
      "drain": 4114,
      "mall": 4115,
      "theater": 4116,
      "replace": 4117,
      "hter": 4118,
      "ideas": 4119,
      "mop": 4120,
      "fauce": 4121,
      "quit": 4122,
      "laughter": 4123,
      "balan": 4124,
      "moments": 4125,
      "growled": 4126,
      "shrugged": 4127,
      "trusted": 4128,
      "cardboard": 4129,
      "tornado": 4130,
      "beans": 4131,
      "suffer": 4132,
      "Whiskers": 4133,
      "faucet": 4134,
      "Jazz": 4135,
      "cus": 4136,
      "ccer": 4137,
      "ging": 4138,
      "nce": 4139,
      "padd": 4140,
      "nore": 4141,
      "makeup": 4142,
      "homes": 4143,
      "disappear": 4144,
      "fallen": 4145,
      "deeper": 4146,
      "human": 4147,
      "chirping": 4148,
      "ribbon": 4149,
      "wags": 4150,
      "captain": 4151,
      "celery": 4152,
      "strength": 4153,
      "Jam": 4154,
      "apart": 4155,
      "mitten": 4156,
      "eraser": 4157,
      "sters": 4158,
      "stable": 4159,
      "soccer": 4160,
      "icing": 4161,
      "fog": 4162,
      "quack": 4163,
      "buried": 4164,
      "letting": 4165,
      "bravely": 4166,
      "bookshelf": 4167,
      "lotion": 4168,
      "ringing": 4169,
      "avid": 4170,
      "wandered": 4171,
      "vanished": 4172,
      "flutter": 4173,
      "Spike": 4174,
      "David": 4175,
      "Lou": 4176,
      "cable": 4177,
      "nies": 4178,
      "onion": 4179,
      "expe": 4180,
      "bling": 4181,
      "struggling": 4182,
      "presents": 4183,
      "burned": 4184,
      "chickens": 4185,
      "pillows": 4186,
      "ignored": 4187,
      "rhy": 4188,
      "sneezed": 4189,
      "succeeded": 4190,
      "accepted": 4191,
      "True": 4192,
      "wisdom": 4193,
      "Sunny": 4194,
      "Zo": 4195,
      "bun": 4196,
      "lumber": 4197,
      "sen": 4198,
      "vac": 4199,
      "ining": 4200,
      "beam": 4201,
      "jogging": 4202,
      "page": 4203,
      "izes": 4204,
      "famil": 4205,
      "appro": 4206,
      "hurting": 4207,
      "keeping": 4208,
      "fishing": 4209,
      "difference": 4210,
      "following": 4211,
      "sandcastle": 4212,
      "matches": 4213,
      "sparkle": 4214,
      "ement": 4215,
      "neighborhood": 4216,
      "admir": 4217,
      "bathe": 4218,
      "vehicle": 4219,
      "Zoe": 4220,
      "Sun": 4221,
      "plates": 4222,
      "tease": 4223,
      "skirt": 4224,
      "paused": 4225,
      "shoo": 4226,
      "hearts": 4227,
      "amazement": 4228,
      "chairs": 4229,
      "crawling": 4230,
      "tuna": 4231,
      "crossed": 4232,
      "Buzz": 4233,
      "supply": 4234,
      "fash": 4235,
      "tip": 4236,
      "wipe": 4237,
      "argu": 4238,
      "safar": 4239,
      "below": 4240,
      "rail": 4241,
      "prepar": 4242,
      "bookcase": 4243,
      "settled": 4244,
      "provide": 4245,
      "sub": 4246,
      "collection": 4247,
      "sneeze": 4248,
      "violin": 4249,
      "cliff": 4250,
      "lime": 4251,
      "..": 4252,
      "Luna": 4253,
      "Nut": 4254,
      "hits": 4255,
      "iv": 4256,
      "py": 4257,
      "incre": 4258,
      "refr": 4259,
      "alright": 4260,
      "versity": 4261,
      "plastic": 4262,
      "raise": 4263,
      "helper": 4264,
      "safety": 4265,
      "setting": 4266,
      "proper": 4267,
      "kayak": 4268,
      "scooped": 4269,
      "shopkeeper": 4270,
      "worms": 4271,
      "igerator": 4272,
      "Bubbles": 4273,
      "squeezed": 4274,
      "pearl": 4275,
      "punish": 4276,
      "cartoon": 4277,
      "fashion": 4278,
      "Nutty": 4279,
      "refrigerator": 4280,
      "ah": 4281,
      "during": 4282,
      "fut": 4283,
      "oil": 4284,
      "rul": 4285,
      "zag": 4286,
      "reverse": 4287,
      "image": 4288,
      "herbs": 4289,
      "begged": 4290,
      "ignore": 4291,
      "happens": 4292,
      "nament": 4293,
      "opera": 4294,
      "achie": 4295,
      "prepare": 4296,
      "whip": 4297,
      "skills": 4298,
      "disagreed": 4299,
      "ffic": 4300,
      "insisted": 4301,
      "swamp": 4302,
      "university": 4303,
      "strawberries": 4304,
      "crib": 4305,
      "cuddled": 4306,
      "scattered": 4307,
      "sniffed": 4308,
      "insect": 4309,
      "avocado": 4310,
      "flavor": 4311,
      "grocer": 4312,
      "future": 4313,
      "Each": 4314,
      "Rab": 4315,
      "Snow": 4316,
      "zig": 4317,
      "hesit": 4318,
      "thm": 4319,
      "unic": 4320,
      "lier": 4321,
      "plays": 4322,
      "Its": 4323,
      "root": 4324,
      "weren": 4325,
      "peaches": 4326,
      "rooms": 4327,
      "Everyday": 4328,
      "permission": 4329,
      "heads": 4330,
      "follows": 4331,
      "bene": 4332,
      "score": 4333,
      "yoga": 4334,
      "relaxed": 4335,
      "squeeze": 4336,
      "bumped": 4337,
      "buzzing": 4338,
      "operation": 4339,
      "emergen": 4340,
      "safari": 4341,
      "'.": 4342,
      "Fe": 4343,
      "For": 4344,
      "Liz": 4345,
      "Shar": 4346,
      "daisy": 4347,
      "digg": 4348,
      "recomm": 4349,
      "herb": 4350,
      "thum": 4351,
      "hated": 4352,
      "chy": 4353,
      "chim": 4354,
      "chip": 4355,
      "nder": 4356,
      "spade": 4357,
      "inky": 4358,
      "mention": 4359,
      "teaching": 4360,
      "soared": 4361,
      "loaded": 4362,
      "destroyed": 4363,
      "includ": 4364,
      "Claire": 4365,
      "rhythm": 4366,
      "Mick": 4367,
      "event": 4368,
      "fy": 4369,
      "omed": 4370,
      "ornament": 4371,
      "beside": 4372,
      "seag": 4373,
      "spending": 4374,
      "continue": 4375,
      "challen": 4376,
      "praised": 4377,
      "mystery": 4378,
      "folder": 4379,
      "Remember": 4380,
      "melted": 4381,
      "meowed": 4382,
      "appreciate": 4383,
      "digging": 4384,
      "seagull": 4385,
      "Fro": 4386,
      "Wel": 4387,
      "bang": 4388,
      "cin": 4389,
      "dire": 4390,
      "glove": 4391,
      "rust": 4392,
      "sizes": 4393,
      "unite": 4394,
      "boot": 4395,
      "holid": 4396,
      "poison": 4397,
      "owned": 4398,
      "wherever": 4399,
      "calls": 4400,
      "leak": 4401,
      "invit": 4402,
      "attach": 4403,
      "improve": 4404,
      "surrounded": 4405,
      "vacation": 4406,
      "subway": 4407,
      "Welcome": 4408,
      "holiday": 4409,
      "Co": 4410,
      "Jones": 4411,
      "ium": 4412,
      "sir": 4413,
      "isn": 4414,
      "socks": 4415,
      "licks": 4416,
      "girls": 4417,
      "sidewalk": 4418,
      "poon": 4419,
      "poem": 4420,
      "taller": 4421,
      "sparkles": 4422,
      "doctors": 4423,
      "bringing": 4424,
      "panic": 4425,
      "slip": 4426,
      "pastry": 4427,
      "collecting": 4428,
      "jewels": 4429,
      "weeks": 4430,
      "cherries": 4431,
      "recei": 4432,
      "second": 4433,
      "Rabbit": 4434,
      "beneath": 4435,
      "Bon": 4436,
      "Ex": 4437,
      "Frank": 4438,
      "Mir": 4439,
      "bill": 4440,
      "jail": 4441,
      "history": 4442,
      "ascin": 4443,
      "!\",": 4444,
      "napped": 4445,
      "angu": 4446,
      "pulling": 4447,
      "planned": 4448,
      "elephants": 4449,
      "gym": 4450,
      "examine": 4451,
      "jokes": 4452,
      "scratched": 4453,
      "disturb": 4454,
      "auto": 4455,
      "ccoli": 4456,
      "blood": 4457,
      "apron": 4458,
      "Jamie": 4459,
      "ruler": 4460,
      "Sharing": 4461,
      "chimney": 4462,
      "Len": 4463,
      "fascin": 4464,
      "ipping": 4465,
      "langu": 4466,
      "vic": 4467,
      "heat": 4468,
      "tore": 4469,
      "restore": 4470,
      "alarm": 4471,
      "hate": 4472,
      "birdcage": 4473,
      "doggy": 4474,
      "turning": 4475,
      "fied": 4476,
      "surre": 4477,
      "broccoli": 4478,
      "settle": 4479,
      "sticker": 4480,
      "bites": 4481,
      "painter": 4482,
      "fixing": 4483,
      "traffic": 4484,
      "Jenna": 4485,
      "mattre": 4486,
      "Someone": 4487,
      "fireworks": 4488,
      "yawned": 4489,
      "whistling": 4490,
      "bi": 4491,
      "gers": 4492,
      "swo": 4493,
      "tour": 4494,
      "release": 4495,
      "veil": 4496,
      "myself": 4497,
      "happiest": 4498,
      "harbor": 4499,
      "watered": 4500,
      "conf": 4501,
      "blueberries": 4502,
      "twisted": 4503,
      "gifts": 4504,
      "actually": 4505,
      "eagle": 4506,
      "destination": 4507,
      "Unfortunately": 4508,
      "emergency": 4509,
      "billboard": 4510,
      "lily": 4511,
      "obey": 4512,
      "toe": 4513,
      "washer": 4514,
      "lick": 4515,
      "quake": 4516,
      "earlier": 4517,
      "grey": 4518,
      "comfy": 4519,
      "tracks": 4520,
      "hills": 4521,
      "drinks": 4522,
      "throws": 4523,
      "uggage": 4524,
      "strike": 4525,
      "Chris": 4526,
      "potato": 4527,
      "bunnies": 4528,
      "Mira": 4529,
      "mattress": 4530,
      "lu": 4531,
      "tide": 4532,
      "tug": 4533,
      "waste": 4534,
      "stomach": 4535,
      "pru": 4536,
      "gotten": 4537,
      "accompl": 4538,
      "shower": 4539,
      "comp": 4540,
      "bleed": 4541,
      "secrets": 4542,
      "zigzag": 4543,
      "bab": 4544,
      "crun": 4545,
      "dare": 4546,
      "mare": 4547,
      "vroom": 4548,
      "wre": 4549,
      "stam": 4550,
      "ason": 4551,
      "mob": 4552,
      "rang": 4553,
      "brings": 4554,
      "everyday": 4555,
      "dresses": 4556,
      "skipping": 4557,
      "offic": 4558,
      "fastest": 4559,
      "perm": 4560,
      "hurri": 4561,
      "flea": 4562,
      "contain": 4563,
      "nightmare": 4564,
      "petted": 4565,
      "scur": 4566,
      "dolphins": 4567,
      "stretching": 4568,
      "reminder": 4569,
      "fuel": 4570,
      "receive": 4571,
      "teaspoon": 4572,
      "encouraged": 4573,
      "approached": 4574,
      "unicorn": 4575,
      "challenge": 4576,
      "hon": 4577,
      "mist": 4578,
      "exact": 4579,
      "ady": 4580,
      "adium": 4581,
      "poppy": 4582,
      "worse": 4583,
      "ddy": 4584,
      "observe": 4585,
      "explorer": 4586,
      "sparkling": 4587,
      "easier": 4588,
      "universe": 4589,
      "solut": 4590,
      "dishwasher": 4591,
      "palm": 4592,
      "earthquake": 4593,
      "measured": 4594,
      "Quack": 4595,
      "brick": 4596,
      "automob": 4597,
      "\",": 4598,
      "Ouch": 4599,
      "gain": 4600,
      "anna": 4601,
      "refre": 4602,
      "reaches": 4603,
      "stadium": 4604,
      "esca": 4605,
      "peered": 4606,
      "bbled": 4607,
      "wardro": 4608,
      "sterday": 4609,
      "freeze": 4610,
      "powder": 4611,
      "film": 4612,
      "waffles": 4613,
      "Jessie": 4614,
      "sausage": 4615,
      "thumb": 4616,
      "omeday": 4617,
      "received": 4618,
      "refreshed": 4619,
      "wardrobe": 4620,
      "Abig": 4621,
      "Ha": 4622,
      "dried": 4623,
      "someday": 4624,
      "tch": 4625,
      "lets": 4626,
      "hers": 4627,
      "manage": 4628,
      "laid": 4629,
      "decis": 4630,
      "crept": 4631,
      "izing": 4632,
      "workers": 4633,
      "spoons": 4634,
      "tongue": 4635,
      "prayed": 4636,
      "villag": 4637,
      "mailman": 4638,
      "mountains": 4639,
      "lawn": 4640,
      "chirped": 4641,
      "teasing": 4642,
      "exercise": 4643,
      "grinned": 4644,
      "Mickey": 4645,
      "Lena": 4646,
      "victory": 4647,
      "Abigail": 4648,
      "Milly": 4649,
      "bend": 4650,
      "ding": 4651,
      "dam": 4652,
      "poking": 4653,
      "rum": 4654,
      "wed": 4655,
      "lest": 4656,
      "hurried": 4657,
      "cones": 4658,
      "shot": 4659,
      "works": 4660,
      "wonders": 4661,
      "velvet": 4662,
      "diary": 4663,
      "marks": 4664,
      "lemonade": 4665,
      "photos": 4666,
      "cherry": 4667,
      "responsible": 4668,
      "permit": 4669,
      "escaped": 4670,
      "file": 4671,
      "glowed": 4672,
      "junk": 4673,
      "weight": 4674,
      "pride": 4675,
      "thrilled": 4676,
      "duckling": 4677,
      "planted": 4678,
      "satis": 4679,
      "spots": 4680,
      "strangers": 4681,
      "buckle": 4682,
      "circus": 4683,
      "sliding": 4684,
      "discovering": 4685,
      "massage": 4686,
      "admiring": 4687,
      "Jan": 4688,
      "Lucky": 4689,
      "Wed": 4690,
      "fer": 4691,
      "rele": 4692,
      "irpy": 4693,
      "beat": 4694,
      "weap": 4695,
      "hopes": 4696,
      "opin": 4697,
      "perfor": 4698,
      "shopping": 4699,
      "voices": 4700,
      "floating": 4701,
      "missile": 4702,
      "horses": 4703,
      "flap": 4704,
      "Chirpy": 4705,
      "patterns": 4706,
      "scratch": 4707,
      "cabinet": 4708,
      "recognized": 4709,
      "Wednes": 4710,
      "!'": 4711,
      "iers": 4712,
      "luggage": 4713,
      "none": 4714,
      "va": 4715,
      "lect": 4716,
      "orang": 4717,
      "shelves": 4718,
      "weighed": 4719,
      "gear": 4720,
      "pops": 4721,
      "stom": 4722,
      "stole": 4723,
      "quiz": 4724,
      "Doggy": 4725,
      "marching": 4726,
      "washing": 4727,
      "clearing": 4728,
      "soldiers": 4729,
      "peanuts": 4730,
      "oats": 4731,
      "oxygen": 4732,
      "company": 4733,
      "Wednesday": 4734,
      "oranges": 4735,
      "Mi": 4736,
      "Mor": 4737,
      "Sn": 4738,
      "bank": 4739,
      "gloves": 4740,
      "ky": 4741,
      "lung": 4742,
      "snapped": 4743,
      "tions": 4744,
      "allow": 4745,
      "lips": 4746,
      "urge": 4747,
      "Anne": 4748,
      "overjoy": 4749,
      "chores": 4750,
      "flat": 4751,
      "catching": 4752,
      "climbs": 4753,
      "problems": 4754,
      "Ready": 4755,
      "lawy": 4756,
      "language": 4757,
      "surrender": 4758,
      "exactly": 4759,
      "overjoyed": 4760,
      "Lu": 4761,
      "Those": 4762,
      "hest": 4763,
      "racing": 4764,
      "caut": 4765,
      "wanting": 4766,
      "anytime": 4767,
      "sunrise": 4768,
      "tastes": 4769,
      "pancakes": 4770,
      "brushes": 4771,
      "soaring": 4772,
      "radishes": 4773,
      "beamed": 4774,
      "prepared": 4775,
      "lecture": 4776,
      "Like": 4777,
      "Tues": 4778,
      "olive": 4779,
      "osity": 4780,
      "sits": 4781,
      "xu": 4782,
      "zipped": 4783,
      "onwards": 4784,
      "allo": 4785,
      "soak": 4786,
      "upstairs": 4787,
      "whatever": 4788,
      "Joy": 4789,
      "uct": 4790,
      "slim": 4791,
      "bowed": 4792,
      "paints": 4793,
      "Beth": 4794,
      "zooming": 4795,
      "sights": 4796,
      "June": 4797,
      "agreement": 4798,
      "Uncle": 4799,
      "Katie": 4800,
      "structure": 4801,
      "sprinkles": 4802,
      "invitation": 4803,
      "luxu": 4804,
      "hurricane": 4805,
      "lawyer": 4806,
      "En": 4807,
      "Mo": 4808,
      "Yuck": 4809,
      "chat": 4810,
      "ef": 4811,
      "mbers": 4812,
      "sed": 4813,
      "vow": 4814,
      "zero": 4815,
      "iggling": 4816,
      "ric": 4817,
      "youn": 4818,
      "area": 4819,
      "poo": 4820,
      "label": 4821,
      "muddy": 4822,
      "precious": 4823,
      "sorting": 4824,
      "rained": 4825,
      "perfu": 4826,
      "underground": 4827,
      "surprises": 4828,
      "steel": 4829,
      "firemen": 4830,
      "crashed": 4831,
      "highest": 4832,
      "screams": 4833,
      "comforted": 4834,
      "uggles": 4835,
      "decorated": 4836,
      "Poppy": 4837,
      "Snowy": 4838,
      "fascinated": 4839,
      "villagers": 4840,
      "perfume": 4841,
      "Gina": 4842,
      "Put": 4843,
      "bare": 4844,
      "oh": 4845,
      "pies": 4846,
      "simp": 4847,
      "vies": 4848,
      "heel": 4849,
      "wagging": 4850,
      "beha": 4851,
      "exit": 4852,
      "roo": 4853,
      "members": 4854,
      "movies": 4855,
      "uses": 4856,
      "ladybug": 4857,
      "glitter": 4858,
      "Something": 4859,
      "tune": 4860,
      "uggle": 4861,
      "stealing": 4862,
      "grandmother": 4863,
      "pupil": 4864,
      "kneeled": 4865,
      "Sadly": 4866,
      "revealed": 4867,
      "released": 4868,
      "Abby": 4869,
      "Bad": 4870,
      "Lizz": 4871,
      "aster": 4872,
      "kins": 4873,
      "len": 4874,
      "mpoo": 4875,
      "orts": 4876,
      "soaked": 4877,
      "hoo": 4878,
      "staring": 4879,
      "bbie": 4880,
      "woof": 4881,
      "items": 4882,
      "shampoo": 4883,
      "kindly": 4884,
      "contro": 4885,
      "wondering": 4886,
      "sings": 4887,
      "blackboard": 4888,
      "scoop": 4889,
      "Goodbye": 4890,
      "Both": 4891,
      "studying": 4892,
      "twigs": 4893,
      "nails": 4894,
      "Danny": 4895,
      "remained": 4896,
      "properly": 4897,
      "mentioned": 4898,
      "stamps": 4899,
      "slimy": 4900,
      "Ye": 4901,
      "Yum": 4902,
      "equ": 4903,
      "rr": 4904,
      "sire": 4905,
      "tles": 4906,
      "zing": 4907,
      "inch": 4908,
      "safer": 4909,
      "ripped": 4910,
      "lia": 4911,
      "Time": 4912,
      "stolen": 4913,
      "Momo": 4914,
      "sadness": 4915,
      "curiosity": 4916,
      "mister": 4917,
      "crum": 4918,
      "prov": 4919,
      "wooden": 4920,
      "mouths": 4921,
      "winning": 4922,
      "relief": 4923,
      "nicer": 4924,
      "rubbing": 4925,
      "seats": 4926,
      "markers": 4927,
      "rescu": 4928,
      "rides": 4929,
      "Hoppy": 4930,
      "ordered": 4931,
      "cuddle": 4932,
      "polishing": 4933,
      "cheering": 4934,
      "memory": 4935,
      "tremble": 4936,
      "traveled": 4937,
      "demanded": 4938,
      "regretted": 4939,
      "Exc": 4940,
      "weapon": 4941,
      "uctantly": 4942,
      "luxury": 4943,
      "siren": 4944,
      "ien": 4945,
      "ude": 4946,
      "vy": 4947,
      "tonight": 4948,
      "ising": 4949,
      "neath": 4950,
      "unlocked": 4951,
      "fetch": 4952,
      "brand": 4953,
      "acting": 4954,
      "chess": 4955,
      "shoulders": 4956,
      "buildings": 4957,
      "packing": 4958,
      "studied": 4959,
      "accidents": 4960,
      "strum": 4961,
      "practicing": 4962,
      "hanger": 4963,
      "selling": 4964,
      "repeated": 4965,
      "yawn": 4966,
      "measuring": 4967,
      "travell": 4968,
      "remain": 4969,
      "crunchy": 4970,
      "solution": 4971,
      "decision": 4972,
      "opinion": 4973,
      "cautious": 4974,
      "simple": 4975,
      "control": 4976,
      "Cind": 4977,
      "Flo": 4978,
      "Ma": 4979,
      "Matt": 4980,
      "Pr": 4981,
      "Squ": 4982,
      "Two": 4983,
      "fab": 4984,
      "ial": 4985,
      "lines": 4986,
      "mome": 4987,
      "loving": 4988,
      "atch": 4989,
      "lic": 4990,
      "ents": 4991,
      "thermome": 4992,
      "raised": 4993,
      "peel": 4994,
      "underneath": 4995,
      "frosting": 4996,
      "darkness": 4997,
      "student": 4998,
      "writ": 4999,
      "flapping": 5000,
      "jamas": 5001,
      "pencils": 5002,
      "knelt": 5003,
      "Katy": 5004,
      "style": 5005,
      "confident": 5006,
      "Mikey": 5007,
      "fabric": 5008,
      "thermometer": 5009,
      "Mel": 5010,
      "instruc": 5011,
      "irts": 5012,
      "cky": 5013,
      "motion": 5014,
      "pause": 5015,
      "dragged": 5016,
      "struck": 5017,
      "struggled": 5018,
      "neighbourhood": 5019,
      "balanced": 5020,
      "bleeding": 5021,
      "scurried": 5022,
      "automobile": 5023,
      "Moral": 5024,
      "Ame": 5025,
      "Wo": 5026,
      "ago": 5027,
      "text": 5028,
      "yum": 5029,
      "onions": 5030,
      "beg": 5031,
      "weed": 5032,
      "entire": 5033,
      "boom": 5034,
      "robe": 5035,
      "aren": 5036,
      "ranger": 5037,
      "stored": 5038,
      "budge": 5039,
      "ledge": 5040,
      "dresser": 5041,
      "mixing": 5042,
      "brushed": 5043,
      "attached": 5044,
      "Julie": 5045,
      "punished": 5046,
      "dentist": 5047,
      "Jeff": 5048,
      "barely": 5049,
      "texture": 5050,
      "Zoom": 5051,
      "bunch": 5052,
      "cure": 5053,
      "gained": 5054,
      "hunt": 5055,
      "encourage": 5056,
      "sages": 5057,
      "west": 5058,
      "knowledge": 5059,
      "eats": 5060,
      "sunlight": 5061,
      "perched": 5062,
      "staying": 5063,
      "realize": 5064,
      "worker": 5065,
      "reluctantly": 5066,
      "touching": 5067,
      "trapped": 5068,
      "drinking": 5069,
      "whistled": 5070,
      "visiting": 5071,
      "celebration": 5072,
      "menu": 5073,
      "guessed": 5074,
      "breaking": 5075,
      "camping": 5076,
      "gazed": 5077,
      "introduce": 5078,
      "families": 5079,
      "Sunday": 5080,
      "shooting": 5081,
      "ivity": 5082,
      "prune": 5083,
      "officer": 5084,
      "Tuesday": 5085,
      "Bert": 5086,
      "Fol": 5087,
      "Gre": 5088,
      "Moo": 5089,
      "aa": 5090,
      "broom": 5091,
      "gran": 5092,
      "six": 5093,
      "ities": 5094,
      "ppers": 5095,
      "feast": 5096,
      "peck": 5097,
      "pets": 5098,
      "copper": 5099,
      "navy": 5100,
      "Afterwards": 5101,
      "keeps": 5102,
      "delivery": 5103,
      "printer": 5104,
      "crabs": 5105,
      "sweeties": 5106,
      "claps": 5107,
      "naps": 5108,
      "chases": 5109,
      "ourselves": 5110,
      "Leave": 5111,
      "organizing": 5112,
      "Really": 5113,
      "baked": 5114,
      "pinched": 5115,
      "apologize": 5116,
      "cartoons": 5117,
      "trembling": 5118,
      "crowd": 5119,
      "landscape": 5120,
      "Carl": 5121,
      "Robby": 5122,
      "twinkling": 5123,
      "sighs": 5124,
      "Snuggles": 5125,
      "vowed": 5126,
      "instructions": 5127,
      "Follow": 5128,
      ".'": 5129,
      "By": 5130,
      "Dolly": 5131,
      "cash": 5132,
      "fits": 5133,
      "gle": 5134,
      "giggling": 5135,
      "ense": 5136,
      "ory": 5137,
      "irm": 5138,
      "ths": 5139,
      "pected": 5140,
      "worries": 5141,
      "sports": 5142,
      "surface": 5143,
      "ruin": 5144,
      "nexpected": 5145,
      "purred": 5146,
      "winner": 5147,
      "roaring": 5148,
      "figured": 5149,
      "competition": 5150,
      "shivering": 5151,
      "melting": 5152,
      "expect": 5153,
      "achieve": 5154,
      "recommend": 5155,
      "swooped": 5156,
      "satisfied": 5157,
      "Sh": 5158,
      "bumpy": 5159,
      "ler": 5160,
      "sway": 5161,
      "stool": 5162,
      "”.": 5163,
      "waits": 5164,
      "loe": 5165,
      "becoming": 5166,
      "aded": 5167,
      "united": 5168,
      "timer": 5169,
      "fully": 5170,
      "cot": 5171,
      "downstairs": 5172,
      "spill": 5173,
      "parked": 5174,
      "choo": 5175,
      "guys": 5176,
      "situ": 5177,
      "muscle": 5178,
      "screaming": 5179,
      "pouring": 5180,
      "vanish": 5181,
      "Chloe": 5182,
      "recorded": 5183,
      "shivered": 5184,
      "introduc": 5185,
      "including": 5186,
      "Lizzie": 5187,
      "Prin": 5188,
      "Hop": 5189,
      "Hoo": 5190,
      "Kay": 5191,
      "Nan": 5192,
      "Our": 5193,
      "Spark": 5194,
      "eight": 5195,
      "rist": 5196,
      "unexpected": 5197,
      "zie": 5198,
      "secure": 5199,
      "rious": 5200,
      "riage": 5201,
      "lip": 5202,
      "costum": 5203,
      "decides": 5204,
      "brid": 5205,
      "pajamas": 5206,
      "chef": 5207,
      "rocking": 5208,
      "cub": 5209,
      "cutting": 5210,
      "bars": 5211,
      "growling": 5212,
      "bouncy": 5213,
      "sweat": 5214,
      "Susan": 5215,
      "stirring": 5216,
      "stripes": 5217,
      "coloured": 5218,
      "Christ": 5219,
      "twirling": 5220,
      "price": 5221,
      "horns": 5222,
      "blooming": 5223,
      "yesterday": 5224,
      "supplies": 5225,
      "Suzie": 5226,
      "wiggled": 5227,
      "increase": 5228,
      "Feli": 5229,
      "babies": 5230,
      "wreck": 5231,
      "license": 5232,
      "costumes": 5233,
      "Far": 5234,
      "Jay": 5235,
      "Ke": 5236,
      "Mon": 5237,
      "Rick": 5238,
      "Sant": 5239,
      "bones": 5240,
      "firm": 5241,
      "ib": 5242,
      "scra": 5243,
      "sides": 5244,
      "tum": 5245,
      "remembers": 5246,
      "igers": 5247,
      "sore": 5248,
      "lap": 5249,
      "treehouse": 5250,
      "angled": 5251,
      "blouse": 5252,
      "conne": 5253,
      "storekeeper": 5254,
      "ipment": 5255,
      "froze": 5256,
      "patience": 5257,
      "sailboat": 5258,
      "buckets": 5259,
      "spraying": 5260,
      "strip": 5261,
      "drums": 5262,
      "dinosaurs": 5263,
      "oysters": 5264,
      "Buzzy": 5265,
      "peeking": 5266,
      "Always": 5267,
      "roots": 5268,
      "equipment": 5269,
      "rescued": 5270,
      "Cindy": 5271,
      "bridges": 5272,
      "Christmas": 5273,
      "Santa": 5274,
      "Ali": 5275,
      "Ja": 5276,
      "Lizzy": 5277,
      "Out": 5278,
      "Pip": 5279,
      "cous": 5280,
      "cers": 5281,
      "freed": 5282,
      "oas": 5283,
      "pite": 5284,
      "tugged": 5285,
      "thorn": 5286,
      "exha": 5287,
      "outdoors": 5288,
      "smar": 5289,
      "forehead": 5290,
      "Jackie": 5291,
      "shaped": 5292,
      "observed": 5293,
      "drag": 5294,
      "single": 5295,
      "buying": 5296,
      "arrive": 5297,
      "sparks": 5298,
      "pockets": 5299,
      "mixer": 5300,
      "bloomed": 5301,
      "ribbons": 5302,
      "sneaked": 5303,
      "sniff": 5304,
      "disturbed": 5305,
      "recognize": 5306,
      "argued": 5307,
      "grocery": 5308,
      "Enjoy": 5309,
      "cautiously": 5310,
      "begin": 5311,
      "situation": 5312,
      "Jacob": 5313,
      "oasis": 5314,
      "Aunt": 5315,
      "Abi": 5316,
      "ks": 5317,
      "ni": 5318,
      "pitch": 5319,
      "iding": 5320,
      "stro": 5321,
      "usually": 5322,
      "steep": 5323,
      "matched": 5324,
      "bathrobe": 5325,
      "teaches": 5326,
      "winked": 5327,
      "polished": 5328,
      "powers": 5329,
      "machines": 5330,
      "network": 5331,
      "princesses": 5332,
      "burning": 5333,
      "clowns": 5334,
      "towels": 5335,
      "paintings": 5336,
      "crackers": 5337,
      "basement": 5338,
      "objects": 5339,
      "shadows": 5340,
      "pedals": 5341,
      "muffins": 5342,
      "Sadie": 5343,
      "reveal": 5344,
      "cashier": 5345,
      "Felix": 5346,
      "exhaust": 5347,
      "--": 5348,
      "Friend": 5349,
      "Mart": 5350,
      "Stell": 5351,
      "Zero": 5352,
      "east": 5353,
      "tty": 5354,
      "endar": 5355,
      "pebbles": 5356,
      "lower": 5357,
      "faced": 5358,
      "ssed": 5359,
      "acted": 5360,
      "blink": 5361,
      "shined": 5362,
      "shock": 5363,
      "colored": 5364,
      "blueberry": 5365,
      "pleasure": 5366,
      "marked": 5367,
      "passing": 5368,
      "pigs": 5369,
      "calendar": 5370,
      "blows": 5371,
      "recording": 5372,
      "librarian": 5373,
      "curtains": 5374,
      "completed": 5375,
      "Maya": 5376,
      "completely": 5377,
      "gaze": 5378,
      "slap": 5379,
      "pastels": 5380,
      "accomplish": 5381,
      "exhausted": 5382,
      "Martha": 5383,
      "Stella": 5384,
      "Bird": 5385,
      "Mic": 5386,
      "Oli": 5387,
      "cough": 5388,
      "mice": 5389,
      "mater": 5390,
      "vin": 5391,
      "yan": 5392,
      "removed": 5393,
      "waist": 5394,
      "hael": 5395,
      "ility": 5396,
      "youth": 5397,
      "chie": 5398,
      "shirts": 5399,
      "however": 5400,
      "indro": 5401,
      "hugging": 5402,
      "creation": 5403,
      "Nothing": 5404,
      "stem": 5405,
      "rocked": 5406,
      "leather": 5407,
      "importance": 5408,
      "proje": 5409,
      "marriage": 5410,
      "drif": 5411,
      "rainbows": 5412,
      "horiz": 5413,
      "chewing": 5414,
      "Marie": 5415,
      "Rudolph": 5416,
      "cheeks": 5417,
      "applauded": 5418,
      "paddled": 5419,
      "quacked": 5420,
      "arguing": 5421,
      "direction": 5422,
      "Bongo": 5423,
      "Luke": 5424,
      "glee": 5425,
      "Michael": 5426,
      "material": 5427,
      "Ah": 5428,
      "Adam": 5429,
      "De": 5430,
      "Eva": 5431,
      "Get": 5432,
      "Slow": 5433,
      "Tam": 5434,
      "dies": 5435,
      "ik": 5436,
      "instrum": 5437,
      "iders": 5438,
      "nets": 5439,
      "ripe": 5440,
      "raindro": 5441,
      "loose": 5442,
      "ishy": 5443,
      "beds": 5444,
      "kites": 5445,
      "filling": 5446,
      "guy": 5447,
      "patted": 5448,
      "reaching": 5449,
      "startled": 5450,
      "piles": 5451,
      "deser": 5452,
      "strings": 5453,
      "squealed": 5454,
      "flags": 5455,
      "leaning": 5456,
      "Judy": 5457,
      "lollipops": 5458,
      "tickets": 5459,
      "tomatoes": 5460,
      "slapped": 5461,
      "expected": 5462,
      "annah": 5463,
      "wedding": 5464,
      "effort": 5465,
      "crumbs": 5466,
      "horizon": 5467,
      "?'": 5468,
      "Che": 5469,
      "King": 5470,
      "Sque": 5471,
      "Wigg": 5472,
      "itor": 5473,
      "pigg": 5474,
      "stare": 5475,
      "orted": 5476,
      "plent": 5477,
      "urged": 5478,
      "moo": 5479,
      "bbed": 5480,
      "spike": 5481,
      "spiders": 5482,
      "watermelon": 5483,
      "bedtime": 5484,
      "disagree": 5485,
      "dancers": 5486,
      "cuts": 5487,
      "printed": 5488,
      "sweets": 5489,
      "closes": 5490,
      "pretends": 5491,
      "creating": 5492,
      "fairies": 5493,
      "answers": 5494,
      "yelling": 5495,
      "inviting": 5496,
      "kicking": 5497,
      "interested": 5498,
      "burrow": 5499,
      "tickled": 5500,
      "leader": 5501,
      "affes": 5502,
      "giraffes": 5503,
      "groceries": 5504,
      "younger": 5505,
      "writes": 5506,
      "Great": 5507,
      "Squeak": 5508,
      "piggy": 5509,
      "plenty": 5510,
      "Big": 5511,
      "Day": 5512,
      "During": 5513,
      "bak": 5514,
      "ker": 5515,
      "inst": 5516,
      "seven": 5517,
      "atur": 5518,
      "entran": 5519,
      "somebody": 5520,
      "urry": 5521,
      "owners": 5522,
      "caused": 5523,
      "everybody": 5524,
      "sorted": 5525,
      "watches": 5526,
      "ventured": 5527,
      "singer": 5528,
      "bottles": 5529,
      "Becky": 5530,
      "signed": 5531,
      "threat": 5532,
      "partic": 5533,
      "neighbors": 5534,
      "actions": 5535,
      "protecting": 5536,
      "bully": 5537,
      "tickle": 5538,
      "spaceship": 5539,
      "complaining": 5540,
      "insects": 5541,
      "include": 5542,
      "balancing": 5543,
      "fluttering": 5544,
      "chips": 5545,
      "rustling": 5546,
      "Ricky": 5547,
      "drifted": 5548,
      "Ear": 5549,
      "Fo": 5550,
      "Maisy": 5551,
      "Mina": 5552,
      "Rain": 5553,
      "Watch": 5554,
      "Zip": 5555,
      "awake": 5556,
      "bits": 5557,
      "cent": 5558,
      "ded": 5559,
      "iar": 5560,
      "lined": 5561,
      "masks": 5562,
      "swal": 5563,
      "wound": 5564,
      "iled": 5565,
      "iles": 5566,
      "beard": 5567,
      "plucked": 5568,
      "rac": 5569,
      "ults": 5570,
      "pears": 5571,
      "fault": 5572,
      "scaring": 5573,
      "goodnight": 5574,
      "item": 5575,
      "Annabel": 5576,
      "ortun": 5577,
      "pupp": 5578,
      "confli": 5579,
      "contest": 5580,
      "tallest": 5581,
      "replaced": 5582,
      "listens": 5583,
      "monsters": 5584,
      "Finn": 5585,
      "written": 5586,
      "Without": 5587,
      "yells": 5588,
      "struggle": 5589,
      "protected": 5590,
      "gathering": 5591,
      "marker": 5592,
      "candies": 5593,
      "familiar": 5594,
      "introduced": 5595,
      "Kayla": 5596,
      "Farmer": 5597,
      "Slowly": 5598,
      "Wiggly": 5599,
      "Baa": 5600,
      "Ray": 5601,
      "tiss": 5602,
      "repa": 5603,
      "reason": 5604,
      "ount": 5605,
      "rip": 5606,
      "ads": 5607,
      "chuck": 5608,
      "robb": 5609,
      "master": 5610,
      "Jojo": 5611,
      "catches": 5612,
      "prettie": 5613,
      "slam": 5614,
      "waiter": 5615,
      "Dog": 5616,
      "bows": 5617,
      "snuck": 5618,
      "cracked": 5619,
      "whispers": 5620,
      "Being": 5621,
      "prayer": 5622,
      "scales": 5623,
      "dared": 5624,
      "daring": 5625,
      "Quick": 5626,
      "direct": 5627,
      "Princess": 5628,
      "Keep": 5629,
      "smarter": 5630,
      "entrance": 5631,
      "repaired": 5632,
      "prettiest": 5633,
      "Any": 5634,
      "Gab": 5635,
      "Many": 5636,
      "Pi": 5637,
      "Take": 5638,
      "Tara": 5639,
      "snail": 5640,
      "tigers": 5641,
      "tangled": 5642,
      "zen": 5643,
      "wasted": 5644,
      "isies": 5645,
      "ters": 5646,
      "theirs": 5647,
      "backed": 5648,
      "ica": 5649,
      "?\",": 5650,
      "Momma": 5651,
      "handful": 5652,
      "swirl": 5653,
      "surfing": 5654,
      "darker": 5655,
      "growls": 5656,
      "daisies": 5657,
      "health": 5658,
      "laying": 5659,
      "dipped": 5660,
      "spreading": 5661,
      "decorating": 5662,
      "folding": 5663,
      "determination": 5664,
      "splashes": 5665,
      "Meow": 5666,
      "Davey": 5667,
      "Betty": 5668,
      "squares": 5669,
      "mesmer": 5670,
      "rising": 5671,
      "recipe": 5672,
      "tricky": 5673,
      "improved": 5674,
      "beyond": 5675,
      "Bonnie": 5676,
      "travelled": 5677,
      "dragons": 5678,
      "accomplishment": 5679,
      "raindrops": 5680,
      "particular": 5681,
      "tissue": 5682,
      "Gabby": 5683,
      "Lul": 5684,
      "Que": 5685,
      "Ryan": 5686,
      "flight": 5687,
      "ners": 5688,
      "rout": 5689,
      "sled": 5690,
      "wid": 5691,
      "wow": 5692,
      "ition": 5693,
      "ented": 5694,
      "gobbled": 5695,
      "outfit": 5696,
      "cost": 5697,
      "cans": 5698,
      "ongrat": 5699,
      "sparrow": 5700,
      "isten": 5701,
      "windy": 5702,
      "talent": 5703,
      "heading": 5704,
      "Janey": 5705,
      "sticking": 5706,
      "opening": 5707,
      "sation": 5708,
      "visitor": 5709,
      "Bee": 5710,
      "heavier": 5711,
      "snakes": 5712,
      "burst": 5713,
      "salty": 5714,
      "sausages": 5715,
      "included": 5716,
      "Yeah": 5717,
      "provided": 5718,
      "Squirrel": 5719,
      "students": 5720,
      "Amelia": 5721,
      "Earth": 5722,
      "Lulu": 5723,
      "ongratul": 5724,
      "Bir": 5725,
      "Boo": 5726,
      "Binky": 5727,
      "Fu": 5728,
      "Hallo": 5729,
      "Jon": 5730,
      "Listen": 5731,
      "Never": 5732,
      "Tur": 5733,
      "Tilly": 5734,
      "lam": 5735,
      "mittens": 5736,
      "wink": 5737,
      "toed": 5738,
      "rever": 5739,
      "ists": 5740,
      "sewing": 5741,
      "express": 5742,
      "unpacked": 5743,
      "chop": 5744,
      "forgetting": 5745,
      "fears": 5746,
      "roses": 5747,
      "ody": 5748,
      "Jacky": 5749,
      "needles": 5750,
      "rainy": 5751,
      "raincoat": 5752,
      "farther": 5753,
      "rings": 5754,
      "athy": 5755,
      "trips": 5756,
      "matching": 5757,
      "kicks": 5758,
      "copy": 5759,
      "celebrating": 5760,
      "swept": 5761,
      "goals": 5762,
      "choices": 5763,
      "wiggle": 5764,
      "sense": 5765,
      "...": 5766,
      "flavors": 5767,
      "Friends": 5768,
      "conflict": 5769,
      "chuckled": 5770,
      "Halloween": 5771,
      "Cra": 5772,
      "Fine": 5773,
      "Honey": 5774,
      "Hannah": 5775,
      "Mu": 5776,
      "Shad": 5777,
      "Uh": 5778,
      "hil": 5779,
      "mies": 5780,
      "via": 5781,
      "resis": 5782,
      "restored": 5783,
      "immer": 5784,
      "among": 5785,
      "ppa": 5786,
      "webs": 5787,
      "players": 5788,
      "forgiven": 5789,
      "deal": 5790,
      "ddled": 5791,
      "acy": 5792,
      "learns": 5793,
      "tage": 5794,
      "puff": 5795,
      "rubs": 5796,
      "ruining": 5797,
      "misses": 5798,
      "frozen": 5799,
      "rivers": 5800,
      "tractor": 5801,
      "insist": 5802,
      "creativity": 5803,
      "charac": 5804,
      "polar": 5805,
      "roads": 5806,
      "Owl": 5807,
      "rewarded": 5808,
      "complained": 5809,
      "breathed": 5810,
      "seconds": 5811,
      "achieved": 5812,
      "explorers": 5813,
      "Excuse": 5814,
      "Olivia": 5815,
      "directions": 5816,
      "widened": 5817,
      "Bow": 5818,
      "Cu": 5819,
      "Foxy": 5820,
      "Kik": 5821,
      "Nick": 5822,
      "Phil": 5823,
      "Sur": 5824,
      "Up": 5825,
      "earn": 5826,
      "pouted": 5827,
      "scor": 5828,
      "zes": 5829,
      "refresh": 5830,
      "arran": 5831,
      "argum": 5832,
      "losing": 5833,
      "belly": 5834,
      "vers": 5835,
      "sew": 5836,
      "ambi": 5837,
      "ades": 5838,
      "bodies": 5839,
      "ropes": 5840,
      "mane": 5841,
      "speaking": 5842,
      "maker": 5843,
      "creations": 5844,
      "cubs": 5845,
      "faraway": 5846,
      "reply": 5847,
      "stern": 5848,
      "flames": 5849,
      "sandcastles": 5850,
      "sweetest": 5851,
      "coral": 5852,
      "plans": 5853,
      "drives": 5854,
      "spoonful": 5855,
      "mailed": 5856,
      "examined": 5857,
      "weekend": 5858,
      "forks": 5859,
      "cuddly": 5860,
      "neatly": 5861,
      "darling": 5862,
      "discussed": 5863,
      "minerals": 5864,
      "sprinkled": 5865,
      "weeping": 5866,
      "paddle": 5867,
      "hesitant": 5868,
      "hesitated": 5869,
      "accomplished": 5870,
      "Fox": 5871,
      "swallowed": 5872,
      "Queen": 5873,
      "Fuzzy": 5874,
      "Kiki": 5875,
      "Bess": 5876,
      "Gold": 5877,
      "Olive": 5878,
      "Tin": 5879,
      "aut": 5880,
      "awoke": 5881,
      "bage": 5882,
      "congratul": 5883,
      "dama": 5884,
      "echo": 5885,
      "fishes": 5886,
      "nif": 5887,
      "si": 5888,
      "anno": 5889,
      "toaster": 5890,
      "itched": 5891,
      "ene": 5892,
      "stung": 5893,
      "amount": 5894,
      "igger": 5895,
      "ply": 5896,
      "hissed": 5897,
      "liqu": 5898,
      "peppers": 5899,
      "ops": 5900,
      "willing": 5901,
      "Everybody": 5902,
      "skill": 5903,
      "foods": 5904,
      "afterwards": 5905,
      "prove": 5906,
      "promises": 5907,
      "planning": 5908,
      "snowballs": 5909,
      "rolls": 5910,
      "purr": 5911,
      "cupcakes": 5912,
      "streets": 5913,
      "mixture": 5914,
      "shops": 5915,
      "calmed": 5916,
      "activ": 5917,
      "hopeful": 5918,
      "logs": 5919,
      "shrinking": 5920,
      "result": 5921,
      "politely": 5922,
      "Meg": 5923,
      "supported": 5924,
      "wipes": 5925,
      "batteries": 5926,
      "meals": 5927,
      "pumpkins": 5928,
      "silent": 5929,
      "delivered": 5930,
      "separated": 5931,
      "crashing": 5932,
      "limes": 5933,
      "requested": 5934,
      "suffering": 5935,
      "Louise": 5936,
      "Froggy": 5937,
      "rusty": 5938,
      "obeyed": 5939,
      "behaved": 5940,
      "behavi": 5941,
      "cottage": 5942,
      "cousin": 5943,
      "Days": 5944,
      "resisted": 5945,
      "Tiny": 5946,
      "damage": 5947,
      "annoy": 5948,
      "liquid": 5949,
      "activities": 5950,
      "El": 5951,
      "Run": 5952,
      "Try": 5953,
      "bom": 5954,
      "ease": 5955,
      "opp": 5956,
      "remo": 5957,
      "waddled": 5958,
      "impossible": 5959,
      "third": 5960,
      "adult": 5961,
      "wept": 5962,
      "lied": 5963,
      "idey": 5964,
      "Only": 5965,
      "hops": 5966,
      "backwards": 5967,
      "pots": 5968,
      "eling": 5969,
      "homework": 5970,
      "spice": 5971,
      "pered": 5972,
      "bravery": 5973,
      "conver": 5974,
      "coloring": 5975,
      "months": 5976,
      "squishy": 5977,
      "merry": 5978,
      "draws": 5979,
      "wears": 5980,
      "hides": 5981,
      "rotted": 5982,
      "rotten": 5983,
      "healed": 5984,
      "scrubbed": 5985,
      "knocks": 5986,
      "praying": 5987,
      "serving": 5988,
      "desert": 5989,
      "peacefully": 5990,
      "crossing": 5991,
      "chocolates": 5992,
      "paying": 5993,
      "Whee": 5994,
      "leads": 5995,
      "leading": 5996,
      "truly": 5997,
      "belts": 5998,
      "screwdriver": 5999,
      "wires": 6000,
      "warnings": 6001,
      "honk": 6002,
      "freedom": 6003,
      "argument": 6004,
      "remote": 6005,
      "Ew": 6006,
      "Madd": 6007,
      "Sleep": 6008,
      "Terry": 6009,
      "Unt": 6010,
      "Vroom": 6011,
      "dip": 6012,
      "gar": 6013,
      "gross": 6014,
      "pins": 6015,
      "refle": 6016,
      "alien": 6017,
      "beads": 6018,
      "sever": 6019,
      "seas": 6020,
      "season": 6021,
      "sobbed": 6022,
      "aside": 6023,
      "ford": 6024,
      "forts": 6025,
      "dots": 6026,
      "peas": 6027,
      "pecked": 6028,
      "cosy": 6029,
      "napping": 6030,
      "teased": 6031,
      "tram": 6032,
      "blings": 6033,
      "ctar": 6034,
      "remembering": 6035,
      "snat": 6036,
      "dropping": 6037,
      "twice": 6038,
      "firefight": 6039,
      "snowmen": 6040,
      "growl": 6041,
      "afford": 6042,
      "beehive": 6043,
      "itchy": 6044,
      "distra": 6045,
      "wrapping": 6046,
      "wraps": 6047,
      "flipped": 6048,
      "attack": 6049,
      "curly": 6050,
      "Chick": 6051,
      "bathing": 6052,
      "lemons": 6053,
      "Sophia": 6054,
      "sneezing": 6055,
      "guns": 6056,
      "silence": 6057,
      "statues": 6058,
      "suitcase": 6059,
      "backpacks": 6060,
      "Roxy": 6061,
      "wandering": 6062,
      "mushrooms": 6063,
      "fantastic": 6064,
      "appreciation": 6065,
      "Feeling": 6066,
      "Hoot": 6067,
      "beginning": 6068,
      "project": 6069,
      "instruments": 6070,
      "slammed": 6071,
      "lamb": 6072,
      "refreshing": 6073,
      "siblings": 6074,
      "Maddie": 6075,
      "Until": 6076,
      "10": 6077,
      "Back": 6078,
      "Kelly": 6079,
      "Pre": 6080,
      "Ral": 6081,
      "Rory": 6082,
      "Sid": 6083,
      "nine": 6084,
      "yl": 6085,
      "tossed": 6086,
      "rect": 6087,
      "itches": 6088,
      "erk": 6089,
      "thro": 6090,
      "nectar": 6091,
      "dod": 6092,
      "notes": 6093,
      "scarves": 6094,
      "thoughts": 6095,
      "Joan": 6096,
      "sped": 6097,
      "spat": 6098,
      "handsome": 6099,
      "clerk": 6100,
      "warn": 6101,
      "stays": 6102,
      "Nobody": 6103,
      "badge": 6104,
      "cond": 6105,
      "hairdresser": 6106,
      "smiley": 6107,
      "lighter": 6108,
      "magnets": 6109,
      "blocked": 6110,
      "softer": 6111,
      "swims": 6112,
      "tricked": 6113,
      "hider": 6114,
      "wrist": 6115,
      "adding": 6116,
      "diving": 6117,
      "nervously": 6118,
      "videos": 6119,
      "guest": 6120,
      "stacked": 6121,
      "avoid": 6122,
      "countryside": 6123,
      "delayed": 6124,
      "Jean": 6125,
      "responsib": 6126,
      "fluttered": 6127,
      "Sunshine": 6128,
      "increased": 6129,
      "punishment": 6130,
      "Liza": 6131,
      "recommended": 6132,
      "rumble": 6133,
      "Woof": 6134,
      "Shh": 6135,
      "deserve": 6136,
      "bakery": 6137,
      "congratulated": 6138,
      "reflection": 6139,
      "Ralph": 6140,
      "throat": 6141,
      "Des": 6142,
      "Duck": 6143,
      "Karen": 6144,
      "Oops": 6145,
      "Since": 6146,
      "Satur": 6147,
      "Tuna": 6148,
      "bond": 6149,
      "hour": 6150,
      "joking": 6151,
      "munk": 6152,
      "pant": 6153,
      "sending": 6154,
      "ana": 6155,
      "anwhile": 6156,
      "insp": 6157,
      "report": 6158,
      "onward": 6159,
      "ongest": 6160,
      "ids": 6161,
      "sequ": 6162,
      "formed": 6163,
      "newfound": 6164,
      "helpers": 6165,
      "elf": 6166,
      "icked": 6167,
      "skunk": 6168,
      "greet": 6169,
      "hearing": 6170,
      "displayed": 6171,
      "creamy": 6172,
      "chosen": 6173,
      "drawers": 6174,
      "Jennie": 6175,
      "covers": 6176,
      "tails": 6177,
      "passeng": 6178,
      "sisters": 6179,
      "poline": 6180,
      "wishing": 6181,
      "slither": 6182,
      "dived": 6183,
      "toolbox": 6184,
      "imagining": 6185,
      "Meanwhile": 6186,
      "policeman": 6187,
      "frowns": 6188,
      "temper": 6189,
      "knees": 6190,
      "Dani": 6191,
      "seems": 6192,
      "Stay": 6193,
      "Start": 6194,
      "ghosts": 6195,
      "click": 6196,
      "trembled": 6197,
      "hallway": 6198,
      "oatmeal": 6199,
      "Carly": 6200,
      "superheroes": 6201,
      "slices": 6202,
      "exercises": 6203,
      "twinkle": 6204,
      "sneaky": 6205,
      "awesome": 6206,
      "chipmunk": 6207,
      "Quackers": 6208,
      "Excited": 6209,
      "weeds": 6210,
      "mesmerized": 6211,
      "Jonny": 6212,
      "Curious": 6213,
      "scored": 6214,
      "trampoline": 6215,
      "Chickie": 6216,
      "passengers": 6217,
      "Con": 6218,
      "Dr": 6219,
      "Dee": 6220,
      "Eliz": 6221,
      "Hold": 6222,
      "Mat": 6223,
      "Macy": 6224,
      "Pur": 6225,
      "Stri": 6226,
      "Tess": 6227,
      "Very": 6228,
      "Wil": 6229,
      "Yummy": 6230,
      "cused": 6231,
      "ese": 6232,
      "eted": 6233,
      "ech": 6234,
      "hitting": 6235,
      "lent": 6236,
      "munch": 6237,
      "tier": 6238,
      "todd": 6239,
      "toward": 6240,
      "oni": 6241,
      "sale": 6242,
      "ori": 6243,
      "ading": 6244,
      "unfortunately": 6245,
      "tered": 6246,
      "coon": 6247,
      "mood": 6248,
      "defe": 6249,
      "Butter": 6250,
      "focus": 6251,
      "nasty": 6252,
      "spears": 6253,
      "dads": 6254,
      "yourselves": 6255,
      "Ange": 6256,
      "anger": 6257,
      "overcome": 6258,
      "prettier": 6259,
      "potion": 6260,
      "Johnson": 6261,
      "rule": 6262,
      "custom": 6263,
      "lotte": 6264,
      "Love": 6265,
      "curiously": 6266,
      "emma": 6267,
      "business": 6268,
      "steady": 6269,
      "scam": 6270,
      "seaweed": 6271,
      "corners": 6272,
      "seeker": 6273,
      "source": 6274,
      "lifts": 6275,
      "feeding": 6276,
      "prick": 6277,
      "changing": 6278,
      "Ruth": 6279,
      "Charlotte": 6280,
      "scratches": 6281,
      "sharks": 6282,
      "Roar": 6283,
      "Robbie": 6284,
      "designed": 6285,
      "Jessica": 6286,
      "dusty": 6287,
      "surroundings": 6288,
      "surfboard": 6289,
      "bricks": 6290,
      "Frankie": 6291,
      "Floppy": 6292,
      "grant": 6293,
      "granted": 6294,
      "scraped": 6295,
      "routine": 6296,
      "snatched": 6297,
      "inspired": 6298,
      "Eliza": 6299,
      "Purple": 6300,
      "Hurry": 6301,
      "Make": 6302,
      "Sweet": 6303,
      "Ty": 6304,
      "Water": 6305,
      "cul": 6306,
      "nu": 6307,
      "rup": 6308,
      "sim": 6309,
      "scient": 6310,
      "tasks": 6311,
      "xop": 6312,
      "height": 6313,
      "ref": 6314,
      "recor": 6315,
      "ouch": 6316,
      "ita": 6317,
      "haw": 6318,
      "saxop": 6319,
      "stitch": 6320,
      "ends": 6321,
      "neare": 6322,
      "neither": 6323,
      "amed": 6324,
      "noses": 6325,
      "ados": 6326,
      "lies": 6327,
      "shown": 6328,
      "mance": 6329,
      "manag": 6330,
      "poster": 6331,
      "iff": 6332,
      "goodies": 6333,
      "wobbled": 6334,
      "Ant": 6335,
      "blu": 6336,
      "tapping": 6337,
      "greeted": 6338,
      "assured": 6339,
      "lettu": 6340,
      "final": 6341,
      "concer": 6342,
      "consequ": 6343,
      "talented": 6344,
      "stands": 6345,
      "squin": 6346,
      "prints": 6347,
      "slower": 6348,
      "tricycle": 6349,
      "gonna": 6350,
      "ences": 6351,
      "rotting": 6352,
      "prayers": 6353,
      "ounce": 6354,
      "heartbroken": 6355,
      "giggles": 6356,
      "despite": 6357,
      "paths": 6358,
      "puzzled": 6359,
      "imagin": 6360,
      "shrug": 6361,
      "humming": 6362,
      "vanilla": 6363,
      "swans": 6364,
      "flashing": 6365,
      "tempt": 6366,
      "chirp": 6367,
      "delivering": 6368,
      "fuzzy": 6369,
      "cobwebs": 6370,
      "Patch": 6371,
      "experien": 6372,
      "respond": 6373,
      "Alright": 6374,
      "aeroplanes": 6375,
      "knots": 6376,
      "rushing": 6377,
      "twinkled": 6378,
      "humans": 6379,
      "tiptoed": 6380,
      "seagulls": 6381,
      "Frosty": 6382,
      "performance": 6383,
      "lungs": 6384,
      "Yesterday": 6385,
      "stroked": 6386,
      "Squeaky": 6387,
      "Birthday": 6388,
      "spices": 6389,
      "conversation": 6390,
      "Saturday": 6391,
      "toddler": 6392,
      "customers": 6393,
      "saxophone": 6394,
      "lettuce": 6395,
      "Am": 6396,
      "Ana": 6397,
      "Gran": 6398,
      "Jump": 6399,
      "La": 6400,
      "Larry": 6401,
      "Mila": 6402,
      "Nice": 6403,
      "Pinky": 6404,
      "Sim": 6405,
      "Silly": 6406,
      "Taking": 6407,
      "ais": 6408,
      "aven": 6409,
      "buddy": 6410,
      "center": 6411,
      "date": 6412,
      "ias": 6413,
      "nch": 6414,
      "pad": 6415,
      "pens": 6416,
      "sank": 6417,
      "scut": 6418,
      "tran": 6419,
      "wins": 6420,
      "rees": 6421,
      "sal": 6422,
      "thud": 6423,
      "cept": 6424,
      "igued": 6425,
      "chilly": 6426,
      "playtime": 6427,
      "oky": 6428,
      "racco": 6429,
      "inda": 6430,
      "stopping": 6431,
      "seesaw": 6432,
      "grum": 6433,
      "thanking": 6434,
      "wobb": 6435,
      "type": 6436,
      "spills": 6437,
      "trigued": 6438,
      "tapped": 6439,
      "clas": 6440,
      "watering": 6441,
      "rains": 6442,
      "exploded": 6443,
      "gardener": 6444,
      "conqu": 6445,
      "least": 6446,
      "doorway": 6447,
      "thrown": 6448,
      "lessons": 6449,
      "Dotty": 6450,
      "grassy": 6451,
      "printing": 6452,
      "throughout": 6453,
      "Which": 6454,
      "correct": 6455,
      "tighter": 6456,
      "dreamt": 6457,
      "covering": 6458,
      "smelling": 6459,
      "iggled": 6460,
      "ments": 6461,
      "paintbrush": 6462,
      "dragonfly": 6463,
      "bowls": 6464,
      "Flash": 6465,
      "ounced": 6466,
      "million": 6467,
      "pans": 6468,
      "Pepper": 6469,
      "Peppa": 6470,
      "matters": 6471,
      "bulbs": 6472,
      "calmly": 6473,
      "laces": 6474,
      "cleared": 6475,
      "examining": 6476,
      "figures": 6477,
      "wiping": 6478,
      "frowning": 6479,
      "streamers": 6480,
      "scratching": 6481,
      "breathing": 6482,
      "cubes": 6483,
      "neighbours": 6484,
      "repeating": 6485,
      "charge": 6486,
      "penguins": 6487,
      "sailors": 6488,
      "Star": 6489,
      "enthusias": 6490,
      "Spidey": 6491,
      "pokes": 6492,
      "buzzed": 6493,
      "avocados": 6494,
      "bothered": 6495,
      "whistles": 6496,
      "encouraging": 6497,
      "Poor": 6498,
      "preparing": 6499,
      "Frog": 6500,
      "Coco": 6501,
      "Copper": 6502,
      "licking": 6503,
      "prunes": 6504,
      "stomped": 6505,
      "sweaters": 6506,
      "connected": 6507,
      "Deal": 6508,
      "Crabby": 6509,
      "immering": 6510,
      "characters": 6511,
      "arranged": 6512,
      "Bessie": 6513,
      "responsibility": 6514,
      "Despite": 6515,
      "temperature": 6516,
      "scampered": 6517,
      "prickly": 6518,
      "nuzz": 6519,
      "trans": 6520,
      "enthusiasm": 6521,
      "Dear": 6522,
      "Els": 6523,
      "Mam": 6524,
      "ale": 6525,
      "faded": 6526,
      "hus": 6527,
      "lings": 6528,
      "lending": 6529,
      "mate": 6530,
      "pound": 6531,
      "til": 6532,
      "remy": 6533,
      "ware": 6534,
      "isty": 6535,
      "stroll": 6536,
      "beloved": 6537,
      "vegg": 6538,
      "asing": 6539,
      "bots": 6540,
      "robots": 6541,
      "outfits": 6542,
      "deed": 6543,
      "focused": 6544,
      "loops": 6545,
      "ieter": 6546,
      "wobble": 6547,
      "quieter": 6548,
      "antic": 6549,
      "crew": 6550,
      "handing": 6551,
      "clues": 6552,
      "untied": 6553,
      "compe": 6554,
      "History": 6555,
      "flown": 6556,
      "reads": 6557,
      "donkey": 6558,
      "bravest": 6559,
      "cons": 6560,
      "leapt": 6561,
      "dollhouse": 6562,
      "chopped": 6563,
      "magnif": 6564,
      "mischie": 6565,
      "twisty": 6566,
      "tasting": 6567,
      "!”.": 6568,
      "napkins": 6569,
      "artist": 6570,
      "Grand": 6571,
      "talks": 6572,
      "dryer": 6573,
      "cloudy": 6574,
      "suits": 6575,
      "parties": 6576,
      "pastries": 6577,
      "action": 6578,
      "dience": 6579,
      "troubles": 6580,
      "sweep": 6581,
      "tidying": 6582,
      "battle": 6583,
      "finishing": 6584,
      "driveway": 6585,
      "Chip": 6586,
      "testing": 6587,
      "lifting": 6588,
      "suggestion": 6589,
      "rockets": 6590,
      "terrified": 6591,
      "cuddles": 6592,
      "risks": 6593,
      "tunnels": 6594,
      "gracefully": 6595,
      "Henny": 6596,
      "Roger": 6597,
      "indeed": 6598,
      "blinking": 6599,
      "magazines": 6600,
      "audience": 6601,
      "discussing": 6602,
      "yielded": 6603,
      "Trust": 6604,
      "Jeremy": 6605,
      "poems": 6606,
      "wrench": 6607,
      "honked": 6608,
      "damaged": 6609,
      "performed": 6610,
      "youngest": 6611,
      "pupils": 6612,
      "muscles": 6613,
      "thorns": 6614,
      "stroke": 6615,
      "particularly": 6616,
      "several": 6617,
      "Pretty": 6618,
      "experienced": 6619,
      "Elsie": 6620,
      "Mamma": 6621,
      "husband": 6622,
      "veggies": 6623,
      "Ash": 6624,
      "Along": 6625,
      "Gary": 6626,
      "Hu": 6627,
      "Izzy": 6628,
      "Other": 6629,
      "Pam": 6630,
      "Sand": 6631,
      "Spe": 6632,
      "Vel": 6633,
      "Zara": 6634,
      "afar": 6635,
      "bison": 6636,
      "die": 6637,
      "trotted": 6638,
      "onds": 6639,
      "onaut": 6640,
      "ambled": 6641,
      "igning": 6642,
      "unsure": 6643,
      "mets": 6644,
      "agrees": 6645,
      "defin": 6646,
      "helmets": 6647,
      "starfish": 6648,
      "fact": 6649,
      "treated": 6650,
      "itely": 6651,
      "ourt": 6652,
      "ives": 6653,
      "vented": 6654,
      "expert": 6655,
      "Johnnie": 6656,
      "nearly": 6657,
      "soundly": 6658,
      "couple": 6659,
      "squaw": 6660,
      "biting": 6661,
      "drawn": 6662,
      "spooky": 6663,
      "Beep": 6664,
      "foxes": 6665,
      "wrink": 6666,
      "drift": 6667,
      "seashells": 6668,
      "valued": 6669,
      "genero": 6670,
      "slips": 6671,
      "strongest": 6672,
      "activity": 6673,
      "flip": 6674,
      "burnt": 6675,
      "burger": 6676,
      "breaths": 6677,
      "strips": 6678,
      "squeak": 6679,
      "jackets": 6680,
      "brushing": 6681,
      "knights": 6682,
      "orders": 6683,
      "scarecrow": 6684,
      "symbols": 6685,
      "travels": 6686,
      "supplied": 6687,
      "mayor": 6688,
      "campfire": 6689,
      "pedaled": 6690,
      "twisting": 6691,
      "luckily": 6692,
      "Although": 6693,
      "quarreling": 6694,
      "offering": 6695,
      "admiration": 6696,
      "Janie": 6697,
      "providing": 6698,
      "travelling": 6699,
      "pecker": 6700,
      "swaying": 6701,
      "Hootie": 6702,
      "Sparky": 6703,
      "nibble": 6704,
      "Shadow": 6705,
      "Surpr": 6706,
      "garbage": 6707,
      "distracted": 6708,
      "consequences": 6709,
      "Velvet": 6710,
      "generosity": 6711,
      "Arr": 6712,
      "Bro": 6713,
      "Colin": 6714,
      "Cathy": 6715,
      "Fran": 6716,
      "Fion": 6717,
      "Fortun": 6718,
      "Holly": 6719,
      "Isn": 6720,
      "Lenny": 6721,
      "Min": 6722,
      "Over": 6723,
      "Per": 6724,
      "Say": 6725,
      "Tuck": 6726,
      "Wend": 6727,
      "ashed": 6728,
      "blast": 6729,
      "cis": 6730,
      "cas": 6731,
      "gap": 6732,
      "hike": 6733,
      "ronaut": 6734,
      "tipped": 6735,
      "vant": 6736,
      "wider": 6737,
      "ands": 6738,
      "rent": 6739,
      "reunited": 6740,
      "hare": 6741,
      "onse": 6742,
      "isie": 6743,
      "sadd": 6744,
      "aling": 6745,
      "stain": 6746,
      "upside": 6747,
      "aston": 6748,
      "essa": 6749,
      "rather": 6750,
      "akes": 6751,
      "peak": 6752,
      "stomer": 6753,
      "bber": 6754,
      "spits": 6755,
      "sprang": 6756,
      "sunflowers": 6757,
      "turtles": 6758,
      "cleaner": 6759,
      "leaking": 6760,
      "customer": 6761,
      "dollars": 6762,
      "squished": 6763,
      "blocking": 6764,
      "fires": 6765,
      "White": 6766,
      "woodpecker": 6767,
      "glued": 6768,
      "pointy": 6769,
      "grows": 6770,
      "believing": 6771,
      "miles": 6772,
      "astronaut": 6773,
      "slipping": 6774,
      "crawls": 6775,
      "marking": 6776,
      "decoration": 6777,
      "flaps": 6778,
      "Susy": 6779,
      "spoiling": 6780,
      "cheerfully": 6781,
      "wakes": 6782,
      "loading": 6783,
      "borrowed": 6784,
      "discoveries": 6785,
      "bounces": 6786,
      "arrows": 6787,
      "spells": 6788,
      "granddaughter": 6789,
      "bumps": 6790,
      "triangles": 6791,
      "Still": 6792,
      "speaker": 6793,
      "response": 6794,
      "postman": 6795,
      "tearing": 6796,
      "Catie": 6797,
      "permitted": 6798,
      "performing": 6799,
      "inchworm": 6800,
      "Flora": 6801,
      "Maisie": 6802,
      "Ameli": 6803,
      "yumm": 6804,
      "scrape": 6805,
      "tumbled": 6806,
      "materials": 6807,
      "wounds": 6808,
      "puppies": 6809,
      "robbers": 6810,
      "expression": 6811,
      "forgiveness": 6812,
      "behavior": 6813,
      "bomb": 6814,
      "opportun": 6815,
      "Sleepy": 6816,
      "raccoon": 6817,
      "wobbly": 6818,
      "mischievous": 6819,
      "definitely": 6820,
      "Fiona": 6821,
      "Fortunately": 6822,
      "Tucker": 6823,
      "Wendy": 6824,
      "?!\"": 6825,
      "Abbie": 6826,
      "Bal": 6827,
      "Cow": 6828,
      "Eat": 6829,
      "Fid": 6830,
      "Fay": 6831,
      "Jax": 6832,
      "Kids": 6833,
      "Ms": 6834,
      "Mine": 6835,
      "Puff": 6836,
      "Rover": 6837,
      "Se": 6838,
      "Tia": 6839,
      "gaz": 6840,
      "sou": 6841,
      "sill": 6842,
      "swords": 6843,
      "tweet": 6844,
      "intrigued": 6845,
      "erg": 6846,
      "beth": 6847,
      "behaving": 6848,
      "except": 6849,
      "adults": 6850,
      "asper": 6851,
      "playhouse": 6852,
      "forgets": 6853,
      "roars": 6854,
      "shor": 6855,
      "cope": 6856,
      "pose": 6857,
      "pollen": 6858,
      "declar": 6859,
      "goodby": 6860,
      "presses": 6861,
      "spies": 6862,
      "pace": 6863,
      "bert": 6864,
      "explor": 6865,
      "joyful": 6866,
      "parted": 6867,
      "Finny": 6868,
      "worrying": 6869,
      "visits": 6870,
      "rows": 6871,
      "buckled": 6872,
      "wriggled": 6873,
      "drivers": 6874,
      "touches": 6875,
      "picnics": 6876,
      "desper": 6877,
      "shady": 6878,
      "whales": 6879,
      "changes": 6880,
      "seller": 6881,
      "diamonds": 6882,
      "scrambled": 6883,
      "Hopper": 6884,
      "Rubber": 6885,
      "beetles": 6886,
      "passports": 6887,
      "scolds": 6888,
      "weighs": 6889,
      "planets": 6890,
      "vehicles": 6891,
      "bothering": 6892,
      "burying": 6893,
      "beaming": 6894,
      "banged": 6895,
      "disturbing": 6896,
      "scurry": 6897,
      "automobiles": 6898,
      "efforts": 6899,
      "glittery": 6900,
      "peeled": 6901,
      "Nana": 6902,
      "puppet": 6903,
      "Turtle": 6904,
      "earned": 6905,
      "echoed": 6906,
      "annoyed": 6907,
      "firefighter": 6908,
      "pantry": 6909,
      "slithered": 6910,
      "Startled": 6911,
      "Willie": 6912,
      "Elizabeth": 6913,
      "simply": 6914,
      "recorder": 6915,
      "Arrr": 6916,
      "Francis": 6917,
      "opportunity": 6918,
      "Fido": 6919,
      "Faye": 6920,
      "goodbyes": 6921,
      "11": 6922,
      "Achoo": 6923,
      "Barry": 6924,
      "Bambi": 6925,
      "Ding": 6926,
      "Evie": 6927,
      "Gu": 6928,
      "HE": 6929,
      "Isa": 6930,
      "Lion": 6931,
      "Nell": 6932,
      "Ot": 6933,
      "Open": 6934,
      "Pick": 6935,
      "Playing": 6936,
      "Sir": 6937,
      "Tigger": 6938,
      "Under": 6939,
      "Win": 6940,
      "aimed": 6941,
      "dred": 6942,
      "iens": 6943,
      "ka": 6944,
      "pon": 6945,
      "plo": 6946,
      "puck": 6947,
      "sie": 6948,
      "tment": 6949,
      "ann": 6950,
      "intent": 6951,
      "reassured": 6952,
      "itude": 6953,
      "ening": 6954,
      "wasting": 6955,
      "ister": 6956,
      "iscu": 6957,
      "ilder": 6958,
      "aliens": 6959,
      "oring": 6960,
      "Shelly": 6961,
      "atty": 6962,
      "exhi": 6963,
      "hissing": 6964,
      "within": 6965,
      "fever": 6966,
      "shh": 6967,
      "smates": 6968,
      "ulpt": 6969,
      "dears": 6970,
      "canes": 6971,
      "storing": 6972,
      "ssom": 6973,
      "teles": 6974,
      "whose": 6975,
      "bba": 6976,
      "prevented": 6977,
      "quilt": 6978,
      "skies": 6979,
      "locks": 6980,
      "climber": 6981,
      "throne": 6982,
      "snuggle": 6983,
      "dressing": 6984,
      "counts": 6985,
      "twin": 6986,
      "airy": 6987,
      "firefly": 6988,
      "merma": 6989,
      "pleas": 6990,
      "guide": 6991,
      "marve": 6992,
      "understands": 6993,
      "angels": 6994,
      "sails": 6995,
      "baths": 6996,
      "minds": 6997,
      "swap": 6998,
      "scribb": 6999,
      "sculpt": 7000,
      "teachers": 7001,
      "wisely": 7002,
      "ships": 7003,
      "panicked": 7004,
      "bandages": 7005,
      "rubbish": 7006,
      "zookeeper": 7007,
      "Bobbie": 7008,
      "couraged": 7009,
      "heroes": 7010,
      "knives": 7011,
      "whispering": 7012,
      "Bubba": 7013,
      "successfully": 7014,
      "awful": 7015,
      "Milo": 7016,
      "pigeons": 7017,
      "Stan": 7018,
      "yawning": 7019,
      "repairman": 7020,
      "zipping": 7021,
      "Isla": 7022,
      "threads": 7023,
      "occas": 7024,
      "appreciated": 7025,
      "knocking": 7026,
      "newspapers": 7027,
      "Carla": 7028,
      "flooded": 7029,
      "repeats": 7030,
      "paddling": 7031,
      "...\"": 7032,
      "fascinating": 7033,
      "officers": 7034,
      "bends": 7035,
      "sirens": 7036,
      "Bertha": 7037,
      "spilling": 7038,
      "chefs": 7039,
      "firmly": 7040,
      "instantly": 7041,
      "Rainbow": 7042,
      "robber": 7043,
      "Anytime": 7044,
      "visitors": 7045,
      "reversed": 7046,
      "Elsa": 7047,
      "defeated": 7048,
      "Angel": 7049,
      "squinted": 7050,
      "aisle": 7051,
      "classmates": 7052,
      "conquered": 7053,
      "correctly": 7054,
      "nuzzled": 7055,
      "matey": 7056,
      "astonished": 7057,
      "declared": 7058,
      "exploration": 7059,
      "Otto": 7060,
      "telescope": 7061,
      "sculpture": 7062,
      "!'.": 7063,
      "911": 7064,
      "Ano": 7065,
      "Alf": 7066,
      "Ber": 7067,
      "Bop": 7068,
      "Choo": 7069,
      "Den": 7070,
      "Fly": 7071,
      "Lace": 7072,
      "Linda": 7073,
      "Spl": 7074,
      "Sony": 7075,
      "Using": 7076,
      "Vio": 7077,
      "Yog": 7078,
      "coug": 7079,
      "dump": 7080,
      "dia": 7081,
      "rink": 7082,
      "rina": 7083,
      "tuck": 7084,
      "vive": 7085,
      "ying": 7086,
      "zel": 7087,
      "hew": 7088,
      "heaven": 7089,
      "edges": 7090,
      "oudest": 7091,
      "enclos": 7092,
      "onge": 7093,
      "onde": 7094,
      "ari": 7095,
      "ared": 7096,
      "issa": 7097,
      "lody": 7098,
      "sewed": 7099,
      "nood": 7100,
      "pled": 7101,
      "plugged": 7102,
      "plumber": 7103,
      "hiss": 7104,
      "rier": 7105,
      "rior": 7106,
      "rips": 7107,
      "soaking": 7108,
      "adually": 7109,
      "force": 7110,
      "forgiving": 7111,
      "allerg": 7112,
      "ittered": 7113,
      "gears": 7114,
      "raking": 7115,
      "noticing": 7116,
      "smashed": 7117,
      "hotter": 7118,
      "carts": 7119,
      "odd": 7120,
      "manners": 7121,
      "poop": 7122,
      "poses": 7123,
      "faction": 7124,
      "birdy": 7125,
      "birdhouse": 7126,
      "causing": 7127,
      "ssy": 7128,
      "bride": 7129,
      "kings": 7130,
      "speech": 7131,
      "Samant": 7132,
      "bbling": 7133,
      "preschool": 7134,
      "actor": 7135,
      "wolves": 7136,
      "runner": 7137,
      "spins": 7138,
      "sponge": 7139,
      "sunscreen": 7140,
      "blonde": 7141,
      "untie": 7142,
      "waters": 7143,
      "uctor": 7144,
      "checks": 7145,
      "warrior": 7146,
      "pretzel": 7147,
      "iley": 7148,
      "bracele": 7149,
      "survive": 7150,
      "convin": 7151,
      "steer": 7152,
      "nodding": 7153,
      "discouraged": 7154,
      "forests": 7155,
      "ipation": 7156,
      "Dove": 7157,
      "bowing": 7158,
      "snug": 7159,
      "Looking": 7160,
      "warmer": 7161,
      "sandy": 7162,
      "prod": 7163,
      "probab": 7164,
      "queens": 7165,
      "floors": 7166,
      "rowed": 7167,
      "elect": 7168,
      "brant": 7169,
      "pressing": 7170,
      "dripping": 7171,
      "scener": 7172,
      "sery": 7173,
      "Peep": 7174,
      "countries": 7175,
      "calming": 7176,
      "active": 7177,
      "respected": 7178,
      "answering": 7179,
      "blown": 7180,
      "reminds": 7181,
      "Bobb": 7182,
      "squeaked": 7183,
      "auntie": 7184,
      "ignoring": 7185,
      "Seeing": 7186,
      "apologised": 7187,
      "goats": 7188,
      "messes": 7189,
      "grandparents": 7190,
      "nurses": 7191,
      "nursery": 7192,
      "cushions": 7193,
      "scattering": 7194,
      "hooks": 7195,
      "slee": 7196,
      "tubes": 7197,
      "designs": 7198,
      "gems": 7199,
      "hundred": 7200,
      "vibrant": 7201,
      "darlings": 7202,
      "uniforms": 7203,
      "wiggly": 7204,
      "complim": 7205,
      "aprons": 7206,
      "swollen": 7207,
      "rumbling": 7208,
      "popsic": 7209,
      "Move": 7210,
      "chatted": 7211,
      "writer": 7212,
      "Auntie": 7213,
      "Muffin": 7214,
      "Goldie": 7215,
      "dodged": 7216,
      "conductor": 7217,
      "guests": 7218,
      "Daniel": 7219,
      "munching": 7220,
      "hawk": 7221,
      "manager": 7222,
      "blushed": 7223,
      "concert": 7224,
      "responded": 7225,
      "scuttled": 7226,
      "Starla": 7227,
      "transformed": 7228,
      "tilted": 7229,
      "anticipation": 7230,
      "consider": 7231,
      "Brooke": 7232,
      "sadder": 7233,
      "astronauts": 7234,
      "gazing": 7235,
      "shorter": 7236,
      "iscuit": 7237,
      "exhibit": 7238,
      "Another": 7239,
      "Alfie": 7240,
      "Bernie": 7241,
      "Lacey": 7242,
      "Sonya": 7243,
      "Violet": 7244,
      "coughed": 7245,
      "enclosure": 7246,
      "Samantha": 7247,
      "bracelets": 7248,
      "probably": 7249,
      "scenery": 7250,
      ",'": 7251,
      "Ar": 7252,
      "Bang": 7253,
      "Bounce": 7254,
      "Edd": 7255,
      "Fire": 7256,
      "Jody": 7257,
      "Ky": 7258,
      "Kathy": 7259,
      "Lions": 7260,
      "Ri": 7261,
      "Sal": 7262,
      "Yv": 7263,
      "bound": 7264,
      "bie": 7265,
      "buses": 7266,
      "court": 7267,
      "ev": 7268,
      "elt": 7269,
      "fond": 7270,
      "kittens": 7271,
      "loudest": 7272,
      "mered": 7273,
      "mallow": 7274,
      "nis": 7275,
      "osh": 7276,
      "pours": 7277,
      "vast": 7278,
      "whim": 7279,
      "inter": 7280,
      "retri": 7281,
      "reappeared": 7282,
      "onne": 7283,
      "ilities": 7284,
      "los": 7285,
      "als": 7286,
      "allest": 7287,
      "stinky": 7288,
      "ata": 7289,
      "ative": 7290,
      "plug": 7291,
      "ower": 7292,
      "chup": 7293,
      "mommies": 7294,
      "dot": 7295,
      "robin": 7296,
      "shrunk": 7297,
      "shmallow": 7298,
      "smelt": 7299,
      "smallest": 7300,
      "coop": 7301,
      "dee": 7302,
      "elbow": 7303,
      "lowered": 7304,
      "faith": 7305,
      "failed": 7306,
      "acing": 7307,
      "spare": 7308,
      "cheers": 7309,
      "shines": 7310,
      "flowing": 7311,
      "beast": 7312,
      "venture": 7313,
      "concent": 7314,
      "winds": 7315,
      "nights": 7316,
      "surely": 7317,
      "mony": 7318,
      "month": 7319,
      "meaning": 7320,
      "grabbing": 7321,
      "warmly": 7322,
      "squir": 7323,
      "ketchup": 7324,
      "tables": 7325,
      "flakes": 7326,
      "softened": 7327,
      "craf": 7328,
      "Helen": 7329,
      "magician": 7330,
      "colder": 7331,
      "marshmallow": 7332,
      "slowed": 7333,
      "glided": 7334,
      "glimmering": 7335,
      "glittered": 7336,
      "germs": 7337,
      "joining": 7338,
      "jobs": 7339,
      "scent": 7340,
      "seashell": 7341,
      "bushy": 7342,
      "Pebby": 7343,
      "gesture": 7344,
      "certain": 7345,
      "ugging": 7346,
      "seatbelt": 7347,
      "planting": 7348,
      "reminding": 7349,
      "engines": 7350,
      "laws": 7351,
      "udged": 7352,
      "guards": 7353,
      "tires": 7354,
      "squeezes": 7355,
      "mosquitoes": 7356,
      "scares": 7357,
      "spelling": 7358,
      "grandson": 7359,
      "thieves": 7360,
      "ribbit": 7361,
      "environ": 7362,
      "sneaking": 7363,
      "Patty": 7364,
      "Rosy": 7365,
      "speeding": 7366,
      "ironing": 7367,
      "facts": 7368,
      "snaps": 7369,
      "capture": 7370,
      "suffered": 7371,
      "floats": 7372,
      "ornaments": 7373,
      "stamped": 7374,
      "container": 7375,
      "satisfaction": 7376,
      "Janet": 7377,
      "cotton": 7378,
      "Mona": 7379,
      "chief": 7380,
      "Quickly": 7381,
      "purrs": 7382,
      "Tyler": 7383,
      "scientist": 7384,
      "nearest": 7385,
      "temptation": 7386,
      "Granny": 7387,
      "magnifying": 7388,
      "Sandra": 7389,
      "Speedy": 7390,
      "Baldy": 7391,
      "intently": 7392,
      "occasion": 7393,
      "Dennis": 7394,
      "Splash": 7395,
      "diaper": 7396,
      "convinced": 7397,
      "Eddie": 7398,
      "Ribb": 7399,
      "Yvonne": 7400,
      "concentr": 7401,
      "marshmallows": 7402,
      "environment": 7403,
      "Af": 7404,
      "Amen": 7405,
      "Bri": 7406,
      "Biff": 7407,
      "Dull": 7408,
      "Elly": 7409,
      "Glow": 7410,
      "Gus": 7411,
      "Ice": 7412,
      "Kris": 7413,
      "Man": 7414,
      "Mous": 7415,
      "Oak": 7416,
      "Pl": 7417,
      "Ria": 7418,
      "Stu": 7419,
      "Tre": 7420,
      "Tell": 7421,
      "Vic": 7422,
      "awhile": 7423,
      "bitten": 7424,
      "cca": 7425,
      "gates": 7426,
      "grip": 7427,
      "mun": 7428,
      "natur": 7429,
      "pout": 7430,
      "sci": 7431,
      "whel": 7432,
      "toss": 7433,
      "recess": 7434,
      "rebuild": 7435,
      "reappear": 7436,
      "encounter": 7437,
      "sav": 7438,
      "although": 7439,
      "alley": 7440,
      "orrow": 7441,
      "necess": 7442,
      "bels": 7443,
      "ats": 7444,
      "goo": 7445,
      "chugged": 7446,
      "ndered": 7447,
      "timid": 7448,
      "hover": 7449,
      "peep": 7450,
      "cartw": 7451,
      "caroni": 7452,
      "cocoon": 7453,
      "Tomorrow": 7454,
      "backs": 7455,
      "ability": 7456,
      "posit": 7457,
      "lava": 7458,
      "facing": 7459,
      "caves": 7460,
      "getic": 7461,
      "lookout": 7462,
      "teen": 7463,
      "whoosh": 7464,
      "presen": 7465,
      "acle": 7466,
      "cloak": 7467,
      "JoJo": 7468,
      "tying": 7469,
      "types": 7470,
      "creak": 7471,
      "overwhel": 7472,
      "traded": 7473,
      "trading": 7474,
      "clut": 7475,
      "waterfall": 7476,
      "shall": 7477,
      "chea": 7478,
      "combed": 7479,
      "compan": 7480,
      "conten": 7481,
      "doorbell": 7482,
      "fishy": 7483,
      "adventurer": 7484,
      "Lots": 7485,
      "Loyal": 7486,
      "snoring": 7487,
      "Inny": 7488,
      "sandpit": 7489,
      "softest": 7490,
      "fills": 7491,
      "welcoming": 7492,
      "gues": 7493,
      "petting": 7494,
      "drowned": 7495,
      "packages": 7496,
      "jud": 7497,
      "artwork": 7498,
      "syrup": 7499,
      "Bean": 7500,
      "Behind": 7501,
      "kayaking": 7502,
      "benches": 7503,
      "ixie": 7504,
      "?”.": 7505,
      "comforting": 7506,
      "servant": 7507,
      "storms": 7508,
      "peacefulness": 7509,
      "folds": 7510,
      "sprays": 7511,
      "results": 7512,
      "tested": 7513,
      "motorbike": 7514,
      "motorcy": 7515,
      "knit": 7516,
      "melons": 7517,
      "example": 7518,
      "thicker": 7519,
      "pays": 7520,
      "teamwork": 7521,
      "crowns": 7522,
      "stumble": 7523,
      "loads": 7524,
      "rays": 7525,
      "croaked": 7526,
      "palms": 7527,
      "guessing": 7528,
      "Alexis": 7529,
      "Julia": 7530,
      "risky": 7531,
      "rats": 7532,
      "cooed": 7533,
      "energ": 7534,
      "energetic": 7535,
      "Rocky": 7536,
      "sniffing": 7537,
      "beeped": 7538,
      "sheets": 7539,
      "freezing": 7540,
      "reindeers": 7541,
      "miller": 7542,
      "Carlos": 7543,
      "kneeling": 7544,
      "wiser": 7545,
      "slapping": 7546,
      "unpacking": 7547,
      "emerged": 7548,
      "rails": 7549,
      "Cocoa": 7550,
      "languages": 7551,
      "surrendered": 7552,
      "decisions": 7553,
      "rooster": 7554,
      "Mabel": 7555,
      "confidently": 7556,
      "textures": 7557,
      "swayed": 7558,
      "connect": 7559,
      "cousins": 7560,
      "instrument": 7561,
      "Cheese": 7562,
      "mooed": 7563,
      "Pippy": 7564,
      "Philip": 7565,
      "Excitedly": 7566,
      "refuse": 7567,
      "salon": 7568,
      "Surprise": 7569,
      "yummiest": 7570,
      "scurrying": 7571,
      "plopped": 7572,
      "announced": 7573,
      "mermaid": 7574,
      "noodles": 7575,
      "allergic": 7576,
      "bounded": 7577,
      "Mousy": 7578,
      "Stuart": 7579,
      "munched": 7580,
      "natural": 7581,
      "science": 7582,
      "necessary": 7583,
      "cartwheel": 7584,
      "presented": 7585,
      "overwhelmed": 7586,
      "contented": 7587,
      "00": 7588,
      "Allie": 7589,
      "Bark": 7590,
      "Bust": 7591,
      "Bones": 7592,
      "Cho": 7593,
      "Col": 7594,
      "Danger": 7595,
      "Eli": 7596,
      "Fight": 7597,
      "Gw": 7598,
      "Gig": 7599,
      "Gerry": 7600,
      "Gemma": 7601,
      "Jes": 7602,
      "Jemma": 7603,
      "Knight": 7604,
      "Mother": 7605,
      "Number": 7606,
      "Off": 7607,
      "Ra": 7608,
      "Ran": 7609,
      "Right": 7610,
      "Shoo": 7611,
      "Syl": 7612,
      "Te": 7613,
      "Tall": 7614,
      "Todd": 7615,
      "Wor": 7616,
      "aboard": 7617,
      "bou": 7618,
      "bino": 7619,
      "clicked": 7620,
      "dou": 7621,
      "dong": 7622,
      "glo": 7623,
      "gallo": 7624,
      "lers": 7625,
      "mitt": 7626,
      "psy": 7627,
      "sly": 7628,
      "sinking": 7629,
      "tant": 7630,
      "uing": 7631,
      "”,": 7632,
      "thew": 7633,
      "topp": 7634,
      "toise": 7635,
      "restoring": 7636,
      "haven": 7637,
      "erup": 7638,
      "erase": 7639,
      "levers": 7640,
      "stitches": 7641,
      "neys": 7642,
      "atitude": 7643,
      "amused": 7644,
      "vester": 7645,
      "exchange": 7646,
      "hisses": 7647,
      "ppin": 7648,
      "rica": 7649,
      "chill": 7650,
      "alled": 7651,
      "boil": 7652,
      "rack": 7653,
      "sometime": 7654,
      "hog": 7655,
      "llas": 7656,
      "coach": 7657,
      "cotch": 7658,
      "iller": 7659,
      "aint": 7660,
      "elle": 7661,
      "worn": 7662,
      "labels": 7663,
      "gratitude": 7664,
      "ously": 7665,
      "cares": 7666,
      "carefree": 7667,
      "joked": 7668,
      "quet": 7669,
      "macaroni": 7670,
      "skirts": 7671,
      "cled": 7672,
      "clam": 7673,
      "gress": 7674,
      "shallow": 7675,
      "jumper": 7676,
      "gardens": 7677,
      "bless": 7678,
      "observing": 7679,
      "Though": 7680,
      "surprising": 7681,
      "stew": 7682,
      "cleans": 7683,
      "closing": 7684,
      "slug": 7685,
      "slur": 7686,
      "tortoise": 7687,
      "stores": 7688,
      "brightest": 7689,
      "iped": 7690,
      "chopping": 7691,
      "Inch": 7692,
      "cutter": 7693,
      "proved": 7694,
      "progress": 7695,
      "swimsuit": 7696,
      "sleeps": 7697,
      "Toys": 7698,
      "continuing": 7699,
      "races": 7700,
      "juic": 7701,
      "snowball": 7702,
      "fights": 7703,
      "Gray": 7704,
      "heavily": 7705,
      "explains": 7706,
      "explaining": 7707,
      "scrub": 7708,
      "scene": 7709,
      "Lea": 7710,
      "Lemon": 7711,
      "dolly": 7712,
      "Wherever": 7713,
      "footsteps": 7714,
      "current": 7715,
      "flashed": 7716,
      "hummed": 7717,
      "chicks": 7718,
      "Whoever": 7719,
      "gasps": 7720,
      "formation": 7721,
      "extraordinary": 7722,
      "awk": 7723,
      "Hope": 7724,
      "umbrellas": 7725,
      "July": 7726,
      "squeezing": 7727,
      "pearls": 7728,
      "crocodiles": 7729,
      "scooters": 7730,
      "motorcycles": 7731,
      "meowing": 7732,
      "Stitch": 7733,
      "Cluck": 7734,
      "thunderstorm": 7735,
      "zips": 7736,
      "screws": 7737,
      "skeletons": 7738,
      "shovels": 7739,
      "pedaling": 7740,
      "Alan": 7741,
      "traveling": 7742,
      "Paula": 7743,
      "Magic": 7744,
      "exercising": 7745,
      "applause": 7746,
      "shooed": 7747,
      "increasing": 7748,
      "hesitation": 7749,
      "thumbs": 7750,
      "solute": 7751,
      "allowing": 7752,
      "glittering": 7753,
      "hooves": 7754,
      "scoops": 7755,
      "Flopsy": 7756,
      "hunting": 7757,
      "achievement": 7758,
      "Should": 7759,
      "Print": 7760,
      "lipstick": 7761,
      "sweaty": 7762,
      "ibly": 7763,
      "tumbling": 7764,
      "tummies": 7765,
      "sniffs": 7766,
      "revealing": 7767,
      "Tammy": 7768,
      "Pippin": 7769,
      "reversing": 7770,
      "Shade": 7771,
      "insisting": 7772,
      "Elle": 7773,
      "hopscotch": 7774,
      "seasons": 7775,
      "attacked": 7776,
      "Matthew": 7777,
      "Stripes": 7778,
      "culars": 7779,
      "considerate": 7780,
      "evil": 7781,
      "crafts": 7782,
      "Ribbit": 7783,
      "Africa": 7784,
      "companion": 7785,
      "judges": 7786,
      "Buster": 7787,
      "Fighting": 7788,
      "Gwen": 7789,
      "Gigi": 7790,
      "Jesus": 7791,
      "Sylvester": 7792,
      "bouquet": 7793,
      "binoculars": 7794,
      "tantrum": 7795,
      "',": 7796,
      "Ac": 7797,
      "Ama": 7798,
      "Addy": 7799,
      "Ba": 7800,
      "Belle": 7801,
      "Cal": 7802,
      "Cor": 7803,
      "Care": 7804,
      "Chu": 7805,
      "Dale": 7806,
      "Fis": 7807,
      "Flip": 7808,
      "Furry": 7809,
      "Gra": 7810,
      "Jod": 7811,
      "Kara": 7812,
      "Lia": 7813,
      "Mur": 7814,
      "Mol": 7815,
      "Merry": 7816,
      "Miller": 7817,
      "Pigg": 7818,
      "Pene": 7819,
      "RO": 7820,
      "Rh": 7821,
      "Rup": 7822,
      "Rosa": 7823,
      "Sw": 7824,
      "Tigers": 7825,
      "THE": 7826,
      "Use": 7827,
      "Want": 7828,
      "aim": 7829,
      "bly": 7830,
      "charm": 7831,
      "flock": 7832,
      "lan": 7833,
      "ligh": 7834,
      "nival": 7835,
      "pand": 7836,
      "ridge": 7837,
      "shave": 7838,
      "swat": 7839,
      "ties": 7840,
      "vince": 7841,
      "zer": 7842,
      "theat": 7843,
      "andon": 7844,
      "tou": 7845,
      "insepar": 7846,
      "rev": 7847,
      "rely": 7848,
      "returning": 7849,
      "habit": 7850,
      "enem": 7851,
      "erina": 7852,
      "aring": 7853,
      "ingo": 7854,
      "idence": 7855,
      "level": 7856,
      "thump": 7857,
      "sess": 7858,
      "soda": 7859,
      "adds": 7860,
      "chin": 7861,
      "forgives": 7862,
      "boiled": 7863,
      "wanna": 7864,
      "geese": 7865,
      "aret": 7866,
      "raising": 7867,
      "ula": 7868,
      "pey": 7869,
      "carries": 7870,
      "carnival": 7871,
      "cooper": 7872,
      "deck": 7873,
      "dete": 7874,
      "detail": 7875,
      "absolute": 7876,
      "abandon": 7877,
      "rant": 7878,
      "funn": 7879,
      "popping": 7880,
      "grump": 7881,
      "opy": 7882,
      "muster": 7883,
      "hardest": 7884,
      "joins": 7885,
      "bbing": 7886,
      "acles": 7887,
      "angle": 7888,
      "ballerina": 7889,
      "switched": 7890,
      "blades": 7891,
      "blamed": 7892,
      "untangled": 7893,
      "common": 7894,
      "braver": 7895,
      "beautifully": 7896,
      "Johny": 7897,
      "bleated": 7898,
      "Through": 7899,
      "appet": 7900,
      "badger": 7901,
      "convince": 7902,
      "ilda": 7903,
      "talents": 7904,
      "disagreement": 7905,
      "disobeyed": 7906,
      "headache": 7907,
      "singers": 7908,
      "ips": 7909,
      "Dot": 7910,
      "Does": 7911,
      "squish": 7912,
      "drople": 7913,
      "airplanes": 7914,
      "tablet": 7915,
      "fireflies": 7916,
      "cris": 7917,
      "softness": 7918,
      "born": 7919,
      "movements": 7920,
      "sweetly": 7921,
      "traps": 7922,
      "messed": 7923,
      "Toot": 7924,
      "tripping": 7925,
      "tastiest": 7926,
      "snowflakes": 7927,
      "tons": 7928,
      "pointer": 7929,
      "gratefully": 7930,
      "purchase": 7931,
      "boards": 7932,
      "boarded": 7933,
      "cupcake": 7934,
      "Justine": 7935,
      "minded": 7936,
      "cidents": 7937,
      "dashed": 7938,
      "dripped": 7939,
      "alongside": 7940,
      "journeys": 7941,
      "roundabout": 7942,
      "cowboys": 7943,
      "layer": 7944,
      "necks": 7945,
      "belongings": 7946,
      "larger": 7947,
      "flips": 7948,
      "feathered": 7949,
      "oceans": 7950,
      "solving": 7951,
      "tidied": 7952,
      "bells": 7953,
      "Boy": 7954,
      "Boys": 7955,
      "bats": 7956,
      "trusty": 7957,
      "teapot": 7958,
      "disappointment": 7959,
      "Chuck": 7960,
      "bait": 7961,
      "stuffing": 7962,
      "moonlight": 7963,
      "honesty": 7964,
      "gasp": 7965,
      "frustration": 7966,
      "Megan": 7967,
      "tickling": 7968,
      "Bubble": 7969,
      "teams": 7970,
      "pizzas": 7971,
      "depths": 7972,
      "relaxing": 7973,
      "Ruthie": 7974,
      "tempted": 7975,
      "guarding": 7976,
      "Betsie": 7977,
      "wealth": 7978,
      "Robert": 7979,
      "sleigh": 7980,
      "questioned": 7981,
      "experim": 7982,
      "supporting": 7983,
      "musicians": 7984,
      "weighing": 7985,
      "massages": 7986,
      "hunters": 7987,
      "improving": 7988,
      "Carrot": 7989,
      "communic": 7990,
      "Robin": 7991,
      "sprinkle": 7992,
      "gaps": 7993,
      "hedgehog": 7994,
      "demanding": 7995,
      "sneaks": 7996,
      "floaty": 7997,
      "quacking": 7998,
      "sensation": 7999,
      "differences": 8000,
      "poisoned": 8001,
      "invites": 8002,
      "hurricanes": 8003,
      "unicorns": 8004,
      "More": 8005,
      "chatting": 8006,
      "Zoomy": 8007,
      "expecting": 8008,
      "Sparkles": 8009,
      "Monkey": 8010,
      "Monica": 8011,
      "sniffled": 8012,
      "Deli": 8013,
      "baker": 8014,
      "masterpiece": 8015,
      "swirls": 8016,
      "healthier": 8017,
      "Musa": 8018,
      "amongst": 8019,
      "behaviour": 8020,
      "Matilda": 8021,
      "shrugs": 8022,
      "Amanda": 8023,
      "grumbled": 8024,
      "compete": 8025,
      "Hugo": 8026,
      "pleasant": 8027,
      "hundreds": 8028,
      "retrie": 8029,
      "peeped": 8030,
      "cheaper": 8031,
      "Colby": 8032,
      "Rani": 8033,
      "Accidents": 8034,
      "Fisky": 8035,
      "Jodie": 8036,
      "Murphy": 8037,
      "Mollie": 8038,
      "Piggie": 8039,
      "Penelope": 8040,
      "Rupert": 8041,
      "Swim": 8042,
      "lantern": 8043,
      "pandas": 8044,
      "theatre": 8045,
      "inseparable": 8046,
      "enemies": 8047,
      "droplets": 8048,
      "communicate": 8049,
      "15": 8050,
      "Ag": 8051,
      "Blo": 8052,
      "Bucky": 8053,
      "Biscuit": 8054,
      "Cle": 8055,
      "Could": 8056,
      "Candy": 8057,
      "Dah": 8058,
      "Giz": 8059,
      "Greg": 8060,
      "Jin": 8061,
      "Jelly": 8062,
      "Jugg": 8063,
      "Jasper": 8064,
      "Light": 8065,
      "Lung": 8066,
      "Lilli": 8067,
      "Luggage": 8068,
      "Lori": 8069,
      "Much": 8070,
      "Oink": 8071,
      "Oxy": 8072,
      "Ooh": 8073,
      "Power": 8074,
      "Pixie": 8075,
      "Riding": 8076,
      "Show": 8077,
      "Snap": 8078,
      "Summer": 8079,
      "Share": 8080,
      "Trace": 8081,
      "Wipe": 8082,
      "Ze": 8083,
      "bum": 8084,
      "fers": 8085,
      "faint": 8086,
      "gad": 8087,
      "gorge": 8088,
      "hudd": 8089,
      "huff": 8090,
      "killed": 8091,
      "lull": 8092,
      "mp": 8093,
      "mary": 8094,
      "nor": 8095,
      "ogre": 8096,
      "phew": 8097,
      "rises": 8098,
      "sence": 8099,
      "signing": 8100,
      "toad": 8101,
      "inju": 8102,
      "inches": 8103,
      "waking": 8104,
      "waded": 8105,
      "enger": 8106,
      "washes": 8107,
      "immered": 8108,
      "loses": 8109,
      "lobby": 8110,
      "ork": 8111,
      "Heather": 8112,
      "thous": 8113,
      "thouse": 8114,
      "nephew": 8115,
      "becomes": 8116,
      "beating": 8117,
      "hatched": 8118,
      "utter": 8119,
      "section": 8120,
      "atha": 8121,
      "address": 8122,
      "unfair": 8123,
      "uncovered": 8124,
      "unity": 8125,
      "unicycle": 8126,
      "unloaded": 8127,
      "unfamiliar": 8128,
      "wee": 8129,
      "liar": 8130,
      "dock": 8131,
      "Itsy": 8132,
      "raked": 8133,
      "smo": 8134,
      "hollow": 8135,
      "mest": 8136,
      "moons": 8137,
      "foam": 8138,
      "elves": 8139,
      "owns": 8140,
      "gras": 8141,
      "cafe": 8142,
      "treas": 8143,
      "whoever": 8144,
      "brow": 8145,
      "speople": 8146,
      "Sami": 8147,
      "bbs": 8148,
      "access": 8149,
      "woo": 8150,
      "angrier": 8151,
      "whined": 8152,
      "Joanna": 8153,
      "runny": 8154,
      "venir": 8155,
      "trades": 8156,
      "blade": 8157,
      "blues": 8158,
      "pail": 8159,
      "papa": 8160,
      "warmest": 8161,
      "shinier": 8162,
      "flowed": 8163,
      "fleas": 8164,
      "blessed": 8165,
      "Things": 8166,
      "slight": 8167,
      "leap": 8168,
      "winding": 8169,
      "parrots": 8170,
      "tingling": 8171,
      "phant": 8172,
      "listener": 8173,
      "brightened": 8174,
      "tops": 8175,
      "snorted": 8176,
      "twists": 8177,
      "tablecloth": 8178,
      "colate": 8179,
      "guided": 8180,
      "yelped": 8181,
      "glared": 8182,
      "hunger": 8183,
      "mornings": 8184,
      "snowing": 8185,
      "rowing": 8186,
      "pennies": 8187,
      "purpose": 8188,
      "townspeople": 8189,
      "mindful": 8190,
      "dances": 8191,
      "drip": 8192,
      "healing": 8193,
      "scrun": 8194,
      "tunes": 8195,
      "partner": 8196,
      "milkshake": 8197,
      "Leah": 8198,
      "calmer": 8199,
      "horri": 8200,
      "mattered": 8201,
      "designing": 8202,
      "protection": 8203,
      "flashes": 8204,
      "wheeled": 8205,
      "Bossy": 8206,
      "meadows": 8207,
      "scree": 8208,
      "tests": 8209,
      "groups": 8210,
      "necklaces": 8211,
      "knitting": 8212,
      "tickles": 8213,
      "Paw": 8214,
      "incredibly": 8215,
      "Black": 8216,
      "Blink": 8217,
      "harmful": 8218,
      "Beary": 8219,
      "checkout": 8220,
      "trunks": 8221,
      "temp": 8222,
      "sneezes": 8223,
      "caterpillars": 8224,
      "Charley": 8225,
      "obediently": 8226,
      "apology": 8227,
      "scratchy": 8228,
      "loyalty": 8229,
      "grandchild": 8230,
      "furious": 8231,
      "coolest": 8232,
      "rewarding": 8233,
      "hoops": 8234,
      "Missile": 8235,
      "Patches": 8236,
      "repairs": 8237,
      "repairing": 8238,
      "avoided": 8239,
      "zippers": 8240,
      "launched": 8241,
      "aura": 8242,
      "community": 8243,
      "surrounding": 8244,
      "unlocking": 8245,
      "ostriches": 8246,
      "Louie": 8247,
      "lumberjack": 8248,
      "approach": 8249,
      "banging": 8250,
      "confidence": 8251,
      "lush": 8252,
      "nightmares": 8253,
      "opinions": 8254,
      "Morty": 8255,
      "Luca": 8256,
      "Tuesdays": 8257,
      "Most": 8258,
      "Lizzi": 8259,
      "Squawk": 8260,
      "Melvin": 8261,
      "Woody": 8262,
      "pecking": 8263,
      "crowded": 8264,
      "introducing": 8265,
      "Kevin": 8266,
      "connection": 8267,
      "Outside": 8268,
      "nibbling": 8269,
      "Oliver": 8270,
      "projects": 8271,
      "Tamik": 8272,
      "mooing": 8273,
      "disagreeing": 8274,
      "instant": 8275,
      "Anya": 8276,
      "Pippa": 8277,
      "Birdy": 8278,
      "Turn": 8279,
      "character": 8280,
      "bombs": 8281,
      "firefighters": 8282,
      "condition": 8283,
      "greeting": 8284,
      "Stripey": 8285,
      "Butterfly": 8286,
      "Sweets": 8287,
      "heights": 8288,
      "imaginary": 8289,
      "imaginations": 8290,
      "pounds": 8291,
      "stroller": 8292,
      "wrinkled": 8293,
      "Percy": 8294,
      "souvenir": 8295,
      "desperate": 8296,
      "Guess": 8297,
      "ponies": 8298,
      "popsicle": 8299,
      "deeply": 8300,
      "Trey": 8301,
      "positive": 8302,
      "energized": 8303,
      "Chocolate": 8304,
      "double": 8305,
      "galloped": 8306,
      "mitts": 8307,
      "Chubbs": 8308,
      "lighthouse": 8309,
      "revved": 8310,
      "detective": 8311,
      "abandoned": 8312,
      "mustered": 8313,
      "Delicious": 8314,
      "Agatha": 8315,
      "Dahlia": 8316,
      "Gizmo": 8317,
      "Juggy": 8318,
      "Tracey": 8319,
      "gorgeous": 8320,
      "huffed": 8321,
      "lullaby": 8322,
      "Tamika": 8323,
      "\"!": 8324,
      "AB": 8325,
      "Ace": 8326,
      "Aho": 8327,
      "Ally": 8328,
      "Bing": 8329,
      "Bug": 8330,
      "Bree": 8331,
      "BRO": 8332,
      "Close": 8333,
      "Cody": 8334,
      "Dara": 8335,
      "Dina": 8336,
      "Dory": 8337,
      "Dyl": 8338,
      "Ele": 8339,
      "Ever": 8340,
      "Fer": 8341,
      "Fli": 8342,
      "Fara": 8343,
      "Fairy": 8344,
      "Gail": 8345,
      "Harri": 8346,
      "Hmm": 8347,
      "Hatty": 8348,
      "Jor": 8349,
      "Jumpy": 8350,
      "Jason": 8351,
      "Lex": 8352,
      "Laura": 8353,
      "Mop": 8354,
      "Mara": 8355,
      "Rel": 8356,
      "Roy": 8357,
      "Sab": 8358,
      "Sav": 8359,
      "Tori": 8360,
      "Wis": 8361,
      "Wake": 8362,
      "aware": 8363,
      "bour": 8364,
      "dled": 8365,
      "fto": 8366,
      "gul": 8367,
      "las": 8368,
      "lump": 8369,
      "odo": 8370,
      "passes": 8371,
      "pouch": 8372,
      "pounced": 8373,
      "rash": 8374,
      "rins": 8375,
      "som": 8376,
      "sipped": 8377,
      "ssess": 8378,
      "tang": 8379,
      "tling": 8380,
      "tugging": 8381,
      "ush": 8382,
      "vit": 8383,
      "wiggling": 8384,
      "wicked": 8385,
      "wilder": 8386,
      "yage": 8387,
      "hey": 8388,
      "angr": 8389,
      "inj": 8390,
      "inched": 8391,
      "remony": 8392,
      "ersa": 8393,
      "army": 8394,
      "Theodo": 8395,
      "inging": 8396,
      "isbee": 8397,
      "sacks": 8398,
      "lefto": 8399,
      "alt": 8400,
      "album": 8401,
      "stur": 8402,
      "stained": 8403,
      "stantly": 8404,
      "irly": 8405,
      "cker": 8406,
      "attemp": 8407,
      "ceremony": 8408,
      "nook": 8409,
      "ppies": 8410,
      "ricity": 8411,
      "soo": 8412,
      "undo": 8413,
      "undone": 8414,
      "unload": 8415,
      "playroom": 8416,
      "forwards": 8417,
      "entert": 8418,
      "bold": 8419,
      "bolt": 8420,
      "littlest": 8421,
      "shuff": 8422,
      "lleng": 8423,
      "colla": 8424,
      "coiled": 8425,
      "moat": 8426,
      "mold": 8427,
      "moke": 8428,
      "devast": 8429,
      "Benita": 8430,
      "Buttons": 8431,
      "possess": 8432,
      "capes": 8433,
      "cases": 8434,
      "otherwise": 8435,
      "bras": 8436,
      "speck": 8437,
      "spect": 8438,
      "presence": 8439,
      "whirl": 8440,
      "whine": 8441,
      "anyways": 8442,
      "spi": 8443,
      "overheard": 8444,
      "overhead": 8445,
      "swish": 8446,
      "switches": 8447,
      "tale": 8448,
      "clue": 8449,
      "paste": 8450,
      "compar": 8451,
      "combs": 8452,
      "fived": 8453,
      "joyfully": 8454,
      "leting": 8455,
      "ankle": 8456,
      "Thunder": 8457,
      "wondr": 8458,
      "realizing": 8459,
      "ruff": 8460,
      "Thankfully": 8461,
      "keepers": 8462,
      "doorstep": 8463,
      "dollar": 8464,
      "disaster": 8465,
      "phones": 8466,
      "voyage": 8467,
      "differently": 8468,
      "snuggling": 8469,
      "Instantly": 8470,
      "floppy": 8471,
      "fluff": 8472,
      "cracks": 8473,
      "frisbee": 8474,
      "riverbank": 8475,
      "sweetness": 8476,
      "cooled": 8477,
      "woodcutter": 8478,
      "mini": 8479,
      "Jennif": 8480,
      "hotdog": 8481,
      "mats": 8482,
      "zebras": 8483,
      "eleven": 8484,
      "champ": 8485,
      "challeng": 8486,
      "passion": 8487,
      "Bea": 8488,
      "signature": 8489,
      "baskets": 8490,
      "psed": 8491,
      "psite": 8492,
      "teacup": 8493,
      "winners": 8494,
      "juices": 8495,
      "lunchbox": 8496,
      "bubbly": 8497,
      "bubbled": 8498,
      "bubbling": 8499,
      "cowboy": 8500,
      "service": 8501,
      "owls": 8502,
      "cutest": 8503,
      "patients": 8504,
      "wrapper": 8505,
      "farmers": 8506,
      "collector": 8507,
      "protector": 8508,
      "Goodnight": 8509,
      "osite": 8510,
      "hopeless": 8511,
      "widely": 8512,
      "lasted": 8513,
      "mysteries": 8514,
      "curl": 8515,
      "screech": 8516,
      "Brandy": 8517,
      "miracle": 8518,
      "numbered": 8519,
      "pinching": 8520,
      "squealing": 8521,
      "exams": 8522,
      "feeder": 8523,
      "eldest": 8524,
      "sprung": 8525,
      "grownup": 8526,
      "grownups": 8527,
      "Wheee": 8528,
      "Rosemary": 8529,
      "Mari": 8530,
      "gumball": 8531,
      "udge": 8532,
      "blooms": 8533,
      "guardian": 8534,
      "regularly": 8535,
      "streams": 8536,
      "crystals": 8537,
      "delightful": 8538,
      "fiercely": 8539,
      "campsite": 8540,
      "seriously": 8541,
      "persistence": 8542,
      "Miles": 8543,
      "Milky": 8544,
      "bicycles": 8545,
      "Patri": 8546,
      "cupboards": 8547,
      "meows": 8548,
      "stacks": 8549,
      "jets": 8550,
      "impatiently": 8551,
      "weeny": 8552,
      "BunBun": 8553,
      "fishermen": 8554,
      "resisting": 8555,
      "melts": 8556,
      "clip": 8557,
      "Stealing": 8558,
      "bulls": 8559,
      "niece": 8560,
      "quarre": 8561,
      "dustpan": 8562,
      "sincere": 8563,
      "shortcut": 8564,
      "flooding": 8565,
      "novels": 8566,
      "blob": 8567,
      "applauding": 8568,
      "groan": 8569,
      "disappearing": 8570,
      "challenged": 8571,
      "holidays": 8572,
      "completing": 8573,
      "crunch": 8574,
      "villager": 8575,
      "weapons": 8576,
      "stomp": 8577,
      "surrendering": 8578,
      "Moppy": 8579,
      "chatter": 8580,
      "hooked": 8581,
      "equally": 8582,
      "rescuing": 8583,
      "yawns": 8584,
      "Cindi": 8585,
      "motioned": 8586,
      "Bertie": 8587,
      "choosing": 8588,
      "laptop": 8589,
      "nibbled": 8590,
      "spikes": 8591,
      "Annabelle": 8592,
      "mesmerised": 8593,
      "route": 8594,
      "winks": 8595,
      "Owlbee": 8596,
      "Surfers": 8597,
      "echoing": 8598,
      "annoying": 8599,
      "opposite": 8600,
      "peasant": 8601,
      "dodging": 8602,
      "Joanne": 8603,
      "scientists": 8604,
      "nearer": 8605,
      "Laure": 8606,
      "pounding": 8607,
      "Ashley": 8608,
      "marveled": 8609,
      "Bopus": 8610,
      "Yoga": 8611,
      "electricity": 8612,
      "complimented": 8613,
      "Kyla": 8614,
      "Salty": 8615,
      "teeny": 8616,
      "contentedly": 8617,
      "toppings": 8618,
      "juiciest": 8619,
      "Amazing": 8620,
      "absolutely": 8621,
      "funniest": 8622,
      "appetite": 8623,
      "experiment": 8624,
      "Blossom": 8625,
      "gadgets": 8626,
      "huddled": 8627,
      "treasured": 8628,
      "Ahoy": 8629,
      "Dylan": 8630,
      "Elephant": 8631,
      "Flipper": 8632,
      "Harriet": 8633,
      "Jordan": 8634,
      "Sabrina": 8635,
      "Savannah": 8636,
      "Wisdom": 8637,
      "rinsed": 8638,
      "somersa": 8639,
      "angrily": 8640,
      "Theodore": 8641,
      "sturdy": 8642,
      "attempts": 8643,
      "collapsed": 8644,
      "wondrous": 8645,
      "Jennifer": 8646,
      "'.\"": 8647,
      "20": 8648,
      "Ad": 8649,
      "Aly": 8650,
      "Ade": 8651,
      "Aum": 8652,
      "Ava": 8653,
      "Bar": 8654,
      "Blow": 8655,
      "Bink": 8656,
      "CD": 8657,
      "Ca": 8658,
      "Ce": 8659,
      "Cha": 8660,
      "Chad": 8661,
      "Cry": 8662,
      "Cara": 8663,
      "Cable": 8664,
      "Cot": 8665,
      "Clar": 8666,
      "Casper": 8667,
      "Dre": 8668,
      "Dis": 8669,
      "Eating": 8670,
      "Easter": 8671,
      "Fat": 8672,
      "Fif": 8673,
      "Folly": 8674,
      "Girl": 8675,
      "Him": 8676,
      "Hank": 8677,
      "Hanna": 8678,
      "Hairy": 8679,
      "Im": 8680,
      "Imag": 8681,
      "Jing": 8682,
      "Jail": 8683,
      "Kind": 8684,
      "Kenny": 8685,
      "Land": 8686,
      "Lil": 8687,
      "Laser": 8688,
      "Lambi": 8689,
      "Mc": 8690,
      "Miley": 8691,
      "Near": 8692,
      "OO": 8693,
      "Oy": 8694,
      "Olly": 8695,
      "Pin": 8696,
      "Pru": 8697,
      "Pandy": 8698,
      "Phone": 8699,
      "Rir": 8700,
      "Rad": 8701,
      "Rust": 8702,
      "Rav": 8703,
      "Rita": 8704,
      "Ratty": 8705,
      "Riley": 8706,
      "Son": 8707,
      "Str": 8708,
      "Smoke": 8709,
      "Tree": 8710,
      "Tessa": 8711,
      "Tata": 8712,
      "Wind": 8713,
      "Willy": 8714,
      "Willi": 8715,
      "Yield": 8716,
      "Years": 8717,
      "Zac": 8718,
      "bam": 8719,
      "bster": 8720,
      "bins": 8721,
      "cit": 8722,
      "diet": 8723,
      "fries": 8724,
      "groom": 8725,
      "hh": 8726,
      "jaw": 8727,
      "leng": 8728,
      "litter": 8729,
      "latch": 8730,
      "mend": 8731,
      "nations": 8732,
      "ore": 8733,
      "oars": 8734,
      "oscope": 8735,
      "pip": 8736,
      "prank": 8737,
      "rinse": 8738,
      "sus": 8739,
      "sizz": 8740,
      "tir": 8741,
      "tut": 8742,
      "tam": 8743,
      "tally": 8744,
      "twel": 8745,
      "ua": 8746,
      "ww": 8747,
      "ziest": 8748,
      "ans": 8749,
      "anced": 8750,
      "tori": 8751,
      "totally": 8752,
      "int": 8753,
      "information": 8754,
      "react": 8755,
      "ites": 8756,
      "err": 8757,
      "erts": 8758,
      "ilies": 8759,
      "lever": 8760,
      "local": 8761,
      "lobster": 8762,
      "aloud": 8763,
      "stun": 8764,
      "strolled": 8765,
      "ored": 8766,
      "oray": 8767,
      "orth": 8768,
      "ories": 8769,
      "Hee": 8770,
      "thoscope": 8771,
      "belli": 8772,
      "becca": 8773,
      "sets": 8774,
      "secur": 8775,
      "atmo": 8776,
      "ambit": 8777,
      "pling": 8778,
      "pples": 8779,
      "riches": 8780,
      "sobbing": 8781,
      "ada": 8782,
      "unable": 8783,
      "unwrapped": 8784,
      "unzip": 8785,
      "youths": 8786,
      "chug": 8787,
      "chunk": 8788,
      "momma": 8789,
      "wance": 8790,
      "dozed": 8791,
      "roast": 8792,
      "shif": 8793,
      "shrank": 8794,
      "shorts": 8795,
      "shimmering": 8796,
      "ysitter": 8797,
      "pest": 8798,
      "cargo": 8799,
      "llut": 8800,
      "cops": 8801,
      "melody": 8802,
      "motions": 8803,
      "device": 8804,
      "details": 8805,
      "etah": 8806,
      "ics": 8807,
      "icated": 8808,
      "pollut": 8809,
      "icky": 8810,
      "owning": 8811,
      "lowers": 8812,
      "pred": 8813,
      "prison": 8814,
      "seeking": 8815,
      "gruff": 8816,
      "gradually": 8817,
      "caw": 8818,
      "oping": 8819,
      "tech": 8820,
      "cia": 8821,
      "cies": 8822,
      "usion": 8823,
      "harvest": 8824,
      "harbour": 8825,
      "atest": 8826,
      "acts": 8827,
      "Anth": 8828,
      "quiver": 8829,
      "antlers": 8830,
      "whizz": 8831,
      "sphere": 8832,
      "spied": 8833,
      "builder": 8834,
      "trudged": 8835,
      "blame": 8836,
      "umph": 8837,
      "taped": 8838,
      "untangle": 8839,
      "shame": 8840,
      "shaky": 8841,
      "cheetah": 8842,
      "nicest": 8843,
      "kinder": 8844,
      "brake": 8845,
      "braced": 8846,
      "underwater": 8847,
      "gardening": 8848,
      "fins": 8849,
      "reality": 8850,
      "ruby": 8851,
      "stethoscope": 8852,
      "picious": 8853,
      "rocky": 8854,
      "parades": 8855,
      "liest": 8856,
      "rightful": 8857,
      "dson": 8858,
      "hearted": 8859,
      "displaying": 8860,
      "greater": 8861,
      "importantly": 8862,
      "cooks": 8863,
      "creams": 8864,
      "lightly": 8865,
      "warming": 8866,
      "painful": 8867,
      "firetruck": 8868,
      "crad": 8869,
      "process": 8870,
      "magically": 8871,
      "promising": 8872,
      "pleaded": 8873,
      "pedalled": 8874,
      "spool": 8875,
      "reeds": 8876,
      "glanced": 8877,
      "triumph": 8878,
      "oohed": 8879,
      "avy": 8880,
      "Gradually": 8881,
      "appearance": 8882,
      "tailor": 8883,
      "whiskers": 8884,
      "jeans": 8885,
      "studi": 8886,
      "freely": 8887,
      "swapped": 8888,
      "steadily": 8889,
      "tentacles": 8890,
      "polka": 8891,
      "sugary": 8892,
      "Flutter": 8893,
      "jars": 8894,
      "bubbleg": 8895,
      "shipwreck": 8896,
      "Peggy": 8897,
      "nests": 8898,
      "nestled": 8899,
      "Learn": 8900,
      "sicker": 8901,
      "sickness": 8902,
      "zoomer": 8903,
      "meets": 8904,
      "washcloth": 8905,
      "admit": 8906,
      "interest": 8907,
      "desire": 8908,
      "solid": 8909,
      "bruise": 8910,
      "copied": 8911,
      "bullies": 8912,
      "burgers": 8913,
      "stirs": 8914,
      "trusting": 8915,
      "striped": 8916,
      "Rebecca": 8917,
      "chewy": 8918,
      "microwave": 8919,
      "Children": 8920,
      "clearly": 8921,
      "numbering": 8922,
      "emplo": 8923,
      "jeweler": 8924,
      "Browny": 8925,
      "Melody": 8926,
      "ticking": 8927,
      "incts": 8928,
      "sprout": 8929,
      "Marcy": 8930,
      "checking": 8931,
      "alligators": 8932,
      "Owen": 8933,
      "Hood": 8934,
      "pals": 8935,
      "Juice": 8936,
      "camel": 8937,
      "risk": 8938,
      "kangaroos": 8939,
      "grandchildren": 8940,
      "toothbrush": 8941,
      "hurrying": 8942,
      "thoughtfully": 8943,
      "haircuts": 8944,
      "Stinky": 8945,
      "destroying": 8946,
      "Thanksgiving": 8947,
      "pistols": 8948,
      "threaded": 8949,
      "clips": 8950,
      "Spider": 8951,
      "Steven": 8952,
      "desserts": 8953,
      "luckiest": 8954,
      "springtime": 8955,
      "Graceful": 8956,
      "struction": 8957,
      "meatballs": 8958,
      "trailer": 8959,
      "experiences": 8960,
      "Catty": 8961,
      "wiggles": 8962,
      "desks": 8963,
      "maths": 8964,
      "burns": 8965,
      "mugs": 8966,
      "sips": 8967,
      "blossom": 8968,
      "Claus": 8969,
      "pyjamas": 8970,
      "emergencies": 8971,
      "invitations": 8972,
      "Cool": 8973,
      "receiving": 8974,
      "Lenore": 8975,
      "victo": 8976,
      "babysitter": 8977,
      "rummag": 8978,
      "Snake": 8979,
      "allowance": 8980,
      "vows": 8981,
      "Badger": 8982,
      "Maia": 8983,
      "encouragement": 8984,
      "Sparkle": 8985,
      "gleefully": 8986,
      "deserved": 8987,
      "Chew": 8988,
      "instincts": 8989,
      "centiped": 8990,
      "swirling": 8991,
      "sleds": 8992,
      "puffed": 8993,
      "Sidney": 8994,
      "spatula": 8995,
      "Confused": 8996,
      "Connor": 8997,
      "managing": 8998,
      "Ami": 8999,
      "Grant": 9000,
      "Simon": 9001,
      "deeds": 9002,
      "competing": 9003,
      "Grandad": 9004,
      "Grandmother": 9005,
      "Hudson": 9006,
      "Otherwise": 9007,
      "Mint": 9008,
      "Winnie": 9009,
      "scribbled": 9010,
      "scribbles": 9011,
      "sleeve": 9012,
      "Firecat": 9013,
      "interrup": 9014,
      "Brianna": 9015,
      "Victory": 9016,
      "encountered": 9017,
      "gooey": 9018,
      "hovered": 9019,
      "guesses": 9020,
      "Rae": 9021,
      "Baloo": 9022,
      "Cora": 9023,
      "Rhino": 9024,
      "zeros": 9025,
      "Cleo": 9026,
      "Lightning": 9027,
      "accessories": 9028,
      "scrunched": 9029,
      "horrible": 9030,
      "injured": 9031,
      "shuffled": 9032,
      "devastated": 9033,
      "spiky": 9034,
      "compared": 9035,
      "champion": 9036,
      "Patricia": 9037,
      "Alyx": 9038,
      "Adele": 9039,
      "Aumana": 9040,
      "Barbie": 9041,
      "Cece": 9042,
      "Chase": 9043,
      "Crystal": 9044,
      "Cotton": 9045,
      "Clarissa": 9046,
      "Fifi": 9047,
      "Immediately": 9048,
      "Imagine": 9049,
      "Jingle": 9050,
      "Kindness": 9051,
      "Lambikins": 9052,
      "McQueen": 9053,
      "Oysters": 9054,
      "Pinchy": 9055,
      "Prune": 9056,
      "Riri": 9057,
      "Rusty": 9058,
      "Ravi": 9059,
      "William": 9060,
      "length": 9061,
      "pipes": 9062,
      "suspicious": 9063,
      "tiring": 9064,
      "tutu": 9065,
      "twelve": 9066,
      "bellies": 9067,
      "atmosphere": 9068,
      "studio": 9069,
      "bubblegum": 9070,
      "centipede": 9071,
      "''": 9072,
      "?,\"": 9073,
      "Amo": 9074,
      "Apr": 9075,
      "Abra": 9076,
      "Agent": 9077,
      "Bi": 9078,
      "Burt": 9079,
      "Cand": 9080,
      "Cher": 9081,
      "Cate": 9082,
      "Cloud": 9083,
      "Cris": 9084,
      "Crush": 9085,
      "Du": 9086,
      "Dro": 9087,
      "Digger": 9088,
      "Fishy": 9089,
      "Fambi": 9090,
      "Glad": 9091,
      "Gella": 9092,
      "Hal": 9093,
      "Home": 9094,
      "Hone": 9095,
      "High": 9096,
      "Hidey": 9097,
      "Ly": 9098,
      "Lal": 9099,
      "Lorry": 9100,
      "Lady": 9101,
      "Mad": 9102,
      "Monce": 9103,
      "Milla": 9104,
      "Mallo": 9105,
      "Mister": 9106,
      "NG": 9107,
      "NO": 9108,
      "None": 9109,
      "Nast": 9110,
      "Pain": 9111,
      "Pop": 9112,
      "Past": 9113,
      "Pray": 9114,
      "Pingo": 9115,
      "Rom": 9116,
      "Res": 9117,
      "Sno": 9118,
      "Spr": 9119,
      "Soup": 9120,
      "Seth": 9121,
      "Spoon": 9122,
      "Sky": 9123,
      "Sita": 9124,
      "Singing": 9125,
      "Til": 9126,
      "Tate": 9127,
      "Tany": 9128,
      "Tip": 9129,
      "Twigg": 9130,
      "Ve": 9131,
      "Wr": 9132,
      "Was": 9133,
      "Wise": 9134,
      "Wine": 9135,
      "Walt": 9136,
      "Xand": 9137,
      "Zork": 9138,
      "aire": 9139,
      "afloat": 9140,
      "bid": 9141,
      "cad": 9142,
      "cru": 9143,
      "cages": 9144,
      "ciest": 9145,
      "damp": 9146,
      "eking": 9147,
      "fare": 9148,
      "fway": 9149,
      "gia": 9150,
      "gripped": 9151,
      "garet": 9152,
      "hy": 9153,
      "hips": 9154,
      "ipp": 9155,
      "jig": 9156,
      "kil": 9157,
      "lur": 9158,
      "lilies": 9159,
      "mie": 9160,
      "nn": 9161,
      "nudged": 9162,
      "pave": 9163,
      "pier": 9164,
      "pads": 9165,
      "sul": 9166,
      "snapping": 9167,
      "tv": 9168,
      "twent": 9169,
      "uk": 9170,
      "une": 9171,
      "vig": 9172,
      "vines": 9173,
      "ya": 9174,
      "yay": 9175,
      "’.": 9176,
      "heed": 9177,
      "heated": 9178,
      "thest": 9179,
      "ande": 9180,
      "inner": 9181,
      "indoors": 9182,
      "rec": 9183,
      "reme": 9184,
      "haps": 9185,
      "sauc": 9186,
      "sapling": 9187,
      "ima": 9188,
      "imb": 9189,
      "alas": 9190,
      "altogether": 9191,
      "stall": 9192,
      "stings": 9193,
      "stitched": 9194,
      "stiff": 9195,
      "orgia": 9196,
      "endant": 9197,
      "endings": 9198,
      "neater": 9199,
      "begging": 9200,
      "hatch": 9201,
      "keen": 9202,
      "igade": 9203,
      "nold": 9204,
      "existed": 9205,
      "placing": 9206,
      "richer": 9207,
      "ripples": 9208,
      "soggy": 9209,
      "adop": 9210,
      "adition": 9211,
      "unkind": 9212,
      "unless": 9213,
      "unforget": 9214,
      "unnecessary": 9215,
      "playdate": 9216,
      "forced": 9217,
      "fet": 9218,
      "ently": 9219,
      "ential": 9220,
      "boomed": 9221,
      "bobbed": 9222,
      "okies": 9223,
      "roam": 9224,
      "roles": 9225,
      "rosy": 9226,
      "outstretched": 9227,
      "racer": 9228,
      "racoon": 9229,
      "shi": 9230,
      "shimmered": 9231,
      "smash": 9232,
      "pecks": 9233,
      "carve": 9234,
      "carton": 9235,
      "fulfilled": 9236,
      "def": 9237,
      "background": 9238,
      "abra": 9239,
      "abilities": 9240,
      "ical": 9241,
      "icent": 9242,
      "ically": 9243,
      "foggy": 9244,
      "Youth": 9245,
      "prof": 9246,
      "birth": 9247,
      "grade": 9248,
      "caps": 9249,
      "homeless": 9250,
      "brigade": 9251,
      "goods": 9252,
      "doghouse": 9253,
      "joys": 9254,
      "prefer": 9255,
      "acon": 9256,
      "acul": 9257,
      "West": 9258,
      "whir": 9259,
      "whining": 9260,
      "maje": 9261,
      "cation": 9262,
      "typing": 9263,
      "Herbie": 9264,
      "anybody": 9265,
      "spar": 9266,
      "suns": 9267,
      "buoy": 9268,
      "trigger": 9269,
      "tradition": 9270,
      "blur": 9271,
      "greatest": 9272,
      "compare": 9273,
      "beavers": 9274,
      "rainforest": 9275,
      "ladies": 9276,
      "persever": 9277,
      "ption": 9278,
      "Throw": 9279,
      "Nola": 9280,
      "cont": 9281,
      "realise": 9282,
      "realizes": 9283,
      "stepping": 9284,
      "Lucila": 9285,
      "sooner": 9286,
      "windmill": 9287,
      "hairs": 9288,
      "dragging": 9289,
      "disobey": 9290,
      "nightstand": 9291,
      "nightfall": 9292,
      "sharpen": 9293,
      "meanings": 9294,
      "choke": 9295,
      "snuggles": 9296,
      "cutters": 9297,
      "gladly": 9298,
      "craft": 9299,
      "proven": 9300,
      "proceed": 9301,
      "keyhole": 9302,
      "ladybird": 9303,
      "mums": 9304,
      "Emmy": 9305,
      "woodworker": 9306,
      "Too": 9307,
      "holder": 9308,
      "Grump": 9309,
      "Golf": 9310,
      "embrace": 9311,
      "splits": 9312,
      "persu": 9313,
      "passenger": 9314,
      "belief": 9315,
      "Bees": 9316,
      "Beware": 9317,
      "purring": 9318,
      "mustaches": 9319,
      "drying": 9320,
      "towns": 9321,
      "minding": 9322,
      "scow": 9323,
      "partment": 9324,
      "circled": 9325,
      "addition": 9326,
      "Peaches": 9327,
      "Peeking": 9328,
      "spinner": 9329,
      "gener": 9330,
      "slippers": 9331,
      "zooms": 9332,
      "stray": 9333,
      "invol": 9334,
      "eyed": 9335,
      "cornfield": 9336,
      "descri": 9337,
      "protective": 9338,
      "bruises": 9339,
      "stretcher": 9340,
      "calms": 9341,
      "zookeepers": 9342,
      "Book": 9343,
      "batch": 9344,
      "striking": 9345,
      "Reading": 9346,
      "ustrated": 9347,
      "Whoa": 9348,
      "hamburger": 9349,
      "elders": 9350,
      "soapy": 9351,
      "suggesting": 9352,
      "frightening": 9353,
      "pricked": 9354,
      "rarely": 9355,
      "lawman": 9356,
      "Marco": 9357,
      "Margaret": 9358,
      "Bluey": 9359,
      "awoken": 9360,
[...]
